#version: 0.2
t h
t i
i n
th e</w>
a n
r e
o n</w>
e r
o f</w>
e d</w>
e n
r o
ti on</w>
an d</w>
o n
a r
s t
a t
s i
i n</w>
o r
a l</w>
e c
in g</w>
e r</w>
a l
i t
i c
e s</w>
a tion</w>
a c
a s</w>
d i
a s
i s</w>
e l
u r
o r</w>
t o</w>
c o
T h
d e
u l
m p
o l
en t</w>
c on
a p
u c
e s
w as</w>
o u
re s
p ro
m e
r i
a ti
e x
Th e</w>
a t</w>
u s
@ -
@- @</w>
a g
i l
f or</w>
l o
t s</w>
t r
b y</w>
c h
p l
a n</w>
p er
v e</w>
o s
q u
e m
u n
t er
a b
e n</w>
w it
wit h</w>
l y</w>
er e</w>
i s
a m
c e</w>
f f
ar e</w>
w h
l e</w>
d uc
a d
ur e</w>
i g
it y</w>
o p
o m
at ed</w>
s u
f or
n e
l e
b e
w ere</w>
st r
on s</w>
s p
s h
m ent</w>
o t
i d
th at</w>
t ed</w>
a r</w>
i c</w>
s y
a in
at e</w>
p h
t ro
n g</w>
co mp
as e</w>
o w
s e
l i
f i
s c
o d</w>
ti c
m o
ic h</w>
st e
wh ich</w>
re d</w>
ro m</w>
v i
re n
si on</w>
p res
t e
v el
i m
u m
i t</w>
o g
si s</w>
f rom</w>
for m
ic al</w>
b e</w>
t er</w>
r a
e ff
n o
o b
f ac
me th
i z
v er
I n</w>
p ar
c l
t w
ag e</w>
in e</w>
en ts</w>
u m</w>
ti c</w>
g en
o c
el ec
u t
re c
ste m</w>
ri b
g e</w>
p o
th is</w>
es s</w>
ec h
ti m
h e
d ing</w>
h a
an ce</w>
h ig
sy stem</w>
ti ng</w>
en t
p ap
i mp
s er
i r
pap er</w>
meth od</w>
str uc
Th is</w>
e v
eff ec
res ul
ou t</w>
th e
us ing</w>
u re
d er</w>
ou s</w>
p os
t h</w>
an t</w>
c ar
d s</w>
tr an
ti ve</w>
i d</w>
ar y</w>
ou n
c re
c el
ol og
on al</w>
de vel
v ed</w>
sp ec
al y
s ur
y p
al ly</w>
g n
f l
em ent</w>
t y</w>
t ure</w>
devel op
e ar
u s</w>
g ro
ar i
p re
ain ed</w>
ati ons</w>
hig h</w>
di ff
me as
d e</w>
s o</w>
di s
v e
am in
h as</w>
ic ation</w>
ti ons</w>
de sc
as es</w>
re l
on e</w>
ab le</w>
en si
as ed</w>
lo w</w>
th er
sh ow
lo w
a f
t re
h y
in ter
ech n
o per
co m
a k
al u
p or
s e</w>
i f
an aly
ti v
m at
ch ar
m in
desc rib
i al</w>
c or
es s
il ity</w>
t echn
a in</w>
er s</w>
e p
be en</w>
an g
en c
en ce</w>
t u
pro c
f il
ro n
t yp
er at
c ul
e ren
pro duc
p ati
s ol
w a
an c
ex amin
te mp
un c
us ed</w>
in v
re g
m an
t ri
h t</w>
c ur
p ol
en ti
al l</w>
us e</w>
ati ng</w>
m on
a mp
al so</w>
ap pl
in cre
s uc
in d
no t</w>
e t
en d
g r
su b
u tion</w>
ec tion</w>
con tro
a y
h i
d er
es ti
s t</w>
I t</w>
ure s</w>
st u
d y</w>
th er</w>
m ul
e en</w>
es e</w>
e ar</w>
gen er
ti es</w>
tw een</w>
l in
be tween</w>
es t</w>
ati ve</w>
ac tion</w>
tic al</w>
ex pl
d ec
ob ser
ac ter
temp erat
resul ts</w>
ha ve</w>
em s</w>
o x
tran s
fac e</w>
si gn
c a
qu i
form ation</w>
v ari
i es</w>
f unc
or s</w>
u t</w>
tim e</w>
it s</w>
al s</w>
b o
iz ed</w>
or y</w>
tre at
c an</w>
duc ed</w>
an ti
con t
diff eren
c al
u g
res p
qu ot
l es</w>
quot ;</w>
& quot;</w>
typ e</w>
er g
t or</w>
b r
in g
i r</w>
A s</w>
ul ar</w>
in tro
imp ro
treat ment</w>
suc h</w>
an t
v er</w>
temperat ure</w>
ic i
af ter</w>
t o
oun d</w>
s o
at er</w>
e d
el d</w>
c en
id e</w>
i on</w>
con si
co l
c r
enc y</w>
esti g
c ases</w>
u p</w>
di se
per i
b l
c h</w>
inv estig
a y</w>
b er</w>
i th
e t</w>
iz ation</w>
describ ed</w>
effec t</w>
b le</w>
W e</w>
olog y</w>
po si
m ag
ec ted</w>
an ge</w>
di tion</w>
th an</w>
di st
d r
ig ht</w>
0 0
de l</w>
contro l</w>
ou t
per form
p ow
ob t
tiv ity</w>
struc ture</w>
mo del</w>
sur face</w>
m ic
fi r
ent al</w>
f ol
su p
char acter
i a</w>
c ase</w>
cl u
ab ility</w>
mat er
s ed</w>
m or
t en
elec tro
an d
di ag
f e
re e</w>
ur ing</w>
analy sis</w>
mag ne
p a
l ar
ne w</w>
d ro
at es</w>
car ri
or der</w>
erg y</w>
w or
cel l
b ec
de p
w ater</w>
ec t</w>
al l
d at
cel l</w>
examin ed</w>
re si
me t
develop ed</w>
tic s</w>
t e</w>
fl u
b i
obser ved</w>
e st
ac h</w>
ra di
v ing</w>
n um
r ate</w>
u p
in f
fi eld</w>
w e</w>
de t
resul t</w>
ic e</w>
om e</w>
tw o</w>
m s</w>
dise ase</w>
en ergy</w>
m ar
ev alu
a st
develop ment</w>
co p
oper ation</w>
e l</w>
fi ed</w>
ch em
m al</w>
a x
character is
a d</w>
p e
1 9
ac h
an is
f u
d u
y st
w el
or t
duc tion</w>
l as
lo c
ol d</w>
cen tr
g en</w>
re co
pow er</w>
obt ained</w>
v alu
dat a</w>
tri c</w>
tr ac
ap os
m ech
& apos
po in
os e</w>
l ay
b ased</w>
th ro
f ound</w>
fol low
y ear</w>
ad e</w>
ot h</w>
re por
J ap
c y
p r
n ess</w>
ther ap
n ec
expl ained</w>
pro pos
ar d</w>
vi ron
ti n
carri ed</w>
in to</w>
m os
f r
m un
func tion</w>
re qu
pl as
en g
r ap
pres s
i qu
I n
n ing</w>
b in
if ic
on g</w>
un der</w>
m ol
vel y</w>
f in
proc ess</w>
per im
en viron
d y
mic ro
i l</w>
ati c</w>
tr on</w>
pos si
pati ents</w>
eff ici
ul d</w>
sh o
a si
el y</w>
v ement</w>
dec re
w e
s m
o ther</w>
di sc
dist rib
it e</w>
s ec
th ese</w>
con struc
ren t</w>
a red</w>
l ed</w>
p ri
resp on
gro w
z ed</w>
pres ent</w>
b ut</w>
v en
par tic
am e</w>
0 .
therap y</w>
ph ase</w>
st ate</w>
investig ated</w>
l y
t est</w>
v ol
pol y
i p
ou g
ex perim
fac t
techn iqu
cell s</w>
t ur
as t</w>
w ith
stu dy</w>
m a</w>
e qui
characteris tics</w>
techn ology</w>
ex p
imp ort
mor e</w>
cal cul
ain s</w>
c er
hig h
o od</w>
show ed</w>
si mul
olog ical</w>
magne tic</w>
wh en</w>
con centr
il e</w>
ensi ty</w>
in t
meas ure
cr yst
as s
vari ous</w>
ul ation</w>
al ity</w>
f requ
show n</w>
si tion</w>
d ed</w>
sy n
no sis</w>
or g
n or
i ed</w>
con duc
ch ange</w>
di rec
f er
de si
lar ge</w>
a re
in clu
ver y</w>
a m</w>
res ear
stu di
l ine</w>
m ain
f low</w>
mech anis
0 0</w>
mo d
de ter
sy st
b oth</w>
un d</w>
ch ang
me d
ab out</w>
intro duced</w>
th ere</w>
press ure</w>
ve l</w>
g u
k s</w>
co un
ind ic
follow ing</w>
in formation</w>
res s</w>
h o
a me
c ir
pl an
c ap
p at
u ti
pro g
hy dro
u red</w>
ad dition</w>
y l
proc ess
a il
&apos ;
sign ific
s or
el l
ap pro
si de</w>
bo dy</w>
b lo
pro per
reco gn
m ade</w>
o re
g n</w>
ug h</w>
effec ts</w>
z e</w>
c i
pro b
dep end
al e</w>
is h
&apos; s</w>
v es</w>
il l
k ing</w>
elec tric</w>
is sion</w>
oug h</w>
e ach</w>
en s
for m</w>
st s</w>
a u
con di
Jap an</w>
en ted</w>
pati ent</w>
gener ation</w>
describ es</w>
pro te
fil m</w>
lay er</w>
ear s</w>
s ti
import ant</w>
A n
disc us
o l</w>
gro up</w>
z ation</w>
c ep
vi e
p tion</w>
resear ch</w>
mol ec
m i
l ic
e qu
1 0</w>
wel l</w>
equi p
blo od</w>
g as</w>
num ber</w>
p ur
reg ion</w>
du e</w>
propos ed</w>
the ir</w>
me di
ou r</w>
ti s</w>
tr a
ou s
appl ication</w>
pl e</w>
desi gn</w>
rel ation</w>
com bin
n am
meas ured</w>
k in
di m
ac tivity</w>
f ication</w>
c anc
sm all</w>
t om
distrib ution</w>
mater ial</w>
n o</w>
ex amp
f t</w>
mul ti
b ility</w>
ut e</w>
impro vement</w>
as s</w>
ti onal</w>
y ing</w>
s cop
cl in
as si
t um
c u
m ents</w>
l ing</w>
cur rent</w>
o ds</w>
a ut
A l
ent ly</w>
il i
d uring</w>
fir st</w>
su g
grow th</w>
ter s</w>
he at</w>
mechanis m</w>
ph ot
ti al</w>
incre ase</w>
ac e</w>
poin t</w>
thro ugh</w>
techniqu e</w>
elec tron</w>
mos t</w>
ati onal</w>
diag nosis</w>
ev er</w>
a v
o ver</w>
produc tion</w>
perform ance</w>
es tim
ak e</w>
ha d</w>
valu e</w>
concentr ation</w>
uti li
d om
19 9
bl ems</w>
l ight</w>
le vel</w>
re qui
i str
it al</w>
incre ased</w>
b ri
canc er</w>
frequ ency</w>
th ree</w>
s amp
l at
ac id</w>
v id
nec ess
ec ts</w>
car b
og rap
mar k
rel ated</w>
syst ems</w>
u al</w>
s es</w>
equip ment</w>
condi tions</w>
ra y</w>
p er</w>
ex pres
st and
y ears</w>
on ly</w>
effec tive</w>
necess ary</w>
gen e</w>
ing s</w>
pro blems</w>
measure ment</w>
resi st
possi ble</w>
fe at
b u
i als</w>
p ul
v ation</w>
re action</w>
uc le
studi ed</w>
g i
perform ed</w>
e re
ad v
org an
F or</w>
m il
differen t</w>
le m</w>
me m
d ensity</w>
ain ing</w>
r ati
ac c
2 00
op tical</w>
ag es</w>
m er
de red</w>
comp ared</w>
prob lem</w>
om a</w>
are a</w>
appl ied</w>
mater ials</w>
a use</w>
n al</w>
im age</w>
ut ure</w>
evalu ation</w>
os ed</w>
sp e
ow ever</w>
e ty</w>
wa ve</w>
c al</w>
v ice</w>
is e</w>
tum or</w>
o m</w>
t an
ap p
i um</w>
examin ation</w>
c le
m it
u g</w>
deter min
in ce</w>
m e</w>
ograp h
oc i
high er</w>
d es</w>
sol ution</w>
for e</w>
dy nam
in al</w>
s ing</w>
chem ical</w>
f uture</w>
recogn ized</w>
m ental</w>
t ot
s ul
h um
oper ative</w>
sug g
N A</w>
con dition</w>
hi st
construc tion</w>
ne u
ti vely</w>
s elec
g re
man ag
plas ma</w>
h ar
or t</w>
comp le
dim ensi
ac k
pres ented</w>
ri g
si ze</w>
p ut</w>
posi tion</w>
diag n
v en</w>
tw or
ic k
ad min
with out</w>
a ir</w>
n it
v al
con fir
las er</w>
proper ties</w>
ac t</w>
an e</w>
ac k</w>
col l
th ose</w>
enti al</w>
med ical</w>
h os
dr ug</w>
i st
ic s</w>
ther mal</w>
j ect</w>
inclu ding</w>
v enti
li qu
s s</w>
ex peri
re duction</w>
meth ods</w>
e ous</w>
un der
ph y
s ing
m ach
a sis</w>
l ess</w>
radi ation</w>
c at
ow n</w>
comp ar
ex c
st age</w>
repor ted</w>
t ures</w>
f ul
a ro
k e</w>
fil ms</w>
m ed</w>
s ome</w>
prote in</w>
consi dered</w>
n ucle
low er</w>
An d</w>
ne twor
discus sed</w>
hi b
r ange</w>
in te
d o
sub str
par t</w>
e g
clin ical</w>
b ro
con tin
out lin
be ha
p rec
contro l
at or</w>
per s
rati o</w>
ic ul
fu l</w>
comp u
beha vi
ur al</w>
manag ement</w>
og en
ic ally</w>
ab l
p ot
cl ari
environ ment</w>
o ver
par ame
spec tr
c ri
m ac
on d</w>
qu anti
differen ce</w>
b us
Th ese</w>
n on</w>
char ge</w>
m ot
g l
d ri
eng th</w>
v is
sor ption</w>
feat ures</w>
ra in</w>
ph en
c le</w>
d am
bec ause</w>
i p</w>
in j
vie w
al g
ol e</w>
comp o
c es</w>
m us
et c</w>
ati on
dimensi onal</w>
nor mal</w>
a ff
sing le</w>
i ons</w>
intro duc
contin u
a th
fac tor</w>
k n
h em
ren g
vol t
as ing</w>
al lo
si mp
experim ental</w>
qu ality</w>
expl ains</w>
ig h
e i
resist ance</w>
wor k</w>
comp on
st reng
co uld</w>
ac tive</w>
er ing</w>
the y</w>
so ur
st ress</w>
d ic
n on
O n</w>
ch ing</w>
C on
j o
spe ed</w>
B y</w>
po st
re f
im mun
impro ved</w>
us e
pat ter
I I</w>
ca used</w>
process ing</w>
in duced</w>
mi x
c lo
s l
um in
op tim
comp l
gro und</w>
pa th
y s</w>
man y</w>
el s</w>
liqu id</w>
pur pos
de f
con venti
hy per
g ood</w>
st ar
l ong</w>
ind u
il l</w>
sy mp
istr ation</w>
m ain</w>
lin ear</w>
tot al</w>
form ed</w>
C o
requi red</w>
phy si
si ve</w>
ak ing</w>
si ty</w>
t ly</w>
chang es</w>
sho w</w>
vi r
n s</w>
sh ap
est abl
in i
at ory</w>
meas ures</w>
cryst al</w>
met al</w>
H owever</w>
hum an</w>
o me
hos p
su per
m al
expres sion</w>
be am</w>
show s</w>
tr y</w>
en z
wa y</w>
conventi onal</w>
p ec
sup pl
ti on
carb on</w>
com mun
sup por
O 2</w>
a k</w>
ox ide</w>
c in
u d
o sis</w>
s ame</w>
c ro
b asi
o d
di vid
spec if
der i
ox y
m ay</w>
b re
oc cur
posi tive</w>
ant ly</w>
m ission</w>
effici ency</w>
re al
par ation</w>
au th
consi der
at om
G a
ti s
an s</w>
pre ven
pr in
cl assi
s k
tran sp
an y</w>
n at
ra m</w>
ent ation</w>
er al</w>
S i</w>
1 .
molec ular</w>
purpos e</w>
wh o</w>
v al</w>
peri od</w>
1 0
pl ac
5 0</w>
fact ors</w>
aut om
networ k</w>
man u
im um</w>
simul ation</w>
Th ere</w>
produc ed</w>
wh ile</w>
li ver</w>
2 0</w>
environ mental</w>
s el
func tions</w>
se qu
e mp
mo tion</w>
am oun
W h
pr ac
volt age</w>
gr ad
ay s</w>
ac cur
on ic</w>
t le</w>
s em
th s</w>
A n</w>
t ar
indic ated</w>
f o
anc es</w>
confir med</w>
decre ased</w>
ul e</w>
behavi or</w>
b one</w>
g e
anc ed</w>
spec ies</w>
in flu
su ff
ch ro
ili ties</w>
con ver
e tic</w>
o k
syn the
un i
li f
admin istration</w>
analy zed</w>
tur al</w>
re duc
ous ly</w>
s ens
d ary</w>
an ne
s af
T o</w>
oc y
stand ard</w>
inte gr
ograph y</w>
sp ace</w>
valu es</w>
in st
e y</w>
streng th</w>
st ri
w ill</w>
o id</w>
o ve</w>
substr ate</w>
ati s
signific antly</w>
w id
ac tu
th ough</w>
ev en</w>
su m
p an
s ensi
a ir
pres ents</w>
cap ac
co st</w>
si lic
sh ip</w>
struc tures</w>
en e</w>
us es</w>
b ul
it ation</w>
con st
ear ly</w>
th in</w>
conduc ted</w>
ter ing</w>
inf ection</w>
establ ish
ag ing</w>
z ing</w>
i ally</w>
respon se</w>
m ass</w>
si te</w>
cir cu
ac tiv
sour ce</w>
pre dic
o f
o t</w>
sho uld</w>
basi c</w>
l it
experi ment</w>
wh ere</w>
main ly</w>
al ed</w>
li ke</w>
g er</w>
jo in
ic es</w>
effici ent</w>
li m
hib it
m y
examp les</w>
st or
se t</w>
en ing</w>
di g
sur ve
typ es</w>
ly mp
u sion</w>
rig ht</w>
diagn osed</w>
cep t</w>
tis su
appl ic
ox id
eren ce</w>
d el
determin ed</w>
ar ter
re ve
ste el</w>
er ical</w>
tran sition</w>
th ick
calcul ated</w>
sur g
D NA</w>
om es</w>
sign al</w>
le ft</w>
trans f
m ax
pro t
f ur
y l</w>
de mon
er y</w>
re ac
tu ation</w>
resp ec
repor t</w>
ec ture</w>
ab ove</w>
t end
C h
em ents</w>
n er
demon str
in ess</w>
e p</w>
id enti
cont ent</w>
t es</w>
t ation</w>
micro scop
p u
ex t</w>
f em
poin ts</w>
sc ale</w>
ou se</w>
bu il
sti tu
ati vely</w>
r ang
gener al</w>
os ph
n m</w>
d ge</w>
suff ici
ac y</w>
mem br
t ren
is m</w>
examp le</w>
depend ent</w>
m ary</w>
ver al</w>
si ons</w>
cor respon
use ful</w>
specif ic</w>
an ts</w>
r ing</w>
ac hi
lif e</w>
Th ough</w>
en h
fr ac
amoun t</w>
loc al</w>
pot ential</w>
the m</w>
C A
op h
ph ar
f is
transf er</w>
st ro
re mo
outlin ed</w>
si mil
ul tr
p ain</w>
b acter
e ding</w>
j ects</w>
us t</w>
introduc es</w>
m er</w>
S i
organ ic</w>
oxy gen</w>
ch ron
s us
decre ase</w>
cul ar</w>
an ese</w>
s ince</w>
om en
m a
e th
dynam ic</w>
simp le</w>
cor ding</w>
p i
de sign
the ory</w>
ur ation</w>
d ay</w>
st ed</w>
incre asing</w>
he al
ti ce</w>
partic les</w>
or ith
re fl
t un
suc c
F rom</w>
m ut
de vice</w>
re duced</w>
C T</w>
c .</w>
tic ally</w>
be ing</w>
with in</w>
or ig
s a
phen omen
st er
ro p
str y</w>
for ce</w>
ten sion</w>
sel f</w>
a ver
is on</w>
1 00</w>
gener ated</w>
obser vation</w>
re s</w>
evalu ated</w>
pre pa
is t</w>
rel ation
ab sorption</w>
ig n
det ection</w>
u b
pl ant</w>
estim ated</w>
alg orith
Wh en</w>
aro und</w>
ul es</w>
h al
3 0</w>
l ength</w>
am ine</w>
compu ter</w>
ren ce</w>
signific ant</w>
f ail
b and</w>
s al
w all</w>
phar mac
he pati
or d
in s</w>
prepa red</w>
diff icul
ri c</w>
x im
en s</w>
u tions</w>
ap h
produc ts</w>
anti body</w>
trans mission</w>
sugg est
mo de</w>
thick ness</w>
ad ing</w>
en d</w>
i di
ar ly</w>
parame ters</w>
t al</w>
hydro gen</w>
in e
depend ence</w>
exp ected</w>
mon ths</w>
h or
lo ad</w>
manu fact
at t
shap e</w>
i tion</w>
de m
f ree</w>
c an
multi ple</w>
fac ilities</w>
em ission</w>
com m
partic le</w>
possi bility</w>
se veral</w>
o w</w>
Jap anese</w>
o p</w>
et c.</w>
ex trac
ph osph
ad op
respec tively</w>
am ong</w>
ass oci
b ers</w>
calcul ation</w>
preven tion</w>
tim es</w>
det ected</w>
u ted</w>
w in
car di
bus iness</w>
circu it</w>
ne g
we ight</w>
gu id
g et</w>
spec tro
oc ity</w>
u co
b asis</w>
saf ety</w>
dise ases</w>
co u
utili zation</w>
ol ution</w>
g las
reve aled</w>
produc t</w>
mach ine</w>
b oun
el ds</w>
n ed</w>
n e</w>
iz e</w>
coun ter
prog ress</w>
t ak
out line</w>
uc h</w>
vi br
vel ocity</w>
E x
th en</w>
combin ation</w>
P ro
ca use</w>
clari fied</w>
samp les</w>
on om
b ase</w>
direc tion</w>
ec tive</w>
suppl y</w>
ind ings</w>
fi x
is ol
rec or
elec tr
ar di
mor ph
&apos ;</w>
on g
commun ication</w>
r o</w>
or al</w>
t able</w>
gro up
s ch
fi ber</w>
cor relation</w>
t ors</w>
max imum</w>
compar ison</w>
no ise</w>
so il</w>
be fore</w>
ro gen</w>
inv ol
ter m</w>
no w</w>
st able</w>
ab r
ap pe
samp le</w>
o therapy</w>
e y
const ant</w>
c are</w>
bec omes</w>
ex ist
auth ors</w>
or i
investig ation</w>
vi sion</w>
c ut
membr ane</w>
ro le</w>
in spec
experim ents</w>
v ity</w>
dis charge</w>
meas ure</w>
vi ties</w>
f un
rec ep
um e</w>
di ame
el ing</w>
c ence</w>
patter n</w>
f indings</w>
equ ation</w>
n ational</w>
compo sition</w>
ri s
d ra
o ur
d ays</w>
post operative</w>
l a
mon it
ini tial</w>
e ther</w>
aver age</w>
to m</w>
m m</w>
v ices</w>
ar tic
cou pl
me n</w>
gi ven</w>
al ization</w>
g lo
& #
wa st
co ol
electro n
str ic
g a
mo di
f oc
ac ti
b el
o ff
syn dro
simil ar</w>
at ely</w>
tom y</w>
ac cording</w>
i f</w>
rec ei
ul ated</w>
suppor t</w>
relation ship</w>
ser ies</w>
fail ure</w>
o il</w>
enz y
sub st
hosp ital</w>
con cer
group s</w>
ac ute</w>
in hibit
c ere
appe ared</w>
con tr
sc at
t en</w>
ha ving</w>
ne ar</w>
g ra
re li
proc ed
f y</w>
sup pres
nat ural</w>
id s</w>
car cin
w ide</w>
f ic
rec ent</w>
vir us</w>
tissu e</w>
b er
algorith m</w>
kin ds</w>
en ding</w>
direc t</w>
intro duction</w>
1 1</w>
inter action</w>
sol id</w>
e u
at ten
2 .
imp l
or ing</w>
ar ds</w>
neg ative</w>
vie w</w>
at h</w>
lo ss</w>
sh ort</w>
pan cre
y ro
fu el</w>
combin ed</w>
ab ol
p op
int ensity</w>
s tim
tre ated</w>
i or</w>
cen ter</w>
&# 9
le vel
ec tor</w>
con n
1 2</w>
st ates</w>
s at
A t</w>
in de
comple x</w>
he ar
e red</w>
b loc
l ab
appro ach</w>
in divid
actu al</w>
in c
syndro me</w>
n an
out put</w>
i de
tran si
fi elds</w>
surve y</w>
num erical</w>
b ack
wh ole</w>
el ement</w>
m el
de g
lo g
incre ases</w>
it ems</w>
meas uring</w>
accur acy</w>
str ain</w>
met ast
diame ter</w>
P C
appro xim
quanti ty</w>
n er</w>
join t</w>
ser um</w>
sh e
phot o
pri mary</w>
inspec tion</w>
ug s</w>
we e
il y</w>
capac ity</w>
me ans</w>
en ess</w>
ser vice</w>
m an</w>
op ath
pl an</w>
pro p
in sul
ant ation</w>
v as
S ince</w>
inter nal</w>
E n
ir radiation</w>
indu stry</w>
stor age</w>
vol ume</w>
res on
g ast
f abr
physi cal</w>
di d</w>
h and</w>
at us</w>
cat aly
bec ame</w>
ex pos
characteris tic</w>
deg ree</w>
sec ond</w>
ain st</w>
b ar
deri ved</w>
mech an
cont aining</w>
ris k</w>
e as
ro om</w>
kn own</w>
compon ents</w>
o ro
diff usion</w>
ir e</w>
the ore
ne w
con f
inter face</w>
ic on
I S
ag ainst</w>
m ic</w>
si a</w>
comp lic
es pec
te sts</w>
achi ev
f lo
de fin
a w
measure ments</w>
ang le</w>
st ability</w>
ner ve</w>
adv anced</w>
iz ing</w>
level s</w>
R ec
en ter
espec ially</w>
glas s</w>
ag ent</w>
stro ng</w>
dec o
electro de</w>
in es</w>
dam age</w>
M R
as p
ug h
ex tr
6 0</w>
U n
for c
icon duc
inst all
mus cle</w>
pre paration</w>
ti l
rec ur
C o</w>
ar ding</w>
er ro
differen ti
inj ection</w>
pol ar
silic on</w>
ant um</w>
struc tural</w>
c m</w>
b ed</w>
prin ci
dr ugs</w>
ab ly</w>
m me
1 5</w>
ten ance</w>
em ia</w>
si ble</w>
un it</w>
electron ic</w>
difficul t</w>
as tic</w>
construc ted</w>
sh if
ch il
so f
pe ak</w>
i sion</w>
f ood</w>
l un
ac cel
ver se</w>
he ating</w>
st re
h ol
flu id</w>
nucle ar</w>
compon ent</w>
un d
es ting</w>
exp an
anne l</w>
hist ory</w>
im ages</w>
techniqu es</w>
dis per
al ing</w>
ad j
establish ed</w>
Th ey</w>
s mo
su mp
medi um</w>
oc k</w>
v it
prac tical</w>
y i
wa vel
ter min
pl ate</w>
on ed</w>
F ur
sem iconduc
spectr a</w>
19 8
he ad</w>
ch ol
o di
main tenance</w>
an n
U sing</w>
qu antum</w>
4 0</w>
tar get</w>
h om
u de</w>
al most</w>
inde x</w>
b ack</w>
f am
nit rogen</w>
l or
har d
con cre
process es</w>
comp an
l and</w>
s wit
chron ic</w>
ad ap
al ized</w>
applic ations</w>
re le
fl uc
proper ty</w>
under st
st atic</w>
a e</w>
ch annel</w>
it h</w>
li p
ob ject</w>
R es
pul se</w>
id ity</w>
A f
s ection</w>
s oci
t i</w>
par ts</w>
acti vities</w>
ab il
t led</w>
F e
int esti
ur b
m uch</w>
comp res
e ph
al le
allo y</w>
μ m</w>
studi es</w>
control led</w>
u k
ag re
sus p
view point</w>
di ab
met abol
ar rang
u ally</w>
symp tom
sp in</w>
manufact uring</w>
de position</w>
recep tor</w>
sens or</w>
le sion</w>
wast e</w>
A c
lay ers</w>
d op
chang ed</w>
ren al</w>
b ur
if ication</w>
suggest ed</w>
si tuation</w>
gr aph
D e
sump tion</w>
Th en</w>
cont rib
pl ay</w>
func tional</w>
boun dary</w>
cont act</w>
cul ture</w>
bec ome</w>
wid th</w>
ful ly</w>
d ou
desc ri
co efficient</w>
pro fil
ro t
col or</w>
b rain</w>
a c</w>
cri tical</w>
continu ous</w>
deco mp
ad he
di sp
Th ere
g o
s en
b ile</w>
su it
st er</w>
on es</w>
fic ial</w>
lun g</w>
pro vid
res t</w>
impro ve</w>
ex cell
sc re
ri x</w>
ultr as
ab les</w>
M O
f our</w>
exist ence</w>
P S</w>
med ic
bi o
ant i</w>
spec i
ic ity</w>
H ere</w>
s y</w>
a z
ow le
br al</w>
an ds</w>
tak en</w>
lymp h
ar ti
sk in</w>
el ements</w>
fac es</w>
m ouse</w>
surg ery</w>
ex ter
H z</w>
Ga As</w>
cro ss</w>
con cept</w>
ne t</w>
g ed</w>
pre vi
concre te</w>
tiv eness</w>
l ec
ac u
ti tled</w>
ter ms</w>
heal th</w>
v ent</w>
in duc
scat tering</w>
l u
emp lo
d ose</w>
P ref
00 0</w>
e ds</w>
ec onom
sensi tivity</w>
inc id
W ith</w>
plan e</w>
excell ent</w>
ab nor
t ensi
cal led</w>
sc i
simul tan
poly mer</w>
al umin
or e</w>
ar ch
mod els</w>
in fl
os c
activ ation</w>
diff r
enc es</w>
vibr ation</w>
There fore</w>
r y</w>
m is
ve red</w>
sof tw
pro mot
ed ed</w>
R e
prog ram</w>
ch lor
indu stri
ex i
sec on
D i
Af ter</w>
ul t</w>
re al</w>
se par
p ip
wor l
star ted</w>
temperat ures</w>
cont ents</w>
am s</w>
pol l
mat rix</w>
associ ated</w>
C u</w>
P E
a i
o de</w>
O 3</w>
In ter
kn owle
cle ar</w>
in put</w>
pres ence</w>
obt ain</w>
osc ill
m aking</w>
res olution</w>
frac ture</w>
A T
m ale</w>
dom inal</w>
N e
ad en
st ron
S h
lat tice</w>
fu sion</w>
al ong</w>
symptom s</w>
alle l</w>
form ing</w>
influ ence</w>
p ack
z one</w>
ic ular</w>
mark et</w>
l ation</w>
ang i
eng ine
cool ing</w>
m enti
er ation</w>
mos ph
b al
m ing</w>
softw are</w>
ec ting</w>
1 2
ent ally</w>
a il</w>
u e</w>
selec tion</w>
E M</w>
ord in
om an</w>
dig ital</w>
cor e</w>
me an</w>
transp ort</w>
oxid ation</w>
mul ti</w>
t op
p s</w>
duc t</w>
pl antation</w>
F e</w>
or ation</w>
de posi
r h
a im
pro ject</w>
hear t</w>
re mark
dis order</w>
demonstr ated</w>
at s</w>
y cl
r an
ho w</w>
w oman</w>
mechan ical</w>
par allel</w>
cor rec
b on
t ain</w>
res our
win d</w>
p p
h ere</w>
buil ding</w>
infl am
ax ial</w>
semiconduc tor</w>
o ste
A l</w>
b il
princi ple</w>
tu be</w>
olog ies</w>
high ly</w>
um p</w>
cul tiv
ro ph
vari ation</w>
resp ir
Co mp
at mosph
de grad
centr al</w>
carcin oma</w>
S t
si zed</w>
3 .
k e
up per</w>
me ter</w>
or ph
f erence</w>
atom ic</w>
g s</w>
le a
w o
wavel ength</w>
ir on</w>
os cop
ar ch</w>
f ore
de vices</w>
proced ure</w>
diagn os
f ine</w>
enzy me</w>
h el
do es</w>
de formation</w>
fur ther</w>
y n
exter nal</w>
plac ement</w>
reco very</w>
st om
ur y</w>
ch i
m ake</w>
hepati c</w>
y ed</w>
suit able</w>
co ur
plan ts</w>
atom s</w>
medi a</w>
diffr action</w>
h er
g ly
cy cle</w>
trans plantation</w>
a qu
an im
outlin es</w>
ch ain</w>
M S</w>
spectro scop
lar ger</w>
loc ation</w>
investig ate</w>
cir cul
m es
8 0</w>
sugg est</w>
d own</w>
acc um
ad s</w>
ab dominal</w>
o res
electr ical</w>
cy to
classi fication</w>
succ ess
ro w</w>
medic ine</w>
mon ary</w>
g rain</w>
it er
ste p</w>
menti oned</w>
tu red</w>
pers ons</w>
an ding</w>
be g
knowle dge</w>
tend ed</w>
e sis</w>
reg ions</w>
re pe
reduc e</w>
ad y</w>
a di
C D</w>
C D
c y</w>
s atis
pu bl
m id
dynam ics</w>
lin es</w>
ca uses</w>
conver sion</w>
ad ded</w>
w ard</w>
hy po
appro pri
im aging</w>
fem ale</w>
effec tiveness</w>
ot rop
symp tom</w>
i ties</w>
ther more</w>
fer ro
oun ds</w>
Pref ecture</w>
comp osed</w>
propos e</w>
h and
fis cal</w>
wor k
peri ph
grow n</w>
t or
monit oring</w>
comm on</w>
adv ant
ro l
individ ual</w>
ut ri
s chem
adop ted</w>
arti ficial</w>
S e
glo b
repor ts</w>
pro por
ag ed</w>
val ent</w>
ar ing</w>
al k
r ad
R NA</w>
of f</w>
prop ag
molec ules</w>
se paration</w>
spectr um</w>
cryst als</w>
be t
2 5</w>
parame ter</w>
suffici ent</w>
syst em
m oun
d one</w>
ex change</w>
ut es</w>
est er
worl d</w>
enc ed</w>
j unc
d en
expan sion</w>
dou ble</w>
arter y</w>
1 5
t ;</w>
conf ig
o s</w>
non linear</w>
neu ro
ic k</w>
achiev ed</w>
design ed</w>
i tis</w>
sol utions</w>
equ ations</w>
A C
plas tic</w>
E lec
7 0</w>
mix ed</w>
is ting</w>
recur rence</w>
li mit
aff ected</w>
o sition</w>
ur ity</w>
ma j
T i
tur b
ac et
app ear
gr an
P C</w>
hal f</w>
si tes</w>
occur red</w>
2 0
vas cular</w>
con sumption</w>
fil ter</w>
I V</w>
secon dary</w>
f low
dem and</w>
hosp it
sc an
pow der</w>
identi fied</w>
yi eld</w>
anc y</w>
dist ance</w>
prog nosis</w>
de ath</w>
spec ial</w>
fabr ic
ax is</w>
mot or</w>
200 0</w>
rel ax
n utri
dep th</w>
sa ving</w>
ep ti
e ts</w>
fix ed</w>
em ber</w>
tion ing</w>
flu ores
re as
fin ite</w>
yl ene</w>
Fur thermore</w>
col um
R eg
c ent
t el
expos ure</w>
s ound</w>
wor king</w>
artic le</w>
no de</w>
synthe sis</w>
si l
abnor m
Al though</w>
in tra
techn ologies</w>
optim um</w>
se v
c as
l er</w>
patter ns</w>
e asi
h owever</w>
cut ting</w>
lim it</w>
tren d</w>
th qu
gu e</w>
e ously</w>
h yp
ch es</w>
mic ro</w>
e ti
dom ain</w>
g ly</w>
o th
in side</w>
in trac
correspon ding</w>
consider ation</w>
cri sis</w>
erat or</w>
du al</w>
estim ation</w>
erro r</w>
to ol</w>
sequ ence</w>
m ation</w>
wee ks</w>
t ow
ac tions</w>
C P</w>
e duc
acc id
sur vi
is h</w>
se a</w>
tren ds</w>
g ing</w>
exc it
ex isting</w>
reli ability</w>
sm all
reg i
e al</w>
ed ge</w>
flu x</w>
el astic</w>
cer am
atten tion</w>
istr y</w>
co ating</w>
MR I</w>
mechanis ms</w>
extr action</w>
ex amine</w>
s qu
o ther
coun t</w>
v ap
th em
is su
id ly</w>
direc tly</w>
l igh
en e
comp ounds</w>
al li
metast asis</w>
mach in
are as</w>
rap id</w>
se ems</w>
S T
pul monary</w>
sub jects</w>
ne l</w>
sur faces</w>
ol y
phenomen on</w>
ec tomy</w>
se t
p H</w>
cere bral</w>
M R</w>
N ext</w>
form s</w>
n ur
autom atic</w>
evalu ate</w>
at ors</w>
ul a</w>
anti gen</w>
y o</w>
recogn ition</w>
i fied</w>
rec ycl
ho t</w>
di es</w>
N i</w>
re view
rap idly</w>
abnorm ality</w>
resp ect</w>
trac t</w>
em b
periph eral</w>
mal ign
gen etic</w>
gast ric</w>
an ing</w>
B ased</w>
le t</w>
ver sity</w>
tri es</w>
guid el
ati c
tr ation</w>
r ates</w>
cop per</w>
ast er</w>
appropri ate</w>
real ized</w>
counter measures</w>
ur s</w>
m ine</w>
1 4</w>
vis ual</w>
st abil
rec ently</w>
quanti t
in ation</w>
reg ul
b it</w>
concentr ations</w>
amin o</w>
wa ve
w ar
thro m
b or
pa ir</w>
g es</w>
con ser
P A
fam ily</w>
ak es</w>
resi n</w>
gen es</w>
v acu
i ous</w>
phenomen a</w>
de n</w>
st o
consider ing</w>
1 6</w>
lar g
ch ed</w>
bacter ia</w>
experim entally</w>
struc tion</w>
prog res
consi sts</w>
ad di
wa ves</w>
wel ding</w>
isol ated</w>
differen ces</w>
molec ule</w>
comp any</w>
eas y</w>
cor ro
. .</w>
back ground</w>
sol ar</w>
gen cy</w>
glob al</w>
1 3</w>
tri al</w>
str at
ex ec
4 .
fun dam
clari fy</w>
stron gly</w>
S A
dom in
mem ory</w>
oc ardi
ro bo
op sy</w>
he ter
n ot
spectroscop y</w>
p sy
j ud
appl ying</w>
r e</w>
I II</w>
e f</w>
t og
0. 0
sy mme
par t
ith el
in tr
theore tical</w>
pol ic
scan ning</w>
ac compan
o id
ven tr
predic tion</w>
m om
a er
par tial</w>
uc id
easi ly</w>
e V</w>
ti n</w>
spec ific
de ep</w>
ff ic</w>
t aking</w>
con clu
she et</w>
fac ility</w>
comp ound</w>
ga p</w>
cour se</w>
low ering</w>
l ong
ain t</w>
in ally</w>
aly sis</w>
M A
d oc
chil d
T w
forc ed</w>
h old</w>
classi fied</w>
n ext</w>
I C</w>
contr ast</w>
C O
utili zed</w>
pro motion</w>
r s</w>
er a</w>
ep ithel
lit tle</w>
d le</w>
ri se</w>
w ing</w>
fis h</w>
h ole</w>
conduc tivity</w>
ag r
ell ular</w>
cr iter
es the
engine ering</w>
org anis
et es</w>
di um</w>
ho urs</w>
remo val</w>
new ly</w>
ear thqu
reg ulation</w>
ocy te</w>
f ar
show ing</w>
cor por
M A</w>
ti l</w>
maj or</w>
le ar
ach ed</w>
at temp
st atis
aw a</w>
th yro
di electric</w>
ca vity</w>
on n
se g
invol ved</w>
av y</w>
prot ection</w>
carri er</w>
sp ati
fabric ated</w>
yp e</w>
pe o
D S</w>
1 8</w>
adj u
differenti ation</w>
bin ding</w>
Reg arding</w>
tra ffic</w>
r ice</w>
sev ere</w>
appear ance</w>
pl ace</w>
det ail
hy bri
ish ed</w>
dis play</w>
sec re
2 4</w>
mo vement</w>
h ome</w>
te red</w>
. S
ep it
el ucid
in duction</w>
he ight</w>
dat ab
mut ation</w>
f re
h ab
exc itation</w>
substr ates</w>
en ds</w>
schem e</w>
coll ected</w>
small er</w>
reson ance</w>
decre ases</w>
enter pri
m uco
ig h</w>
amp li
it us</w>
import ance</w>
ti zation</w>
r u
indic ate</w>
prote ins</w>
inf ra
k ed</w>
con stitu
enh anc
g ate</w>
devel op</w>
j ective</w>
integr ated</w>
L C</w>
relax ation</w>
C a
r in
expres sed</w>
al ter
requi re
op en</w>
peo ple</w>
electro ly
C O2</w>
f a
re pres
inter national</w>
he pat
cryst all
ati gue</w>
oc c
I S</w>
ster oid</w>
ne um
modi fied</w>
coupl ing</w>
bloc k</w>
ther mo
mic e</w>
di vision</w>
E u
s pl
decomp osition</w>
com mer
utili zing</w>
se l</w>
inf ec
b ot
corro sion</w>
bel ow</w>
diagnos tic</w>
sol ved</w>
in a</w>
v es
ultras onic</w>
rel ative</w>
oper ating</w>
tran sc
r he
in ser
le ad</w>
industri al</w>
m en
us h
em ed</w>
ste red</w>
success fully</w>
or atory</w>
i on
f ron
disper sion</w>
re h
fluc tuation</w>
eng ine</w>
com bus
al low
S A</w>
reac tor</w>
en sion</w>
am orph
amp lit
sum mar
el l</w>
b as
techn ical</w>
t ance</w>
o v
educ ation</w>
c um
A s
r and
form er</w>
def ect</w>
m g</w>
ap par
T ok
hi bi
co operation</w>
l ac
tog ether</w>
agre ement</w>
fundam ental</w>
cardi ac</w>
pro gr
microscop y</w>
ig n</w>
esti onn
cy cl
ab sor
er y
chang ing</w>
D C</w>
V D</w>
wa ys</w>
equi valent</w>
ensi ve</w>
w ire</w>
equ ili
c ent</w>
wh ose</w>
diab etes</w>
ti li
p ump</w>
b at
ex cept</w>
ch o
tu ations</w>
agr icul
r up
the re
t ox
f atigue</w>
sp ut
p neum
analy tical</w>
I g
an esthe
e very</w>
pers on</w>
distrib uted</w>
h ic
r un
vap or</w>
s al</w>
ogen esis</w>
in dependent</w>
pro be</w>
microscop e</w>
he avy</w>
re m
g el</w>
et ching</w>
differen tial</w>
so ft</w>
co de</w>
c am
allo ys</w>
1 ;</w>
&#9 1;</w>
vacu um</w>
ag ents</w>
alumin um</w>
st ation</w>
le uk
shif t</w>
config uration</w>
concer ning</w>
z z
ab normal</w>
A d
3 ;</w>
&#9 3;</w>
com e</w>
develop ing</w>
deposi ted</w>
bet ter</w>
M ore
un til</w>
g et
es cence</w>
typ ical</w>
previ ous</w>
ac cep
sign als</w>
fr u
compo site</w>
main t
ar c
S C
tr aining</w>
la w</w>
es sity</w>
S O
More over</w>
lymp h</w>
ass ess
M P
ves sel</w>
suppres sed</w>
lo cal
hy dr
recycl ing</w>
r ats</w>
deter mine</w>
g over
ver tical</w>
surg ical</w>
as h
l ig
w af
degrad ation</w>
th al
mix ing</w>
in ver
coun tries</w>
th or
sub stitu
compl ication</w>
H e
resist ant</w>
z es</w>
Tw o</w>
pres sion</w>
termin al</w>
neu tron</w>
complic ated</w>
dis co
bar ri
el im
ish ing</w>
cl ass</w>
ac qui
u r</w>
st ent</w>
ul ts</w>
ro ad</w>
reac tions</w>
col d</w>
gre at
equili bri
se en</w>
b ron
ati tis</w>
F ir
stre am</w>
sh or
se emed</w>
r at</w>
metabol ism</w>
en ed</w>
pro ven</w>
tend ency</w>
1 4
fr ic
wo uld</w>
malign ant</w>
polar ization</w>
at a</w>
R A
f ast</w>
d o</w>
z o
t ake</w>
conduc ting</w>
I T
ini ti
U .S
1 3
pre f
it on
5 0
no vel</w>
man if
hepati tis</w>
profil e</w>
electro ns</w>
respir atory</w>
av ail
odi c</w>
co ron
9 0</w>
propag ation</w>
k ey</w>
id es</w>
tu al</w>
C u
ess ential</w>
re n</w>
produc e</w>
ex tre
A r
in s
p ed</w>
us er</w>
analy ses</w>
in ning</w>
immun e</w>
appar atus</w>
ad sorption</w>
pro v
bo ard</w>
T i</w>
1 00
ous ness</w>
extrac ted</w>
an ol</w>
s ting</w>
fe w</w>
dist urb
strat eg
divid ed</w>
in str
cultiv ation</w>
sp re
resour ces</w>
determin ation</w>
combus tion</w>
ir ing</w>
ve hic
bre ak
t esting</w>
er ior</w>
uni form</w>
gl uco
feat ure</w>
pl at
er ic</w>
impl em
M in
em er
lo ading</w>
susp ected</w>
install ed</w>
vis co
ex tension</w>
bi ological</w>
li fer
wor ks</w>
P D</w>
te x</w>
sti t
signific ance</w>
199 8</w>
mus t</w>
spati al</w>
nec essity</w>
conn ection</w>
anne aling</w>
Rec ently</w>
wid ely</w>
si des</w>
ful l</w>
qu estionn
kin d</w>
mid dle</w>
G F</w>
s on</w>
p epti
enh anced</w>
om al
t ol
recei ved</w>
ei ther</w>
ro ugh
inj ury</w>
colum n</w>
of ten</w>
poly mer
il s</w>
as th
oph ag
gu ide</w>
pres er
p ast</w>
me try</w>
fi bro
crystall ine</w>
enc ies</w>
wh e
A .</w>
. The</w>
re ver
c ar</w>
S T</w>
sat ell
s oc
polic y</w>
d on
ci um</w>
reduc ing</w>
datab ase</w>
recor ding</w>
bal ance</w>
survi val</w>
partic ip
as y
simultan eously</w>
p it
op hy
fi ve</w>
cur ve</w>
A D
limit ed</w>
aqu eous</w>
guidel ine</w>
dr y</w>
stim ulation</w>
p ig
en n
review ed</w>
amorph ous</w>
I P</w>
ir d</w>
earthqu ake</w>
E T</w>
occur s</w>
p ass
199 9</w>
le sions</w>
pro lifer
gl and</w>
swit ching</w>
prec ip
or rh
trans formation</w>
ac count</w>
indic ates</w>
mix ture</w>
comple te</w>
wh ether</w>
regi onal</w>
ol s</w>
con nec
I C
ch ec
olog ically</w>
publ ic</w>
defin ed</w>
equilibri um</w>
end ed</w>
met all
dec ision</w>
organ ization</w>
ex er
n ar
tu b
t ely</w>
child ren</w>
bri dge</w>
min imum</w>
ful ness</w>
bi opsy</w>
Al so</w>
1 7</w>
v o
d os
re in
s w
H C
sh ip
insul in</w>
great ly</w>
p y
ti tan
selec ted</w>
neu tr
accompan ied</w>
fol low</w>
im a</w>
subst ances</w>
follow s</w>
ail y</w>
l l</w>
deter i
ag g
machin ing</w>
transc ri
medi ate</w>
is tic</w>
chro mos
H e</w>
out side</w>
ar ray</w>
F inally</w>
es tion</w>
dis k</w>
Con cer
f ying</w>
hyper tension</w>
in ity</w>
imp act</w>
refl ection</w>
im ens</w>
hor m
sh i
pop ulation</w>
int ake</w>
end oscop
as k</w>
Concer ning</w>
r ation</w>
A L
anis otrop
a sion</w>
resi dual</w>
lat ter</w>
conn ected</w>
amplit ude</w>
impro ving</w>
enhanc ement</w>
atic ally</w>
ti tle</w>
estim ate</w>
mo bile</w>
follow ed</w>
O ne</w>
N o</w>
ro ot</w>
op in
obser v
r are</w>
fe ed</w>
counter measure</w>
3 0
ic h
coll ection</w>
sensi tive</w>
clo s
su peri
ro c
Fir st</w>
cataly st</w>
pancre atic</w>
E C</w>
ang ular</w>
fac t</w>
tre e</w>
1 6
oc cu
S I</w>
ay ed</w>
autom ob
m 2</w>
no tic
200 1</w>
robo t</w>
cr ack</w>
barri er</w>
z er
opath y</w>
lat eral</w>
inhibit or</w>
ch ip</w>
the sis</w>
lear ning</w>
fer tili
cal cium</w>
th res
chem otherapy</w>
ref erence</w>
auth or</w>
s in
w at
rel atively</w>
sul f
per me
C ar
chlor ide</w>
M P</w>
rele ase</w>
d aily</w>
v acc
coupl ed</w>
al es</w>
dis tin
co al</w>
m atic</w>
ic ro
dep ending</w>
D M</w>
te sted</w>
fact ory</w>
st en
l umin
remark able</w>
E ff
hom ogen
in ary</w>
grad ually</w>
det ail</w>
bro ad
bo dies</w>
P o
trans mit
inv asion</w>
atmosph ere</w>
spec imens</w>
electro magnetic</w>
olog ic</w>
v ector</w>
st ment</w>
car ry</w>
sh ock</w>
character ized</w>
num bers</w>
an eous</w>
har mon
mat ory</w>
wel ling</w>
Z n
integr ation</w>
bacter ial</w>
loc ated</w>
comp ut
200 2</w>
questionn air
las t</w>
id ne
sub ject</w>
def ici
hem orrh
P T
ro tation</w>
optim ization</w>
u ble</w>
mod ul
an omal
N i
capac it
v ative</w>
l t;</w>
& lt;</w>
resul ting</w>
em it
cro s
compl ex
activ ated</w>
immun o
s lo
c ity</w>
pneum on
k idne
ori entation</w>
di oxide</w>
to p</w>
th y</w>
underst anding</w>
L i
pop ul
circul ation</w>
2 1</w>
o k</w>
horm one</w>
disp ens
val ve</w>
O c
cle aning</w>
y s
N O
li th
prec ision</w>
th us</w>
poll ution</w>
d ers</w>
concer ned</w>
t on</w>
m ell
del i
occ up
el der
multi pl
del ay</w>
def ects</w>
5 .
pers onal</w>
flo or</w>
complic ations</w>
ome n</w>
ci sion</w>
sp inal</w>
ill ary</w>
et al</w>
establish ment</w>
prov ide</w>
mell itus</w>
l ens</w>
incid ence</w>
ad ult</w>
hydro x
st y
qu ar
comp ens
spectr al</w>
lab oratory</w>
plac ed</w>
es ophag
P A</w>
in ner</w>
inflam matory</w>
L A
C R
plan ning</w>
dop ed</w>
A F
partic ular</w>
li ving</w>
ic a</w>
co effici
1 8
orig inal</w>
y stem</w>
ti p</w>
inclu ded</w>
h e</w>
m akes</w>
sol vent</w>
ex tended</w>
ear th</w>
sp on
coeffici ents</w>
ro us</w>
distrib utions</w>
stand ards</w>
pro spec
phosph or
dis placement</w>
prac tice</w>
S P</w>
ve in</w>
U V</w>
nur sing</w>
as h</w>
accid ent</w>
E S</w>
i stered</w>
aut o
vi a</w>
res ection</w>
bul k</w>
sch o
mon th</w>
clu ster</w>
metall ic</w>
cir cum
orig in</w>
bl ad
reg ar
pip e</w>
admin istered</w>
in corpor
e eded</w>
resi s
optim al</w>
mod es</w>
fr action</w>
calcul ations</w>
oug ht</w>
i an</w>
o to</w>
selec tive</w>
se as
identi fication</w>
w i
tun nel</w>
d ence</w>
hor iz
e ve</w>
cle arly</w>
alter n
th ird</w>
o tic</w>
networ ks</w>
erg ic</w>
R A</w>
vel op
soc ial</w>
dep ends</w>
con trac
we ak</w>
soci ety</w>
intesti ne</w>
w omen</w>
synthe sized</w>
pat h</w>
mod eling</w>
ant enn
it es</w>
real ize</w>
junc tion</w>
star t</w>
di stric
ev id
fi bers</w>
si t
spec ially</w>
fr ame</w>
1 ,
re stric
v o</w>
use fulness</w>
ou th</w>
s a</w>
inter ference</w>
si c</w>
satell ite</w>
char ged</w>
al co
or ies</w>
so dium</w>
ri tis</w>
analy ze</w>
ul tra
e m</w>
tro ph
my ocardi
iz es</w>
le ak
e an</w>
p ic
pre operative</w>
fluores cence</w>
thres hold</w>
to co
ti ous</w>
H igh</w>
dy s
min im
ge ome
adhe sion</w>
re tin
as su
sal t</w>
7 .
vari ety</w>
cam era</w>
om y
C A</w>
occur rence</w>
pos t</w>
sp ac
gi ve</w>
dec id
l ap
control ling</w>
1 9</w>
ventr icular</w>
b enz
2 00</w>
P h
ord ers</w>
co ordin
am a</w>
ten ing</w>
en erg
u ary</w>
stand ardi
thyro id</w>
G en
eth ylene</w>
accel er
on tal</w>
gr ade</w>
throm b
P ar
ort ation</w>
org an</w>
A p
tri ed</w>
st atus</w>
sch ed
ne eds</w>
infra red</w>
clo se</w>
ac king</w>
manif est
Tok yo</w>
avail able</w>
z er</w>
emer gency</w>
ai m</w>
ra is
manu fac
inf arc
eph al
other s</w>
on set</w>
t ent</w>
ogen ic</w>
anim al</w>
rel ations</w>
pol e</w>
ograph ic</w>
fl exi
te e</w>
ocy tes</w>
inf ant</w>
e f
u str
tissu es</w>
ach es</w>
sour ces</w>
fin d</w>
accur ate</w>
Un i
C ity</w>
zer o</w>
sec urity</w>
coun try</w>
consi sting</w>
asth ma</w>
m ig
2 3</w>
ra il
kidne y</w>
st ock</w>
o ch
os t</w>
6 .
vi si
em br
arrang ement</w>
psy ch
fi t</w>
on ing</w>
at om</w>
PC R</w>
Si O2</w>
vari able</w>
dispens able</w>
transi ent</w>
s le
m ight</w>
arch it
agg reg
fur n
rop e</w>
decre asing</w>
disturb ance</w>
set ting</w>
ag ne
T ran
I L</w>
E R
ey e</w>
ex hib
effec tively</w>
CA D</w>
g radi
ad sor
S F
propos es</w>
num er
b ending</w>
N a
compres sion</w>
E C
sti ll</w>
in dispensable</w>
l amin
hibit ed</w>
ver s</w>
remo ved</w>
U.S .
m in</w>
hybri d</w>
descri be</w>
p ing</w>
ang u
sh ear</w>
H y
elder ly</w>
m ers</w>
heal thy</w>
200 3</w>
propor tion</w>
f at</w>
per iton
up on</w>
cont ained</w>
coll ag
eu tic</w>
D is
meth yl
H IV</w>
transp ortation</w>
ne ural</w>
di ver
suggest s</w>
gover n
fil tration</w>
ati n</w>
L a
ven ous</w>
pre vent</w>
electro des</w>
S P
nec ro
g ain</w>
us ers</w>
ep id
cap able</w>
provid ed</w>
part ment</w>
C r</w>
B oth</w>
to sis</w>
emplo yed</w>
di ed</w>
criter ia</w>
P er
intesti nal</w>
Al l</w>
an e
tro p
C om
gre ater</w>
exi sts</w>
Th us</w>
th ought</w>
i .
A C</w>
C H
f ar</w>
ste re
wh at</w>
2 2</w>
fi er</w>
s or</w>
par ti
approxim ation</w>
C F
gre en</w>
carb on
st ers</w>
sen se</w>
ic als</w>
micro wave</w>
mat ter</w>
discus s</w>
cy clo
ex hibited</w>
app ears</w>
sug ar</w>
se arch</w>
met als</w>
fron t</w>
el ev
b ar</w>
oper ations</w>
k g</w>
fr ag
fe ed
bot tom</w>
waf er</w>
ag on
subst ance</w>
cor related</w>
vi ol
occu r</w>
ch all
simul ations</w>
rand om</w>
en ables</w>
sl a
e .</w>
bat ter
ili ary</w>
A mon
der ing</w>
ach ing</w>
D ec
r ub
c ut</w>
exer c
cas ting</w>
es tic</w>
R F</w>
m entation</w>
w n</w>
stit ute</w>
Amon g</w>
r ine</w>
p al
high est</w>
app ing</w>
separ ated</w>
h ard</w>
adap tation</w>
th ick</w>
comple tely</w>
alk al
my el
og ram</w>
h ouse</w>
p lo
en tr
hibi tion</w>
bi as</w>
al though</w>
tu ber
approxim ately</w>
sus cep
sur ro
it ary</w>
O L</w>
ar ization</w>
m am
l ate</w>
an al
M on
inter mediate</w>
in ated</w>
ver ified</w>
mel ting</w>
is o
scop ic</w>
hem at
scre ening</w>
superi or</w>
summar ized</w>
r ite</w>
cell ular</w>
qu al
lip id</w>
C or
C O</w>
li on</w>
gluco se</w>
compu ted</w>
ati n
m RNA</w>
con str
fric tion</w>
O ur</w>
lo op</w>
ear ch</w>
coron ary</w>
h ous
pro per</w>
notic ed</w>
log ical</w>
or ity</w>
ed ly</w>
v or
t on
stim ul
exec ution</w>
anesthe sia</w>
dri ve</w>
ac ous
se is
ir radi
b ir
asi a</w>
E D
suffici ency</w>
res sion</w>
leak age</w>
am mon
t ob
speci men</w>
equ al</w>
con duction</w>
at ure</w>
C a</w>
ser ious</w>
ar b
infec tious</w>
ev olution</w>
produc ing</w>
col li
tol er
consi der</w>
3 5</w>
tum ors</w>
T echn
es tive</w>
di am
b ond</w>
199 7</w>
install ation</w>
oscill ation</w>
magne tization</w>
thro ugh
fun g
ex ha
C l</w>
ra w</w>
form ula</w>
smo oth</w>
re ady</w>
strateg y</w>
per f
f at
ti g
infarc tion</w>
E specially</w>
therap eutic</w>
re construction</w>
fe eding</w>
B e
nucle us</w>
p ure</w>
p e</w>
low ered</w>
gener ally</w>
j ec
is chem
ve get
pre gn
tun n
ph ases</w>
extre m
ex ist</w>
un its</w>
pres s</w>
bron ch
acc ess</w>
sol ve</w>
ic ations</w>
d amp
accel eration</w>
frequ ently</w>
ste ady</w>
ar c</w>
S S</w>
ur g
ob jects</w>
ch am
physi ological</w>
Eu rope</w>
am y
er m
O H</w>
us ual</w>
predic ted</w>
st aining</w>
fl at</w>
3 00</w>
Ch ina</w>
ul i
cont amin
str ains</w>
alg e
inter actions</w>
guid ance</w>
comp eti
an ter
ser vices</w>
con cep
mod ulation</w>
t ory</w>
st ain
ar ity</w>
detail ed</w>
E L
inter pre
S I
reg arding</w>
pneumon ia</w>
U.S. A.</w>
gradi ent</w>
gen erator</w>
descri ption</w>
M o
i. e.</w>
gi ves</w>
resis tivity</w>
re tri
ac ter</w>
de vi
oth el
mon o
P E</w>
tur bul
C l
u ment</w>
p end
P t</w>
resul ted</w>
fore ign</w>
assess ment</w>
pro ved</w>
poly morph
ca th
v ar
ne eded</w>
mar row</w>
co ag
k m</w>
f all</w>
d ents</w>
opin ion</w>
dom estic</w>
7 5</w>
ver te
ultr a</w>
k a
titan ium</w>
pl e
or b
S C</w>
Res earch</w>
dis appeared</w>
de pression</w>
bon ding</w>
tow ard</w>
ensi ties</w>
inclu de</w>
hist ological</w>
col on</w>
observ ations</w>
att rib
exerc ise</w>
a x</w>
accum ulation</w>
scho ol</w>
sp h
radi o</w>
d ation</w>
In du
l angu
simultan eous</w>
quantit ative</w>
sput tering</w>
ri ver</w>
in sufficiency</w>
b ut
ain ts</w>
prob ability</w>
oper ated</w>
L D
r hy
m u
cryst alli
ac ids</w>
l s</w>
j et</w>
ar m</w>
der m
E D</w>
plas m
horiz ontal</w>
4 5</w>
vi de
fru it</w>
d ate</w>
Ne w</w>
ari es</w>
1 11</w>
nan o</w>
b ra
ur ine</w>
cur ren
bre eding</w>
S R</w>
synthe tic</w>
mil k</w>
agricul tural</w>
in ten
w ent</w>
vis ed</w>
acous tic</w>
M C</w>
ur inary</w>
P D
o ti
an other</w>
disc re
blad der</w>
fi es</w>
simul ated</w>
mach ines</w>
am in</w>
ac r
peri odic</w>
furn ace</w>
cat tle</w>
advant ages</w>
con v
inclu des</w>
chil d</w>
conser vation</w>
be aring</w>
pec uli
e ing</w>
distric t</w>
collag en</w>
reas on</w>
l ater</w>
L t
sty le</w>
enterpri ses</w>
rhy th
ob jective</w>
fin ding</w>
V ari
De velop
ev ap
I R</w>
re t
domin ant</w>
pepti de</w>
det ector</w>
sl igh
C r
secre tion</w>
por t</w>
fo rest</w>
fer red</w>
Inter net</w>
treat ments</w>
dri ving</w>
ther n</w>
re generation</w>
o ts</w>
fin al</w>
urb an</w>
bu ff
Min istry</w>
sup er</w>
antenn a</w>
id al</w>
wh ite</w>
si n</w>
m l</w>
gre at</w>
rad ical</w>
lap aro
hos t</w>
hemorrh age</w>
automob ile</w>
N T
there fore</w>
pu mp
myocardi al</w>
hy dra
wh ere
issu es</w>
chro mat
mo ving</w>
be d
I F
promot ed</w>
B i
consi stent</w>
applic able</w>
remark ably</w>
sec tions</w>
assu med</w>
li fe
al ready</w>
S ome</w>
roph y</w>
const ants</w>
ug ht</w>
larg est</w>
l um
bu b
aff ect</w>
arrang ed</w>
compar ing</w>
w al
h ex
gener ating</w>
tan k</w>
di l
00 1</w>
H 2</w>
ati ves</w>
ac ting</w>
turb ine</w>
suscep ti
pl ays</w>
end othel
pa rent</w>
soci ation</w>
inflam mation</w>
st ages</w>
provid es</w>
suffici ently</w>
dis aster</w>
r ac
ome ter</w>
f ra
compar atively</w>
int ell
influ enced</w>
S im
N o
er osis</w>
ain age</w>
retri ev
morph ology</w>
previ ously</w>
d ow
Ga N</w>
questionnair e</w>
ey es</w>
excit ed</w>
sligh tly</w>
di ox
M n</w>
co ated</w>
b ial</w>
foc using</w>
I T</w>
sp ring</w>
re mot
co he
manufact ure
cut aneous</w>
si an</w>
experi enced</w>
ste am</w>
B ec
standardi zation</w>
le ast</w>
d ur
C VD</w>
5 00</w>
de gre
as p</w>
re produc
ot op
inter val</w>
conclu ded</w>
con sci
profil es</w>
proced ures</w>
en ting</w>
cur ves</w>
all s</w>
MO S</w>
fa ult</w>
b ic</w>
spre ad</w>
decid ed</w>
A b
A B
ro les</w>
prec ise</w>
feed back</w>
un iqu
reg ular</w>
re view</w>
h our</w>
ar th
sit u</w>
cer tain</w>
in c</w>
combin ing</w>
A r</w>
ent ary</w>
dr ainage</w>
ad ding</w>
ul c
examin es</w>
recor ded</w>
ill ustr
G ro
g er
d uration</w>
chi ef</w>
associ ation</w>
3 D</w>
gen ce</w>
squ are</w>
lea f</w>
ori ented</w>
i sts</w>
det ect</w>
control ler</w>
carri es</w>
ra ys</w>
ceram ic</w>
an es</w>
M e
C T
partic ul
emp ha
introduc ing</w>
tar ge
gen ic</w>
b le
P res
underst and</w>
transi st
mac ro
suppres sion</w>
require ments</w>
1 7
k et</w>
diam ond</w>
control s</w>
Q OL</w>
E T
surro un
fi bri
car r
Z n</w>
ul ic</w>
rol ling</w>
Q u
A mer
nat ure</w>
ferro magnetic</w>
dig estive</w>
cham ber</w>
w ood</w>
de partment</w>
L A</w>
vide o</w>
fix ation</w>
bo il
techn ological</w>
m ir
d ens
s welling</w>
con ven
achi eve</w>
ne ph
m es</w>
k age</w>
inter fer
ex cision</w>
clo sed</w>
frequ encies</w>
u ter
respon ses</w>
nit ri
se x</w>
re d
ag o</w>
mit tee</w>
ceram ics</w>
v ic
mark er</w>
j ection</w>
or ts</w>
bi g</w>
run ning</w>
M L</w>
rec t
pol ar</w>
wee k</w>
gly co
N A
sc ore</w>
s light</w>
w are</w>
th i
maint ained</w>
v ical</w>
pharmac otherapy</w>
f are</w>
arter i
anim als</w>
amp ;</w>
Ex perim
& amp;</w>
vehic le</w>
g al
and ed</w>
syn chron
po or</w>
anter ior</w>
low ing</w>
j u
chol ester
ro ute</w>
mol ding</w>
ra ther</w>
degre es</w>
log ic</w>
k ne
Bec ause</w>
w ind
tak es</w>
S ystem</w>
Res ults</w>
statis tical</w>
p ene
li p</w>
A ug
under went</w>
pot enti
ell a</w>
press ing</w>
correc tion</w>
G A</w>
analy zing</w>
magne to
expl an
specif ication</w>
requi res</w>
A g</w>
il e
re pair</w>
e tics</w>
val ence</w>
tunn eling</w>
construc t</w>
c ial</w>
A pri
tu de</w>
W e
oc ar
co ver
cir cular</w>
tel eph
ir al</w>
app ed</w>
4 0
2 5
prolifer ation</w>
co lo
remot e</w>
ind ication</w>
Apri l</w>
gr asp
theore tically</w>
M I</w>
the tic</w>
min utes</w>
al ign
evid ence</w>
S ub
vis u
archit ecture</w>
progr am
attemp ted</w>
all ergic</w>
Develop ment</w>
gr in
extrem ely</w>
exha ust</w>
cy l
si gn</w>
r ho
ordin ary</w>
ex clu
t ex
seis mic</w>
fac ial</w>
e ting</w>
gr asp</w>
w s</w>
ide al</w>
c able</w>
l and
defici ency</w>
0. 5</w>
, 000</w>
p se
gra vity</w>
ent ative</w>
at eral</w>
vit ro</w>
carr ying</w>
n ia</w>
modi fication</w>
clu sters</w>
M i
tensi ve</w>
si x</w>
tensi le</w>
res ol
res er
I P
imp ed
assi ve</w>
ach e</w>
ac ts</w>
z inc</w>
tic ity</w>
po rous</w>
energ ies</w>
ak s</w>
bl ack</w>
l on
h is</w>
e ties</w>
atmosph eric</w>
indic ating</w>
continu ed</w>
compan ies</w>
agne tic</w>
in stitu
gen ome</w>
hand ling</w>
langu age</w>
ac ro
a i</w>
M D</w>
ins ulation</w>
toco l</w>
se ed
sh ell</w>
pref ecture</w>
E R</w>
w ards</w>
pancre as</w>
os yn
ma p</w>
econom ic</w>
dec ay</w>
o be
ec h</w>
ane ur
real ization</w>
dow n
comp reh
T c</w>
nar row</w>
join ts</w>
es sive</w>
mir ro
hard ness</w>
ass emb
or th
erat ure</w>
cyl ind
cu stom
pro of</w>
I mp
C ase</w>
radi o
harmon ic</w>
sum mer</w>
re active</w>
adv ance</w>
M T
toler ance</w>
spon tan
sol ute</w>
organis m</w>
ay er</w>
al ways</w>
hospit alization</w>
ne ed</w>
muco sa</w>
c us</w>
ou ng</w>
expos ed</w>
co il</w>
tion ed</w>
ass ay</w>
an th
ther m
specific ations</w>
sol ving</w>
r it
3 2</w>
per pend
en ter</w>
cer vical</w>
R S</w>
H D</w>
numer ically</w>
correspon dence</w>
anisotrop y</w>
viol et</w>
chem istry</w>
tr ain</w>
sci ence</w>
f it
where as</w>
sequ ently</w>
ref rig
vit amin</w>
pi ec
enc ephal
co ding</w>
p ass</w>
stom ach</w>
pul sed</w>
app ear</w>
aneur ys
star ting</w>
microscop ic</w>
homogen eous</w>
ar g
i onic</w>
dis orders</w>
y e
uniqu e</w>
fem ales</w>
C S</w>
condi tioning</w>
bl ue</w>
b en
si tuations</w>
rhe um
I D</w>
ro ugh</w>
organis ms</w>
cor d
shap ed</w>
regar ded</w>
i er</w>
ex ac
end oc
d ings</w>
b est</w>
tuber cul
2 8</w>
anc h</w>
u ting</w>
ship s</w>
mo l</w>
P re
8 .
6 5</w>
long it
experi ence</w>
discus ses</w>
commer cial</w>
arter ial</w>
M E
Th e
S er
um ents</w>
me an
lo b
cor d</w>
an tim
ak i</w>
op ening</w>
irradi ated</w>
g all
2 6</w>
hydra ulic</w>
extrac t</w>
C N
clos ely</w>
at trac
ul y</w>
lea ves</w>
an tic
it self</w>
disp os
com a</w>
ap op
val idity</w>
hab it
9 .
visco sity</w>
un e</w>
inst ability</w>
endoscop ic</w>
addi tional</w>
sh ar
circu its</w>
advant age</w>
vir al</w>
asy mme
p el
silic a</w>
mar ine</w>
in oc
fat ty</w>
R T</w>
st ly</w>
gener ate</w>
establ ish</w>
streng th
o y
cri ption</w>
us age</w>
deteri oration</w>
Th ree</w>
F T</w>
appl y</w>
C P
reco vered</w>
ulc er</w>
imped ance</w>
en ab
M arch</w>
amoun ts</w>
nutri tion</w>
j ected</w>
epithel ial</w>
mag nit
O S</w>
mo der
lo ro
s now</w>
pur ification</w>
expl ain</w>
L e
fra me
er o
batter y</w>
mig ration</w>
symme try</w>
govern ment</w>
f ing
dist or
un known</w>
sten osis</w>
r ich</w>
f oun
N O</w>
re ached</w>
om y</w>
in hibition</w>
he ad
en forced</w>
U S</w>
2 O3</w>
tiv es</w>
pri v
c o</w>
adju stment</w>
K y
H B
lon ger</w>
grow ing</w>
gr ap
el ed</w>
sh e</w>
re verse</w>
el ong
effici ently</w>
ac ks</w>
recei ving</w>
produc tivity</w>
post erior</w>
grin ding</w>
vari ations</w>
off ice</w>
lin der</w>
a p</w>
sequ ences</w>
di e</w>
propor tional</w>
pl ication</w>
can di
buff er</w>
radi us</w>
F i
neutr al</w>
st op
h eld</w>
electroly te</w>
necro sis</w>
peculi ar</w>
intrac ellular</w>
H A</w>
we igh
resi st</w>
im e</w>
cy linder</w>
am p</w>
pp ing</w>
individ u
desi red</w>
H ok
2 7</w>
fabr ication</w>
uni form
dep end</w>
A u</w>
v ements</w>
op o
inter sti
b ound</w>
resour ce</w>
ren e</w>
graph ite</w>
ep ing</w>
comp ati
conven i
consci ousness</w>
O p
slo pe</w>
h er</w>
ex cre
chromos ome</w>
vacc ine</w>
ti fication</w>
re fr
invol vement</w>
longit ud
differenti ated</w>
rem ained</w>
r ule</w>
ic hi
b s</w>
rough ness</w>
ap s</w>
system ic</w>
m old</w>
compl aint</w>
J uly</w>
6 0
quantit atively</w>
si bility</w>
path ological</w>
magne t</w>
g ri
sur ance</w>
super conducting</w>
repe ated</w>
ef ly</w>
win ter</w>
w il
mod ule</w>
mo bility</w>
G Hz</w>
transcri ption</w>
oun c
g t;</w>
flu or
L SI</w>
& gt;</w>
suppor ting</w>
sto red</w>
og en</w>
d ar
commun ity</w>
bi om
sat uration</w>
rati os</w>
b ands</w>
M g
thor ac
perpend icular</w>
d ust</w>
br an
bir th</w>
A N
sol uble</w>
ox idi
ex ten
H 2
sugg esting</w>
ep t
7 3</w>
ot ype</w>
br anch</w>
phot on</w>
pre par
S D</w>
J une</w>
lymph oma</w>
epit ax
sp ite</w>
lu br
zz y</w>
pro mis
S e</w>
vari ed</w>
t z</w>
leuk emia</w>
con dens
b all</w>
aim ed</w>
precip itation</w>
S H</w>
if ic</w>
av oid
aim ing</w>
pe aks</w>
ou ter</w>
mom ent</w>
g ir
posi tions</w>
go al</w>
flow s</w>
sh af
sat ur
ep ide
ap er
K an
si um</w>
ex tent</w>
calcul ate</w>
id o</w>
ver ification</w>
prin ting</w>
vi vo</w>
t ain
pr e</w>
ion ization</w>
s low</w>
f ig
b ly</w>
Si C</w>
substitu tion</w>
st one</w>
qu e</w>
exp lo
ven tion</w>
si g
confir m</w>
oph il
ery thro
cataly tic</w>
moun ting</w>
ho l</w>
foc us</w>
con fin
comp act</w>
n i
fre e
frame work</w>
dos age</w>
c ast</w>
ad renal</w>
re placement</w>
Vari ous</w>
Co .</w>
re fin
di ode</w>
H ist
under ground</w>
sp ot</w>
sens ors</w>
is otop
incid ent</w>
heter o
tur n</w>
saf e</w>
ide a</w>
R am
ch ann
al low</w>
S pec
lo be</w>
char acter</w>
od en
D uring</w>
A D</w>
P L</w>
magnit ude</w>
defin ition</w>
assemb ly</w>
af ter
Rec ent</w>
pan el</w>
i br
sle ep</w>
samp ling</w>
phosph ate</w>
os cl
ocar cin
continu ously</w>
mo ist
gr ains</w>
dro p</w>
demonstr ation</w>
N or
mal es</w>
ery them
demonstr ate</w>
buil t</w>
suscepti bility</w>
inhibit ed</w>
eff ic
don or</w>
pl ates</w>
p il
en ge</w>
ec tors</w>
cont ain
M ul
it r
fac tion</w>
exp anded</w>
mem bers</w>
retriev al</w>
meth yl</w>
beg inning</w>
H E
exc ess</w>
ro se</w>
ograp h</w>
intell ig
esophag eal</w>
H P
mat ure</w>
ar is
rec tal</w>
pol y</w>
k er</w>
cath ode</w>
O r
adhe sive</w>
longitud inal</w>
complex es</w>
polymer ization</w>
iz ations</w>
hydro gen
di et</w>
v in
local ized</w>
rub ber</w>
R C</w>
Elec tric</w>
qu ad
lat est</w>
evalu ating</w>
ep t</w>
C har
pres cription</w>
min ute</w>
disc ri
comple ted</w>
at ri
C .</w>
le g</w>
l o</w>
ch est</w>
break down</w>
swit ch</w>
fir e</w>
at o</w>
asp ect</w>
E L</w>
kin etic</w>
le ading</w>
B a
intersti tial</w>
r ag
pro tocol</w>
sum ing</w>
fer ring</w>
epide mi
acr yl
elim ination</w>
co c
acqui sition</w>
perme ability</w>
e de
199 6</w>
tr ical</w>
bl ast</w>
rein forc
exc e
derm atitis</w>
cont ains</w>
am ide</w>
alco hol</w>
5 3</w>
sched ul
su d
M eas
. This</w>
ick el</w>
venti lation</w>
tr uc
sh ort
radi al</w>
implem entation</w>
exist ed</w>
apop tosis</w>
mat ching</w>
s ar
nucle i</w>
ne arly</w>
flu oro
f ever</w>
du oden
S ch
over all</w>
ester n</w>
ra ft</w>
stain less</w>
re comm
discri min
kin ase</w>
ar thro
dra wing</w>
cap ability</w>
ultra violet</w>
path y</w>
am ent</w>
ti le</w>
sc l
pr ice</w>
ob vi
contrib ution</w>
ste ps</w>
phot oc
gl ut
ak a</w>
3 3</w>
posi tioning</w>
neu ron
medi ately</w>
man ip
individu als</w>
i ting</w>
emb ol
dr ying</w>
g au
exp on
ca the
arth ritis</w>
promis ing</w>
P O
rot ating</w>
M ar
adap tive</w>
on dri
diab etic</w>
popul arization</w>
4 8</w>
u ation</w>
fe asi
ser i
col i</w>
bas al</w>
S u
to ols</w>
Dec ember</w>
accum ulated</w>
mit ted</w>
em bl
P V
cop e</w>
N a</w>
N MR</w>
transp a
ne ur
meth ane</w>
id en
dis location</w>
ant agon
shap es</w>
ow ing</w>
or i</w>
lin k</w>
mat ters</w>
fluc tuations</w>
consi sted</w>
require ment</w>
buil dings</w>
h in
explan ation</w>
ab ilities</w>
r on</w>
mi um</w>
gen erat
endothel ial</w>
epit axial</w>
deri v
sol idi
R P</w>
P L
por table</w>
a u</w>
Ram an</w>
4 00</w>
v a</w>
no des</w>
moist ure</w>
cholester ol</w>
introduc e</w>
teleph one</w>
unc er
sl ud
inj ected</w>
f av
crystalli zation</w>
chall enge</w>
str a
econom ical</w>
3 6</w>
promot e</w>
j ust</w>
plat el
jud g
fu zzy</w>
environ ments</w>
contrib ute</w>
com mittee</w>
R el
ti tude</w>
P l
distin c
refl ec
progr ams</w>
v ant</w>
re ly</w>
organ s</w>
erro rs</w>
Mon te</w>
repres entative</w>
monit or</w>
N F</w>
aim s</w>
M n
G e</w>
Ac cording</w>
vari eties</w>
se ts</w>
M g</w>
bre ast</w>
examin ations</w>
I f</w>
0. 1</w>
pl es</w>
in hal
dispos al</w>
S ec
S L
Car lo</w>
re tro
per form</w>
dri ven</w>
T r
lab or</w>
S p
M eth
si zes</w>
mus cular</w>
mel t</w>
fibri l
M T</w>
Fur ther</w>
stabil ized</w>
inf ected</w>
co vered</w>
c ation</w>
199 5</w>
st res
flexi ble</w>
f res
T O
J an
prot ective</w>
pos s
pa ren
el em
behavi ors</w>
polymorph ism</w>
hol es</w>
wal king</w>
pharmac eu
Un der</w>
A S</w>
pe tro
mon ol
mirro r</w>
ess es</w>
clin ic</w>
y et</w>
prot on</w>
m ask</w>
det ecting</w>
I ts</w>
B P</w>
deli very</w>
mo ther</w>
ent um</w>
preser vation</w>
pregn ancy</w>
aneurys m</w>
mol ten</w>
ap e</w>
S H
o g</w>
kin etics</w>
d B</w>
cle an</w>
tob er</w>
pl ast
ow er</w>
integr al</w>
in ste
damp ing</w>
pro tot
5 5</w>
ph on
lin ear
disco vered</w>
determin ing</w>
a or
ca us
S ept
P a</w>
z y
shaf t</w>
intrac table</w>
hist opath
Oc tober</w>
temp oral</w>
me tric</w>
vari ables</w>
n as
hard ware</w>
ol ic</w>
Sept ember</w>
O b
n ickel</w>
cul tured</w>
we ak
tor que</w>
obe sity</w>
mar k</w>
st ations</w>
s and</w>
vir tual</w>
p as
ay ing</w>
loc k</w>
lay ered</w>
ath em
P B
IS O</w>
slud ge</w>
os en</w>
difficul ty</w>
be ams</w>
C S
00 0
recor d</w>
obt aining</w>
ob ic</w>
conduc tor</w>
F ol
umin escence</w>
H D
vor tex</w>
se ed</w>
kne e</w>
coag ulation</w>
angi ography</w>
we a
oid al</w>
im mediately</w>
epithel ium</w>
enti a</w>
C s</w>
t os
d .</w>
ner v
k ept</w>
c m2</w>
S r
in k</w>
M Hz</w>
I D
o zone</w>
form ations</w>
tic es</w>
suppor ted</w>
pi e
devi ation</w>
chann els</w>
can not</w>
hist o
elucid ation</w>
d am</w>
ampli fier</w>
C ur
embr y
dy e</w>
simp ly</w>
not ed</w>
wast es</w>
dys function</w>
colli sion</w>
cent ury</w>
bronch ial</w>
acceler ated</w>
through out</w>
inser tion</w>
effic acy</w>
tin e</w>
sk el
3 1</w>
succ eeded</w>
gau ge</w>
Hok ka
su b</w>
roc k</w>
conduc tive</w>
aden ocarcin
1. 5</w>
199 0</w>
pse ud
pro mo
c e
ati cal</w>
Uni versity</w>
ten tion</w>
reson ant</w>
inhibit ory</w>
Di ff
qual it
Wh ile</w>
s per
he ated</w>
R O
t ness</w>
ast om
ag ain</w>
tubercul osis</w>
contr action</w>
rot ational</w>
S ur
ucle ar</w>
poly mers</w>
j ug
impl antation</w>
per for
iden tical</w>
discre te</w>
Jan uary</w>
Hokka ido</w>
F or
En viron
p ation</w>
til ity</w>
stu dents</w>
k er
in filtration</w>
hydro ph
b and
0. 5
spontan eous</w>
s ac
as c
e x</w>
sph erical</w>
priv ate</w>
diag ram</w>
acqui red</w>
w iring</w>
issu e</w>
aor tic</w>
M S
spe ech</w>
h ood</w>
endoc rine</w>
dim ension</w>
ch osen</w>
T V</w>
G F
war ming</w>
ga ve</w>
fil ling</w>
per turb
lo s
hospit alized</w>
inf erior</w>
aut onom
simp li
ne a</w>
eg g</w>
direc tions</w>
cal ibr
an emia</w>
A I
per si
immun ity</w>
g as
ca using</w>
A S
prec ur
o h
mo bil
graph y</w>
uc h
isol ation</w>
fluores cent</w>
wave guide</w>
on to</w>
eth anol</w>
epitax y</w>
r ical</w>
enterpri se</w>
c in</w>
all ergy</w>
trac k</w>
s we
rel ess</w>
preven tive</w>
mor t
aff ects</w>
ophy si
er mal</w>
d ent</w>
or dered</w>
f ish
em bed
appro aches</w>
alumin a</w>
En ergy</w>
opo i
Se a</w>
utili ze</w>
le ads</w>
resear ches</w>
surroun ding</w>
morph ological</w>
m athem
dem entia</w>
cell ul
ne igh
fam il
as i</w>
antim icro
si fication</w>
sem i</w>
ing ly</w>
industri es</w>
R i
v ents</w>
loc ations</w>
ill umin
ell ar</w>
cir rho
c ement</w>
1 000</w>
un stable</w>
compo si
accur ately</w>
in cin
deriv atives</w>
com for
C C</w>
19 7
rel ating</w>
cyto plas
och ondri
fem oral</w>
ap se</w>
W or
r able</w>
op oro
compens ation</w>
ass es</w>
instr ument</w>
be an</w>
de hy
ar s</w>
P d</w>
Elec tro
exp ec
in organic</w>
confir mation</w>
satur ated</w>
char ging</w>
a de
reg ard</w>
pancre atitis</w>
min i
S N
K .</w>
3 7</w>
li br
symme tric</w>
gast ro
examin ing</w>
dimensi ons</w>
G a</w>
w ear</w>
li k
imp urity</w>
cy st</w>
sa id</w>
r ain
cre ated</w>
tion ally</w>
smo king</w>
meth anol</w>
frequ ent</w>
as tically</w>
st anding</w>
re tar
R T
P P</w>
C ol
3 4</w>
ab do
w ash
it em</w>
anti bodies</w>
Aug ust</w>
pl asia</w>
PE T</w>
Inter national</w>
tom ography</w>
te tr
c DNA</w>
s u</w>
dop ing</w>
cl es</w>
plan ned</w>
hi p</w>
dur ability</w>
d ges</w>
A P</w>
A G</w>
z en</w>
algorith ms</w>
ome tric</w>
in ese</w>
i ety</w>
econom y</w>
uni ver
le g
poin ted</w>
oxid es</w>
n ame</w>
desi rable</w>
cycl ic</w>
N 2</w>
struc tive</w>
on ally</w>
no zz
wil d</w>
periton eal</w>
fl ight</w>
ann ual</w>
jud ged</w>
bri efly</w>
M ay</w>
2 9</w>
throm bo
metabol ic</w>
chem icals</w>
process or</w>
phot ograph
ch a
in verse</w>
de generation</w>
su m</w>
us ually</w>
manifest ation</w>
influ enz
P S
tre es</w>
for ward</w>
abdo men</w>
vi sible</w>
trac e</w>
id ing</w>
O s
s .
re presented</w>
ind o
concep ts</w>
pack aging</w>
evap oration</w>
el ding</w>
chec k</w>
allow s</w>
M an
I N
t l
c lim
M B
Amer ica</w>
mer its</w>
cool ed</w>
polar ized</w>
ne o
ede ma</w>
at ur
b iliary</w>
sh ad
respec tive</w>
ogen ous</w>
le um</w>
foc used</w>
detail s</w>
cirrho sis</w>
ul om
pie zo
pack age</w>
mit ochondri
chromat ography</w>
anti bio
adenocarcin oma</w>
I B
p ad
no c
cylind rical</w>
commer ci
fav or
consider ably</w>
suppres s</w>
ir s</w>
equip ped</w>
rail way</w>
o st
g ases</w>
al dehy
agre ed</w>
adsor bed</w>
T re
6 4</w>
b ation</w>
M any</w>
ab sc
v ac
qu asi</w>
ab s
Sh e</w>
nor mal
mem ber</w>
car til
d yst
Lt d.</w>
Eff ects</w>
C al
autom atically</w>
E A</w>
qu ite</w>
k ine</w>
hydr ate</w>
Techn ology</w>
respir ation</w>
precip it
peri od
ol ar</w>
P I</w>
meth od
n ight</w>
manufac ture</w>
intra venous</w>
fil led</w>
electr icity</w>
se as</w>
membr anes</w>
z e
particul arly</w>
var ying</w>
trans verse</w>
rec tomy</w>
d ang
im er</w>
beg in</w>
F our
lymph ocyte</w>
iz er</w>
form ul
G H</w>
press es</w>
os sible</w>
att ached</w>
C enter</w>
re main
su res</w>
n om
hum idity</w>
E B
t y
se p
ol ec
no d
man ner</w>
m as
IF N</w>
th y
rais ed</w>
por e</w>
mark edly</w>
dis solved</w>
classi cal</w>
N ov
ed .
ac cord
L ab
M at
wat er
elong ation</w>
design ing</w>
pl ating</w>
bacter ium</w>
av oid</w>
Experim ental</w>
she ets</w>
pro jects</w>
ne ed
Pres ent</w>
M ost</w>
H T
reg ression</w>
k W</w>
g am
distin gu
as ting</w>
P b</w>
ig en
dar k</w>
G er
li es</w>
disper sed</w>
8 0
pic ture</w>
neph ro
trac king</w>
t ab
op tic</w>
conver ted</w>
assi um</w>
F u
aden oma</w>
w et</w>
s tic</w>
pl y</w>
manufacture rs</w>
enzy mes</w>
an x
O A</w>
F A</w>
por tal</w>
gen us</w>
asp ects</w>
re activity</w>
modul us</w>
circum ference</w>
cere bro
bin ary</w>
S EM</w>
em ul
distor tion</w>
compu ters</w>
b an
s ou
refr active</w>
refl ected</w>
om al</w>
main tain</w>
en ough</w>
d or
N um
y oung</w>
sulf ate</w>
seas on</w>
oscl erosis</w>
lith ium</w>
de struction</w>
at aly
oun ding</w>
ation ary</w>
ad ed</w>
ab und
I I
min ary</w>
P ac
w alls</w>
reduc es</w>
re combination</w>
d aries</w>
ang les</w>
fu r</w>
dro pl
bub ble</w>
ph oto</w>
criter ion</w>
M eV</w>
A sia</w>
pro xim
mar g
de man
cre ep</w>
Fol lowing</w>
tim ing</w>
platel et</w>
are s</w>
an alge
oper ational</w>
shor tening</w>
inhal ation</w>
d ensities</w>
cep tion</w>
cap illary</w>
at al</w>
4 2</w>
dr astically</w>
respon sible</w>
est er</w>
C d
sho p</w>
retin al</w>
pos ed</w>
g old</w>
con sum
s n
phosphor us</w>
ge o
ech o</w>
doc tor</w>
con jug
tri g
tox icity</w>
susp ension</w>
inter ing</w>
in ite</w>
d rain</w>
curren ts</w>
boun daries</w>
N ational</w>
relation ships</w>
mean time</w>
lumin escence</w>
f ro
char ges</w>
M icro
inser ted</w>
cor tex</w>
contamin ation</w>
bro ught</w>
produc es</w>
orb ital</w>
ol ig
inver ter</w>
gall bladder</w>
rup ture</w>
reh abil
plan ar</w>
induc e</w>
cy te</w>
restric tion</w>
moun ted</w>
al b
wi reless</w>
g ot</w>
en se</w>
dis charged</w>
T A
parti ally</w>
inv asi
inf usion</w>
exhib its</w>
disco very</w>
comput ation</w>
G C</w>
1 10</w>
transcri p
contrac ted</w>
trans form</w>
specific ity</w>
re vision</w>
oste oporo
metast atic</w>
l ands</w>
cor ti
T e</w>
3 8</w>
process ed</w>
plasm as</w>
local ization</w>
r ules</w>
pot assium</w>
id osis</w>
temp or
scre w</w>
grap h</w>
fo rec
M D
1 1
impro ves</w>
fibril lation</w>
con sul
atis m</w>
asy mp
amy lo
2 ,
y el
nec k</w>
inste ad</w>
auto immune</w>
C y
sens ing</w>
compreh ensive</w>
plac es</w>
mil lion</w>
electro static</w>
cho ice</w>
at ures</w>
O ut
I sl
w ound</w>
dis solution</w>
F C</w>
t ac
exhib it</w>
pri or</w>
mark ed</w>
accid ents</w>
absor b
low est</w>
har v
3 00
s ine</w>
in sufficient</w>
f all
w ise</w>
nerv ous</w>
b ene
sub jected</w>
mil d</w>
man ual</w>
is tics</w>
D op
so y
predic t</w>
multi layer</w>
Ch inese</w>
C lin
ot omy</w>
gener alized</w>
agricul ture</w>
ad ren
yl ation</w>
protot ype</w>
per cent
pad dy</w>
uti on
potenti als</w>
gra f
attrib uted</w>
attemp t</w>
Th at</w>
t ant</w>
j i</w>
e .
artic ular</w>
wind ow</w>
th ing</w>
pig ment</w>
oc ean</w>
k now</w>
in ve
do or</w>
sc al
micro structure</w>
gen ital</w>
for ces</w>
bo x</w>
ap parent</w>
H A
princi ples</w>
concentr ated</w>
ade qu
rein forced</w>
particip ation</w>
is land</w>
electro ph
dynam ical</w>
commun ications</w>
ast e</w>
t ability</w>
enab led</w>
ap hy
C hem
vehic les</w>
o des</w>
Nov ember</w>
200 4</w>
ri d
petro leum</w>
ammon ia</w>
speci al
program ming</w>
obser ve</w>
cat eg
HC V</w>
par asi
cartil age</w>
Pac ific</w>
requ ire</w>
por tion</w>
In stitute</w>
si onal</w>
mathem atical</w>
th re
st op</w>
ro d</w>
le y</w>
col on
c s</w>
E N
transist or</w>
P ower</w>
trac he
pharmac ist</w>
ul l</w>
turbul ent</w>
influenz a</w>
estim ating</w>
M o</w>
t a</w>
s ex
progres sive</w>
in king</w>
S n</w>
seri ousness</w>
ro und</w>
prospec t</w>
pp m</w>
pl er</w>
o ids</w>
sil ver</w>
co des</w>
bri g
N ag
I m
ly sis</w>
ischem ic</w>
et ary</w>
promo ting</w>
scre en</w>
f ec
el as
rang ing</w>
e ight</w>
construc ting</w>
se dim
pur ified</w>
glo mer
ble eding</w>
anc ing</w>
Char acter
pas sed</w>
b us</w>
trans fusion</w>
resol ved</w>
p ut
go ing</w>
den se</w>
ch ains</w>
carbon ate</w>
8 5</w>
r ams</w>
fe eling</w>
selec tivity</w>
plan ting</w>
p es</w>
osteoporo sis</w>
dy eing</w>
discus sion</w>
direc tional</w>
design s</w>
c ip
nas al</w>
nam ely</w>
k ar
altern ative</w>
uni versity</w>
manufac tured</w>
sho ul
sc in
rehabil itation</w>
insul ating</w>
influ ences</w>
d a</w>
a g</w>
6 00</w>
sul fur</w>
res ting</w>
os in
inte rest</w>
foun dation</w>
control l
T H</w>
AF M</w>
sub jective</w>
spectro metry</w>
over seas</w>
os p
man ent</w>
grad ing</w>
deteri or
b ol
F erm
whe el</w>
reli able</w>
posi tively</w>
plas tics</w>
erythem a</w>
d end
bel ong
wave form</w>
perform ances</w>
nit rate</w>
indo or</w>
O 4</w>
C M</w>
tur ned</w>
9 5</w>
st ained</w>
simul ator</w>
pul ses</w>
os ing</w>
gro un
e ating</w>
cohe rent</w>
del ayed</w>
tr un
shor ter</w>
nozz le</w>
ferro electric</w>
broad casting</w>
at op
antimicro bial</w>
an astom
wel fare</w>
re tention</w>
insul ator</w>
ab solute</w>
rib ed</w>
re stor
g o</w>
Four ier</w>
pit ch</w>
on ce</w>
electro chemical</w>
di versity</w>
ca re
vo ice</w>
ri p
bro ad</w>
stabil ization</w>
pow er
pip ing</w>
fac il
oc clu
nutri tional</w>
lit erature</w>
adj ac
it a</w>
chem ically</w>
S b</w>
L i</w>
A R
t own</w>
qu ick</w>
pharmaceu tical</w>
opath ic</w>
ex act</w>
ag onal</w>
T A</w>
199 4</w>
pre li
ol uminescence</w>
fl ame</w>
as sumption</w>
transmit ted</w>
mes h</w>
implem ented</w>
ar rhyth
an ted</w>
ev ol
ser ver</w>
diff use</w>
bor on</w>
CA M</w>
r ust</w>
piezo electric</w>
exac er
b uc
smo oth
gen s</w>
4 3</w>
vic inity</w>
lum bar</w>
intellig ent</w>
conver ter</w>
co sts</w>
ad d
ver if
otrop ic</w>
ot on
el lip
cover ing</w>
beg an</w>
so l</w>
prin cip
inter vention</w>
bor n</w>
ati le</w>
T R
cyto kine</w>
comput ational</w>
S D
subst anti
si vely</w>
p en
incorpor ated</w>
applic ability</w>
rhe a</w>
align ment</w>
absc ess</w>
geome try</w>
cap sul
las ers</w>
i ble</w>
electroph ore
cl onal</w>
Indu stry</w>
6 7</w>
st ationary</w>
so me
inf ants</w>
flo ating</w>
aldehy de</w>
transi tions</w>
pl ayed</w>
nitri de</w>
di alysis</w>
co ver</w>
clin ically</w>
cathe ter</w>
bon ds</w>
Ferm i</w>
g ang
plast y</w>
o vari
ent y</w>
bl ade</w>
ly ing</w>
lin ked</w>
cy stic</w>
2. 5</w>
de sorption</w>
cur v
MP a</w>
ur a</w>
u ro
ri sing</w>
p yl
fl av
cl ou
ast s</w>
Z T</w>
stri al</w>
peri ods</w>
br a</w>
S m
tic ul
sy m
an k
1 st</w>
surve yed</w>
hous ing</w>
vas cul
s om
s lip</w>
oc ular</w>
eng ths</w>
calibr ation</w>
H i
Dop pler</w>
transp or
to k
ep il
accep ted</w>
work ers</w>
v ill
in ate</w>
gri d</w>
eff orts</w>
develop mental</w>
deri vative</w>
contain er</w>
speci fied</w>
sol der</w>
r ab
osyn thesis</w>
is om
competi tion</w>
artic les</w>
remain ing</w>
em ic</w>
am bul
plan s</w>
or ization</w>
In P</w>
E P
ultras on
sp ra
K ore
Fe br
C ases</w>
w ri
transpa rent</w>
to oth</w>
seg ment</w>
radi otherapy</w>
pro long
cre ation</w>
ar ily</w>
O f</w>
te am</w>
mac roph
di a</w>
conser vative</w>
St and
H F</w>
ok a</w>
bil ateral</w>
Tre at
La w</w>
Ca 2</w>
t ase</w>
m 3</w>
ke eping</w>
N b</w>
suppl ied</w>
re ferring</w>
ke ep</w>
hear ing</w>
connec ting</w>
ach ment</w>
to ok</w>
or bit</w>
car s</w>
anomal ous</w>
ab er
out come</w>
n or</w>
se w
s co
percent age</w>
ha ir</w>
alg ia</w>
thorac ic</w>
se arch
s ent</w>
di tional</w>
b ow
as sign
B i</w>
nam ed</w>
anal og
s intering</w>
pene tration</w>
adv ances</w>
Febr uary</w>
E ach</w>
B ut</w>
ution ary</w>
te tra
st ag
pres sures</w>
poll en</w>
mam mary</w>
lo t</w>
biom ass</w>
asi c</w>
He al
C R</w>
re new
nucle ation</w>
life time</w>
chro m
C MOS</w>
stim ulated</w>
scop e</w>
qu in
oste o
optim ized</w>
mom entum</w>
cycl es</w>
condi tion
bre ak</w>
admin istr
fertili zation</w>
er arch
att ack</w>
anal og</w>
ampli fication</w>
shif ted</w>
sal es</w>
fertili zer</w>
er ous</w>
ass embl
t ask</w>
qu en
it ed</w>
foc al</w>
M O</w>
7 2</w>
1 50</w>
t ons</w>
i od
fin ally</w>
e osin
ro tor</w>
reinforc ement</w>
pharmac o
oly sis</w>
lig and</w>
er up
enti f
do t</w>
al is</w>
adop tion</w>
Ig G</w>
lin gs</w>
hous es</w>
ev ents</w>
elev ated</w>
dis sociation</w>
Con tro
A u
A A</w>
sla b</w>
s ap
oper ator</w>
ischem ia</w>
candi date</w>
a id</w>
a ic</w>
whe at</w>
rever sible</w>
e igen
as suming</w>
all el
3 9</w>
trun k</w>
re vised</w>
quar tz</w>
preli minary</w>
oxid ative</w>
adjac ent</w>
abnor mal
system atic</w>
r am
head ache</w>
graph ic</w>
us h</w>
im mobil
hy stere
he dr
arg on</w>
su s</w>
capacit or</w>
success ful</w>
ligh t
inter net</w>
h op
de al</w>
L P</w>
sequ ent</w>
k y</w>
identi fy</w>
fol lic
S S
verte bral</w>
poly ethylene</w>
p ain
to o</w>
p in
mut ual</w>
k u</w>
T EM</w>
Gro up</w>
favor able</w>
comp li
bul in</w>
abl ation</w>
M G</w>
199 3</w>
r ich
ounc ed</w>
au di
T S</w>
pa irs</w>
gra ft</w>
g on
comp are</w>
am bi
The ir</w>
therap ies</w>
mark ers</w>
l ity</w>
an a</w>
path way</w>
cen ters</w>
an ch
S uch</w>
C G</w>
5 6</w>
lubr ic
il es</w>
actu ator</w>
abnormal ities</w>
NO x</w>
v an
fil ters</w>
ul l
ti zed</w>
ch loro
atten uation</w>
aer o
ur ities</w>
elucid ate</w>
di ar
conduc tance</w>
ab ra
rele ased</w>
perf ect</w>
emplo ying</w>
S tu
An alysis</w>
f ishing</w>
em atic</w>
Os aka</w>
4 4</w>
sud den</w>
om ing</w>
actu ally</w>
6 3</w>
wor d</w>
tis m</w>
se ven</w>
remo ving</w>
pit u
p on
o si
inten se</w>
conv ection</w>
M ed
5 2</w>
4 6</w>
repe ti
ST M</w>
Mul ti
L V</w>
F D
v ance</w>
up take</w>
suppor ts</w>
ri f
lo ads</w>
ush ing</w>
resi du
princip al</w>
inter facial</w>
ag awa</w>
G E</w>
quanti ties</w>
organ izations</w>
fer rite</w>
correc t</w>
co operative</w>
acu ity</w>
tel e
sl iding</w>
e j
cataly sts</w>
muco sal</w>
form ulation</w>
depend ently</w>
capacit ance</w>
al one</w>
6 6</w>
t al
need le</w>
max im
4 1</w>
p assive</w>
ot yp
ol ip
imp ossible</w>
cal c
J IS</w>
v ess
investig ations</w>
ic le</w>
enti re</w>
alkal ine</w>
0. 2</w>
wea ther</w>
l ist</w>
hyper plasia</w>
gly cer
4 7</w>
seed ling</w>
P W
pa st
o v</w>
m ia</w>
in habit
hydr ation</w>
d ly</w>
O n
qu ick
laparo tomy</w>
initi ation</w>
chlor ine</w>
ac idi
ye ast</w>
in surance</w>
H S</w>
sp ray</w>
po is
gran ular</w>
R D</w>
P ol
seg reg
oscop ic</w>
ha z
an ode</w>
Heal th</w>
. 2</w>
res cence</w>
ichi a</w>
hyper troph
fing er</w>
ad mission</w>
N C</w>
Fe atures</w>
oti de</w>
gly c
ev ent</w>
en able</w>
ast er
T o
T E
I A</w>
pow ders</w>
her nia</w>
acet ate</w>
B S</w>
satis factory</w>
mel an
fre ed
M y
simpli fied</w>
occup ied</w>
feasi bility</w>
chro tron</w>
aff inity</w>
In formation</w>
vess els</w>
remo ve</w>
libr ary</w>
appl i
anc er</w>
view points</w>
solidi fication</w>
prin ted</w>
po x
5 1</w>
scat tered</w>
pres sive</w>
obvi ous</w>
m apping</w>
fer mentation</w>
excre tion</w>
P M
Clin ical</w>
hi erarch
ch iral</w>
targe ts</w>
ro u
min eral</w>
junc tions</w>
fi br
F uk
r yst
g ar
atop ic</w>
after wards</w>
abs ence</w>
Se veral</w>
re mission</w>
neigh b
in clin
immun os
gi ant</w>
cer tification</w>
P T</w>
G e
f ed</w>
consider able</w>
approxim ate</w>
is ed</w>
freed om</w>
ch y
cellul ose</w>
asymme tric</w>
oxid ase</w>
f lower</w>
dis si
N d</w>
B r
preven ting</w>
pres enting</w>
hard ening</w>
gu n</w>
gam ma</w>
compl ained</w>
ag ree</w>
E ast</w>
sp or
sp i
ome try</w>
k i</w>
d n
c raft</w>
av ig
anomal y</w>
t one</w>
sc en
plo t</w>
imp urities</w>
idi opathic</w>
G re
photoc ataly
ch ick
Ti O2</w>
T ot
L ar
v om
emit ted</w>
embed ded</w>
Zn O</w>
We b</w>
P M</w>
mon om
fo ods</w>
cont ain</w>
consi st
at rophy</w>
or dering</w>
mut ant</w>
at ric</w>
MO SF
tr action</w>
sh aring</w>
power ful</w>
light ning</w>
li ber
as ks</w>
an sw
nan ot
mini atur
invol ving</w>
inhibit ors</w>
cur y</w>
R E
prospec ts</w>
depend ed</w>
ver sion</w>
sp in
di ment</w>
cr acks</w>
ac coun
re production</w>
M ain</w>
2 3
k et
ero sion</w>
alkal i</w>
underst ood</w>
hab it</w>
soy bean</w>
recep tors</w>
dri ft</w>
B T</w>
precur sor</w>
h ness</w>
gi ving</w>
composi tions</w>
ak er</w>
S truc
F ac
strength ening</w>
residu es</w>
magne sium</w>
enc ing</w>
carri ers</w>
a thetic</w>
ti um</w>
ti d
sc an</w>
me ters</w>
linear ity</w>
benz ene</w>
arb itr
L CD</w>
wi res</w>
shar p</w>
shad ow</w>
in sic</w>
tro uble</w>
o vascular</w>
k V</w>
arteri osclerosis</w>
M I
6 1</w>
thor ax</w>
olec ular</w>
moder ate</w>
instr uments</w>
gu ar
AT P</w>
turbul ence</w>
sch er
compli ance</w>
C L</w>
recomm ended</w>
me eting</w>
ligh ting</w>
le x</w>
inve stment</w>
inoc ulation</w>
illustr ated</w>
entif ic</w>
acro ss</w>
pre treatment</w>
mo stly</w>
ir regular</w>
id ation</w>
free zing</w>
diff u
ac ted</w>
μ g</w>
ten ed</w>
invasi ve</w>
in er
hospit als</w>
fung us</w>
b ad</w>
ambul atory</w>
adop ting</w>
T P</w>
st ance</w>
gran ul
fres h</w>
A M</w>
6 8</w>
tr ade</w>
rough ly</w>
facil it
eti ology</w>
ell ing</w>
anx iety</w>
shif ts</w>
resi due</w>
mil l</w>
de fl
ammon ium</w>
8 00</w>
ur ia</w>
te a</w>
oxidi zed</w>
oly tic</w>
o red</w>
ca ro
anisotrop ic</w>
R adi
1. 0</w>
s un
mix tures</w>
heter ogen
ex ca
Y am
S M</w>
E scher
mun ici
equip ments</w>
aggreg ate</w>
sla g</w>
rect angular</w>
phen ol</w>
opoi etic</w>
lith ography</w>
ill us</w>
boil er</w>
Z r</w>
t aste</w>
syn chrotron</w>
per manent</w>
lik ely</w>
gr ating</w>
recogn ize</w>
real izing</w>
pel v
nit ed</w>
al ve
tra ditional</w>
sur fact
pres entation</w>
lo rescence</w>
liqu e
fi st
constr aint</w>
anti bacterial</w>
antagon ist</w>
A ut
pro jection</w>
ex chang
compl aints</w>
H P</w>
pi g</w>
induc es</w>
il ization</w>
gro und
an ine</w>
S ci
P F
Escher ichia</w>
reas on
go ods</w>
g ear</w>
electro cardi
do ts</w>
b li
adequ ate</w>
Treat ment</w>
tub es</w>
cr acking</w>
compu ting</w>
r ings</w>
hel ium</w>
Meas ure
5 4</w>
x ia</w>
sh allow</w>
repres entation</w>
propos al</w>
pat ent</w>
men tions</w>
hystere sis</w>
fo ur
f f</w>
b ig
autom ation</w>
I V
ro ots</w>
resear ch
ne gl
isol one</w>
famil ies</w>
config ur
con ve
l amp</w>
cytoplas m</w>
H ar
Al 2O3</w>
yl ase</w>
sp here</w>
hypo thesis</w>
LA N</w>
hist ologically</w>
divid ing</w>
de vised</w>
Th rough</w>
dom ains</w>
dam aged</w>
E P</w>
up grading</w>
me et</w>
curv ature</w>
coc cus</w>
au tions</w>
R F
Mg O</w>
As sociation</w>
v ary</w>
om as</w>
describ ing</w>
constr aints</w>
conf erence</w>
N H
stres ses</w>
piec e</w>
lim b</w>
in no
elec om
bow el</w>
assi sted</w>
H all</w>
6 2</w>
rec i
hydro chloride</w>
distinc t</w>
con genital</w>
com es</w>
ambi ent</w>
x es</w>
verif y</w>
pl ex
nan o
in ter</w>
hydrox y
U l
NT T</w>
w estern</w>
og ly
elas ticity</w>
b om
jo int
calcul ating</w>
M V</w>
Ga us
vel oci
pi x
off er</w>
absor bed</w>
pitu itary</w>
mer cury</w>
l ack</w>
L S</w>
ex tensive</w>
d less</w>
simil arity</w>
sc aling</w>
plac ing</w>
n ation</w>
e di
cat ch</w>
P G</w>
ear li
ar sen
a w</w>
C CD</w>
wor ds</w>
visu alization</w>
ox in</w>
elecom mun
accum ul
u ous</w>
rem ains</w>
rand om
pack et</w>
ow s</w>
ok ed</w>
ke V</w>
guar an
bro wn</w>
ad mitted</w>
sp an</w>
sh rin
le ts</w>
es el</w>
embol ism</w>
dyst rophy</w>
constitu tion</w>
a b</w>
C d</w>
w rit
unc h</w>
tre ating</w>
sti ff
s ely</w>
rig id</w>
regul ations</w>
r f</w>
neu troph
9 8</w>
me aning</w>
form ulated</w>
fol d</w>
ell er</w>
band width</w>
P oly
Ger many</w>
Ap plication</w>
tra um
se diment</w>
p ile</w>
n avig
inter faces</w>
i bility</w>
enti ally</w>
deri vation</w>
cu bic</w>
ath yro
Y AG</w>
N b
Ig E</w>
satis fy</w>
reg istration</w>
re pl
per fusion</w>
imp ul
dist al</w>
au x
5 00
uncer tain
publ ished</w>
en sis</w>
asp ir
separ ate</w>
neuron s</w>
k noc
immuno histo
cap tioned</w>
V i
us ting</w>
uniform ity</w>
tri als</w>
su pers
squ am
ore s</w>
ol ine</w>
se em</w>
s an
pre dn
dem ia</w>
aff ecting</w>
RA M</w>
sub sequent</w>
ru n</w>
larg ely</w>
it on</w>
generat es</w>
correspon d</w>
5 8</w>
t uring</w>
pol yp
lin early</w>
joint ly</w>
character s</w>
selec tively</w>
im mer
fl ex
accord ance</w>
S te
S E</w>
recor ds</w>
condens ation</w>
t asks</w>
statis tics</w>
reg ulated</w>
ill ing</w>
fo ot</w>
el ine</w>
antibio tics</w>
C an
d c</w>
com ing</w>
ari a</w>
7 0
trans ferred</w>
ti d</w>
t ment</w>
reser vo
eg gs</w>
ad a</w>
se eds</w>
purpos es</w>
om ic</w>
inf inite</w>
hybri di
ex per
F EM</w>
199 2</w>
shi elding</w>
coun ter</w>
U nited</w>
rang es</w>
psy chi
in cu
guidel ines</w>
en trop
alco hol
L D</w>
2 2
pu ts</w>
macro scopic</w>
lig ament</w>
af f</w>
waf ers</w>
quick ly</w>
pois oning</w>
li pi
grasp ing</w>
bec oming</w>
E GF</w>
Di ag
sol vents</w>
c ad
En g
C B
A R</w>
v itation</w>
search ed</w>
refrig er
li mi
int ensities</w>
impro vements</w>
cro p</w>
c ally</w>
Ph ot
yel low</w>
promot er</w>
op s</w>
min er
m uc
impl anted</w>
der mat
cr uc
bus t</w>
war m</w>
ulom b</w>
trans duction</w>
predn isolone</w>
sul fur
limi ting</w>
interpre ted</w>
flu idi
bon ded</w>
b ath</w>
v ul
es sion</w>
um in</w>
ultrason ography</w>
top ics</w>
rad icals</w>
prec autions</w>
maint aining</w>
hibi ting</w>
h ou
ess ed</w>
b is
S r</w>
0.0 5</w>
proc e
plat form</w>
perturb ation</w>
it ri
an ium</w>
H am
A V
w eld</w>
sup pressing</w>
re ar</w>
p yro
fall ing</w>
adi um</w>
Ri ver</w>
rais ing</w>
pur ity</w>
method ology</w>
ch ip
car d</w>
a ort
P R</w>
se al</w>
cardi ovascular</w>
b yp
amin ation</w>
enh ance</w>
P ati
N P</w>
4 9</w>
wash ing</w>
interpre tation</w>
in direct</w>
ger min
di aph
Imp ro
B asic</w>
1 20</w>
trans genic</w>
ste els</w>
pass ing</w>
orig inated</w>
le t
f ri
dis c</w>
analy sed</w>
P ZT</w>
D y
cere b
str ing</w>
illumin ation</w>
es cent</w>
bio chemical</w>
b if
b ases</w>
S up
G S</w>
B lo
phon on</w>
n ation
mort ality</w>
in sec
electrophore sis</w>
cultiv ated</w>
urg ent</w>
ro bust</w>
conveni ent</w>
fil tr
E SR</w>
D P</w>
trans formed</w>
tex ture</w>
sto ch
progres sed</w>
op por
infra structure</w>
gro w</w>
compres sive</w>
P hy
monol ayer</w>
medi ated</w>
est rogen</w>
dis m</w>
circul atory</w>
c yst
Ti O3</w>
E ar
u bl
oscill ations</w>
psych ological</w>
deman ds</w>
5 7</w>
en rich
b ic
as hi
C ro
oper ate</w>
emp ir
air craft</w>
Con si
yi elds</w>
reve al</w>
6 9</w>
vi al</w>
re produced</w>
em is
ec tural</w>
car bo
F r
vol un
pump ing</w>
is ely</w>
inter mit
histopath ological</w>
dr inking</w>
de als</w>
coll apse</w>
accep tor</w>
termin als</w>
hyp ot
et ch</w>
depend ency</w>
uti lity</w>
ten ds</w>
sci entific</w>
deri ve</w>
ch e
par alysis</w>
inv ari
hol ding</w>
di pole</w>
ari th
anne aled</w>
X PS</w>
utili zes</w>
surve ys</w>
iod ine</w>
gener ative</w>
excit on</w>
cros sing</w>
conclu sion</w>
ben ign</w>
at titude</w>
ab ounding</w>
P ri
E E
Character istics</w>
te oro
spectro meter</w>
ri tic</w>
ensi n</w>
Ky oto</w>
rele vant</w>
au d
t ail</w>
over come</w>
os a</w>
S U
Contro l</w>
perform ing</w>
hel p</w>
P V</w>
A gency</w>
stra ight</w>
rol l</w>
ri ses</w>
requ iring</w>
pro to
od or</w>
i i</w>
fig ure</w>
elucid ated</w>
Num erical</w>
Co ulomb</w>
mo tions</w>
diar rhea</w>
correspon ds</w>
perfor ation</w>
m it</w>
immunos up
emit ting</w>
co ast
a vi
yp ical</w>
ure th
u bility</w>
pass eng
ground water</w>
fist ula</w>
de duced</w>
bo ok</w>
M F</w>
L ang
rif ug
inte red</w>
in hib
expres s</w>
exc essive</w>
di esel</w>
coordin ate</w>
R I</w>
C e
A g
ro of</w>
phot oluminescence</w>
gir der</w>
de ple
compar ative</w>
canc ers</w>
adju sted</w>
w et
re ading</w>
occur ring</w>
isotop e</w>
R I
P las
IS A</w>
7 1</w>
199 1</w>
vi l</w>
stro ke</w>
m ented</w>
h olog
gen e
far m</w>
expres sions</w>
eff lorescence</w>
Po st
A T</w>
super critical</w>
obser ving</w>
hyper lipi
7 7</w>
lim its</w>
i e</w>
addi tives</w>
Z r
sens ory</w>
in ating</w>
d om</w>
ci ti
behavi our</w>
Con struction</w>
veget ation</w>
selec ting</w>
se a
pol ishing</w>
mer it</w>
inver sion</w>
arbitr ary</w>
acidi c</w>
O per
vin yl</w>
re combin
ol ds</w>
judg ment</w>
ze ol
tox ic</w>
skel etal</w>
sec tional</w>
pharmac ological</w>
normal ized</w>
diaph rag
pri ority</w>
manip ul
cl ay</w>
al og
w est</w>
st aff</w>
prob ably</w>
S hi
D r
tra p</w>
prepar ations</w>
prac tic
par athyro
exec uted</w>
erup tion</w>
G u
D a</w>
tur ning</w>
t ax
fibro sis</w>
e pox
dra w
char t</w>
T or
G PS</w>
sub cutaneous</w>
sol ubility</w>
neuro logical</w>
micro organisms</w>
lymph ocytes</w>
g ram</w>
T emp
P H</w>
N I
stoch astic</w>
sin us</w>
plan ted</w>
occlu sion</w>
lin kage</w>
h tness</w>
compar able</w>
M W</w>
E B</w>
sign s</w>
radio active</w>
im ide</w>
A k
198 9</w>
regar dless</w>
inter ior</w>
develop s</w>
compati bility</w>
ar ri
M E</w>
squam ous</w>
s ale</w>
qualit ative</w>
popul ations</w>
eren tial</w>
T R</w>
pap ers</w>
le p
el i
earli er</w>
conduc t</w>
chall eng
Chem ical</w>
tro pol
stre t
c c</w>
F E</w>
veloci ties</w>
vari ance</w>
recei ver</w>
multi media</w>
m us</w>
cyclo tron</w>
byp ass</w>
ach i</w>
Elec tron</w>
prec isely</w>
lin e
hel ical</w>
ev ed</w>
electroly tic</w>
e ity</w>
Kore a</w>
she ath</w>
s ure</w>
h und
eren ces</w>
ec ond</w>
dis section</w>
cle an
H C</w>
Eng ine
recur rent</w>
defici ent</w>
aper ture</w>
segreg ation</w>
s intered</w>
pos e</w>
li tis</w>
intr insic</w>
dy ing</w>
dri l
aort a</w>
a ur
2 4
m outh</w>
larg ement</w>
four th</w>
cap ture</w>
b ilities</w>
pre p
navig ation</w>
me at</w>
m ang
i tive</w>
grasp ed</w>
g el
de s
analy zer</w>
al i
T e
vol can
av age</w>
trans former</w>
s en</w>
restor ation</w>
preven ted</w>
ec tic</w>
ve si
symp athetic</w>
satis faction</w>
oc or
ob struction</w>
g an
de x
compati ble</w>
P s</w>
P R
M ech
C F</w>
stop ped</w>
fo il</w>
fix ing</w>
chol ec
T ai
A t
shoul der</w>
rig idity</w>
prec eding</w>
pepti des</w>
p .</w>
expan ding</w>
con g
L a</w>
H is</w>
AT M</w>
5 9</w>
tra jec
lim bs</w>
ile us</w>
empha sized</w>
cent rifug
H g</w>
2 D</w>
0. 3</w>
v ae</w>
suppl em
dem ic</w>
cor relations</w>
bur den</w>
bran ches</w>
O kin
star ch</w>
sal i
r in</w>
n ers</w>
ey n
ear ing</w>
cr ude</w>
ari um</w>
am i</w>
L o
H O
sac char
reas ons</w>
rain fall</w>
m m
gl u
establish ing</w>
b ular</w>
V A</w>
Isl and</w>
ven ess</w>
restric ted</w>
perf ec
k Hz</w>
f et
en coding</w>
dri ver</w>
configur ations</w>
att ained</w>
No .
Ab out</w>
vacc ination</w>
pat ch</w>
in dependently</w>
g y
ep i
elem ental</w>
di an</w>
bat ch</w>
b und
Pro c
L ow</w>
sub si
rheum atism</w>
pers on
ill ness</w>
hyper tensive</w>
er ies</w>
e ase</w>
c li
al t</w>
S .</w>
volt ages</w>
sup posed</w>
satis fied</w>
ph a</w>
mono clonal</w>
en ia</w>
angi ot
al lin
aer os
ad ults</w>
leg al</w>
g asi
assess ed</w>
accel erator</w>
P b
D F</w>
rel ati
perfec tly</w>
path ology</w>
hol low</w>
hard ly</w>
c lock</w>
as aki</w>
quad r
other mic</w>
en largement</w>
capsul e</w>
sup presses</w>
simul ate</w>
rot ary</w>
mot ors</w>
min d</w>
ent ations</w>
d enti
re ad
lac t
it ting</w>
consi st</w>
ack ed</w>
9 0
trans fer
reservo ir</w>
o virus</w>
life style</w>
arsen ic</w>
anastom osis</w>
Nor th</w>
Eu ro
per oxide</w>
nar ro
er ally</w>
en ic</w>
empir ical</w>
T a
Sh in
y ment</w>
ti vities</w>
path o
indic es</w>
hyperlipi demia</w>
fi f
ed ges</w>
HP LC</w>
ti ter</w>
os es</w>
op ened</w>
lat ent</w>
f ly</w>
expec tation</w>
er ci
en sur
at or
Tot al</w>
B o
system atically</w>
D O
thermo dynamic</w>
re aring</w>
med ication</w>
inclu sion</w>
f air
corti co
confin ement</w>
allow ed</w>
air way</w>
P G
Mi y
trans l
thrombo sis</w>
teoro logical</w>
pa id</w>
geo thermal</w>
frag ment</w>
conver gence</w>
y cle</w>
provid ing</w>
prep are</w>
med ull
hybridi zation</w>
far ming</w>
c ame</w>
trans duc
tempor ary</w>
s on
pro f
mus cles</w>
i asis</w>
entrop y</w>
discrimin ation</w>
complex ity</w>
N F
Ap pl
trop ical</w>
ton ian</w>
oper ators</w>
fil l</w>
an o</w>
PE G</w>
ure a</w>
fluc tu
d ental</w>
contrib utes</w>
ay ers</w>
ann ounced</w>
tw ice</w>
i dism</w>
fin ished</w>
erm is</w>
down stream</w>
cy tes</w>
aster n</w>
an ion</w>
m ess
instr um
in struction</w>
g ent</w>
clou d</w>
cle ar
aer obic</w>
W ater</w>
2 O
r al</w>
pene tr
k en</w>
f etal</w>
custom er</w>
b les</w>
ac e
t oug
re agent</w>
ograph ical</w>
nutri ent</w>
dra ft</w>
transist ors</w>
recombin ant</w>
ill a</w>
aro matic</w>
am ing</w>
H2 O</w>
Gaus sian</w>
synchron ous</w>
gre w</w>
con tract</w>
coast al</w>
P .</w>
EL ISA</w>
u oka</w>
sil ane</w>
olog ous</w>
ush u</w>
epil ep
epidemi ology</w>
ac etic</w>
Okin awa</w>
3 K</w>
view ed</w>
succ ess</w>
glas ses</w>
e rec
com mon
at ous</w>
antic ip
am ic</w>
T C</w>
se ver
reson ator</w>
res ected</w>
h il
design ated</w>
7 8</w>
v ectors</w>
tow ards</w>
through put</w>
path ophysi
os tic</w>
gr ass</w>
en or
el f</w>
bel i
M s</w>
M agnetic</w>
selec t</w>
multipl ication</w>
f al
cre ate</w>
c ab
bre aking</w>
F M</w>
tl ement</w>
poly crystalline</w>
ac qu
tin gs</w>
rec ip
re ach</w>
is lands</w>
epid ermis</w>
emul sion</w>
de structive</w>
cr an
chick en</w>
B ay</w>
summar izes</w>
spre ading</w>
sl ur
reac tors</w>
nan op
allin ity</w>
shi eld</w>
re aches</w>
ovari an</w>
mut ations</w>
h u
H osp
198 8</w>
wh y</w>
up stream</w>
sal ts</w>
rad ar</w>
on t
me al</w>
int ensi
institu tions</w>
con form
bloc ks</w>
at edly</w>
Ne twor
L ED</w>
ip p
form al
clos ure</w>
chip s</w>
L O
B ri
9 9</w>
y en</w>
v als</w>
sl ide</w>
semiconduc tors</w>
sched ule</w>
re placed</w>
physi ci
mol ar</w>
lob in</w>
laparo scopic</w>
k ers</w>
extrac ellular</w>
epid ural</w>
eff ort</w>
ag ic</w>
S ing
Hosp ital</w>
path ogenesis</w>
man di
flexi bility</w>
b its</w>
plan es</w>
phot onic</w>
dy sp
aero dynamic</w>
acet yl
1. 5
wat ers</w>
sum mary</w>
spra ying</w>
schedul ing</w>
es tic
er ated</w>
compo sites</w>
V I</w>
S ol
Lt d</w>
Hy dro
Environ ment</w>
D es
pyl ori</w>
p us</w>
om s</w>
n ative</w>
lo aded</w>
ec os
decomp osed</w>
the ories</w>
ot e</w>
mic ron</w>
hou se
fore sts</w>
expl ic
eth yl
can al</w>
aggreg ation</w>
W H
Na Cl</w>
Lar ge</w>
H LA</w>
D et
2 50</w>
w an</w>
te en</w>
ser vo</w>
s ors</w>
prote ase</w>
mod ulated</w>
k Da</w>
co generation</w>
cas c
tow er</w>
thromb us</w>
m erg
inter rup
fro zen</w>
b ac
adj usting</w>
U.S .</w>
Sci ence</w>
poll ut
photo electron</w>
ph thal
magne ts</w>
lac tic</w>
Euro pe
stri p</w>
sh ore</w>
piec es</w>
m ent
fil e</w>
cros s
carb ide</w>
at oid</w>
ster one</w>
reproduc ibility</w>
prac tically</w>
f el
e e</w>
automob iles</w>
vol atile</w>
oscill ator</w>
ign ition</w>
AL S</w>
AC TH</w>
7 00</w>
uniform ly</w>
tre at</w>
ophil ic</w>
hor mon
electron ics</w>
anti ferromagnetic</w>
stu dying</w>
orth og
li ve</w>
l am
ej un
clim ate</w>
bi o</w>
N As</w>
wri ting</w>
re ferred</w>
pro gn
physi cs</w>
oc ellular</w>
pl us</w>
nephro pathy</w>
knoc k
f os
elev ation</w>
custom ers</w>
co ugh</w>
b ent</w>
Comp ar
198 7</w>
spac ing</w>
hist or
dam ages</w>
caus al</w>
angiot ensin</w>
D ata</w>
re present</w>
ne on
ing estion</w>
dis locations</w>
develop ments</w>
seed lings</w>
schedul ed</w>
poly nom
phosph olip
phen yl</w>
os h
op posi
indic ator</w>
character ization</w>
F our</w>
v ital</w>
st and</w>
sp iral</w>
seas onal</w>
review s</w>
investig ating</w>
ber g</w>
S E
volt aic</w>
scl erosis</w>
robo ts</w>
induc ing</w>
addi tive</w>
T ak
Oc ean</w>
Con sequently</w>
ra ise</w>
pur ch
mod ules</w>
lin king</w>
las tic</w>
k ling</w>
func tion
expl ain
P ath
H .</w>
F T
view s</w>
v .</w>
be sides</w>
AC E</w>
7 4</w>
si ties</w>
pseud o</w>
pap illary</w>
j ejun
hydro lysis</w>
engine ers</w>
dis rup
cryst allinity</w>
co erci
alb umin</w>
x y
trans lation</w>
sy no
si vity</w>
scen ari
path ogenic</w>
nor thern</w>
lo g</w>
di etary</w>
contrib uted</w>
aux iliary</w>
atri al</w>
Sim ul
R eyn
L .</w>
stand point</w>
s and
re frac
rang ed</w>
ocy tic</w>
miniatur ization</w>
ex tin
az ole</w>
se eding</w>
n um</w>
n ic</w>
fron tal</w>
flow ing</w>
exc eeded</w>
epidemi ological</w>
co bal
chro me</w>
P e
IS O
I M</w>
Ch ang
st en</w>
oc ks</w>
m assive</w>
k in</w>
hypertroph y</w>
c ured</w>
V O
sp ots</w>
og lobin</w>
ob jec
micro organism</w>
man n</w>
8 8</w>
u bi
oper atively</w>
mat uration</w>
m M</w>
dissi pation</w>
di odes</w>
b os
polymer ase</w>
nit ric</w>
gastro intestinal</w>
f an</w>
ens es</w>
duoden al</w>
consi ders</w>
carcin ogenesis</w>
b y
atin gs</w>
appli ances</w>
P r
vari ant</w>
substitu ted</w>
struc tured</w>
si zing</w>
reproduc tive</w>
re turn</w>
pol lin
multipl ex
institu tion</w>
in filtr
empha sis</w>
comple tion</w>
bri dges</w>
bet a</w>
at er
aro se</w>
anti gens</w>
allow ing</w>
for th</w>
doc ument</w>
co ast</w>
tox in</w>
toug hness</w>
sever ity</w>
refl ect</w>
pro static</w>
p in</w>
oph thal
manufacture r</w>
m ous</w>
he igh
c ure</w>
autom ated</w>
Ti N</w>
sp ind
low ers</w>
ec t
cur ved</w>
Sub jects</w>
t ap
p ac
l l
fol i
L y
L in
A E</w>
u des</w>
surfact ant</w>
proxim al</w>
diaphrag m</w>
Op tical</w>
M ax
F 2</w>
7 6</w>
u ter</w>
stron ger</w>
spectroscop ic</w>
some times</w>
silic one</w>
pres sed</w>
or a</w>
inte resting</w>
immobil ized</w>
est ed</w>
de formed</w>
chro mium</w>
c ei
ash i</w>
S outh</w>
E .</w>
p al</w>
mechan ics</w>
e th</w>
ac tor</w>
0. 1
therm ally</w>
n d</w>
colo red</w>
basi n</w>
arrhyth mia</w>
W el
N eu
A sian</w>
interfer on</w>
em a</w>
LD L</w>
I G
vibr ational</w>
secon ds</w>
rhyth m</w>
p ent
lar vae</w>
fru its</w>
enzy matic</w>
dis played</w>
compu ter
ap on
tra vel
tr ue</w>
them e</w>
s outh</w>
r a</w>
questionnair ing</w>
qu estion</w>
machin ery</w>
ir con
ins ect</w>
far m
ech ocardi
coll ecting</w>
MR SA</w>
H el
spl een</w>
reg ime</w>
ir y</w>
de uter
d air
co ar
R u
0. 3
r ices</w>
knock out</w>
in o</w>
combin es</w>
analge sic</w>
all erg
S oci
Or gan
Meth od</w>
v oid</w>
us al</w>
st ain</w>
ju ven
em o
curren tly</w>
am es</w>
ac compl
X RD</w>
Out line</w>
Europe an</w>
stiff ness</w>
mod eled</w>
al izing</w>
CR P</w>
0. 4</w>
vari es</w>
us able</w>
si cal</w>
path ogen
n ary</w>
it an</w>
ess ing</w>
E ven</w>
so ils</w>
slur ry</w>
magne tism</w>
hand ic
c all</w>
appro ved</w>
Reyn olds</w>
work shop</w>
ster ilization</w>
polic ies</w>
ol e
hin d</w>
defl ection</w>
alve olar</w>
ab or
Tran s
T ype</w>
Impro vement</w>
2 9
tub ation</w>
tr yp
possi bly</w>
oppor tun
antic ancer</w>
accompan ying</w>
In te
um n</w>
roph ic</w>
phen yl
ed dy</w>
condition er</w>
anc ies</w>
research ers</w>
pil ot</w>
oc al</w>
mitochondri al</w>
los ses</w>
gre enh
b on</w>
autonom ous</w>
Med ical</w>
Indu strial</w>
tro ns</w>
statis tically</w>
prolong ed</w>
lo st</w>
c it
al location</w>
abra sion</w>
S o</w>
wh om</w>
to tic</w>
pop ular</w>
hy dri
diff er</w>
colum ns</w>
clari fies</w>
cardi a</w>
ay ama</w>
ther s</w>
p y</w>
lique faction</w>
k an
extrac ts</w>
evap or
epox y</w>
eng ines</w>
d on</w>
col lo
an us</w>
I CP</w>
ur anium</w>
rap h
path ologic</w>
opposi te</w>
monit ored</w>
le th
f aster</w>
S U</w>
osph ere</w>
estim ates</w>
P O</w>
vibr ations</w>
s me
ret ained</w>
p age</w>
incin eration</w>
fit ting</w>
cur ing</w>
adv ancing</w>
tun ing</w>
short age</w>
recei ve</w>
is otropic</w>
inter vals</w>
he ater</w>
dr astic</w>
deposi t</w>
O k
8 6</w>
pregn ant</w>
hepat ocellular</w>
amylo id</w>
W ith
V T</w>
SO I</w>
P ur
H igh
zeol ite</w>
vom iting</w>
s tic
pip es</w>
coordin ation</w>
al .</w>
lay out</w>
co sm
t ape</w>
specific ally</w>
not e</w>
mo ve</w>
frag ments</w>
f ission</w>
de hydrogen
ampli fied</w>
L T</w>
B u
1. 2</w>
reason able</w>
plan k
photo voltaic</w>
k ey
imp er
gran ules</w>
comp ost</w>
comfor t</w>
cobal t</w>
In cre
proper ly</w>
op tics</w>
flu ence</w>
fin ishing</w>
cr yp
ap ter</w>
Sur face</w>
3 ,
sequ ential</w>
promot es</w>
opin ions</w>
off set</w>
mor b
mo id</w>
g .</w>
ensi tivity</w>
coron a</w>
In v
se c</w>
sc ales</w>
prote in
in cision</w>
ill s</w>
he re
correc ted</w>
bur ning</w>
aud it
ar t</w>
agre es</w>
S y
Lab oratory</w>
tr apped</w>
compres sed</w>
ad verse</w>
aber ration</w>
T a</w>
SL E</w>
Pro blems</w>
B a</w>
AI DS</w>
sex ual</w>
sew age</w>
scal ar</w>
renew al</w>
pur su
path ogen</w>
mat rices</w>
m aster</w>
il ic</w>
flu ids</w>
L B</w>
Be sides</w>
writ ten</w>
wel ls</w>
tot ox
ten d</w>
rheum atoid</w>
graf ting</w>
dysp nea</w>
det ec
consul tation</w>
confin ed</w>
comp il
aut opsy</w>
IT S</w>
HB V</w>
tun g
strength ened</w>
re ad</w>
marg in</w>
ell s</w>
K A</w>
EC R</w>
Al N</w>
0.0 1</w>
minim ize</w>
mes enter
limit ation</w>
hund red</w>
ex othermic</w>
Sim ulation</w>
weigh ts</w>
s m</w>
pp ed</w>
i ther</w>
hepat oma</w>
exca vation</w>
d .
clari fying</w>
ch lo
Tai wan</w>
Soci ety</w>
S R
In As</w>
E X
tom ato</w>
gasi fication</w>
d ay
con e</w>
Post operative</w>
M M</w>
4 00
tropol itan</w>
sec tor</w>
neur on</w>
mat ch</w>
magneto resistance</w>
hem o
dis til
cor ne
common ly</w>
co ded</w>
clear ance</w>
ath ing</w>
al pha</w>
T ime</w>
O N</w>
198 6</w>
sou thern</w>
n ine</w>
mar tensi
lamin ated</w>
intermit tent</w>
dropl et</w>
diff ered</w>
dang er</w>
ci ties</w>
Com mun
rel ate</w>
otyp es</w>
nucle otide</w>
he red
greenh ouse</w>
anticip ated</w>
vol ution</w>
v ag
uncertain ty</w>
til t</w>
hib a</w>
get ting</w>
ex tensi
emit ter</w>
dra g</w>
dis plays</w>
atic s</w>
acryl ic</w>
F l
Di rec
t ext</w>
str ati
mar ks</w>
guid es</w>
gro ove</w>
e str
bloc king</w>
au sten
amp les</w>
Gen eral</w>
C C
ve stock</w>
st ances</w>
sh are</w>
quen ching</w>
ph ire</w>
impul se</w>
h am
dos es</w>
bu d
Cl 2</w>
z ircon
shor tened</w>
retin a</w>
po ro
pe di
m id</w>
flo od</w>
f ab
diox in</w>
diff ers</w>
casc ade</w>
N K</w>
seg ments</w>
ox yl
infec tions</w>
g low</w>
frac tures</w>
earthqu akes</w>
dril ling</w>
doc tors</w>
coag ul
co litis</w>
at ase</w>
Th ermal</w>
M a
o king</w>
mo vements</w>
is es</w>
h r</w>
colo rectal</w>
bur ied</w>
Ky ushu</w>
vis tic</w>
h app
gra vit
T NF</w>
under lying</w>
mp s</w>
min or</w>
fung i</w>
forec ast</w>
follow ings</w>
em erg
defin ite</w>
cen tering</w>
aris ing</w>
acti n</w>
Networ k</w>
8 3</w>
preser ved</w>
pathophysi ology</w>
hedr al</w>
dor sal</w>
deterior ated</w>
bl ast
as tin
Tor r</w>
S F</w>
Im mun
sp ort</w>
gast rectomy</w>
fac ts</w>
exacer bation</w>
e an
deple tion</w>
cal ori
advant ag
T aking</w>
T D</w>
worl d
w er</w>
tw enty</w>
tend on</w>
sur ge</w>
pres um
mil li
et on</w>
electrocardi ogram</w>
diame ters</w>
chromos omes</w>
cerebro vascular</w>
calcul us</w>
atin um</w>
ag gra
Ham il
Environ mental</w>
ET s</w>
W a
T CP</w>
S B
Engine ering</w>
D ist
198 0</w>
tim ate</w>
om orph
inhabit ants</w>
embr yo</w>
co t
cer vi
bo w</w>
asc ites</w>
alk yl</w>
t elecommun
s li
progres sion</w>
g est
en try</w>
dis charges</w>
cro ps</w>
ap l
Ne w
D A</w>
super conductor</w>
scin ti
pre valence</w>
p tions</w>
harv esting</w>
ch el
c us
be y
S yn
M it
Ad v
stimul us</w>
sn ow
sea water</w>
jo b</w>
expon ential</w>
exchang er</w>
exce eds</w>
bra ke</w>
avail ability</w>
V .</w>
S W
S L</w>
G Pa</w>
3. 5</w>
v ine</w>
stit utes</w>
reac ted</w>
mat ched</w>
fair ly</w>
audit ory</w>
adju vant</w>
Sec on
MB E</w>
. 3</w>
suff ered</w>
s .</w>
post ure</w>
per cent</w>
p ick
nit ro
hydroph obic</w>
fluidi zed</w>
exclu sive</w>
del e
conduc tors</w>
centrifug al</w>
over l
my o
l ati
dair y</w>
con sol
aut umn</w>
ap o
an g</w>
Wel fare</w>
9 6</w>
2 O</w>
ur ies</w>
t a
stom y</w>
spind le</w>
prepar ing</w>
ocy tosis</w>
k a</w>
e able</w>
compres sor</w>
ar ching</w>
S V</w>
Cor p.</w>
An ti
si de
quar k</w>
og lo
ec tures</w>
cervi x</w>
assi st</w>
aris es</w>
N G</w>
F lu
4 50</w>
shrin kage</w>
respon sibility</w>
pa vement</w>
kin son</w>
hum ans</w>
hormon es</w>
F uture</w>
C N</w>
B O
A F</w>
tom ograph</w>
su ture</w>
ser ial</w>
sap phire</w>
ri um</w>
relati vistic</w>
per ception</w>
li pos
endoscop e</w>
Eff ect</w>
2. 0</w>
rever sed</w>
oy a</w>
malign ancy</w>
com mod
coll ector</w>
brig htness</w>
belong ing</w>
arter ies</w>
wel ded</w>
visco us</w>
un necessary</w>
t rib
op hi
nor th</w>
my co
lay ing</w>
MOSF ET</w>
198 5</w>
saf ely</w>
regi stered</w>
rect um</w>
orig inally</w>
o ve
mom ents</w>
medi astin
exac tly</w>
en ium</w>
electro positive</w>
continu ity</w>
W estern</w>
R H</w>
un t</w>
t ting</w>
refl ecting</w>
exc imer</w>
dis h</w>
cover age</w>
K o
z ones</w>
ultr af
ul cer
sp ine</w>
se arching</w>
radi ative</w>
pix el</w>
macroph age</w>
j apon
compl em
b it
S ign
E r
E l
ul f
real istic</w>
re constructed</w>
i ent</w>
hy pers
hol ds</w>
cha otic</w>
att achment</w>
analy tically</w>
ain e</w>
L E
7 9</w>
val ves</w>
ultras ound</w>
s low
hos ph
h n</w>
cul ation</w>
ag ement</w>
B r</w>
w t</w>
visi ted</w>
ron ic</w>
di lat
carb ons</w>
T M</w>
uni fied</w>
ul monary</w>
tele vision</w>
le ar</w>
ex tra
de ad</w>
b ing</w>
anesthe tic</w>
P N</w>
t ack
ing ing</w>
immun ological</w>
hydro dynamic</w>
fec es</w>
esophag us</w>
dic h
cr y
cl one</w>
ar ach
adi ly</w>
T 1</w>
AD L</w>
strateg ies</w>
regul atory</w>
photocataly st</w>
phosphor ylation</w>
parti tion</w>
me teorological</w>
l ecture</w>
cy an
caro tid</w>
carbo hydrate</w>
S yst
ventr icle</w>
sedim entation</w>
pul sion</w>
mang anese</w>
lin ing</w>
k it</w>
ic an</w>
hepat ectomy</w>
he imer</w>
der ma</w>
competi tive</w>
bif ur
a way</w>
G IS</w>
C E</w>
8 4</w>
succ essive</w>
s ay</w>
ph yl
out door</w>
nor m
geome tric</w>
encephal opathy</w>
elem entary</w>
d ates</w>
bub bles</w>
ati te</w>
ass ess</w>
a e
S urg
G l
D VD</w>
1 80</w>
tung sten</w>
re turned</w>
rati on
pe eling</w>
osyn thetic</w>
int ensive</w>
dra wn</w>
ar rays</w>
Gre en</w>
0. 6</w>
inf er
id ine</w>
fic ations</w>
evalu ations</w>
epti de</w>
e dition</w>
co ils</w>
b ated</w>
1. 3</w>
world wide</w>
uc l
suppl ying</w>
pump s</w>
ju ice</w>
intr am
est s</w>
electr o</w>
ecos ystem</w>
de od
cy totox
bey ond</w>
advantag eous</w>
Th ail
S il
Ob ser
H T</w>
wo o
pharmac y</w>
os mo
l ess
im ag
fluor ide</w>
exce eding</w>
en lar
dim er</w>
scinti graphy</w>
pain ting</w>
fig ures</w>
experi ences</w>
es tions</w>
de hydration</w>
co w</w>
T B
Ig A</w>
th rust</w>
rab bit</w>
particip ated</w>
moun tain</w>
magne to</w>
li vestock</w>
la p</w>
ish ment</w>
fri end
e. g.</w>
dil ution</w>
chol ine</w>
avoid ed</w>
altern ating</w>
8 2</w>
judg ement</w>
inst ant
insec ts</w>
conver ting</w>
cl oned</w>
bu st
bom bar
ax es</w>
S Q
tr apping</w>
top ic</w>
th inning</w>
ra z
poly imide</w>
ill ance</w>
e der</w>
deposi ts</w>
dend ritic</w>
Thail and</w>
B .</w>
repeti tion</w>
ma x</w>
lat tices</w>
lab eled</w>
imp ort</w>
ic o
emis sions</w>
doc uments</w>
diox ines</w>
con tri
Stand ard</w>
G y</w>
D s</w>
C e</w>
1. 0
mol y
li ft</w>
le ad
la ws</w>
k awa</w>
diag rams</w>
alli zation</w>
aeros ol</w>
3 O
y rene</w>
tub ular</w>
te aching</w>
schem es</w>
r ug
predic tions</w>
pl atinum</w>
ne ither</w>
minim al</w>
constitu ent</w>
con junc
On ly</w>
I F</w>
po ol</w>
maj ority</w>
if e</w>
exp ensive</w>
dec line</w>
al ize</w>
Compar ison</w>
sens ation</w>
off ers</w>
incu bation</w>
co gn
bi polar</w>
batter ies</w>
audi o</w>
Temp erature</w>
Hi ro
CD MA</w>
veget able</w>
requ est</w>
kar y
indic ations</w>
heterogen eous</w>
ex pressing</w>
ens ure</w>
consum ers</w>
N S</w>
M HD</w>
E valu
zy me</w>
uncer tain</w>
ub les</w>
suc tion</w>
ple ural</w>
or ption</w>
nat ur
il lo
exper t</w>
diox ins</w>
R ay
P K
N K
CS F</w>
v able</w>
tra vel</w>
toco c
tac hy
sec ure</w>
neutroph ils</w>
is ph
fab ric</w>
erythro cyte</w>
entr ance</w>
embry os</w>
dropl ets</w>
dis sem
ca utionary</w>
P I
M et
univer sal</w>
ti a</w>
stric tion</w>
scop y</w>
ra il</w>
pro s
po res</w>
passeng er</w>
dec ide</w>
cardi omy
bas ement</w>
as cen
sar co
ro oms</w>
put ting</w>
morph ine</w>
men op
i oid</w>
hydrox ide</w>
dri ed</w>
cor tical</w>
circum stances</w>
W DM</w>
par am
par a
investig ates</w>
ic t</w>
for ging</w>
cy t
cryst allo
co at</w>
cl asses</w>
Dy nam
Consi dering</w>
B ro
B ar
t yro
so on</w>
polar ity</w>
organ ized</w>
hemorrh agic</w>
aver aged</w>
D R</w>
per cutaneous</w>
past e</w>
p ine</w>
ost asis</w>
os us</w>
orthog onal</w>
mo ved</w>
ho ku</w>
hemat oma</w>
haz ard</w>
extr a</w>
child hood</w>
abund ant</w>
M U
te eth</w>
super conductivity</w>
si c
hand le</w>
form at</w>
be ar
an atom
achiev ement</w>
ac tively</w>
L H</w>
ok u</w>
magne tron</w>
li sted</w>
inj uries</w>
conveni ence</w>
cat ar
c ations</w>
boil ing</w>
b allo
R o
In GaAs</w>
Experim ents</w>
off ered</w>
lo sed</w>
in formations</w>
fil tering</w>
d og
c ribed</w>
D E
Al GaAs</w>
15 0
ten s</w>
sh ima</w>
quad ru
hem isph
aphy lo
PC B</w>
H a
De sign</w>
3 5
st ac
sp ar
pro fit</w>
ophi l</w>
n ar</w>
d res
V ol
Sign ific
AF S</w>
tri angular</w>
sol iton</w>
mod al</w>
metast ases</w>
in tubation</w>
handic apped</w>
dynam ically</w>
dig estion</w>
cr u
buil d</w>
aqu e</w>
Ul tr
Chang es</w>
2 1st</w>
separ ately</w>
p it</w>
ot or</w>
n esses</w>
imp air
er ase</w>
circul ating</w>
tid al</w>
r d</w>
por ation</w>
groun ds</w>
gen omic</w>
fil ament</w>
elim inated</w>
app end
ain ment</w>
acc o</w>
S PE
sensi tization</w>
p acking</w>
oxy gen
is son</w>
harv est</w>
el ded</w>
bl ing</w>
Th er
vill age</w>
transcrip tional</w>
radi ography</w>
qualit atively</w>
invari ant</w>
histor ical</w>
fl ash</w>
fil am
con su
bl an
anomal ies</w>
R B
8 1</w>
wa ste
volcan ic</w>
tom a</w>
iz oph
exten ding</w>
at ch</w>
V er
S M
N uclear</w>
Cur rent</w>
An aly
z heimer</w>
smooth ly</w>
l d</w>
inno vation</w>
ile um</w>
et ched</w>
chol angi
S ou
S 2</w>
H V</w>
ogly c
monom er</w>
lin ed</w>
ir rig
gen otype</w>
e ast</w>
dr am
cer ti
bur n</w>
bel t</w>
at ypical</w>
pro tr
pl ain</w>
frac tions</w>
flow ering</w>
e ply</w>
ati zation</w>
adop ts</w>
9 4</w>
we b</w>
spec tive</w>
si l</w>
rel ay</w>
pres sur
pelv ic</w>
end ogenous</w>
ca vitation</w>
an ical</w>
ail s</w>
Al zheimer</w>
ver ing</w>
ti te</w>
susp ended</w>
pass age</w>
pack ed</w>
op tically</w>
log arith
l engths</w>
intesti num</w>
int ended</w>
f used</w>
dis ks</w>
c ed
T oy
S n
N T</w>
D ig
D F
CA E</w>
Au th
8 7</w>
spl itting</w>
spac es</w>
rh iz
photograph ing</w>
p aint</w>
germin ation</w>
achiev ing</w>
T G</w>
M ic
H er</w>
A N</w>
2 Cu
tro ubles</w>
them es</w>
surve illance</w>
sh all</w>
p all
on ate</w>
morb idity</w>
hex agonal</w>
gl au
g li
fir ing</w>
bal anced</w>
vac ancy</w>
rever sal</w>
ph one</w>
p up
loc ally</w>
er as</w>
d welling</w>
as er</w>
M ach
trache al</w>
termin ation</w>
re use</w>
re main</w>
mark eting</w>
manip ulation</w>
hem oglobin</w>
geome trical</w>
gas oline</w>
enor mous</w>
duoden um</w>
bo vine</w>
be hind</w>
trans planted</w>
sp orts</w>
re modeling</w>
oro us</w>
nur se</w>
in her
ill in</w>
epid ermal</w>
diagnos es</w>
consider ations</w>
bur st</w>
G B</w>
ureth ane</w>
parasi tic</w>
in qu
gravit ational</w>
fu els</w>
fibro us</w>
e sia</w>
as surance</w>
T FT</w>
Measure ment</w>
symptom atic</w>
re produce</w>
phar yn
ge ological</w>
fibro blast</w>
dis appearance</w>
an y
2 nd</w>
y r
synchron ization</w>
res ins</w>
neuro pathy</w>
lymph aden
domin ated</w>
ch air</w>
bear ings</w>
Amer ican</w>
0. 8</w>
refl ects</w>
re presents</w>
neu mo
moder n</w>
erec tion</w>
educ ational</w>
N an
C Y
yst yrene</w>
su stained</w>
sto ichi
st ering</w>
reve als</w>
periton itis</w>
har m
eth yl</w>
