the 1625516
of 1169115
, 1035227
. 1009475
and 812874
in 521319
a 376936
to 363684
is 318897
was 289379
The 257687
@-@ 231985
for 229266
by 217925
) 210664
with 187770
( 187400
on 171892
‐ 158456
are 157223
as 139236
were 134975
that 129967
which 105035
from 95509
an 87233
be 85256
In 84350
at 82927
this 75384
it 74518
system 71740
paper 68072
method 67336
This 65460
using 61792
high 53706
A 52241
has 52038
/ 51746
1 47613
been 45516
2 45229
or 44585
also 40651
not 39311
It 39216
between 37504
S@@ 36958
results 36407
have 36268
3 34513
can 34509
&quot; 33812
type 33752
out 33664
time 33298
T@@ 32771
such 32555
s 32331
temperature 32258
after 32152
% 32084
treatment 31799
re@@ 31468
used 31297
cases 31029
C@@ 30330
B@@ 30172
P@@ 30080
described 30010
effect 30009
We 29945
M@@ 29831
in@@ 29616
than 29466
D@@ 29463
control 28965
F@@ 28899
model 28462
surface 28372
its 28072
case 27783
As 27420
ing 27226
analysis 27179
A@@ 27145
new 26997
structure 26821
es 26757
L@@ 26756
o@@ 26164
cell 26076
examined 25996
ed 25990
one 25767
developed 25657
H@@ 25635
observed 25538
water 25272
G@@ 25146
low 25120
er 24936
field 24842
p@@ 24714
we 24604
ation 24528
result 24479
4 24450
two 24445
disease 24384
energy 24382
development 24285
rate 24036
b@@ 23835
R@@ 23740
: 23222
t@@ 23037
N@@ 23000
order 22916
power 22788
E@@ 22778
obtained 22776
data 22733
based 22467
found 22423
year 22288
i@@ 21993
explained 21779
operation 21554
carried 21468
into 21426
use 21182
ate 21072
under 20655
m@@ 20574
process 20527
function 20087
patients 20030
e@@ 19988
n@@ 19761
these 19706
but 19382
K@@ 19376
d@@ 19175
phase 19155
en@@ 19128
state 19116
investigated 19112
t 19111
s@@ 19052
test 19022
present 18907
5 18833
c@@ 18766
cells 18758
ated 18666
study 18645
characteristics 18575
technology 18559
al 18537
an@@ 18502
showed 18359
when 18279
de@@ 18151
other 18121
various 18108
un@@ 18063
ic 18040
shown 18030
O@@ 17984
e 17931
old 17785
large 17758
y 17554
i 17524
C 17515
flow 17479
l@@ 17375
both 17313
V@@ 17298
I@@ 17257
about 17205
introduced 17202
there 17183
pressure 17172
following 17010
information 17009
2@@ 16862
addition 16831
o 16808
g@@ 16786
us 16770
co@@ 16654
h@@ 16591
al@@ 16573
I 16543
made 16523
on@@ 16519
a@@ 16500
effects 16343
y@@ 16228
&apos;s 16147
each 15941
Japan 15862
patient 15777
describes 15679
film 15647
k@@ 15596
important 15595
group 15517
research 15438
well 15285
blood 15233
gas 15169
number 15164
region 15142
st@@ 15099
proposed 15082
their 15051
application 14921
more 14911
di@@ 14867
design 14860
measured 14801
6 14772
layer 14671
f@@ 14610
small 14605
magnetic 14559
distribution 14531
material 14523
no 14503
up 14490
m 14443
r@@ 14438
improvement 14417
at@@ 14400
change 14342
due 14332
10 14314
ating 14304
3@@ 14273
ine 14257
all 14249
current 14212
during 14190
first 14186
growth 14163
heat 14159
mechanism 14157
increase 14102
able 14052
through 14050
technique 14026
diagnosis 13973
B 13894
performance 13868
ic@@ 13863
had 13739
value 13728
age 13708
concentration 13705
activity 13672
level 13642
u@@ 13619
ers 13608
increased 13596
cancer 13560
frequency 13557
three 13530
um 13519
X 13505
acid 13489
electron 13421
therapy 13405
systems 13352
er@@ 13303
equipment 13258
conditions 13254
ting 13246
it@@ 13177
W@@ 13171
years 13150
P 13131
only 13128
effective 13113
production 13105
gene 13104
problems 13102
measurement 13090
possible 13078
N 13076
reaction 12946
studied 12936
ion 12912
performed 12872
For 12845
different 12779
T 12752
density 12734
optical 12613
necessary 12607
compared 12505
problem 12500
ac@@ 12497
S 12486
area 12471
applied 12465
U@@ 12450
materials 12441
generation 12437
image 12415
ts 12397
evaluation 12369
tumor 12209
light 12119
am@@ 12106
examination 12097
or@@ 12045
higher 11971
D 11948
ro@@ 11925
M 11911
sub@@ 11885
ar@@ 11877
future 11839
el@@ 11828
recognized 11814
1@@ 11811
condition 11738
ap@@ 11669
plasma 11615
size 11525
formation 11490
ol@@ 11482
related 11480
without 11466
laser 11393
R 11388
properties 11377
inter@@ 11340
those 11303
electric 11298
over 11283
medical 11267
drug 11261
4@@ 11254
including 11192
reduction 11150
con@@ 11145
ul@@ 11134
methods 11124
op@@ 11089
5@@ 11033
si@@ 11013
air 11006
stage 10997
reported 10993
solution 10978
n 10976
side 10965
ch@@ 10958
p 10953
os@@ 10919
films 10908
some 10876
protein 10870
w@@ 10861
O 10860
ti@@ 10857
considered 10840
v@@ 10825
And 10821
discussed 10815
range 10796
K 10786
part 10759
clinical 10746
ant 10717
l 10663
7 10618
x 10618
ratio 10610
ates 10582
thermal 10578
line 10536
management 10532
ability 10525
presented 10484
environment 10466
L 10444
difference 10400
These 10392
non 10390
wave 10390
is@@ 10365
pro@@ 10350
ted 10342
features 10315
because 10275
body 10243
chemical 10230
tic 10176
ur@@ 10175
as@@ 10070
ray 10068
so 10067
etc 10034
lower 10026
dimensional 10010
k 9990
single 9976
In@@ 9947
factor 9924
construction 9923
experimental 9841
d 9826
quality 9824
explains 9817
th@@ 9810
8 9808
could 9773
they 9737
ations 9732
stress 9710
On 9678
speed 9656
By 9654
form 9624
improved 9599
; 9549
caused 9549
processing 9546
induced 9545
+ 9540
H 9496
anti@@ 9486
most 9389
liquid 9308
resistance 9283
ex@@ 9281
good 9248
long 9232
total 9157
required 9148
ag@@ 9111
micro@@ 9110
very 9096
changes 9068
show 9066
less 9056
ad@@ 9051
oc@@ 9049
point 9020
ri@@ 9020
relation 9013
crystal 9000
metal 8997
However 8981
human 8974
le@@ 8959
expression 8952
beam 8951
shows 8945
conventional 8936
carbon 8921
E 8893
same 8843
may 8780
x@@ 8766
efficiency 8756
main 8734
lo@@ 8700
V 8697
ec@@ 8694
J@@ 8679
F 8653
id@@ 8642
many 8640
6@@ 8630
dis@@ 8613
Si 8555
molecular 8534
om@@ 8532
purpose 8528
ia 8523
who 8519
period 8513
.@@ 8508
per@@ 8505
10@@ 8501
work 8490
G 8483
factors 8465
network 8462
simulation 8445
There 8433
- 8423
while 8415
liver 8414
environmental 8407
functions 8396
voltage 8347
il@@ 8319
0.@@ 8316
℃ 8302
An 8300
indicated 8291
sp@@ 8275
positive 8263
confirmed 8262
ase 8258
decreased 8239
behavior 8222
bone 8218
species 8199
ob@@ 8183
tive 8129
administration 8104
analyzed 8096
To 7994
standard 7967
space 7932
values 7916
formed 7898
our 7882
strength 7873
will 7852
substrate 7839
significantly 7827
even 7810
tion 7808
ot@@ 7803
7@@ 7745
produced 7733
action 7728
cost 7724
20 7711
structures 7705
ally 7696
thin 7650
conducted 7643
infection 7629
pre@@ 7625
response 7612
mass 7604
g 7573
source 7572
should 7542
basic 7540
experiment 7516
where 7515
mainly 7514
like 7506
ph@@ 7495
c 7493
tr@@ 7483
examples 7442
ent 7438
ter@@ 7423
red 7420
id 7402
es@@ 7392
9@@ 7390
types 7386
right 7364
diagnosed 7363
normal 7357
em@@ 7350
ir@@ 7336
determined 7326
steel 7315
transition 7311
= 7304
pl@@ 7294
presents 7293
sh@@ 7287
calculated 7279
ous 7259
h 7245
signal 7240
left 7239
mo@@ 7218
report 7198
above 7196
ab@@ 7185
content 7163
ance 7117
“ 7115
b 7105
se@@ 7076
scale 7063
position 7045
general 7028
nm 7023
8@@ 6992
ar 6990
ative 6977
9 6976
example 6975
poly@@ 6972
useful 6934
early 6927
specific 6925
life 6910
Though 6908
amount 6886
im@@ 6880
local 6879
potential 6878
them 6875
ter 6874
me@@ 6850
Y@@ 6839
transfer 6833
〜 6830
outlined 6822
pain 6810
introduces 6784
z@@ 6770
oxygen 6757
decrease 6743
since 6733
simple 6719
theory 6709
day 6706
increasing 6692
ly 6685
particles 6673
From 6654
active 6654
device 6650
CT 6636
reduced 6636
being 6629
within 6628
te@@ 6617
um@@ 6609
force 6564
100 6544
bi@@ 6535
generated 6534
II 6533
observation 6533
50 6522
evaluated 6522
u 6505
fl@@ 6500
absorption 6494
detection 6489
plant 6482
estimated 6481
When 6461
ment 6456
li@@ 6437
around 6434
30 6417
length 6415
computer 6407
significant 6402
band 6391
wall 6370
prepared 6349
products 6335
antibody 6330
ization 6330
transmission 6329
mode 6324
thickness 6322
tri@@ 6321
be@@ 6315
j@@ 6315
par@@ 6310
th 6297
parameters 6290
hydrogen 6280
le 6264
points 6261
dependence 6247
expected 6245
months 6244
load 6226
shape 6193
us@@ 6192
DNA 6187
free 6186
tions 6181
non@@ 6177
multiple 6165
facilities 6158
emission 6152
particle 6146
possibility 6145
several 6142
Japanese 6132
etc. 6114
oxide 6096
among 6095
respectively 6095
ver@@ 6095
calculation 6085
prevention 6084
ent@@ 6078
detected 6068
business 6039
circuit 6024
weight 6019
et 6014
basis 6006
diseases 6001
safety 6001
utilization 5989
super@@ 5986
machine 5978
product 5978
revealed 5978
radiation 5973
ep@@ 5958
progress 5953
outline 5951
way 5946
velocity 5939
then 5929
to@@ 5921
W 5919
measures 5915
cause 5910
clarified 5906
samples 5903
base 5902
direction 5894
supply 5887
&apos; 5860
communication 5851
ide 5848
fiber 5835
correlation 5833
ve 5829
ial 5828
ut@@ 5825
maximum 5823
comparison 5818
noise 5816
soil 5811
before 5809
term 5801
sample 5777
ions 5771
constant 5763
ds 5763
becomes 5758
care 5758
authors 5751
investigation 5749
membrane 5729
role 5725
experiments 5716
discharge 5702
pattern 5682
findings 5680
equation 5679
0 5675
composition 5674
organic 5674
linear 5672
no@@ 5671
days 5670
postoperative 5659
sc@@ 5652
initial 5643
average 5635
mm 5633
given 5618
ding 5544
imp@@ 5525
similar 5520
according 5513
if 5510
times 5510
support 5490
relationship 5487
series 5486
failure 5479
oil 5477
× 5477
hospital 5475
groups 5468
acute 5467
sis 5456
motion 5439
having 5438
near 5436
ology 5417
natural 5404
cl@@ 5397
recent 5382
tissue 5373
algorithm 5369
ator 5368
kinds 5367
introduction 5356
interaction 5354
solid 5352
ca@@ 5338
negative 5334
loss 5320
short 5313
fuel 5309
combined 5308
intensity 5294
treated 5291
br@@ 5285
center 5281
12 5265
At 5263
states 5263
complex 5262
approach 5244
actual 5239
syndrome 5235
output 5233
fields 5222
ves 5220
survey 5209
numerical 5208
vi@@ 5204
whole 5199
element 5193
increases 5178
items 5175
measuring 5173
accuracy 5172
strain 5170
diameter 5157
ors 5152
en 5150
self 5148
quantity 5146
joint 5141
ite 5138
serum 5136
ig@@ 5129
primary 5128
inspection 5127
ol 5120
capacity 5113
means 5106
mon@@ 5101
ground 5100
service 5091
man 5089
end@@ 5088
plan 5081
Since 5073
X@@ 5067
internal 5066
he@@ 5058
irradiation 5057
industry 5056
storage 5055
volume 5052
physical 5046
did 5043
hand 5041
str@@ 5039
became 5032
characteristic 5028
degree 5026
second 5024
ized 5016
dynamic 5013
derived 5007
ks 5005
containing 5003
dec@@ 5002
risk 5002
room 4997
components 4992
ity 4987
diffusion 4986
interface 4977
site 4975
ren@@ 4974
against 4969
ness 4967
tests 4959
tic@@ 4956
measurements 4950
yl@@ 4949
angle 4948
end 4946
stability 4942
res@@ 4941
nerve 4939
advanced 4937
trans@@ 4932
atic 4926
combination 4924
levels 4924
king 4920
especially 4918
glass 4911
wide 4907
set 4906
strong 4899
electrode 4888
damage 4885
60 4873
muscle 4852
preparation 4851
ological 4845
Co 4843
injection 4832
silicon 4827
structural 4823
cm 4820
ast@@ 4817
cor@@ 4809
drugs 4808
15 4803
unit 4798
difficult 4789
electronic 4789
ed@@ 4785
peak 4778
food 4773
heating 4760
fluid 4757
nuclear 4755
virus 4753
component 4750
Pro@@ 4749
ons 4736
history 4733
images 4732
et@@ 4722
α 4719
techniques 4716
They 4700
established 4700
stable 4697
β 4694
medium 4693
ies 4689
charge 4688
bo@@ 4682
practical 4682
ded 4678
ing@@ 4678
plate 4671
spectra 4660
direct 4659
head 4658
maintenance 4653
Using 4650
ser@@ 4648
quantum 4647
40 4638
target 4635
almost 4614
index 4613
nitrogen 4609
processes 4606
r 4603
min@@ 4601
chronic 4591
applications 4583
property 4577
Con@@ 4567
channel 4566
object 4552
pulse 4551
1.@@ 4550
-@@ 4549
activities 4533
parts 4533
multi@@ 4532
any 4525
much 4513
over@@ 4511
alloy 4503
μm 4500
studies 4498
su@@ 4497
controlled 4494
ium 4489
Q@@ 4485
est 4485
viewpoint 4479
ak@@ 4477
U 4468
spin 4464
deposition 4463
manufacturing 4463
ical 4460
ically 4459
receptor 4458
sensor 4456
lesion 4451
waste 4443
uc@@ 4442
layers 4440
Al@@ 4439
changed 4434
als 4433
per 4433
led 4423
suggested 4416
situation 4414
Ex@@ 4413
0@@ 4409
Then 4409
ality 4402
boundary 4402
functional 4402
contact 4400
culture 4387
become 4385
coefficient 4377
ular 4373
color 4371
brain 4368
continuous 4365
lung 4331
dependent 4327
improve 4319
four 4310
existence 4309
anti 4308
Here 4305
oma 4300
constructed 4291
taken 4291
agent 4289
19@@ 4284
qu@@ 4282
elements 4276
skin 4276
mouse 4257
ence 4255
der 4254
surgery 4254
gen@@ 4247
concept 4245
cross 4245
concrete 4239
titled 4229
health 4228
terms 4228
hydro@@ 4225
scattering 4207
dose 4204
sensitivity 4199
With 4193
comp@@ 4193
excellent 4192
plane 4192
called 4182
polymer 4173
ics 4170
models 4161
activation 4155
Therefore 4148
vibration 4148
phot@@ 4132
se 4130
Re@@ 4125
program 4122
ne@@ 4118
After 4104
real 4097
ings 4096
started 4085
temperatures 4083
contents 4078
matrix 4070
ra@@ 4070
Cu 4065
associated 4065
clear 4052
uses 4041
input 4040
presence 4038
obtain 4037
making 4034
sol@@ 4026
resolution 4024
fracture 4022
male 4017
hyper@@ 4013
og@@ 4011
photo@@ 4003
lattice 4000
along 3999
symptoms 3990
forming 3985
influence 3982
ents 3980
market 3977
2.@@ 3962
cal@@ 3962
po@@ 3959
cooling 3958
software 3935
12@@ 3934
selection 3928
ae 3927
core 3916
digital 3916
mean 3911
multi 3909
oxidation 3909
transport 3909
duct 3907
Fe 3904
heart 3898
project 3898
Ch@@ 3897
ants 3894
disorder 3894
ement 3893
section 3893
demonstrated 3891
how 3880
mechanical 3879
woman 3879
parallel 3878
wind 3865
building 3859
semiconductor 3857
Al 3855
principle 3849
tube 3846
ones 3845
highly 3843
variation 3836
central 3828
carcinoma 3824
upper 3810
atomic 3802
ste@@ 3795
iron 3794
wavelength 3794
devices 3791
procedure 3788
fine 3787
ice 3785
enzyme 3783
deformation 3778
does 3778
further 3776
external 3772
ho@@ 3766
recovery 3766
ox@@ 3761
make 3757
hepatic 3754
view 3753
suitable 3749
atoms 3748
plants 3748
yl 3746
appeared 3737
diffraction 3737
cycle 3731
transplantation 3730
az@@ 3726
outlines 3725
MS 3724
chain 3724
larger 3720
investigate 3718
suggest 3712
abdominal 3704
electrical 3703
tis 3703
classification 3701
f 3698
critical 3696
medicine 3696
grain 3694
tin@@ 3690
rec@@ 3683
ary 3682
mentioned 3679
step 3679
persons 3677
knowledge 3674
11 3667
up@@ 3667
regions 3664
reduce 3661
land 3650
width 3649
dynamics 3645
lines 3640
causes 3636
conversion 3635
added 3634
imaging 3626
female 3625
effectiveness 3623
izing 3618
known 3617
symptom 3616
Prefecture 3610
composed 3608
propose 3607
fiscal 3606
electro@@ 3601
grown 3599
monitoring 3595
common 3594
individual 3591
oral 3588
adopted 3586
artificial 3583
ver 3577
reports 3576
CA@@ 3574
off 3564
molecules 3560
separation 3559
ene 3556
spectrum 3556
crystals 3554
25 3552
parameter 3550
done 3544
onic 3544
ms 3533
ose 3531
exchange 3529
world 3526
sing 3524
sion 3521
expansion 3520
Si@@ 3517
artery 3515
double 3515
les 3514
hem@@ 3509
el 3505
nonlinear 3503
achieved 3501
designed 3500
com@@ 3496
pri@@ 3496
man@@ 3492
solutions 3487
equations 3486
plastic 3482
70 3480
mixed 3479
form@@ 3477
col@@ 3475
recurrence 3473
affected 3472
now 3462
table 3462
sive 3452
PC 3444
half 3441
occurred 3439
20@@ 3437
measure 3434
alization 3431
consumption 3427
filter 3426
demand 3425
od@@ 3425
secondary 3425
tional 3421
powder 3417
identified 3416
sions 3412
yield 3408
distance 3402
death 3395
prognosis 3395
ring 3395
special 3394
axis 3386
2000 3385
motor 3385
depth 3378
ure 3378
saving 3377
tro@@ 3375
ages 3368
fixed 3368
O2 3358
ev@@ 3357
finite 3354
do@@ 3349
Furthermore 3348
Z@@ 3342
Co@@ 3341
exposure 3340
sound 3338
working 3336
article 3332
node 3331
synthesis 3330
out@@ 3328
Although 3327
optimum 3323
technologies 3323
GaAs 3321
amp@@ 3315
Th@@ 3314
ane 3314
patterns 3313
cutting 3309
however 3309
3.@@ 3308
limit 3308
trend 3307
mp@@ 3306
micro 3300
domain 3299
inside 3296
corresponding 3292
consideration 3291
crisis 3289
error 3285
estimation 3285
tool 3284
sequence 3282
weeks 3279
ty 3278
sea 3264
trends 3260
existing 3254
reliability 3252
Comp@@ 3249
edge 3247
Ac@@ 3246
elastic 3245
flux 3245
attention 3243
de 3242
MRI 3235
coating 3235
mechanisms 3232
examine 3231
extraction 3231
80 3227
directly 3216
sk@@ 3212
compounds 3205
metastasis 3202
areas 3199
rapid 3198
seems 3197
pulmonary 3193
ge@@ 3192
subjects 3192
CD@@ 3186
surfaces 3186
under@@ 3186
phenomenon 3183
amine 3180
cerebral 3176
pH 3176
Next 3168
forms 3165
automatic 3159
evaluate 3157
osis 3157
antigen 3150
recognition 3147
hot 3145
Ni 3140
rapidly 3137
abnormality 3136
respect 3133
renal 3131
peripheral 3129
ved 3128
Based 3127
gastric 3127
genetic 3127
meter 3127
let 3126
ch 3118
copper 3118
rates 3118
appropriate 3115
countermeasures 3114
realized 3114
14 3112
here 3110
visual 3110
recently 3109
amino 3104
concentrations 3104
PA@@ 3098
sed 3097
efficient 3092
family 3091
ati@@ 3085
genes 3085
resin 3085
media 3084
phenomena 3080
ax@@ 3079
ances 3070
ties 3070
considering 3069
ans 3067
16 3065
bacteria 3063
experimentally 3061
consists 3059
itis 3057
waves 3057
welding 3056
differences 3054
isolated 3054
pol@@ 3054
company 3053
molecule 3053
easy 3051
.. 3050
15@@ 3049
background 3049
solar 3048
13 3047
global 3047
trial 3044
4.@@ 3042
clarify 3041
SA@@ 3039
static 3039
strongly 3039
memory 3036
back 3033
bl@@ 3025
bed 3024
dy@@ 3024
spectroscopy 3024
applying 3022
III 3020
theoretical 3005
scanning 3004
prediction 2996
partial 2994
ge 2991
easily 2988
tin 2982
deep 2980
taking 2978
sheet 2976
ang@@ 2974
facility 2974
compound 2973
cre@@ 2973
gap 2972
course 2970
radi@@ 2970
lowering 2969
An@@ 2965
PS 2964
fi@@ 2963
MA@@ 2961
classified 2955
IC 2954
next 2954
CO@@ 2950
St@@ 2950
contrast 2950
so@@ 2949
Y 2946
utilized 2946
aging 2945
promotion 2945
little 2941
rise 2940
ure@@ 2940
fish 2938
hole 2937
engineering 2927
hours 2923
removal 2922
newly 2921
ve@@ 2916
car@@ 2914
regulation 2912
por@@ 2910
showing 2910
major 2904
gr@@ 2899
dielectric 2896
cavity 2893
involved 2891
carrier 2890
protection 2890
ell@@ 2885
fabricated 2884
hypo@@ 2880
18 2879
ying 2875
binding 2874
differentiation 2874
Regarding 2873
traffic 2871
rice 2869
severe 2867
place 2865
ational 2861
display 2861
lin@@ 2859
24 2856
mic 2855
home 2854
movement 2854
height 2850
induction 2850
mutation 2845
sites 2843
excitation 2842
substrates 2839
Fe@@ 2838
collected 2837
scheme 2837
smaller 2835
resonance 2834
decreases 2833
zone 2832
mis@@ 2828
importance 2822
indicate 2819
proteins 2818
ving 2817
mat@@ 2813
develop 2807
gate 2807
ake 2806
integrated 2806
relaxation 2805
tu@@ 2801
expressed 2799
cr@@ 2797
open 2797
people 2796
CO2 2795
gu@@ 2790
met@@ 2788
international 2787
if@@ 2779
steroid 2778
ou@@ 2777
modified 2776
coupling 2775
block 2774
fer@@ 2770
mice 2770
division 2769
decomposition 2768
utilizing 2767
below 2756
corrosion 2756
diagnostic 2753
operating 2749
relative 2749
ultrasonic 2749
operative 2748
men 2747
res 2747
fo@@ 2745
industrial 2745
lead 2745
ography 2742
cap@@ 2740
PC@@ 2735
ci@@ 2735
successfully 2733
dispersion 2732
fication 2731
engine 2727
fluctuation 2727
all@@ 2724
reactor 2723
top@@ 2721
iz@@ 2719
ma 2718
technical 2714
education 2711
defect 2705
mg 2704
cooperation 2702
ble 2700
agreement 2699
ling 2699
together 2699
fundamental 2697
cardiac 2696
ectomy 2696
microscopy 2694
DC 2687
changing 2687
ters 2685
ses 2682
equivalent 2681
der@@ 2680
wire 2680
av@@ 2679
whose 2677
diabetes 2676
pump 2675
except 2673
ub@@ 2663
ster@@ 2662
fatigue 2661
analytical 2660
every 2654
distributed 2653
mal@@ 2653
person 2653
vapor 2650
independent 2648
heavy 2647
microscope 2647
probe 2647
axial 2645
differential 2645
etching 2645
gel 2645
&#91; 2644
alloys 2644
code 2644
soft 2644
agents 2643
vacuum 2643
aluminum 2642
station 2640
concerning 2639
configuration 2639
shift 2639
fied 2638
though 2638
&#93; 2634
abnormal 2634
ron@@ 2634
developing 2631
better 2628
deposited 2628
mi@@ 2627
until 2627
Z 2625
previous 2622
typical 2622
signals 2621
ins 2620
air@@ 2619
composite 2618
hyp@@ 2617
SC@@ 2616
Moreover 2615
law 2615
training 2615
lymph 2614
suppressed 2612
vessel 2612
rats 2610
recycling 2610
determine 2608
ory 2606
tur@@ 2606
surgical 2604
vertical 2604
tan@@ 2603
AT@@ 2600
degradation 2600
ening 2597
mixing 2597
countries 2596
complication 2593
den@@ 2593
resistant 2590
Two 2589
ly@@ 2587
sufficient 2585
onal 2579
ward 2575
complicated 2573
neutron 2573
terminal 2573
ore@@ 2570
tly 2570
class 2567
IS@@ 2566
reactions 2564
road 2564
trac@@ 2563
bio@@ 2562
cold 2561
seen 2557
my@@ 2556
rat 2556
seemed 2556
metabolism 2555
proven 2554
am 2553
14@@ 2552
tendency 2552
pa@@ 2551
ication 2549
malignant 2548
would 2548
polarization 2547
coll@@ 2546
do 2546
fast 2546
immun@@ 2543
13@@ 2539
duc@@ 2539
50@@ 2536
ators 2534
ha@@ 2534
novel 2533
hi@@ 2532
ning 2532
hepatitis 2530
zed 2530
electrons 2529
profile 2529
pe@@ 2528
respiratory 2526
and@@ 2523
cul@@ 2523
90 2521
propagation 2520
ides 2519
key 2519
tract 2519
essential 2514
Ar@@ 2512
alized 2510
analyses 2506
ism 2506
user 2506
pr@@ 2503
adsorption 2502
apparatus 2502
° 2502
100@@ 2499
Ti 2499
board 2499
extracted 2496
few 2494
divided 2491
cultivation 2490
ments 2489
determination 2488
resources 2488
combustion 2487
testing 2484
uniform 2483
feature 2482
her@@ 2482
ther@@ 2480
loading 2476
installed 2475
suspected 2475
biological 2472
conductivity 2472
extension 2472
works 2469
PD 2468
il 2468
significance 2466
1998 2465
must 2464
connection 2460
necessity 2460
spatial 2460
Recently 2458
annealing 2458
tw@@ 2458
widely 2456
bro@@ 2455
full 2455
kind 2454
middle 2453
enhanced 2449
down 2448
ering 2448
either 2444
received 2444
column 2443
injury 2443
often 2442
oid 2437
past 2435
gl@@ 2433
tor@@ 2433
.The 2432
MA 2432
ST 2427
car 2427
appearance 2425
can@@ 2421
policy 2421
γ 2419
database 2418
reducing 2418
act 2416
balance 2415
hom@@ 2415
recording 2415
survival 2413
simultaneously 2407
pul@@ 2406
curve 2403
five 2403
ess 2402
neuro@@ 2402
aqueous 2400
limited 2400
ay 2398
dry 2398
guideline 2398
ery 2397
stimulation 2396
ist@@ 2395
amorphous 2394
reviewed 2394
IP 2392
ely 2392
earthquake 2391
occurs 2390
1999 2388
lesions 2387
tor 2387
gland 2386
lu@@ 2386
switching 2384
account 2383
transformation 2383
indicates 2379
complete 2378
mixture 2378
ching 2377
Q 2375
whether 2375
fin@@ 2374
regional 2374
emia 2370
IC@@ 2367
ST@@ 2366
defined 2363
public 2363
equilibrium 2362
tical 2360
inal 2359
decision 2358
plas@@ 2358
organization 2357
aged 2355
bridge 2352
children 2352
ess@@ 2350
minimum 2349
DS 2348
te 2348
biopsy 2347
Also 2346
17 2345
ast 2342
fusion 2339
greatly 2336
insulin 2336
Sh@@ 2335
ad 2335
py@@ 2331
accompanied 2330
ect 2330
selected 2330
follow 2329
loc@@ 2325
ten@@ 2323
follows 2322
substances 2322
ture 2322
AC@@ 2318
continu@@ 2317
machining 2317
He 2314
outside 2313
the@@ 2312
array 2311
Finally 2310
disk 2308
inf@@ 2305
hypertension 2304
impact 2300
ow@@ 2300
reflection 2299
intra@@ 2295
De@@ 2292
amin@@ 2292
intake 2292
population 2292
Concerning 2291
icity 2288
val@@ 2285
mes@@ 2282
stri@@ 2282
residual 2281
amplitude 2279
connected 2279
latter 2279
enhancement 2278
improving 2278
rel@@ 2277
estimate 2276
title 2276
followed 2275
mobile 2275
One 2274
No 2273
root 2272
wa@@ 2268
countermeasure 2267
feed 2267
rare 2267
30@@ 2266
def@@ 2266
collection 2264
sensitive 2263
First 2262
catalyst 2259
EC 2258
J 2258
pancreatic 2258
fact 2254
tree 2253
w 2253
16@@ 2252
ind@@ 2250
cy@@ 2248
sal@@ 2248
2001 2247
crack 2246
robot 2246
ster 2246
barrier 2245
lateral 2244
aff@@ 2243
chip 2243
inhibitor 2243
learning 2240
calcium 2239
± 2239
ids 2238
chemotherapy 2237
ency 2236
hy@@ 2236
reference 2236
author 2235
ke 2230
ship 2230
relatively 2229
MP 2226
CP 2225
daily 2225
release 2225
coupled 2222
00@@ 2221
coal 2220
depending 2219
tested 2218
remarkable 2214
detail 2212
gradually 2212
atmosphere 2208
invasion 2208
electromagnetic 2207
specimens 2207
ist 2204
vector 2204
carry 2203
characterized 2202
fe@@ 2202
ici@@ 2202
shock 2202
numbers 2201
re 2201
ip@@ 2200
resi@@ 2200
ari@@ 2194
integration 2193
2002 2191
located 2191
exp@@ 2190
for@@ 2190
last 2190
subject 2189
,@@ 2186
PT@@ 2186
rotation 2185
optimization 2184
Ni@@ 2182
tivity 2181
LC 2180
stem 2179
&lt; 2178
activated 2176
resulting 2176
work@@ 2175
dy 2174
ill@@ 2172
cont@@ 2171
meth@@ 2169
ud@@ 2169
city 2168
SA 2167
ps 2165
sa@@ 2165
dioxide 2164
orientation 2164
cat@@ 2162
top 2161
Li@@ 2160
understanding 2160
21 2158
ber@@ 2158
circulation 2158
back@@ 2156
hormone 2155
face 2154
valve 2154
cleaning 2153
ural 2150
precision 2149
thus 2148
concerned 2147
pollution 2147
thermo@@ 2147
vascular 2147
ton 2145
CD 2143
kin@@ 2140
5.@@ 2137
defects 2137
delay 2137
complications 2136
floor 2136
personal 2136
establishment 2133
odi@@ 2133
spinal 2133
adult 2132
incidence 2132
lens 2132
mellitus 2132
provide 2132
spectral 2129
eg@@ 2128
Ad@@ 2127
laboratory 2127
phosph@@ 2127
PA 2126
ize 2126
inner 2125
inflammatory 2124
planning 2122
doped 2121
bul@@ 2120
living 2120
particular 2120
18@@ 2119
Ga@@ 2119
original 2118
En@@ 2117
included 2116
tip 2116
rib@@ 2115
he 2114
makes 2113
ns 2113
lat@@ 2111
earth 2110
extended 2110
solvent 2110
coefficients 2109
distributions 2108
har@@ 2108
displacement 2106
standards 2106
SP 2105
ched 2105
practice 2105
ain@@ 2104
oph@@ 2104
vein 2104
UV 2103
nursing 2101
ES 2100
accident 2100
bulk 2098
resection 2098
via 2098
cluster 2097
month 2097
post@@ 2097
ant@@ 2096
metallic 2096
origin 2094
sts 2094
pipe 2090
μ@@ 2090
administered 2089
ug@@ 2089
fraction 2087
modes 2087
optimal 2087
calculations 2086
sem@@ 2083
selective 2082
identification 2081
tunnel 2078
SO@@ 2076
clearly 2076
la@@ 2075
RA 2074
bile 2074
bin@@ 2074
networks 2074
third 2074
produce 2071
sti@@ 2071
depends 2070
social 2070
intestine 2069
society 2069
weak 2069
women 2068
Cu@@ 2067
els 2067
path 2067
rin@@ 2067
synthesized 2067
junction 2065
realize 2065
00 2061
start 2061
former 2060
fibers 2059
gener@@ 2059
aw@@ 2058
1,@@ 2057
frame 2057
ple 2055
usefulness 2054
interference 2050
ore 2049
tered 2049
satellite 2048
analyze 2046
sodium 2046
acet@@ 2044
ber 2043
fluorescence 2036
preoperative 2036
threshold 2035
High 2034
adhesion 2032
tom@@ 2032
ful 2031
7.@@ 2030
salt 2030
variety 2029
camera 2027
CA 2026
occurrence 2025
post 2022
give 2019
oste@@ 2019
mental 2016
syn@@ 2016
19 2014
controlling 2014
IT@@ 2013
enti@@ 2013
200 2012
ventricular 2012
det@@ 2011
ocy@@ 2011
ok@@ 2010
zing 2004
thyroid 2003
ner 1999
grade 1998
Par@@ 1997
organ 1996
O3 1995
tried 1995
needs 1994
status 1994
ff@@ 1993
infrared 1992
ains 1991
close 1991
eV 1991
Tokyo 1988
ands 1988
available 1987
aim 1985
emergency 1985
tically 1982
onset 1980
others 1980
animal 1979
ographic 1978
infant 1975
tissues 1974
City 1969
accurate 1969
find 1969
ile 1969
sources 1969
consisting 1967
country 1967
prot@@ 1967
security 1967
zero 1967
asthma 1966
bar@@ 1965
23 1964
ata 1964
kidney 1963
6.@@ 1959
As@@ 1958
arrangement 1958
PCR 1955
atom 1955
SiO2 1954
variable 1953
200@@ 1952
MR 1952
ach@@ 1952
location 1952
might 1952
transient 1952
respon@@ 1951
decreasing 1950
ue 1950
au@@ 1949
disturbance 1949
off@@ 1949
setting 1948
ER@@ 1947
IL 1947
arly 1947
CAD 1946
af@@ 1946
effectively 1946
eye 1946
ities 1946
fil@@ 1945
bre@@ 1944
bending 1943
me 1943
proposes 1943
compression 1939
indispensable 1938
still 1938
MO@@ 1937
removed 1936
vers 1936
min 1934
ay@@ 1933
hybrid 1933
ran@@ 1933
Ca@@ 1932
describe 1930
ping 1929
mar@@ 1927
shear 1926
unc@@ 1926
assi@@ 1925
elderly 1924
ked 1923
phy@@ 1923
healthy 1922
2003 1921
pi@@ 1921
fat 1920
proportion 1920
contained 1916
gi@@ 1916
upon 1916
v 1915
Dis@@ 1914
AD@@ 1913
ens 1913
PE@@ 1912
methyl@@ 1912
HIV 1911
ule 1911
diver@@ 1910
neural 1910
transportation 1910
suggests 1909
atin 1908
SP@@ 1906
electrodes 1906
prevent 1906
gain 1905
ard 1904
capable 1904
users 1904
provided 1903
Both 1902
Cr 1902
died 1901
employed 1901
Per@@ 1900
criteria 1900
All 1899
ective 1898
Thus 1896
exists 1896
greater 1896
ome 1895
thought 1895
AC 1894
ET 1894
CH@@ 1893
st 1892
far 1891
induc@@ 1891
22 1889
what 1889
ocyte 1887
ets 1886
mit@@ 1886
CF@@ 1884
approximation 1884
regul@@ 1884
green 1883
sense 1881
tance 1881
ther 1881
discuss 1880
matter 1880
medi@@ 1880
microwave 1880
appears 1879
exhibited 1879
ish 1879
front 1878
metals 1878
search 1878
sugar 1878
vation 1878
bottom 1876
intr@@ 1876
kg 1876
operations 1876
ously 1875
wafer 1874
correlated 1873
substance 1873
dr@@ 1872
occur 1872
itation 1871
simulations 1871
random 1870
enables 1868
bil@@ 1866
oun@@ 1865
ima 1864
wor@@ 1864
fr@@ 1863
cut 1862
clo@@ 1861
RF 1858
oper@@ 1858
Among 1855
highest 1854
pal@@ 1854
adaptation 1853
anc@@ 1853
ech@@ 1853
hard 1853
separated 1853
completely 1852
thick 1852
myel@@ 1849
sel@@ 1849
house 1848
tim@@ 1848
inv@@ 1847
although 1845
bias 1845
bur@@ 1845
approximately 1844
ath@@ 1841
late 1839
intermediate 1838
coun@@ 1837
iso@@ 1837
melting 1837
verified 1837
ger 1834
screening 1834
summarized 1832
superior 1832
cellular 1831
crystalline 1830
lipid 1830
CO 1829
ned 1829
computed 1828
cop@@ 1828
glucose 1828
lip@@ 1828
mRNA 1827
ulation 1826
Our 1825
ensi@@ 1825
friction 1825
yst@@ 1825
coronary 1824
loop 1824
noticed 1822
proper 1822
istic 1821
atory 1820
RA@@ 1819
execution 1819
anesthesia 1818
drive 1817
ys 1817
ED@@ 1816
ained 1815
leakage 1815
national 1815
equal 1814
specimen 1814
conduction 1813
Ca 1812
ation@@ 1812
serious 1811
evolution 1810
infectious 1810
producing 1809
35 1808
consider 1808
tumors 1807
1997 1806
bond 1806
installation 1805
magnetization 1804
oscillation 1804
mul@@ 1803
formula 1802
phen@@ 1802
raw 1802
smooth 1801
strategy 1799
hal@@ 1798
Especially 1796
infarction 1796
sl@@ 1796
tig@@ 1796
feeding 1795
reconstruction 1795
therapeutic 1795
uni@@ 1795
nucleus 1794
lowered 1793
pure 1793
allo@@ 1792
generally 1792
phases 1787
ures 1787
exist 1786
sor@@ 1786
tension 1786
units 1784
access 1783
press 1783
0.0@@ 1782
solve 1782
acceleration 1781
sil@@ 1781
frequently 1780
fying 1779
integr@@ 1779
sec@@ 1778
SS 1777
arc 1777
steady 1777
ads 1775
objects 1774
Europe 1773
physiological 1773
vari@@ 1772
OH 1771
usual 1768
predicted 1766
flat 1764
spl@@ 1764
staining 1764
300 1762
ful@@ 1762
China 1759
lic@@ 1758
opathy 1758
bit 1757
ail@@ 1755
ler 1754
strains 1754
guidance 1753
interactions 1753
cur@@ 1752
services 1752
DM 1751
modulation 1751
tory 1750
dro@@ 1749
detailed 1748
ref@@ 1748
SI@@ 1747
U.S.A. 1746
fac@@ 1746
pneumonia 1746
regarding 1746
ass@@ 1745
gradient 1745
net 1745
oring 1745
rest 1745
generator 1744
Mo@@ 1742
description 1742
gives 1741
i.e. 1741
resistivity 1740
Di@@ 1739
mal 1739
GF 1738
RNA 1738
ot 1738
pur@@ 1738
PE 1737
ification 1735
Pt 1733
enc@@ 1732
resulted 1732
sen@@ 1732
solved 1732
erat@@ 1731
foreign 1731
pres@@ 1731
He@@ 1730
assessment 1730
yp@@ 1730
proved 1729
MP@@ 1727
marrow 1726
needed 1726
initi@@ 1725
km 1725
75 1723
angi@@ 1723
bu@@ 1723
domestic 1723
opinion 1723
ultra 1721
Research 1720
SC 1720
titanium 1720
bonding 1719
depression 1719
disappeared 1719
toward 1718
colon 1716
histological 1716
include 1716
take 1716
Un@@ 1714
observations 1714
cyto@@ 1713
exercise 1712
tics 1712
accumulation 1711
sia 1710
school 1709
os 1708
radio 1708
quantitative 1706
simultaneous 1706
ging 1705
sputtering 1705
but@@ 1704
insufficiency 1704
river 1704
operated 1702
probability 1702
cho@@ 1701
wing 1701
AL@@ 1700
mu@@ 1699
acids 1698
adi@@ 1698
jet 1696
arm 1695
ov@@ 1693
eu@@ 1692
horizontal 1692
45 1691
hel@@ 1691
und@@ 1691
New 1689
fruit 1689
111 1688
nano 1687
breeding 1686
urine 1686
agricultural 1685
milk 1685
synthetic 1685
nal 1684
MC 1682
acoustic 1682
aro@@ 1682
ases 1682
PD@@ 1681
urinary 1681
another 1680
ven@@ 1678
Se@@ 1677
ute 1677
simulated 1675
ann@@ 1674
flu@@ 1674
machines 1674
peri@@ 1674
ac 1672
cattle 1672
furnace 1672
periodic 1672
advantages 1671
bri@@ 1668
child 1667
includes 1667
bearing 1666
conservation 1666
collagen 1665
district 1665
later 1663
reason 1663
enterprises 1662
ologic 1662
finding 1661
mer@@ 1661
objective 1661
IR 1658
dominant 1657
detector 1656
peptide 1656
Cr@@ 1655
ine@@ 1654
forest 1653
port 1653
secretion 1653
Internet 1652
ared 1651
driving 1651
nucle@@ 1651
treatments 1651
final 1650
regeneration 1650
Ministry 1649
urban 1649
antenna 1648
super 1648
ze 1648
idal 1647
ash 1646
dic@@ 1646
fully 1646
great 1646
ml 1646
sin 1646
white 1646
radical 1645
automobile 1644
hemorrhage 1644
host 1644
myocardial 1643
therefore 1643
til@@ 1642
issues 1641
mor@@ 1640
des 1639
moving 1639
Bi@@ 1637
promoted 1637
applicable 1636
consistent 1636
put 1636
equ@@ 1634
eration 1634
remarkably 1634
assumed 1633
ru@@ 1633
sections 1633
Some 1632
already 1632
constants 1631
mac@@ 1631
hist@@ 1630
affect 1629
del@@ 1629
largest 1629
000 1628
arranged 1628
comparing 1627
generating 1626
001 1625
tank 1625
H2 1624
acting 1623
modeling 1623
posi@@ 1623
ne 1622
turbine 1622
inflammation 1619
dist@@ 1618
stages 1618
provides 1617
sufficiently 1616
disaster 1615
comparatively 1614
ometer 1614
rac@@ 1614
ace 1612
ologically 1612
influenced 1611
ently 1610
tion@@ 1608
morphology 1606
GaN 1605
previously 1605
eyes 1604
questionnaire 1604
excited 1603
vol@@ 1603
slightly 1602
Mn 1601
den 1601
coated 1599
constitu@@ 1599
val 1599
IT 1597
focusing 1597
spring 1596
pair 1594
experienced 1593
icul@@ 1592
ligh@@ 1592
steam 1592
standardization 1589
500 1588
CVD 1588
least 1588
ade 1587
concluded 1585
interval 1585
curves 1584
procedures 1584
profiles 1584
fault 1582
otic 1581
AB@@ 1580
decided 1580
spread 1580
feedback 1579
precise 1579
roles 1579
hour 1577
review 1577
certain 1576
situ 1576
combining 1575
Ar 1574
sin@@ 1574
adding 1573
drainage 1573
examines 1572
CR@@ 1571
mut@@ 1569
recorded 1568
association 1567
chief 1567
duration 1567
oxy@@ 1567
3D 1566
analy@@ 1565
ise 1565
leaf 1563
square 1563
tended 1563
chol@@ 1562
ements 1562
enter@@ 1562
ists 1562
oriented 1562
carries 1561
controller 1561
detect 1561
CT@@ 1560
Me@@ 1560
ceramic 1560
ches 1560
ear 1560
introducing 1558
ites 1557
omy@@ 1557
gro@@ 1556
understand 1555
17@@ 1554
of@@ 1554
requirements 1554
suppression 1554
QOL 1553
controls 1553
diamond 1553
ket 1553
Zn 1552
sw@@ 1551
Qu@@ 1550
rolling 1550
chamber 1549
digestive 1549
nature 1549
department 1548
stre@@ 1548
wood 1548
fixation 1547
video 1547
lar@@ 1546
technological 1546
achieve 1543
swelling 1543
closed 1542
excision 1542
frequencies 1541
play 1541
tors 1541
Po@@ 1540
tively 1540
wh@@ 1540
tra@@ 1539
carb@@ 1538
responses 1538
sex 1537
ago 1536
ceramics 1535
z 1535
immune 1534
marker 1534
big 1533
ML 1532
running 1532
NA@@ 1530
glyco@@ 1530
week 1530
score 1529
slight 1529
maintained 1527
oro@@ 1527
placed 1527
thi@@ 1527
actions 1526
conver@@ 1525
&amp; 1524
animals 1524
pharmacotherapy 1524
vehicle 1523
gal@@ 1522
anterior 1521
poor 1521
ut 1521
men@@ 1520
spe@@ 1520
molding 1519
route 1519
char@@ 1518
degrees 1518
ish@@ 1518
rather 1518
Because 1517
logic 1517
prop@@ 1517
takes 1516
IV 1515
Results 1515
System 1515
int@@ 1515
cu@@ 1514
ished 1514
metry 1514
mol@@ 1513
statistical 1513
ella 1512
ori@@ 1512
underwent 1512
uti@@ 1512
GA 1511
aling 1511
correction 1511
analyzing 1510
Ag 1507
adap@@ 1507
ental 1507
requires 1507
specification 1507
vision 1506
repair 1504
construct 1501
tre@@ 1501
tunneling 1501
repe@@ 1499
zation 1499
circular 1498
connec@@ 1498
tiv@@ 1498
aut@@ 1497
fit 1496
zo@@ 1496
25@@ 1495
40@@ 1495
son 1495
proliferation 1494
April 1492
indication 1492
remote 1492
sho@@ 1492
MI 1490
ga@@ 1490
struc@@ 1490
theoretically 1490
minutes 1489
evidence 1488
architecture 1487
Development 1485
allergic 1485
attempted 1485
dig@@ 1484
exhaust 1484
extremely 1484
Gen@@ 1483
ili@@ 1483
ordinary 1483
ection 1482
seismic 1482
grasp 1481
lac@@ 1481
ogenesis 1481
cable 1480
ideal 1480
reg@@ 1480
,000 1479
0.5 1479
chloride 1479
deficiency 1479
land@@ 1479
elec@@ 1478
gravity 1477
carrying 1476
vitro 1476
chi@@ 1475
clusters 1475
ines 1475
modification 1475
att@@ 1474
six 1474
stor@@ 1473
IP@@ 1472
emplo@@ 1472
tensile 1472
IS 1471
acts 1471
tures 1471
ear@@ 1470
zinc 1470
energies 1469
porous 1469
adv@@ 1468
black 1467
prec@@ 1467
visi@@ 1467
ably 1466
atmospheric 1466
fore@@ 1466
his 1466
ian 1466
indicating 1465
ured 1465
ama 1464
companies 1464
continued 1464
genome 1463
ual 1462
handling 1461
MD 1460
ai 1460
language 1460
uring 1460
insulation 1459
ER 1457
prefecture 1457
shell 1457
decay 1456
economic 1456
map 1456
oration 1456
pancreas 1456
Tc 1454
realization 1454
joints 1453
narrow 1453
ories 1453
ef 1452
hardness 1451
lab@@ 1450
Case 1449
proof 1449
harmonic 1448
MT@@ 1447
advance 1447
las@@ 1447
reactive 1447
summer 1447
tolerance 1446
always 1444
hospitalization 1443
stock 1443
mucosa 1442
need 1442
pig@@ 1441
coil 1440
exposed 1440
izes 1440
thal@@ 1440
anth@@ 1439
assay 1439
immuno@@ 1439
32 1438
solving 1438
specifications 1438
RS 1437
cervical 1437
idi@@ 1436
prob@@ 1436
ai@@ 1435
anisotropy 1435
correspondence 1435
numerically 1435
pap@@ 1435
chemistry 1434
tal 1434
train 1433
science 1432
whereas 1431
bacterial 1430
vitamin 1430
pass 1429
aining 1428
appear 1428
pulsed 1428
stomach 1428
aden@@ 1426
homogeneous 1426
microscopic 1426
starting 1426
ion@@ 1425
disorders 1424
ionic 1424
tle 1424
CS 1423
females 1423
ich@@ 1423
unique 1423
blue 1421
conditioning 1421
ID 1420
situations 1420
best 1418
regarded 1418
shaped 1418
sm@@ 1418
we@@ 1418
28 1417
ng 1417
65 1415
8.@@ 1415
Pre@@ 1415
mol 1415
uting 1415
ME@@ 1414
arterial 1414
commercial 1414
discusses 1414
experience 1414
lamin@@ 1414
Ser@@ 1413
chro@@ 1412
cord 1412
flo@@ 1412
26 1411
EC@@ 1411
irradiated 1411
opening 1411
CN@@ 1410
extract 1410
hydraulic 1410
nan@@ 1410
attrac@@ 1409
closely 1409
factory 1409
usion 1409
leaves 1408
itself 1407
coma 1406
9.@@ 1405
thromb@@ 1405
validity 1405
additional 1404
endoscopic 1404
instability 1404
ogenic 1404
viscosity 1404
Ti@@ 1403
Zn@@ 1403
asi@@ 1403
circuits 1403
ere@@ 1403
advantage 1402
ened 1402
own 1402
viral 1401
marine 1399
silica 1399
fatty 1398
RT 1397
Tran@@ 1397
establish 1395
generate 1395
HC@@ 1393
Three 1393
deterioration 1393
dri@@ 1393
ry 1393
usage 1393
apply 1392
CP@@ 1391
log@@ 1391
recovered 1390
impedance 1389
ulcer 1389
March 1388
aching 1388
eth@@ 1388
ric 1388
amounts 1386
grad@@ 1386
nutrition 1385
epithelial 1384
igh@@ 1384
rot@@ 1384
OS 1383
ack 1383
cen@@ 1382
cri@@ 1382
ences 1382
Le@@ 1381
explain 1381
press@@ 1381
purification 1381
snow 1381
battery 1380
ill 1378
sted 1378
get 1377
migration 1377
entr@@ 1376
government 1376
om 1376
symmetry 1376
unknown 1375
Com@@ 1374
NO 1374
ole 1374
rich 1374
stenosis 1374
reached 1373
US 1372
enforced 1372
inhibition 1372
LA@@ 1371
adjustment 1371
co 1371
hemat@@ 1371
growing 1370
longer 1370
efficiently 1369
mic@@ 1369
reverse 1369
she 1369
contr@@ 1368
grinding 1368
posterior 1368
productivity 1368
receiving 1368
ap 1367
office 1367
predic@@ 1367
variations 1367
yn@@ 1367
die 1366
ong 1366
sequences 1366
buffer 1365
proportional 1365
Fi@@ 1364
radius 1364
rol@@ 1364
neutral 1363
bloc@@ 1362
cer@@ 1362
′ 1362
ulated 1361
electrolyte 1360
held 1360
eng@@ 1359
necrosis 1359
HA 1358
intracellular 1358
peculiar 1358
EM 1357
cle@@ 1357
cylinder 1357
resist 1357
27 1356
desired 1356
go@@ 1356
pping 1356
fabrication 1355
depend 1354
mel@@ 1354
sur@@ 1353
tual 1353
direc@@ 1352
Au 1351
sy@@ 1351
est@@ 1349
ylene 1349
bound 1348
sides 1348
graphite 1347
magne@@ 1347
not@@ 1347
resource 1347
Na@@ 1346
consciousness 1346
chromosome 1345
her 1345
slope 1345
vaccine 1344
involvement 1343
differentiated 1342
du@@ 1342
remained 1341
rule 1341
aps 1340
roughness 1340
tran@@ 1340
60@@ 1339
July 1339
complaint 1339
mold 1339
systemic 1339
path@@ 1338
quantitatively 1338
relations 1338
stream 1338
magnet 1337
ogram 1337
pathological 1337
ma@@ 1336
ke@@ 1335
repeated 1335
superconducting 1335
GHz 1334
blo@@ 1334
mobility 1334
module 1334
occup@@ 1334
winter 1334
ution 1333
Inter@@ 1332
&gt; 1331
LSI 1331
transcription 1331
community 1330
intestinal 1330
stored 1330
supporting 1330
Hy@@ 1329
bands 1329
gran@@ 1329
ratios 1329
saturation 1329
AN@@ 1328
birth 1328
dust 1328
perpendicular 1328
Cor@@ 1327
dep@@ 1327
guide 1327
ome@@ 1327
quanti@@ 1327
soluble 1327
suggesting 1326
73 1325
branch 1324
leuk@@ 1323
photon 1323
June 1322
SD 1322
frac@@ 1322
lymphoma 1321
ogen@@ 1321
spite 1320
Se 1319
varied 1318
Res@@ 1317
comm@@ 1317
leukemia 1317
aimed 1316
ball 1316
NO@@ 1315
SH 1315
ocytes 1315
precipitation 1315
aiming 1314
modi@@ 1314
moment 1313
outer 1313
peaks 1313
stimul@@ 1313
chec@@ 1312
disc@@ 1312
flows 1312
goal 1312
positions 1312
Kan@@ 1311
spec@@ 1311
calculate 1310
extent 1310
ading 1308
ei@@ 1308
printing 1308
verification 1308
ionization 1307
pre 1307
ush@@ 1307
vivo 1307
entation 1306
ress 1306
slow 1306
SiC 1305
explo@@ 1304
stone 1304
substitution 1304
transmit@@ 1304
confirm 1303
sig@@ 1303
catalytic 1302
bor@@ 1301
compact 1301
focus 1301
mounting 1301
cast 1300
dosage 1300
framework 1300
ni@@ 1300
adrenal 1299
Co. 1298
Ph@@ 1298
Various 1298
hum@@ 1298
replacement 1298
Hist@@ 1297
diode 1297
ophy@@ 1297
refin@@ 1297
broad@@ 1296
hetero@@ 1296
incident 1296
sensors 1296
spot 1296
underground 1296
ach 1294
ce 1294
idea 1294
pole 1294
safe 1294
Spec@@ 1293
character 1292
lobe 1292
ten 1291
ices 1290
AD 1289
During 1289
PL 1288
Recent 1287
assembly 1287
definition 1287
magnitude 1287
cel@@ 1286
duction 1286
panel 1286
eous 1285
sampling 1285
sleep 1285
198@@ 1284
continuously 1284
phosphate 1284
demonstration 1283
drop 1283
grains 1283
built 1282
demonstrate 1282
males 1282
donor 1281
inhibited 1281
susceptibility 1281
ancy 1280
ats 1280
plates 1280
expanded 1279
members 1277
HE@@ 1276
ables 1276
beginning 1276
methyl 1276
retrieval 1276
excess 1275
emp@@ 1274
esophageal 1274
rose 1274
hor@@ 1273
mature 1273
cathode 1272
ker 1272
poly 1272
war@@ 1272
adhesive 1271
atten@@ 1271
chem@@ 1271
complexes 1270
ious 1270
longitudinal 1270
diet 1269
polymerization 1269
localized 1268
Electric 1267
RC 1267
rubber 1267
sy 1267
Be@@ 1265
evaluating 1265
latest 1265
psych@@ 1265
vit@@ 1265
prescription 1264
C. 1262
completed 1262
minute 1262
rain 1262
breakdown 1261
chest 1261
leg 1261
EL 1260
aspect 1260
ell 1260
fire 1260
switch 1260
kinetic 1259
Ba@@ 1258
leading 1258
stro@@ 1258
interstitial 1257
ming 1257
protocol 1256
acquisition 1254
elimination 1254
1996 1253
permeability 1253
ack@@ 1252
ith@@ 1252
mag@@ 1252
amide 1251
contains 1251
dermatitis 1251
53 1250
alcohol 1250
.This 1248
apoptosis 1245
existed 1245
implementation 1245
radial 1245
reli@@ 1245
ventilation 1245
dop@@ 1244
matching 1244
nuclei 1243
Sch@@ 1242
activ@@ 1242
fever 1242
fluoro@@ 1242
nearly 1242
overall 1241
oning 1240
asing 1239
stainless 1239
ways 1239
arthro@@ 1238
kinase 1238
capability 1237
drawing 1237
organ@@ 1237
ultraviolet 1236
contribution 1235
price 1235
tile 1235
33 1234
glut@@ 1234
hepat@@ 1234
set@@ 1234
steps 1234
benz@@ 1233
drying 1233
individuals 1233
positioning 1233
arthritis 1232
lumin@@ 1232
PO@@ 1231
promising 1231
Mar@@ 1230
rotating 1230
adaptive 1229
ased 1228
degrad@@ 1228
diabetic 1228
sulf@@ 1228
48 1227
cyclo@@ 1227
popularization 1227
ere 1226
Su@@ 1225
ain 1225
basal 1225
coli 1225
December 1224
break@@ 1224
tools 1224
accumulated 1223
PV@@ 1222
aph@@ 1222
NMR 1221
Na 1221
cope 1221
ht 1221
dislocation 1220
methane 1220
ination 1219
link 1219
owing 1219
shapes 1219
consisted 1218
fluctuations 1218
matters 1218
tation 1218
requirement 1217
Cl@@ 1216
Ne@@ 1216
buildings 1216
orig@@ 1216
proc@@ 1216
abilities 1215
explanation 1215
endothelial 1214
epitaxial 1213
PL@@ 1212
RP 1212
400 1211
Raman 1211
au 1211
portable 1211
fa@@ 1210
nodes 1210
od 1210
uted 1210
va 1210
Cl 1209
cholesterol 1209
moisture 1209
conducting 1208
introduce 1208
sup@@ 1208
alk@@ 1207
telephone 1207
challenge 1206
crystallization 1206
injected 1206
36 1205
economical 1205
ending 1205
secre@@ 1205
just 1204
promote 1204
Rel@@ 1203
committee 1203
contribute 1203
environments 1203
fuzzy 1203
Pl@@ 1202
programs 1200
reflec@@ 1200
ton@@ 1200
Monte 1199
acc@@ 1199
errors 1199
organs 1199
rely 1199
fol@@ 1198
monitor 1198
new@@ 1198
representative 1198
According 1197
Ge 1197
Mn@@ 1197
aims 1197
Mg 1196
lif@@ 1196
mid@@ 1196
sets 1196
varieties 1196
breast 1195
0.1 1194
If 1194
examinations 1194
ually 1194
Carlo 1193
disposal 1193
incorpor@@ 1193
Tr@@ 1192
driven 1192
perform 1192
retro@@ 1192
Sp@@ 1191
labor 1191
MT 1190
melt 1190
muscular 1190
sizes 1190
Further 1189
1995 1188
cation 1188
covered 1188
expl@@ 1188
infected 1188
stabilized 1188
TO@@ 1187
flexible 1187
behaviors 1186
eff@@ 1186
paren@@ 1186
poss@@ 1186
protective 1186
holes 1185
nat@@ 1185
polymorphism 1185
AS 1184
Under 1184
ak 1184
ths 1184
walking 1184
clinic 1183
mirror 1183
plan@@ 1183
BP 1182
Its 1182
detecting 1182
lation 1182
mask 1182
pan@@ 1182
proton 1182
yet 1182
bra@@ 1181
delivery 1181
mother 1180
extr@@ 1179
hex@@ 1179
pregnancy 1179
preservation 1179
aneurysm 1178
modul@@ 1178
Rec@@ 1177
SH@@ 1177
molten 1177
tun@@ 1177
clean 1176
dB 1176
kinetics 1176
damping 1175
integral 1175
55 1174
determining 1173
discovered 1173
etic 1172
temp@@ 1172
October 1171
intractable 1171
shaft 1171
sign@@ 1171
ition 1170
metric 1169
temporal 1169
hardware 1168
ls 1168
variables 1168
September 1167
olic 1167
ards 1166
cultured 1166
fact@@ 1166
nickel 1166
ump 1166
mark 1165
obesity 1165
torque 1165
weak@@ 1165
cro@@ 1164
sand 1164
stations 1164
aying 1163
virtual 1163
ISO 1162
PB@@ 1162
ented 1162
layered 1162
000@@ 1160
beams 1160
difficulty 1160
sludge 1160
inst@@ 1159
obtaining 1158
record 1158
HD@@ 1157
ethylene 1157
angiography 1156
coagulation 1156
inj@@ 1156
knee 1156
mer 1156
nit@@ 1156
seed 1156
vortex 1156
SF@@ 1154
mod@@ 1154
epithelium 1153
immediately 1153
oidal 1153
Cs 1152
tos@@ 1151
Sr@@ 1150
cm2 1150
kept 1150
nor@@ 1150
ID@@ 1149
MHz 1149
ily 1149
ink 1149
ols 1149
ferro@@ 1148
ide@@ 1148
ozone 1148
pos@@ 1148
cannot 1147
channels 1147
deviation 1147
pati@@ 1147
supported 1147
amplifier 1146
dam 1146
elucidation 1146
dil@@ 1145
dye 1145
noted 1144
simply 1144
accelerated 1143
bronchial 1143
century 1143
collision 1143
dysfunction 1143
wastes 1143
LD@@ 1142
efficacy 1142
insertion 1142
physi@@ 1142
throughout 1142
31 1141
tine 1141
gauge 1140
succeeded 1140
don@@ 1139
1.5 1138
conductive 1138
otherapy 1138
rock 1138
sub 1138
1990 1137
EL@@ 1136
University 1136
ce@@ 1136
Diff@@ 1135
inhibitory 1135
pot@@ 1135
resonant 1135
While 1134
bodies 1134
RO@@ 1133
fies 1133
heated 1133
sper@@ 1133
again 1131
contraction 1130
hand@@ 1130
iness 1130
tuberculosis 1130
auto@@ 1129
rotational 1129
ged 1128
implantation 1128
polymers 1128
For@@ 1127
Hokkaido 1127
Hz 1127
January 1127
discrete 1127
identical 1127
mil@@ 1126
0.5@@ 1124
infiltration 1124
ker@@ 1124
roc@@ 1124
students 1124
tility 1124
spontaneous 1123
ex 1122
acquired 1121
diagram 1121
private 1121
spherical 1121
MS@@ 1120
aortic 1120
gra@@ 1120
issue 1120
wiring 1120
GF@@ 1119
TV 1119
chosen 1119
dimension 1119
endocrine 1119
run@@ 1119
speech 1119
filling 1118
gave 1118
warming 1118
hospitalized 1117
inferior 1116
ret@@ 1116
anemia 1114
directions 1114
egg 1114
AS@@ 1113
causing 1113
immunity 1113
persi@@ 1113
oh@@ 1112
clu@@ 1111
fluorescent 1111
isolation 1111
nel 1111
part@@ 1111
uch@@ 1111
epitaxy 1110
ethanol 1110
onto 1110
waveguide 1110
allergy 1109
cin 1109
enterprise 1109
sized 1109
affects 1108
preventive 1108
swe@@ 1108
track 1108
vir@@ 1108
β@@ 1108
cin@@ 1107
dent 1107
Energy 1106
alumina 1106
approaches 1106
fish@@ 1106
ordered 1106
Sea 1105
graph@@ 1104
leads 1104
utilize 1104
Δ@@ 1104
liqu@@ 1103
mono@@ 1103
manag@@ 1102
researches 1102
morphological 1101
plays 1101
surrounding 1101
ital 1100
itary 1100
dementia 1099
m2 1098
pu@@ 1098
industries 1097
ingly 1097
semi 1097
sification 1097
1000 1096
cement 1096
ellar 1096
ner@@ 1096
accurately 1095
unstable 1095
197@@ 1094
CC 1094
contrac@@ 1094
derivatives 1094
ED 1093
MR@@ 1093
cle 1093
glo@@ 1093
relating 1093
Wor@@ 1092
femoral 1092
tes 1092
compensation 1091
instrument 1090
Electro@@ 1089
Pd 1089
ars 1089
flow@@ 1089
confirmation 1087
entary 1087
fall 1087
inorganic 1087
charging 1086
saturated 1086
sing@@ 1086
37 1085
K. 1085
SN@@ 1085
come 1085
pancreatitis 1085
regard 1085
are@@ 1084
Ga 1083
dimensions 1083
examining 1083
symmetric 1083
cyst 1082
impurity 1082
wear 1082
created 1081
pref@@ 1081
said 1081
chlor@@ 1080
frequent 1080
methanol 1080
smoking 1080
tionally 1080
34 1079
Col@@ 1079
PP 1079
RT@@ 1079
retar@@ 1079
standing 1079
reco@@ 1078
August 1077
antibodies 1077
item 1077
International 1076
PET 1076
cDNA 1075
ight 1075
rays 1075
tetr@@ 1075
tomography 1075
doping 1074
ro 1074
su 1074
AP 1073
durability 1073
hip 1073
planned 1073
wave@@ 1073
algorithms 1072
economy 1071
ometric 1071
charged 1070
N2 1069
cyclic 1069
desirable 1069
name 1069
oxides 1069
pointed 1069
rh@@ 1069
stu@@ 1069
vis@@ 1069
ange 1068
eren@@ 1068
onally 1068
annual 1067
flight 1067
peritoneal 1067
wild 1067
ica 1066
judged 1066
mos@@ 1066
29 1065
May 1065
briefly 1065
chemicals 1064
metabolic 1064
far@@ 1063
processor 1063
ature 1062
degeneration 1062
inverse 1062
sum 1061
PS@@ 1060
manifestation 1060
usually 1060
abdomen 1058
forward 1058
polar 1058
trees 1058
adhe@@ 1057
visible 1057
extrac@@ 1056
trace 1056
accep@@ 1055
concepts 1055
represented 1055
s.@@ 1055
IN@@ 1054
Man@@ 1054
allows 1054
check 1054
evaporation 1054
packaging 1054
America 1053
ays 1053
gs 1052
mentation 1052
merits 1052
plo@@ 1052
cooled 1051
separ@@ 1051
edema 1050
neo@@ 1050
polarized 1050
suppl@@ 1050
biliary 1049
synthe@@ 1049
cirrhosis 1048
details 1048
focused 1048
matic 1048
respective 1048
IB@@ 1047
adenocarcinoma 1047
chromatography 1047
ey@@ 1047
hol@@ 1047
package 1047
commerci@@ 1046
cylindrical 1046
esti@@ 1046
lim@@ 1046
considerably 1045
equipped 1044
suppress 1044
64 1043
adsorbed 1043
agreed 1043
gases 1043
railway 1043
ET@@ 1042
Many 1042
inc@@ 1042
pat@@ 1042
propag@@ 1042
app@@ 1041
stere@@ 1041
She 1040
ep 1040
quasi 1040
requ@@ 1040
uk@@ 1040
compens@@ 1039
ail 1038
member 1038
Cal@@ 1037
Effects 1037
Ltd. 1037
EA 1036
La@@ 1036
automatically 1036
idity 1035
pp@@ 1035
quite 1035
Car@@ 1034
Technology 1034
style 1034
PI 1033
period@@ 1033
precipit@@ 1033
respiration 1033
tron 1033
arb@@ 1032
eph@@ 1032
alli@@ 1031
angular 1031
determin@@ 1031
electricity 1031
filled 1031
intravenous 1031
manufacture 1031
night 1031
dam@@ 1030
lig@@ 1030
membranes 1030
minim@@ 1030
pic@@ 1030
Å 1030
particularly 1029
tar@@ 1027
transverse 1027
varying 1027
begin 1026
GH 1025
formul@@ 1025
izer 1025
lymphocyte 1025
Center 1024
attached 1024
q 1024
star@@ 1024
impl@@ 1023
EB@@ 1022
humidity 1022
sign 1022
bas@@ 1021
manner 1021
mas@@ 1021
nod@@ 1021
sep@@ 1021
tel@@ 1021
ty@@ 1021
IFN 1020
there@@ 1020
classical 1019
dissolved 1019
markedly 1019
pore 1019
raised 1019
thy@@ 1019
tured 1019
ed.@@ 1018
esis 1018
Mat@@ 1017
designing 1016
elongation 1016
tening 1016
water@@ 1016
Experimental 1015
avoid 1015
bacterium 1015
incre@@ 1015
plating 1015
eric 1014
red@@ 1014
HT@@ 1013
Most 1013
Present 1013
projects 1013
sheets 1013
Pb 1012
asting 1012
distingu@@ 1012
kW 1012
regression 1012
dark 1011
ow 1011
stabil@@ 1011
80@@ 1010
arity 1010
dispersed 1010
lies 1010
pec@@ 1010
picture 1009
Fu@@ 1008
converted 1008
med 1008
optic 1008
tab@@ 1008
tracking 1008
adenoma 1007
rite 1007
FA 1006
OA 1006
carcin@@ 1006
dual 1006
enzymes 1006
manufacturers 1006
wet 1006
aspects 1005
correc@@ 1005
genus 1005
portal 1005
reduc@@ 1005
SEM 1004
binary 1004
circumference 1004
modulus 1004
reactivity 1004
ws 1004
ban@@ 1003
computers 1003
distortion 1003
ir 1003
reflected 1002
refractive 1002
enough 1001
maintain 1001
omal 1001
decomp@@ 1000
destruction 1000
lithium 1000
season 1000
sulfate 1000
young 1000
stric@@ 999
angles 997
recombination 997
reduces 997
rop@@ 997
walls 997
bubble 996
Asia 995
MeV 995
criterion 995
dge 995
ected 995
optim@@ 995
photo 995
Following 994
creep 994
sul@@ 994
valence 994
alg@@ 993
ares 993
platelet 993
timing 993
ina 992
operational 992
42 991
atal 991
capillary 991
densities 991
inhalation 991
shortening 991
SR 990
drastically 990
spac@@ 990
Cd@@ 989
ester 989
responsible 989
gold 988
retinal 988
conjug@@ 987
doctor 987
echo 987
phosphorus 987
toxicity 986
trig@@ 986
National 985
awa 985
boundaries 985
currents 985
drain 985
magneto@@ 985
suspension 985
Micro@@ 984
luminescence 984
meantime 984
relationships 984
ucle@@ 984
uter@@ 984
interfer@@ 983
absor@@ 982
brought 982
contamination 982
cortex 982
inserted 982
eds 981
gallbladder 981
inverter 981
olig@@ 981
orbital 981
produces 981
induce 980
planar 980
rupture 980
bar 979
exclu@@ 979
mounted 979
restriction 979
wid@@ 979
TA@@ 978
discharged 978
ense 978
fu@@ 978
got 978
wireless 978
110 977
GC 977
aking 977
computation 977
discovery 977
exhibits 977
infusion 977
partially 977
particip@@ 977
* 976
classi@@ 976
contracted 976
mam@@ 976
38 975
Te 975
metastatic 975
revision 975
specificity 975
termin@@ 975
thick@@ 975
transform 975
localization 974
omes 974
perme@@ 974
plasmas 974
processed 974
idosis 973
potassium 973
qui@@ 973
rules 973
shi@@ 973
MD@@ 972
No@@ 972
ecting 972
excit@@ 972
graph 972
sch@@ 972
screw 972
2,@@ 971
asymp@@ 971
disper@@ 971
fibrillation 971
improves 971
Cy@@ 970
autoimmune 970
ens@@ 970
instead 970
neck 970
try 970
comprehensive 969
lit@@ 969
sensing 969
choice 968
electrostatic 968
heter@@ 968
million 968
places 968
FC 967
dissolution 967
neutr@@ 967
wound 967
exhibit 966
yed 966
absorb@@ 965
accidents 965
ash@@ 965
marked 965
prior 965
300@@ 964
HD 964
lowest 964
insufficient 963
multipl@@ 963
sine 963
bene@@ 962
deli@@ 962
ferromagnetic 962
nervous 962
wise 962
diff@@ 961
manual 961
mild 961
subjected 961
Chinese 960
morph@@ 960
multilayer 960
predict 960
adren@@ 959
agriculture 959
generalized 959
otomy 959
paddy 958
prototype 958
That 957
attempt 957
attributed 957
potentials 957
articular 956
ji 956
tant 956
isol@@ 955
know 955
ocean 955
pigment 955
sput@@ 955
swit@@ 955
thing 955
window 955
HA@@ 954
LA 954
apparent 954
box 954
carbon@@ 954
forces 954
microstructure 954
rent 954
11@@ 953
concentrated 953
principles 953
vely 953
communications 952
dynamical 952
island 952
participation 952
reinforced 952
enabled 951
tability 951
thro@@ 951
￣ 951
FT 950
oscill@@ 950
vehicles 950
― 950
2004 949
November 949
ammonia 948
inver@@ 948
petroleum 948
rid@@ 948
HCV 947
categ@@ 947
observe 947
programming 947
special@@ 947
Pacific 946
cartilage 946
Institute 945
casting 945
portion 945
require 945
encephal@@ 944
mathematical 944
sional 944
Ab@@ 943
EN@@ 943
colon@@ 943
gence 943
ley 943
rod 943
stop 943
thre@@ 943
Power 942
them@@ 942
transistor 942
pharmacist 941
tot@@ 941
Mo 940
estimating 940
influenza 940
turbulent 940
ull 940
Sn 939
domin@@ 939
progressive 939
ta 939
oids 938
ppm 938
prospect 938
round 938
seriousness 938
squ@@ 938
silver 937
Nag@@ 936
ax 936
codes 936
ils 935
sequ@@ 935
silic@@ 935
dies 934
fir@@ 934
ischemic 934
promoting 933
antly 932
ces 932
jo@@ 932
screen 932
tial 932
constructing 931
eight 931
ranging 931
bleeding 930
glomer@@ 930
manifest@@ 930
purified 930
wel@@ 930
bus 929
fem@@ 929
passed 929
stent 929
85 928
carbonate 928
chains 928
dense 928
going 928
resolved 928
transfusion 928
NA 927
ects 927
feeling 927
gre@@ 927
ood 927
designs 926
directional 926
discussion 926
dyeing 926
osteoporosis 926
pes 926
planting 926
selectivity 926
alternative 925
namely 925
nasal 925
manufactured 924
university 924
600 923
Sub@@ 923
ag 923
da 923
influences 923
insulating 923
rehabilitation 923
AFM 922
appro@@ 922
controll@@ 922
foundation 922
interest 922
sulfur 922
bol@@ 921
overseas 921
ship@@ 921
spectrometry 921
subjective 921
π 921
erythema 920
hold 920
plastics 920
positively 920
rail@@ 920
reliable 920
wheel 920
CM 919
O4 919
SI 919
bus@@ 919
indoor 919
nitrate 919
performances 919
waveform 919
95 918
fail@@ 918
smo@@ 918
coherent 917
eating 917
hydrox@@ 917
osing 917
progres@@ 917
pulses 917
simulator 917
delayed 916
era 916
utes 916
antimicrobial 915
broadcasting 915
ferroelectric 915
nozzle 915
shorter 915
absolute 914
cir@@ 914
insulator 914
retention 914
welfare 914
Fourier 913
ector 913
go 913
rig@@ 913
care@@ 912
diversity 912
electrochemical 912
once 912
pitch 912
broad 911
erator 911
rip@@ 911
voice 911
actu@@ 910
aer@@ 910
piping 910
stabilization 910
stitute 910
literature 909
nutritional 909
AR@@ 908
Li 908
Sb 908
chemically 908
ita 908
mus@@ 908
rence 908
eal 907
exact 907
ied 907
pharmaceutical 907
quick 907
town 907
1994 906
TA 906
assumption 905
flame 905
insul@@ 905
anis@@ 904
implemented 904
mesh 904
transmitted 904
cros@@ 903
evol@@ 903
CAM 902
adsor@@ 902
boron 902
diffuse 902
server 902
buc@@ 901
piezoelectric 901
43 900
add@@ 899
converter 899
costs 899
intelligent 899
lumbar 899
ond 899
vicinity 899
NT@@ 898
began 898
covering 898
ellip@@ 898
eously 898
oton@@ 898
TR@@ 897
born 897
cep@@ 897
erg@@ 897
intervention 897
sol 897
SD@@ 896
computational 896
cytokine 896
gen 896
applicability 895
incorporated 895
pen@@ 895
sively 895
substanti@@ 895
abscess 894
alignment 894
geometry 893
thyro@@ 893
tural 893
67 892
Industry 892
encies 892
ible 892
lasers 892
prolifer@@ 892
aldehyde 891
fit@@ 891
floating 891
infants 891
olog@@ 891
stationary 891
Fermi 890
ately 890
bonds 890
catheter 890
clinically 890
cover 890
dialysis 890
dys@@ 890
low@@ 890
neu@@ 890
nitride 890
transitions 890
valent 890
cal 889
fibro@@ 889
gang@@ 889
blade 888
bot@@ 888
plasty 888
2.5 887
cystic 887
linked 887
MPa 886
arrang@@ 886
desorption 886
wavel@@ 886
asts 885
flav@@ 885
rising 885
ura 885
uro@@ 885
Sm@@ 884
bra 884
join@@ 884
periods 884
ank@@ 883
sym@@ 883
ticul@@ 883
housing 882
surveyed 882
Doppler 881
calibration 881
ocular 881
slip 881
som@@ 881
vascul@@ 881
accepted 880
tok@@ 880
transpor@@ 880
container 879
derivative 879
developmental 879
efforts 879
grid 879
inate 879
workers 879
articles 878
competition 878
dium 878
isom@@ 878
osynthesis 878
sible 878
simp@@ 878
solder 878
specified 878
therm@@ 878
emic 877
kn@@ 877
remaining 877
EP@@ 876
InP 876
orization 876
plans 876
verte@@ 876
Cases 875
bility 875
venous 875
Of 874
arily 874
creation 874
organism 874
radiotherapy 874
segment 874
tooth 874
transparent 874
HF 873
conservative 873
dia 873
exten@@ 873
team 873
Ca2 872
Law 872
bilateral 872
otype 872
plac@@ 872
rene 872
Nb 871
keeping 871
m3 871
tase 871
connecting 870
entally 870
hearing 870
keep 870
oti@@ 870
referring 870
supplied 870
anomalous 869
aqu@@ 869
cars 869
orbit 869
took 869
nor 868
och@@ 868
outcome 868
・ 868
algia 867
cardi@@ 867
hair 867
percentage 867
sco@@ 867
Bi 866
assign@@ 866
dom@@ 866
sent 866
thoracic 866
analog@@ 865
ger@@ 865
named 865
suc@@ 865
But 864
Each 864
February 864
advances 864
dou@@ 864
orth@@ 864
penetration 864
sintering 864
CR 863
biomass 863
cas@@ 863
lot 863
mammary 863
pollen 863
pression 863
pressures 863
stag@@ 863
survi@@ 863
tetra@@ 863
→ 863
CMOS 862
centr@@ 862
chrom@@ 862
lifetime 862
nucleation 862
real@@ 862
administr@@ 861
break 861
cycles 861
momentum 861
optimized 861
osteo@@ 861
quin@@ 861
scope 861
stimulated 861
amplification 860
analog 860
attack 860
fertilization 860
lion 860
acceler@@ 859
assembl@@ 859
erous 859
fertilizer 859
ort@@ 859
sales 859
shifted 859
150 858
72 858
MO 858
elim@@ 858
focal 858
ini@@ 858
ited 858
task 858
agnetic 857
eness 857
eosin@@ 857
finally 857
tons 857
pharmaco@@ 856
reinforcement 856
rotor 856
IgG 855
adoption 855
alis 855
dot 855
fun@@ 855
genic 855
inten@@ 855
ligand 855
metabol@@ 855
olysis 855
q@@ 855
AA 854
dissociation 854
elevated 854
events 854
houses 854
sensi@@ 854
aid 853
candidate 853
etal 853
ischemia 853
operator 853
slab 853
39 852
Mi@@ 852
allel@@ 852
assuming 852
eigen@@ 852
reversible 852
sequently 852
wheat 852
adjacent 851
aled 851
oxidative 851
preliminary 851
quartz 851
revised 851
soci@@ 851
trunk 851
graphic 850
headache 850
ram@@ 850
systematic 850
argon 849
fluor@@ 849
odic 849
ram 849
rap@@ 849
ush 849
bic 848
capacitor 848
prote@@ 848
sus 848
LP 847
count 847
deal 847
hop@@ 847
internet 847
successful 847
follic@@ 846
identify 846
ky 846
compres@@ 845
polyethylene 845
vertebral 845
Group 844
TEM 844
mutual 844
pin@@ 844
rele@@ 844
too 844
MG 843
ablation 843
bulin 843
favorable 843
1993 842
HB@@ 842
prin@@ 842
TS 841
conv@@ 841
win@@ 841
Their 840
compare 840
gon@@ 840
graft 840
pairs 840
ana 839
ential 839
lymph@@ 839
macro@@ 839
markers 839
therapies 839
56 838
CG 838
Such 838
anch@@ 838
centers 838
ire 838
pathway 838
NOx 837
abnormalities 837
actuator 837
down@@ 837
lubric@@ 837
sibility 837
SS@@ 836
date 836
filters 836
van@@ 836
attenuation 835
chloro@@ 835
repres@@ 835
tized 835
transi@@ 835
avoid@@ 834
Uni@@ 833
atively 833
conductance 833
elucidate 833
Analysis 832
Stu@@ 832
abol@@ 832
cut@@ 832
employing 832
erythro@@ 832
perfect 832
released 832
satis@@ 832
ss 832
44 831
Osaka 831
ematic 831
fishing 831
recogn@@ 831
weigh@@ 831
63 830
Min@@ 830
actually 830
ications 830
sudden 830
46 829
52 829
convection 829
intense 829
osi@@ 829
pon@@ 829
removing 829
seven 829
word 829
FD@@ 828
LV 828
Multi@@ 828
STM 828
oly@@ 828
lea@@ 827
loads 827
supports 827
uptake 827
vance 827
GE 826
agawa 826
ardi@@ 826
interfacial 826
principal 826
ushing 826
‘ 826
acuity 825
cooperative 825
correct 825
ferrite 825
organizations 825
quantities 825
catalysts 824
sliding 824
66 823
alone 823
capacitance 823
formulation 823
mucosal 823
ped 823
slo@@ 823
41 822
ick@@ 822
maxim@@ 822
needle 822
tal@@ 822
JIS 821
calc@@ 821
identi@@ 821
impossible 821
passive 821
0.2 820
alkaline 820
entire 820
investigations 820
techn@@ 820
tric 820
47 819
bel@@ 819
glycer@@ 819
hyperplasia 819
list 819
weather 819
PW@@ 818
corpor@@ 818
mission 818
seedling 818
dly 817
ov 817
correspon@@ 816
ered 816
chlorine 815
initiation 815
laparotomy 815
umin@@ 815
HS 814
insurance 814
ritis 814
yeast 814
Pol@@ 813
granular 813
lob@@ 813
spray 813
.2 812
Health 812
anode 812
oscopic 812
reac@@ 812
Features 811
NC 811
admission 811
finger 811
≦ 811
IA 810
TE@@ 810
To@@ 810
blast 810
enable 810
event 810
glyc@@ 810
BS 809
acetate 809
hernia 809
powders 809
ultra@@ 809
My@@ 808
melan@@ 808
satisfactory 808
Information 807
affinity 807
ale 807
contin@@ 807
feasibility 807
occupied 807
simplified 807
trical 807
library 806
remove 806
sum@@ 806
vessels 806
51 805
printed 805
regular 805
solidification 805
viewpoints 805
Clinical 804
II@@ 804
PM@@ 804
excretion 804
fermentation 804
mapping 804
obvious 804
pressive 804
scattered 804
chiral 803
hierarch@@ 803
ression 803
δ 803
Fuk@@ 802
fibr@@ 802
junctions 802
mineral 802
rou@@ 802
targets 802
Several 801
absence 801
afterwards 801
amy@@ 801
atopic 801
gar@@ 801
ryst@@ 801
Ge@@ 800
PT 800
certification 800
giant 800
inclin@@ 800
neighb@@ 800
ogen 800
remission 800
ust 800
approximate 799
considerable 799
fed 799
asymmetric 798
cellulose 798
chy@@ 798
freedom 798
ised 798
α@@ 798
Br@@ 797
Nd 797
coordin@@ 797
disp@@ 797
flower 797
oxidase 797
East 796
agree 796
complained 796
gamma 796
gun 796
hardening 796
presenting 796
preventing 796
anomaly 795
igh 795
ki 795
mers 795
ometry 795
spi@@ 795
spor@@ 795
gn@@ 794
idiopathic 794
illustr@@ 794
impurities 794
plot 794
tone 794
TiO2 793
coding 793
ign@@ 793
PM 792
Web 792
ZnO 792
defin@@ 792
embedded 792
emitted 792
atrophy 791
consist@@ 791
contain 791
foods 791
fy 791
atric 790
mutant 790
ordering 790
radio@@ 790
ame@@ 789
answ@@ 789
liber@@ 789
lightning 789
powerful 789
sharing 789
traction 789
RE@@ 788
enting 788
fur@@ 788
inhibitors 788
involving 788
nanot@@ 788
ams 787
depended 787
homogen@@ 787
prospects 787
roph@@ 787
tex@@ 787
accoun@@ 786
cracks 786
dation 786
spin@@ 786
ules 786
version 786
23@@ 785
Main 785
acter@@ 785
filtration 785
reproduction 785
sity 785
alkali 784
commun@@ 784
erosion 784
ket@@ 784
moun@@ 784
Op@@ 783
combin@@ 783
electroly@@ 783
habit 783
invol@@ 783
understood 783
BT 782
drift 782
receptors 782
soybean 782
Fac@@ 781
Struc@@ 781
aker 781
compositions 781
giving 781
precursor 781
vel@@ 781
Wh@@ 780
aki 780
carriers 780
encing 780
magnesium 780
residues 780
strengthening 780
LCD 779
benzene 779
cour@@ 779
linearity 779
meters 779
scan 779
tium 779
verse 779
quar@@ 778
shadow 778
sharp 778
wires 778
61 777
MI@@ 777
acking 777
arteriosclerosis 777
kV 777
trouble 777
ATP 776
eti@@ 776
instruments 776
moderate 776
olecular 776
our@@ 776
thorax 776
CL 775
compliance 775
ograph 775
sar@@ 775
turbulence 775
ug 775
across 774
bron@@ 774
contrib@@ 774
illustrated 774
inoculation 774
investment 774
lex 774
lighting 774
meeting 774
recommended 774
Techn@@ 773
acted 773
contamin@@ 773
diffu@@ 773
freezing 773
idation 773
irregular 773
jection 773
mostly 773
pretreatment 773
TP 772
adopting 772
ambulatory 772
bad 772
examin@@ 772
fungus 772
hospitals 772
iner@@ 772
invasive 772
μg 772
68 771
AM 771
fresh 771
granul@@ 771
stance 771
anxiety 770
elling 770
etiology 770
facilit@@ 770
roughly 770
trade 770
800 769
ammonium 769
ders 769
ends 769
mill 769
ort 769
residue 769
shifts 769
1.0 768
Radi@@ 768
anisotropic 768
olytic 768
oxidized 768
tea 768
uria 768
SM 767
Yam@@ 767
ester@@ 767
mixtures 767
polar@@ 767
sun@@ 767
wo@@ 767
aggregate 766
construc@@ 766
ems 766
equipments 766
incid@@ 766
munici@@ 766
Zr 765
boiler 765
illus 765
lithography 765
opath@@ 765
opoietic 765
phenol 765
rectangular 765
slag 765
grating 764
likely 764
permanent 764
synchrotron 764
taste 764
intrac@@ 763
realizing 763
recognize 763
Aut@@ 762
antagonist 762
antibacterial 762
constraint 762
cycl@@ 762
presentation 762
traditional 762
HP 761
alge@@ 761
complaints 761
foc@@ 761
projection 761
vity 761
Escherichia 760
PF@@ 760
anine 760
hydr@@ 760
induces 760
pig 760
Treatment 759
adequate 759
bli@@ 759
desc@@ 759
dots 759
gear 759
goods 759
mater@@ 759
organisms 759
computing 758
cracking 758
tubes 758
vas@@ 758
54 757
helium 757
rings 757
IV@@ 756
attrib@@ 756
automation 756
big@@ 756
bly 756
ff 756
hysteresis 756
mentions 756
patent 756
proposal 756
rectal 756
representation 756
shallow 756
xia 756
conve@@ 755
families 755
negl@@ 755
roots 755
targe@@ 755
Al2O3 754
Har@@ 754
confir@@ 754
cytoplasm 754
lamp 754
meas@@ 754
ven 754
LAN 753
ensive 753
hypothesis 753
jud@@ 753
sphere 753
ylase 753
Through 752
devised 752
dividing 752
histologically 752
lec@@ 752
tering 752
EP 751
damaged 751
domains 751
inning 751
reser@@ 751
Association 750
MgO 750
RF@@ 750
ayer 750
coccus 750
curvature 750
ficial 750
harmon@@ 750
meet 750
upgrading 750
NH@@ 749
conference 749
constraints 749
describing 749
ference 749
high@@ 749
omas 749
osed 749
vary 749
visu@@ 749
62 748
Hall 748
assisted 748
atin@@ 748
bowel 748
limb 748
piece 748
stresses 748
Imp@@ 747
ambient 747
arteri@@ 747
comes 747
congenital 747
distinct 747
hydrochloride 747
iter@@ 747
produc@@ 747
reci@@ 747
NTT 746
hydroxy@@ 746
inter 746
nano@@ 746
plex@@ 746
verify 746
xes 746
abr@@ 745
asis 745
elasticity 745
western 745
MV 744
calculating 744
ick 744
preser@@ 744
ycl@@ 744
absorbed 743
offer 743
utions 743
LS 742
fier 742
lack 742
mercury 742
pituitary 742
extensive 741
PG 740
asia 740
catch 740
edi@@ 740
nation 740
placing 740
scaling 740
similarity 740
ur 740
AF@@ 739
CCD 739
aw 739
eing 739
orb@@ 739
rs 739
accumul@@ 738
ben@@ 738
oxin 738
visualization 738
words 738
admitted 737
brown 737
guaran@@ 737
keV 737
oked 737
ows 737
packet 737
random@@ 737
remains 737
uous 737
Cd 736
ab 736
constitution 736
dystrophy 736
embolism 736
lets 736
span 736
98 735
ato 735
auth@@ 735
ene@@ 735
fre@@ 735
regulations 735
rf 735
rigid 735
rine 735
sely 735
treating 735
unch 735
Application 734
Germany 734
Poly@@ 734
acryl@@ 734
bandwidth 734
compl@@ 734
eller 734
fold 734
formulated 734
meaning 734
IgE 733
Nb@@ 733
YAG 733
cubic 733
derivation 733
entially 733
hydrogen@@ 733
interfaces 733
pil@@ 733
pile 733
sediment 733
traum@@ 733
500@@ 732
distal 732
perfusion 732
registration 732
repl@@ 732
satisfy 732
aspir@@ 731
ensis 731
published 731
system@@ 731
Vi@@ 730
captioned 730
immunohisto@@ 730
lum@@ 730
neurons 730
separate 730
ores 729
ous@@ 729
supers@@ 729
trials 729
uniformity 729
RAM 728
affecting 728
san@@ 728
seem 728
58 727
correspond 727
generates 727
largely 727
run 727
subsequent 727
characters 726
demonstr@@ 726
expon@@ 726
extre@@ 726
fric@@ 726
jointly 726
linearly 726
polyp@@ 726
recur@@ 726
turing 726
turn 726
SE 725
Ste@@ 725
accordance 725
esses 725
flex@@ 725
immer@@ 725
selectively 725
ticity 725
Gro@@ 724
alter@@ 724
condensation 724
records 724
ys@@ 724
Can@@ 723
antibiotics 723
depend@@ 723
eline 723
foot 723
illing 723
regulated 723
statistics 723
tasks 723
70@@ 722
MOS 722
aria 722
coming 722
dc 722
ada 721
conf@@ 721
eggs 721
substitu@@ 721
tment 721
transferred 721
1992 720
FEM 720
infinite 720
purposes 720
seeds 720
succ@@ 720
shielding 719
stop@@ 719
United 718
counter 718
frag@@ 718
plasm@@ 718
pow@@ 718
refrig@@ 718
LD 717
Or@@ 717
alcohol@@ 717
guidelines 717
psychi@@ 717
ranges 717
Tok@@ 716
ligament 716
macroscopic 716
pharmac@@ 716
puts 716
zes 716
Diag@@ 715
EGF 715
becoming 715
grasping 715
ophil@@ 715
poisoning 715
quickly 715
sic 715
wafers 715
AR 714
CB@@ 714
H2@@ 714
cad@@ 714
solvents 714
Phot@@ 713
cally 713
crop 713
improvements 713
intensities 713
refriger@@ 713
searched 713
cruc@@ 712
dermat@@ 712
eling 712
implanted 712
miner@@ 712
muc@@ 712
ops 712
promoter 712
turb@@ 712
vo@@ 712
yellow 712
prednisolone 711
transduction 711
warm 711
bath 710
bonded 710
conclu@@ 710
estion 710
interpreted 710
limiting 710
sulfur@@ 710
ession 709
mark@@ 709
tioned 709
vul@@ 709
0.05 708
Sr 708
We@@ 708
bis@@ 708
essed 708
hibiting 708
maintaining 708
oxid@@ 708
precautions 708
radicals 708
tioning 708
topics 708
transp@@ 708
ultrasonography 708
AV@@ 707
itri@@ 707
perturbation 707
platform 707
proce@@ 707
River 706
adium 706
descri@@ 706
falling 706
pyro@@ 706
rear 706
suppressing 706
weld 706
PR 705
card 705
methodology 705
purity 705
raising 705
short@@ 705
amination 704
cardiovascular 704
seal 704
49 703
NP 703
Pati@@ 703
enhance 703
rit@@ 703
120 702
Basic 702
indirect 702
interpretation 702
tives 702
washing 702
PZT 701
analysed 701
atom@@ 701
disc 701
eas@@ 701
let@@ 701
originated 701
passing 701
steels 701
transgenic 701
arti@@ 700
basi@@ 700
bs 700
cereb@@ 700
var@@ 700
zy@@ 700
Blo@@ 699
GS 699
Sup@@ 699
bases 699
biochemical 699
character@@ 699
eding 699
escent 699
illumination 699
string 699
autom@@ 698
bladder 698
cultivated 698
electrophoresis 698
mortality 698
nation@@ 698
phonon 698
concep@@ 697
convenient 697
gover@@ 697
osition 697
robust 697
urgent 697
DP 696
ESR 696
neur@@ 696
qual@@ 696
Phy@@ 695
acy 695
compressive 695
grow 695
infrastructure 695
iting 695
progressed 695
texture 695
transformed 695
Ear@@ 694
TiO3 694
ass 694
circulatory 694
clin@@ 694
cyst@@ 694
estrogen 694
mediated 694
monolayer 694
pack@@ 694
uco@@ 694
vibr@@ 694
oscillations 693
ubl@@ 693
57 692
Cur@@ 692
demands 692
itus 692
psychological 692
Cro@@ 691
aries 691
ashi@@ 691
bic@@ 691
cus 691
enrich@@ 691
aircraft 690
ended 690
operate 690
oscop@@ 690
69 689
CS@@ 689
neg@@ 689
reveal 689
yields 689
Fr@@ 688
Sec@@ 688
bran@@ 688
ectural 688
iring 688
reproduced 688
seg@@ 688
vial 688
acceptor 687
atri@@ 687
collapse 687
deals 687
drinking 687
histopathological 687
main@@ 687
pumping 687
volun@@ 687
A. 686
acro@@ 686
concer@@ 686
dependency 686
etch 686
formations 686
hypot@@ 686
spectro@@ 686
terminals 686
che@@ 685
derive 685
resist@@ 685
scientific 685
tends 685
utility 685
Ob@@ 684
XPS 684
annealed 684
dipole 684
holding 684
paralysis 684
22@@ 683
Characteristics 683
NF 683
Pri@@ 683
abounding 683
attitude 683
benign 683
bial 683
conclusion 683
crossing 683
exciton 683
generative 683
iodine 683
surveys 683
utilizes 683
Kyoto 682
ority 682
spectrometer 682
ode 681
relevant 681
Control 680
SU@@ 680
inated 680
osa 680
overcome 680
tail 680
Agency 679
PV 679
cohe@@ 679
help 679
iqu@@ 679
performing 679
Coulomb 678
Eff@@ 678
Numerical 678
elucidated 678
figure 678
func@@ 678
ii 678
inte@@ 678
long@@ 678
odor 678
proto@@ 678
requiring 678
rises 678
roll 678
straight 678
corresponds 677
diarrhea 677
motions 677
venti@@ 677
avi@@ 676
emitting 676
immunosup@@ 676
mit 676
perforation 676
Lang@@ 675
MF 675
book 675
deduced 675
embry@@ 675
fistula 675
groundwater 675
Ag@@ 674
Ce@@ 674
RI 674
coordinate 674
diesel 674
excessive 674
express 674
inhib@@ 674
uclear 674
ula 674
adjusted 673
cancers 673
comparative 673
ectors 673
girder 673
photoluminescence 673
roof 673
1991 672
71 672
Plas@@ 672
RI@@ 672
isotope 672
occurring 672
reading 672
wet@@ 672
AT 671
cell@@ 671
efflorescence 671
expressions 671
farm 671
gene@@ 671
holog@@ 671
mented 671
ris@@ 671
stroke 671
vil 671
77 670
altern@@ 670
observing 670
supercritical 670
tices 670
Zr@@ 669
additives 669
ie 669
limits 669
Construction 668
behaviour 668
citi@@ 668
dom 668
gas@@ 668
inating 668
sensory 668
Oper@@ 667
acidic 667
arbitrary 667
inversion 667
merit 667
parent 667
polishing 667
rough 667
selecting 667
sle@@ 667
vegetation 667
Pa 666
colli@@ 666
ey 666
judgment 666
nia 666
pit@@ 666
speci@@ 666
vinyl 666
appl@@ 665
hin@@ 665
normalized 665
pharmacological 665
sectional 665
skeletal 665
toxic 665
alog@@ 664
clay 664
manipul@@ 664
priority 664
spon@@ 664
Dr@@ 663
Shi@@ 663
probably 663
staff 663
vor@@ 663
west 663
Gu@@ 662
SL@@ 662
ame 662
eruption 662
executed 662
parathyro@@ 662
practic@@ 662
preparations 662
trap 662
GPS 661
aper@@ 661
chart 661
design@@ 661
draw@@ 661
fibrosis 661
tax@@ 661
turning 661
NI@@ 660
PH 660
gram 660
lear@@ 660
lymphocytes 660
microorganisms 660
neurological 660
solubility 660
subcutaneous 660
whe@@ 660
EB 659
MW 659
comparable 659
forc@@ 659
linkage 659
obt@@ 659
occlusion 659
oth@@ 659
sinus 659
stochastic 659
1989 658
Ak@@ 658
radioactive 658
refl@@ 658
signs 658
ME 657
arri@@ 657
compatibility 657
develops 657
interior 657
regardless 657
suff@@ 657
TR 656
erential 656
facial 656
populations 656
qualitative 656
sale 656
scl@@ 656
squamous 656
Chemical 655
Nor@@ 655
challeng@@ 655
conduct 655
earlier 655
eli@@ 655
gluco@@ 655
lep@@ 655
papers 655
wards 655
FE 654
agon@@ 654
cc 654
hab@@ 654
hood 654
stret@@ 654
Electron 653
achi 653
bypass 653
cultiv@@ 653
cyclotron 653
electr@@ 653
multimedia 653
mus 653
receiver 653
variance 653
velocities 653
Korea 652
eity 652
electrolytic 652
eved 652
helical 652
line@@ 652
mium 652
precisely 652
yo 652
HC 651
clean@@ 651
conductor 651
dissection 651
econd 651
erences 651
ods 651
sheath 651
sure 651
aperture 650
deficient 650
recurrent 650
veget@@ 650
24@@ 649
aorta 649
aur@@ 649
ause 649
inde@@ 649
intrinsic 649
pose 649
segregation 649
sintered 649
HP@@ 648
bilities 648
capture 648
fourth 648
mouth 648
nitri@@ 648
Te@@ 647
ali@@ 647
analyzer 647
cataly@@ 647
des@@ 647
gel@@ 647
grasped 647
itive 647
meat 647
navigation 647
ught 647
avage 646
mot@@ 646
ectic 645
prevented 645
restoration 645
sen 645
simul@@ 645
transformer 645
CF 644
Mech@@ 644
PR@@ 644
Ps 644
compatible 644
dex@@ 644
obstruction 644
ocor@@ 644
satisfaction 644
sof@@ 644
sympathetic 644
vesi@@ 644
At@@ 643
cholec@@ 643
dence 643
fixing 643
foil 643
stopped 643
ume 643
59 642
ATM 642
Ap@@ 642
His 642
La 642
cong@@ 642
expanding 642
ially 642
peptides 642
preceding 642
rigidity 642
shoulder 642
0.3 641
2D 641
Hg 641
ape 641
emphasized 641
ileus 641
limbs 641
trajec@@ 641
Mon@@ 640
branches 640
bronch@@ 640
burden 640
chron@@ 640
correlations 640
demic 640
ef@@ 640
gir@@ 640
icular 640
occ@@ 640
supplem@@ 640
Dec@@ 639
HO@@ 639
Lo@@ 639
ami 639
arium 639
crude 639
earing 639
ners 639
rin 639
rous 639
sali@@ 639
starch 639
tob@@ 639
Island 638
VA 638
bular 638
equi@@ 638
establishing 638
glu@@ 638
mm@@ 638
rainfall 638
reasons 638
sacchar@@ 638
About 637
No.@@ 637
attained 637
configurations 637
dim@@ 637
driver 637
encoding 637
fet@@ 637
kHz 637
pel@@ 637
restricted 637
veness 637
Low 636
Meth@@ 636
Proc@@ 636
batch 636
bund@@ 636
dian 636
elemental 636
epi@@ 636
gy@@ 636
independently 636
patch 636
tol@@ 636
typ@@ 636
vaccination 636
S. 635
alt 635
cli@@ 635
ease 635
eries 635
hypertensive 635
illness 635
person@@ 635
rheumatism 635
subsi@@ 635
valu@@ 635
vic@@ 635
adults 634
enia 634
monoclonal 634
satisfied 634
supposed 634
voltages 634
DF 633
Pb@@ 633
accelerator 633
assessed 633
legal 633
ugh@@ 633
wn 633
arc@@ 632
asaki 632
clock 632
forced 632
hardly 632
hollow 632
lip 632
pathology 632
perfectly 632
capsule 631
enlargement 631
exc@@ 631
graphy 631
phosphor@@ 631
plication 631
quadr@@ 631
rever@@ 631
denti@@ 630
entations 630
mind 630
motors 630
rotary 630
simulate 630
suppresses 630
90@@ 629
acked 629
consist 629
lact@@ 629
read@@ 629
ti 629
North 628
anastomosis 628
arsenic 628
lifestyle 628
ovirus 628
reservoir 628
transfer@@ 628
Shin@@ 627
Ta@@ 627
empirical 627
enic 627
erally 627
ft 627
narro@@ 627
peroxide 627
HPLC 626
ble@@ 626
edges 626
fif@@ 626
hyperlipidemia 626
indices 626
patho@@ 626
tivities 626
yment 626
Bo@@ 625
Total 625
ator@@ 625
coupl@@ 625
ensur@@ 625
expectation 625
fly 625
latent 625
opened 625
oses 625
shar@@ 625
titer 625
DO@@ 624
asses 624
guid@@ 624
inoc@@ 624
isotop@@ 624
ori 624
systematically 624
Miy@@ 623
PG@@ 623
airway 623
allowed 623
approxim@@ 623
circum@@ 623
confinement 623
cortico@@ 623
inclusion 623
medication 623
rearing 623
stly 623
thermodynamic 623
convergence 622
fragment 622
geothermal 622
inser@@ 622
nec@@ 622
paid 622
thrombosis 622
transl@@ 622
ache 621
came 621
differenti@@ 621
farming 621
hybridization 621
medull@@ 621
prepare 621
providing 621
ycle 621
&apos;@@ 620
Appl@@ 620
NF@@ 620
complexity 620
discrimination 620
entropy 620
hydroph@@ 620
iasis 620
muscles 620
prof@@ 620
ron 620
son@@ 620
temporary 620
transduc@@ 620
PEG 619
abl@@ 619
ano 619
discrimin@@ 619
fill 619
ior 619
nur@@ 619
operators 619
other@@ 619
tonian 619
tropical 619
2O3 618
IF@@ 618
announced 618
atically 618
ayers 618
contributes 618
cular 618
dental 618
fluctu@@ 618
iton@@ 618
urea 618
wat@@ 618
anion 617
astern 617
cam@@ 617
cytes 617
downstream 617
ension 617
finished 617
idism 617
twice 617
2O@@ 616
Water 616
aerobic 616
cloud 616
gent 616
instruction 616
instrum@@ 616
mess@@ 616
stry 616
ace@@ 615
customer 615
fetal 615
ken 615
penetr@@ 615
photograph@@ 615
ral 615
arization 614
asc@@ 614
compar@@ 614
cum@@ 614
draft 614
nutrient 614
ographical 614
reagent 614
Gaussian 613
H2O 613
aming 613
aromatic 613
illa 613
influ@@ 613
nam@@ 613
parame@@ 613
recombinant 613
tiveness 613
transistors 613
EE@@ 612
ELISA 612
P. 612
coastal 612
contract 612
grew 612
medic@@ 612
ok 612
rad@@ 612
synchronous 612
ologous 611
silane 611
uoka 611
3K 610
Okinawa 610
VD 610
acetic 610
epidemiology 610
epilep@@ 610
titan@@ 610
TC 609
amic 609
atous 609
glasses 609
sa 609
success 609
thesis 609
viewed 609
ye@@ 609
78 608
designated 608
hil@@ 608
resected 608
resonator 608
Magnetic 607
Ms 607
beli@@ 607
elf 607
grass 607
ostic 607
process@@ 607
throughput 607
towards 607
vectors 607
FM 606
aneous 606
breaking 606
cab@@ 606
create 606
cy 606
damp@@ 606
dering 606
fal@@ 606
multiplication 606
select 606
acqu@@ 605
ateral 605
ility 605
polycrystalline 605
sto@@ 605
tlement 605
Bay 604
chicken 604
cran@@ 604
destructive 604
emulsion 604
epidermis 604
islands 604
reach 604
recip@@ 604
tings 604
amp 603
asymme@@ 603
nanop@@ 603
reactors 603
sor 603
spreading 603
summarizes 603
uration 603
1988 602
hu@@ 602
mutations 602
ovarian 602
polymer@@ 602
reaches 602
shield 602
vin@@ 602
LED 601
atedly 601
blocks 601
cent@@ 601
conform@@ 601
institutions 601
intensi@@ 601
meal 601
ont@@ 601
radar 601
salts 601
univer@@ 601
upstream 601
use@@ 601
why 601
99 600
Bri@@ 600
LO@@ 600
chips 600
closure 600
dents 600
formal@@ 600
ipp@@ 600
Hospital 599
Sing@@ 599
effort 599
epidural 599
extracellular 599
kers 599
laparoscopic 599
molar 599
physici@@ 599
replaced 599
schedule 599
semiconductors 599
slide 599
yen 599
bits 598
flexibility 598
mandi@@ 598
ogenous 598
pathogenesis 598
1.5@@ 597
acetyl@@ 597
aerodynamic 597
obser@@ 597
ong@@ 597
photonic 597
planes 597
suit@@ 597
Des@@ 596
Environment 596
Hydro@@ 596
Ltd 596
Sol@@ 596
VI 596
composites 596
erated 596
ero@@ 596
estic@@ 596
scheduling 596
spraying 596
summary 596
waters 596
Sur@@ 595
align@@ 595
decomposed 595
inspec@@ 595
loaded 595
native 595
pus 595
pylori 595
rub@@ 595
250 594
Det@@ 594
HLA 594
Large 594
NaCl 594
Pref@@ 594
WH@@ 594
aggregation 594
canal 594
ears 594
ethyl@@ 594
explic@@ 594
forests 594
house@@ 594
inity 594
micron 594
ote 594
theories 594
vac@@ 594
chromat@@ 593
cogeneration 593
condens@@ 593
kDa 593
modulated 593
protease 593
servo 593
sors 593
teen 593
uch 593
Science 592
U.S. 592
adjusting 592
aggreg@@ 592
bac@@ 592
frozen 592
interrup@@ 592
merg@@ 592
thrombus 592
tower 592
urg@@ 592
devi@@ 591
diagnos@@ 591
lactic 591
magnets 591
photoelectron 591
phthal@@ 591
pollut@@ 591
rag@@ 591
Ig@@ 590
boun@@ 590
carbide 590
cross@@ 590
file 590
hig@@ 590
ment@@ 590
pieces 590
shore 590
strip 590
automobiles 589
caus@@ 589
ee 589
ergic 589
fel@@ 589
practically 589
reproducibility 589
sterone 589
700 588
ACTH 588
ALS 588
habit@@ 588
ignition 588
mig@@ 588
oscillator 588
volatile 588
ε 588
alls 587
antiferromagnetic 587
electronics 587
ophilic 587
sph@@ 587
treat 587
uniformly 587
NAs 586
bio 586
climate 586
lam@@ 586
live 586
nea 586
onom@@ 586
studying 586
orders 585
physics 585
progn@@ 585
referred 585
writing 585
1987 584
bent 584
cough 584
customers 584
elevation 584
fos@@ 584
nephropathy 584
plus 584
yi@@ 584
AI@@ 583
Data 583
acks 583
angiotensin 583
causal 583
damages 583
spacing 583
appear@@ 582
developments 582
dislocations 582
ingestion 582
install@@ 582
ka@@ 582
max@@ 582
neon@@ 582
represent 582
Four 581
characterization 581
indicator 581
osh@@ 581
phenyl 581
phospholip@@ 581
polynom@@ 581
scheduled 581
seedlings 581
SE@@ 580
berg 580
investigating 580
reviews 580
seasonal 580
spiral 580
stand 580
vital 580
Consequently 579
Mg@@ 579
Ocean 579
Tak@@ 579
additive 579
cool@@ 579
inducing 579
jec@@ 579
robots 579
sclerosis 579
scre@@ 579
FT@@ 578
H. 578
Path@@ 578
cere@@ 578
explain@@ 578
function@@ 578
kling 578
lastic 578
linking 578
modules 578
ost@@ 578
purch@@ 578
raise 578
vap@@ 578
74 577
ACE 577
arg@@ 577
besides 577
relax@@ 577
v. 577
views 577
albumin 576
coerci@@ 576
crystallinity 576
disrup@@ 576
engineers 576
hydrolysis 576
jejun@@ 576
papillary 576
ple@@ 576
pseudo 576
sities 576
tain@@ 576
L. 575
Simul@@ 575
atrial 575
auxiliary 575
contributed 575
del 575
diab@@ 575
dietary 575
ety 575
log 575
northern 575
pathogenic 575
scenari@@ 575
sivity 575
syno@@ 575
tice 575
translation 575
xy@@ 575
ath 574
azole 574
extin@@ 574
mation 574
miniaturization 574
ocytic 574
orph@@ 574
patter@@ 574
ranged 574
refrac@@ 574
sand@@ 574
standpoint 574
with@@ 574
IM 573
ISO@@ 573
Pe@@ 573
The@@ 573
chrome 573
counter@@ 573
epidemiological 573
exceeded 573
expan@@ 573
flowing 573
frontal 573
gly@@ 573
nic 573
seeding 573
VO@@ 572
apping 572
cured 572
evid@@ 572
fic@@ 572
hypertrophy 572
kin 572
massive 572
ocks 572
tub@@ 572
visco@@ 572
88 571
mann 571
microorganism 571
objec@@ 571
spots 571
susp@@ 571
bos@@ 570
cha@@ 570
diodes 570
dissipation 570
los@@ 570
mM 570
maturation 570
operatively 570
plat@@ 570
ubi@@ 570
Pr@@ 569
appliances 569
atings 569
autonom@@ 569
by@@ 569
carcinogenesis 569
considers 569
duodenal 569
enses 569
fan 569
gastrointestinal 569
nitric 569
polymerase 569
λ 569
allowing 568
antigens 568
arose 568
ater@@ 568
beta 568
bridges 568
completion 568
emphasis 568
infiltr@@ 568
institution 568
multiplex@@ 568
pollin@@ 568
reproductive 568
return 568
sizing 568
structured 568
substituted 568
variant 568
coast 567
document 567
forth 567
ials 567
rem@@ 567
TiN 566
automated 566
cure 566
dered 566
heigh@@ 566
illary 566
manufacturer 566
mechan@@ 566
muco@@ 566
ophthal@@ 566
pin 566
prostatic 566
reflect 566
severity 566
toughness 566
toxin 566
Subjects 565
curved 565
ect@@ 565
ether 565
fing@@ 565
lowers 565
AE 564
Lin@@ 564
Ly@@ 564
foli@@ 564
ll@@ 564
pac@@ 564
pass@@ 564
tap@@ 564
76 563
F2 563
Max@@ 563
Optical 563
diaphragm 563
proximal 563
surfactant 563
udes 563
E. 562
South 562
ashi 562
cei@@ 562
chromium 562
deformed 562
ested 562
immobilized 562
interesting 562
nosis 562
ora 562
pressed 562
silicone 562
sometimes 562
spectroscopic 562
stronger 562
uter 562
0.1@@ 561
actor 561
exec@@ 561
hard@@ 561
mechanics 561
pal 561
tization 561
trop@@ 561
wind@@ 561
Asian 560
Neu@@ 560
arrhythmia 560
basin 560
colored 560
pseud@@ 560
thermally 560
IG@@ 559
LDL 559
comfor@@ 559
conser@@ 559
eld 559
ema 559
interferon 559
ject 559
oxidi@@ 559
simil@@ 559
computer@@ 558
displayed 558
enzymatic 558
fruits 558
larvae 558
pent@@ 558
rhythm 558
seconds 558
vibrational 558
Hel@@ 557
MRSA 557
alysis 557
collecting 557
echocardi@@ 557
farm@@ 557
insect 557
machinery 557
question 557
questionnairing 557
ra 557
south 557
symme@@ 557
theme 557
travel@@ 557
true 557
0.3@@ 556
Ru@@ 556
coar@@ 556
deuter@@ 556
iry 556
regime 556
spleen 556
Method 555
Organ@@ 555
allerg@@ 555
analgesic 555
combines 555
ino 555
knockout 555
pation 555
ply 555
potenti@@ 555
publ@@ 555
European 554
Outline 554
XRD 554
accompl@@ 554
ames 554
currently 554
emo@@ 554
juven@@ 554
observ@@ 554
stain 554
usal 554
void 554
0.4 553
CRP 553
alizing 553
bon@@ 553
incin@@ 553
modeled 553
pip@@ 553
stiffness 553
Even 552
bers 552
discre@@ 552
essing 552
nary 552
pathogen@@ 552
sical 552
thern 552
usable 552
varies 552
Reynolds 551
approved 551
call 551
ephal@@ 551
magnetism 551
slurry 551
soils 551
strat@@ 551
29@@ 550
Improvement 550
Trans@@ 550
Type 550
abor@@ 550
alveolar 550
deflection 550
ole@@ 550
policies 550
sterilization 550
workshop 550
Inte@@ 549
accompanying 549
anticancer 549
opportun@@ 549
possibly 549
tryp@@ 549
MB@@ 548
ancies 548
conditioner 548
eddy 548
phenyl@@ 548
rophic 548
Industrial 547
Medical 547
autonomous 547
bon 547
loro@@ 547
losses 547
mitochondrial 547
ocal 547
pilot 547
researchers 547
So 546
abrasion 546
achiev@@ 546
allocation 546
cit@@ 546
hydrate 546
lost 546
necro@@ 546
prolonged 546
statistically 546
trons 546
ater 545
ayama 545
cardia 545
clarifies 545
columns 545
differ 545
disturb@@ 545
erence 545
hydri@@ 545
limit@@ 545
popular 545
totic 545
whom 545
ICP 544
anus 544
collo@@ 544
don 544
engines 544
epoxy 544
evapor@@ 544
extracts 544
kan@@ 544
liquefaction 544
py 544
resol@@ 544
thers 544
tification 544
Pres@@ 543
SU 543
faster 543
leth@@ 543
monitored 543
opposite 543
pathologic 543
polymorph@@ 543
raph@@ 543
uranium 543
PO 542
atus 542
estimates 542
manif@@ 542
osphere 542
advancing 541
curing 541
excre@@ 541
fitting 541
incineration 541
op 541
page 541
retained 541
sme@@ 541
vibrations 541
vities 541
86 540
Ok@@ 540
aly@@ 540
deposit 540
drastic 540
heater 540
intervals 540
isotropic 540
receive 540
shortage 540
tuning 540
High@@ 539
Pur@@ 539
SOI 539
VT 539
With@@ 539
amyloid 539
hepatocellular 539
logical 539
pregnant 539
program@@ 539
samp@@ 539
al. 538
bacter@@ 538
coordination 538
energ@@ 538
pipes 538
stic@@ 538
vomiting 538
zeolite 538
allow 537
cosm@@ 537
heal@@ 537
layout 537
1.2 536
Bu@@ 536
LT 536
amplified 536
dehydrogen@@ 536
fission 536
fragments 536
ific@@ 536
ishing 536
mes 536
move 536
note 536
specifically 536
tape 536
Incre@@ 535
cobalt 535
comfort 535
compost 535
glob@@ 535
granules 535
imper@@ 535
key@@ 535
photovoltaic 535
plank@@ 535
reasonable 535
recycl@@ 535
3,@@ 534
Surface 534
abund@@ 534
apter 534
cryp@@ 534
finishing 534
fluence 534
optics 534
properly 534
Inv@@ 533
corona 533
deco@@ 533
ensitivity 533
eve 533
govern@@ 533
moid 533
neph@@ 533
offset 533
opinions 533
promotes 533
sequential 533
Laboratory 532
Sy@@ 532
agrees 532
art 532
bed@@ 532
burning 532
conn@@ 532
corrected 532
here@@ 532
ills 532
incision 532
metast@@ 532
oid@@ 532
protein@@ 532
scales 532
sec 532
AIDS 531
Ba 531
Problems 531
SLE 531
Ta 531
aberration 531
adverse 531
compressed 531
enhanc@@ 531
inary 531
solute 531
trapped 531
Besides 530
LB 530
anes 530
fluids 530
ilic 530
lock 530
master 530
matrices 530
particul@@ 530
pathogen 530
pursu@@ 530
renewal 530
scalar 530
sewage 530
sexual 530
sium 530
HBV 529
ITS 529
atives 529
autopsy 529
compil@@ 529
confined 529
consultation 529
detec@@ 529
dyspnea 529
grafting 529
rheumatoid 529
tend 529
wells 529
written 529
0.01 528
AlN 528
ECR 528
KA 528
ells 528
margin 528
ock 528
read 528
strengthened 528
μ 528
σ 528
Simulation 527
evalu@@ 527
exothermic 527
free@@ 527
hundred 527
limitation 527
mesenter@@ 527
minimize 527
sting 527
stra@@ 527
EX@@ 526
InAs 526
SR@@ 526
Society 526
Taiwan 526
arch 526
chlo@@ 526
clarifying 526
d.@@ 526
excavation 526
hepatoma 526
lowing 526
pped 526
sm 526
tries 526
weights 526
400@@ 525
MM 525
Postoperative 525
cone 525
day@@ 525
dos@@ 525
gasification 525
retin@@ 525
tomato 525
1986 524
ON 524
Time 524
alpha 524
athing 524
clearance 524
coded 524
commonly 524
corne@@ 524
distil@@ 524
hemo@@ 524
magnetoresistance 524
match 524
neuron 524
sector 524
tropolitan 524
Commun@@ 523
cities 523
danger 523
differed 523
droplet 523
gue 523
intermittent 523
laminated 523
martensi@@ 523
nine 523
num@@ 523
ologies 523
southern 523
stand@@ 523
anticipated 522
greenhouse 522
head@@ 522
hered@@ 522
nucleotide 522
otypes 522
relate 522
Direc@@ 521
Fl@@ 521
acrylic 521
atics 521
displays 521
drag 521
emitter 521
extensi@@ 521
getting 521
hiba 521
scopic 521
tilt 521
transcrip@@ 521
uncertainty 521
vag@@ 521
volution 521
General 520
alle@@ 520
amples 520
austen@@ 520
blocking 520
estr@@ 520
fertili@@ 520
groove 520
guides 520
ission 520
marks 520
strati@@ 520
text 520
Cl2 519
bud@@ 519
doses 519
ham@@ 519
impulse 519
quenching 519
row 519
share 519
titude 519
NK 518
cascade 518
dat@@ 518
differs 518
dioxin 518
flood 518
ich 518
mid 518
pedi@@ 518
poro@@ 518
retina 518
shortened 518
zircon@@ 518
CC@@ 517
Ma@@ 517
Thermal 517
atase 517
c. 517
coagul@@ 517
colitis 517
doctors 517
drilling 517
earthquakes 517
fractures 517
fung@@ 517
glow 517
infections 517
oxyl@@ 517
segments 517
Kyushu 516
buried 516
colorectal 516
consum@@ 516
develop@@ 516
hr 516
ises 516
movements 516
oking 516
rup@@ 516
TNF 515
acti@@ 515
dur@@ 515
happ@@ 515
rectomy 515
83 514
Network 514
actin 514
arising 514
centering 514
definite 514
emerg@@ 514
followings 514
forecast 514
fungi 514
gastro@@ 514
locations 514
minor 514
mps 514
shif@@ 514
underlying 514
Immun@@ 513
SF 513
Torr 513
blast@@ 513
deteriorated 513
discus@@ 513
dorsal 513
hedral 513
oned 513
pancre@@ 513
pathophysiology 513
preserved 513
TD 512
Taking 512
appropri@@ 512
calori@@ 512
candi@@ 512
depletion 512
dra@@ 512
ean@@ 512
exacerbation 512
facts 512
gastrectomy 512
sport 512
sug@@ 512
ETs 511
Environmental 511
Hamil@@ 511
aggra@@ 511
calculus 511
cerebrovascular 511
chromosomes 511
concentr@@ 511
diameters 511
electrocardiogram 511
eton 511
milli@@ 511
presum@@ 511
stain@@ 511
surge 511
tendon 511
twenty 511
wer 511
1980 510
Dist@@ 510
Engineering 510
SB@@ 510
TCP 510
Wa@@ 510
bal@@ 510
cyte 510
alkyl 509
ascites 509
bow 509
capacit@@ 509
cot@@ 509
embryo 509
inhabitants 509
omorph@@ 509
timate 509
DA 508
New@@ 508
Sim@@ 508
apl@@ 508
crops 508
discharges 508
entry 508
gest@@ 508
numer@@ 508
progression 508
sli@@ 508
streng@@ 508
telecommun@@ 508
yro@@ 508
Adv@@ 507
Mit@@ 507
Syn@@ 507
bec@@ 507
chel@@ 507
cus@@ 507
ean 507
harvesting 507
prevalence 507
ptions 507
superconductor 507
3.5 506
GPa 506
SL 506
SW@@ 506
V. 506
availability 506
brake 506
exceeds 506
exchanger 506
exponential 506
job 506
seawater 506
snow@@ 506
stimulus 506
.3 505
MBE 505
Secon@@ 505
adjuvant 505
apped 505
auditory 505
dges 505
fairly 505
ier 505
matched 505
mine 505
reacted 505
stitutes 505
centrifugal 504
coc@@ 504
conductors 504
dang@@ 504
dele@@ 504
exclusive 504
fabric@@ 504
fluidized 504
hydrophobic 504
nitro@@ 504
percent 504
pick@@ 504
posture 504
s. 504
suffered 504
2O 503
96 503
Welfare 503
ached 503
ang 503
apo@@ 503
autumn 503
calcul@@ 503
consol@@ 503
dairy 503
lati@@ 503
myo@@ 503
neuron@@ 503
overl@@ 503
parasi@@ 503
rogen 503
Anti@@ 502
Corp. 502
SV 502
compressor 502
eable 502
ka 502
ocytosis 502
preparing 502
seas@@ 502
spindle 502
stomy 502
ta@@ 502
450 501
Flu@@ 501
NG 501
arises 501
assist 501
cervix 501
ectures 501
oglo@@ 501
quark 501
side@@ 501
AF 500
BO@@ 500
CN 500
Future 500
alu@@ 500
hormones 500
humans 500
itr@@ 500
kinson 500
mitochondri@@ 500
ophysi@@ 500
pavement 500
responsibility 500
shrinkage 500
tely 500
2.0 499
Effect 499
diag@@ 499
endoscope 499
lipos@@ 499
perception 499
relativistic 499
rium 499
sapphire 499
serial 499
suture 499
tomograph 499
arteries 498
belonging 498
brightness 498
collector 498
commod@@ 498
malignancy 498
oya 498
reversed 498
troph@@ 498
ventr@@ 498
1985 497
MOSFET 497
embol@@ 497
laying 497
myco@@ 497
north 497
trib@@ 497
unnecessary 497
viscous 497
welded 497
RH 496
Western 496
continuity 496
desi@@ 496
electropositive 496
enium 496
exactly 496
exer@@ 496
mediastin@@ 496
moments 496
originally 496
ove@@ 496
rectum 496
registered 496
safely 496
tac@@ 496
trache@@ 496
Ko@@ 495
coverage 495
dish 495
excimer 495
ins@@ 495
reflecting 495
tting 495
unt 495
vel 495
El@@ 494
Er@@ 494
bit@@ 494
complem@@ 494
japon@@ 494
macrophage 494
pixel 494
pneum@@ 494
radiative 494
searching 494
spine 494
symp@@ 494
ulcer@@ 494
ultraf@@ 494
zones 494
79 493
LE@@ 493
aine 493
analytically 493
attachment 493
cerebro@@ 493
chaotic 493
hear@@ 493
holds 493
hypers@@ 493
ient 493
realistic 493
reconstructed 493
tis@@ 493
ulf@@ 493
Br 492
agement 492
ception 492
crystalli@@ 492
culation 492
emer@@ 492
hn 492
hosph@@ 492
slow@@ 492
ultrasound 492
valves 492
Meas@@ 491
TM 491
aring 491
carbons 491
dilat@@ 491
recei@@ 491
ronic 491
vice 491
visited 491
wt 491
PN 490
anesthetic 490
aphy@@ 490
bing 490
dead 490
extra@@ 490
lear 490
ounc@@ 490
perform@@ 490
television 490
ulmonary 490
unified 490
ADL 489
T1 489
adily 489
arach@@ 489
clone 489
cry@@ 489
dich@@ 489
esophagus 489
feces 489
hydrodynamic 489
immunological 489
inging 489
monol@@ 489
she@@ 489
tack@@ 489
thor@@ 489
tomy 489
Syst@@ 488
bir@@ 488
carbohydrate 488
carotid 488
cyan@@ 488
dle 488
dor@@ 488
lecture 488
meteorological 488
partition 488
phosphorylation 488
photocatalyst 488
regulatory 488
strategies 488
84 487
CE 487
GIS 487
arch@@ 487
away 487
bifur@@ 487
competitive 487
derma 487
generat@@ 487
hepatectomy 487
kit 487
lining 487
lor@@ 487
manganese 487
pulsion 487
sedimentation 487
ventricle 487
view@@ 487
180 486
DVD 486
Gl@@ 486
Lab@@ 486
Surg@@ 486
ae@@ 486
after@@ 486
assess 486
atite 486
bubbles 486
dates 486
elementary 486
encephalopathy 486
geometric 486
norm@@ 486
outdoor 486
phyl@@ 486
resul@@ 486
say 486
successive 486
theore@@ 486
0.6 485
Green 485
arrays 485
compreh@@ 485
drawn 485
intensive 485
mitted 485
osynthetic 485
peeling 485
ration@@ 485
returned 485
sac@@ 485
tungsten 485
1.3 484
bated 484
coils 484
edition 484
eptide 484
escence 484
evaluations 484
fications 484
histopath@@ 484
idine 484
infer@@ 484
HT 483
Obser@@ 483
Sil@@ 483
advantageous 483
agne@@ 483
beyond 483
cytotox@@ 483
deod@@ 483
distrib@@ 483
ecosystem 483
electro 483
ests 483
intram@@ 483
ju@@ 483
juice 483
lubr@@ 483
lymp@@ 483
olar 483
pumps 483
supplying 483
ucl@@ 483
worldwide 483
dimer 482
enlar@@ 482
exceeding 482
fluoride 482
imag@@ 482
less@@ 482
osmo@@ 482
pharmacy 482
sit@@ 482
woo@@ 482
IgA 481
TB@@ 481
allow@@ 481
cow 481
dehydration 481
estions 481
experiences 481
figures 481
painting 481
scintigraphy 481
sn@@ 481
82 480
alternating 480
avoided 480
choline 480
dilution 480
e.g. 480
exter@@ 480
friend@@ 480
ishment 480
lap 480
livestock 480
magneto 480
mountain 480
participated 480
rabbit 480
thrust 480
zen 480
SQ@@ 479
axes 479
bombar@@ 479
bust@@ 479
cloned 479
converting 479
insects 479
instant@@ 479
judgement 479
sou@@ 479
zer 479
B. 478
Thailand 478
dendritic 478
deposits 478
eder 478
polyimide 478
raz@@ 478
stained 478
thinning 478
topic 478
trapping 478
1.0@@ 477
Ce 477
Ds 477
Gy 477
Standard 477
contri@@ 477
dioxines 477
documents 477
emissions 477
ico@@ 477
import 477
labeled 477
lattices 477
max 477
repetition 477
3O@@ 476
aerosol 476
allization 476
beg@@ 476
charges 476
clari@@ 476
diagrams 476
e.@@ 476
eping 476
kawa 476
laws 476
lead@@ 476
lift 476
mediate 476
moly@@ 476
sci@@ 476
skel@@ 476
wit@@ 476
IF 475
Only 475
conjunc@@ 475
constituent 475
effec@@ 475
minimal 475
neither 475
periph@@ 475
phon@@ 475
platinum 475
predictions 475
rug@@ 475
schemes 475
teaching 475
tubular 475
{ 475
} 475
Comparison 474
alize 474
asth@@ 474
behavi@@ 474
decline 474
expensive 474
ife 474
majority 474
pool 474
reson@@ 474
CDMA 473
Elec@@ 473
Hiro@@ 473
Reg@@ 473
Temperature 473
audio 473
batteries 473
bipolar 473
cogn@@ 473
hibition 473
incubation 473
offers 473
pump@@ 473
sensation 473
tness 473
Evalu@@ 472
MHD 472
NS 472
consumers 472
ensure 472
expressing 472
heterogeneous 472
indications 472
kary@@ 472
nutri@@ 472
request 472
vegetable 472
CSF 471
NK@@ 471
PK@@ 471
Ray@@ 471
dioxins 471
echn@@ 471
expert 471
illo@@ 471
natur@@ 471
orption 471
pleural 471
poll@@ 471
suction 471
uncertain 471
zyme 471
Met@@ 470
PI@@ 470
cautionary 470
cutaneous 470
dissem@@ 470
droplets 470
embryos 470
entrance 470
erythrocyte 470
fabric 470
neutrophils 470
secure 470
tachy@@ 470
tococ@@ 470
travel 470
vable 470
ylation 470
ascen@@ 469
basement 469
cardiomy@@ 469
decide 469
door 469
passenger 469
pores 469
pros@@ 469
rail 469
scopy 469
striction 469
tia 469
universal 469
WDM 468
circumstances 468
cortical 468
dried 468
econom@@ 468
hydroxide 468
ioid 468
menop@@ 468
morphine 468
putting 468
rooms 468
sarco@@ 468
sty@@ 468
synchron@@ 468
Bar@@ 467
Bro@@ 467
Considering 467
Dynam@@ 467
biom@@ 467
classes 467
clim@@ 467
coat 467
crystallo@@ 467
cyt@@ 467
ese 467
forging 467
ict 467
investigates 467
issu@@ 467
para@@ 467
param@@ 467
repor@@ 467
DR 466
averaged 466
glas@@ 466
hemorrhagic 466
marg@@ 466
organized 466
polarity 466
soon 466
tyro@@ 466
tz 466
MU@@ 465
abundant 465
archit@@ 465
childhood 465
extra 465
hazard 465
hematoma 465
hoku 465
moved 465
orthogonal 465
ostasis 465
osus 465
paste 465
percutaneous 465
pine 465
recomm@@ 465
LH 464
achievement 464
actively 464
anatom@@ 464
dimensi@@ 464
format 464
handle 464
sic@@ 464
structive 464
superconductivity 464
teeth 464
truc@@ 464
Experiments 463
InGaAs 463
Ro@@ 463
artic@@ 463
ballo@@ 463
boiling 463
catar@@ 463
cations 463
convenience 463
expec@@ 463
injuries 463
listed 463
magnetron 463
oku 463
150@@ 462
AlGaAs 462
DE@@ 462
conduc@@ 462
cribed 462
dog@@ 462
engine@@ 462
filtering 462
informations 462
losed 462
offered 462
thorac@@ 462
35@@ 461
Design 461
Ha@@ 461
PCB 461
aphylo@@ 461
hemisph@@ 461
quadru@@ 461
shima 461
tens 461
AFS 460
Signific@@ 460
Vol@@ 460
dise@@ 460
dres@@ 460
groun@@ 460
nar 460
ophil 460
profit 460
put@@ 460
spar@@ 460
stac@@ 460
21st 459
Changes 459
Ultr@@ 459
agonal 459
akes 459
aque 459
associ@@ 459
build 459
cru@@ 459
digestion 459
dynamically 459
handicapped 459
intubation 459
metastases 459
modal 459
soliton 459
triangular 459
antagon@@ 458
chromos@@ 458
circulating 458
erase 458
forec@@ 458
gri@@ 458
impair@@ 458
nesses 458
otor 458
pit 458
separately 458
SPE@@ 457
acco 457
ainment 457
append@@ 457
eliminated 457
filament 457
genomic 457
grounds 457
poration 457
rd 457
tidal 457
Ther@@ 456
attemp@@ 456
bling 456
cath@@ 456
elded 456
harvest 456
isson 456
oxygen@@ 456
packing 456
recep@@ 456
sensitization 456
81 455
RB@@ 455
anomalies 455
blan@@ 455
consu@@ 455
filam@@ 455
flash 455
historical 455
invariant 455
qualitatively 455
radiography 455
transcriptional 455
village 455
Analy@@ 454
Current 454
Nuclear 454
SM@@ 454
Ver@@ 454
atch 454
cles 454
distinc@@ 454
extending 454
izoph@@ 454
toma 454
volcanic 454
waste@@ 454
HV 453
S2 453
Sou@@ 453
cholangi@@ 453
deter@@ 453
etched 453
ileum 453
innovation 453
kar@@ 453
ld 453
sev@@ 453
smoothly 453
sorption 453
tend@@ 453
Mul@@ 452
atypical 452
belt 452
burn 452
certi@@ 452
dram@@ 452
east 452
foun@@ 452
genotype 452
irrig@@ 452
lined 452
monomer 452
oglyc@@ 452
94 451
adopts 451
atization 451
eply 451
flowering 451
fractions 451
perfor@@ 451
plain 451
protr@@ 451
rams 451
ribed 451
surroun@@ 451
Alzheimer 450
ails 450
anical 450
cavitation 450
endogenous 450
pelvic 450
pressur@@ 450
relay 450
sil 450
spective 450
web 450
87 449
Auth@@ 449
CAE 449
DF@@ 449
Dig@@ 449
NT 449
Sn@@ 449
Toy@@ 449
aver@@ 449
ced@@ 449
disks 449
fused 449
intended 449
intestinum 449
lengths 449
logarith@@ 449
optically 449
packed 449
passage 449
suspended 449
tite 449
vering 449
2Cu@@ 448
AN 448
Her 448
Mic@@ 448
TG 448
achieving 448
germination 448
paint 448
pe 448
photographing 448
rhiz@@ 448
spaces 448
splitting 448
tl@@ 448
Af@@ 447
acter 447
balanced 447
emb@@ 447
firing 447
glau@@ 447
gli@@ 447
hexagonal 447
morbidity 447
onate 447
oy@@ 447
pall@@ 447
shall 447
smooth@@ 447
surveillance 447
themes 447
troubles 447
Mach@@ 446
aser 446
dwelling 446
eras 446
locally 446
phone 446
pup@@ 446
reversal 446
vacancy 446
behind 445
bovine 445
cept 445
duodenum 445
enormous 445
gasoline 445
geometrical 445
hemoglobin 445
manipulation 445
marketing 445
raft 445
remain 445
reuse 445
termination 445
tox@@ 445
tracheal 445
GB 444
burst 444
considerations 444
diagnoses 444
epidermal 444
illin 444
inher@@ 444
izations 444
nurse 444
orous 444
remodeling 444
sports 444
transplanted 444
und 444
Measurement 443
TFT 443
ane@@ 443
assurance 443
ayed 443
derm@@ 443
esia 443
ext 443
fec@@ 443
fibrous 443
fuels 443
gravitational 443
inqu@@ 443
parasitic 443
rain@@ 443
sedim@@ 443
urethane 443
2nd 442
any@@ 442
consul@@ 442
dend@@ 442
disappearance 442
fibroblast 442
geological 442
pharyn@@ 442
reproduce 442
symptomatic 442
thrombo@@ 442
wal@@ 442
0.8 441
American 441
bearings 441
chair 441
dominated 441
lymphaden@@ 441
neuropathy 441
nom@@ 441
photoc@@ 441
resins 441
synchronization 441
yr@@ 441
CY@@ 440
Nan@@ 440
amplit@@ 440
educational 440
elev@@ 440
erection 440
lun@@ 440
modern 440
neumo@@ 440
oung 440
reflects 440
represents 440
tee 440
abil@@ 439
ethyl 439
harm@@ 439
infec@@ 439
peritonitis 439
restric@@ 439
reveals 439
stering 439
stoichi@@ 439
stres@@ 439
sustained 439
vacu@@ 439
ystyrene 439
Ω 439
analge@@ 438
anding 438
brig@@ 438
decid@@ 438
indic@@ 438
ree 438
shop 438
viol@@ 438
enab@@ 437
leg@@ 437
Aug@@ 436
tili@@ 436
epti@@ 435
otrop@@ 435
estig@@ 434
transc@@ 434
adop@@ 433
capac@@ 433
ocardi@@ 433
rhe@@ 433
turned 433
amylo@@ 432
engths 432
ever 432
ordin@@ 432
obvi@@ 431
ord@@ 431
proxim@@ 431
ships 431
datab@@ 430
gall@@ 430
superi@@ 430
reproduc@@ 429
scat@@ 429
graf@@ 428
mean@@ 428
spati@@ 428
aster 427
ouse 427
tuber@@ 427
vative 426
nephro@@ 425
notic@@ 425
1st 424
scal@@ 424
vill@@ 424
Im@@ 423
alumin@@ 423
jected 423
belong@@ 422
disco@@ 422
fam@@ 422
sus@@ 422
rust 421
sian 421
syst@@ 421
dition 420
esting 420
pneumon@@ 420
antenn@@ 419
feasi@@ 419
parti@@ 419
ude 419
acr@@ 418
possi@@ 418
sud@@ 418
aint 417
colo@@ 417
diffr@@ 416
fres@@ 416
histo@@ 416
scin@@ 416
achi@@ 415
blad@@ 415
ges 415
standardi@@ 415
sugg@@ 415
tren@@ 415
ults 415
Out@@ 414
admin@@ 414
enter 413
omy 413
scan@@ 413
small@@ 413
velop@@ 413
ω 413
ile@@ 412
periton@@ 412
ost 411
∞ 411
doc@@ 410
mort@@ 410
perturb@@ 410
urity 410
sex@@ 409
Hi@@ 408
deterior@@ 408
endothel@@ 408
selec@@ 408
surg@@ 408
addi@@ 407
oto 407
solidi@@ 407
ounds 406
sters 406
ustr@@ 406
vention 406
Au@@ 405
apse 405
epithel@@ 405
irradi@@ 405
≧ 405
Oc@@ 404
aded 404
circul@@ 404
cylind@@ 404
grow@@ 404
aka 403
alb@@ 403
med@@ 403
suming 403
stron@@ 402
contain@@ 401
cord@@ 401
mem@@ 401
myocardi@@ 401
transf@@ 400
difficul@@ 399
emul@@ 399
fat@@ 399
assu@@ 398
grap@@ 398
rab@@ 398
asp@@ 397
illumin@@ 397
sal 397
Stand@@ 396
distric@@ 396
eral 396
ograph@@ 396
reinforc@@ 395
linear@@ 394
presses 394
ellular 393
utionary 393
enz@@ 392
fro@@ 392
θ 392
Ri@@ 391
uation 391
band@@ 390
vered 390
φ 390
ancing 389
exacer@@ 389
ult 389
competi@@ 388
endoscop@@ 388
enh@@ 388
mme@@ 388
scho@@ 388
rho@@ 387
lith@@ 386
osph@@ 386
ferring 385
horiz@@ 385
stom@@ 385
subst@@ 385
thqu@@ 385
canc@@ 384
gency 384
inclu@@ 383
kage 383
maint@@ 382
vents 382
ll 381
prospec@@ 381
ified 380
odes 380
ration 380
ku 379
macroph@@ 379
occu@@ 379
introduc@@ 378
knowle@@ 378
regi@@ 378
satell@@ 378
achment 377
enty 377
urb@@ 376
cou@@ 375
eeded 375
group@@ 375
intellig@@ 375
wash@@ 375
anced 374
mary 374
normal@@ 374
poin@@ 374
distor@@ 373
fru@@ 373
lying 373
oth 373
lap@@ 372
lands 371
Tw@@ 369
concre@@ 369
local@@ 369
Eu@@ 368
audi@@ 368
ific 368
propos@@ 368
agg@@ 367
arter@@ 367
placement 367
prov@@ 367
geo@@ 365
cent 364
ith 364
necess@@ 364
pain@@ 364
ze@@ 364
Vari@@ 363
embl@@ 363
esophag@@ 363
specif@@ 363
≒ 363
erythem@@ 362
fibri@@ 362
toler@@ 362
tow@@ 362
kne@@ 361
vid@@ 361
resting 360
colum@@ 359
etary 359
ware 359
bet@@ 358
cs 358
lysis 358
otropic 358
istration 357
accel@@ 355
diagn@@ 355
partment 354
posed 354
sap@@ 354
soc@@ 354
elong@@ 353
erro@@ 353
level@@ 353
corti@@ 352
past@@ 352
show@@ 352
tempor@@ 352
repeti@@ 351
anesthe@@ 350
crystall@@ 350
empha@@ 350
ound 350
psy@@ 348
ferred 347
haz@@ 347
resis@@ 347
transpa@@ 346
arth@@ 345
partic@@ 345
tration 345
ugh 345
arrhyth@@ 344
fundam@@ 344
famil@@ 343
astic 342
cathe@@ 342
microscop@@ 342
rang@@ 342
refr@@ 342
On@@ 341
ores@@ 341
pse@@ 341
suscepti@@ 341
tain 341
AG 340
eled 340
faces 340
fore 340
opoi@@ 340
cytoplas@@ 339
monom@@ 339
quen@@ 339
aber@@ 338
phenomen@@ 338
intell@@ 337
sew@@ 337
strial 337
〉 337
atism 336
ech 336
hedr@@ 336
hydration 336
ulom@@ 336
wea@@ 336
Char@@ 335
appe@@ 335
elding 335
interpre@@ 335
TH 334
condi@@ 334
remo@@ 334
seis@@ 334
tele@@ 334
icle 333
pressing 333
rough@@ 333
〈 333
gens 332
mittee 332
played 332
renew@@ 332
precur@@ 331
Isl@@ 330
implem@@ 330
retriev@@ 330
adj@@ 329
adju@@ 329
enn@@ 329
some@@ 329
volt@@ 329
machin@@ 328
perf@@ 328
prolong@@ 328
tex 328
amorph@@ 327
barri@@ 327
method@@ 327
prac@@ 327
acu@@ 326
etics 326
gast@@ 326
istr@@ 326
mom@@ 326
antibio@@ 324
easi@@ 324
ots 324
&#@@ 323
Num@@ 323
wi@@ 323
atic@@ 322
enced 322
prog@@ 322
spontan@@ 322
sten@@ 322
tid@@ 322
? 320
mix@@ 320
boil@@ 319
dar@@ 319
entum 319
exha@@ 319
fix@@ 319
osp@@ 319
scop@@ 319
tog@@ 319
comput@@ 318
epit@@ 318
lik@@ 318
conventi@@ 317
eded 317
ird 317
ugs 317
constr@@ 316
noc@@ 316
og 316
ounding 316
paration 316
fis@@ 315
get@@ 315
κ@@ 315
.S@@ 314
Measure@@ 314
antim@@ 314
composi@@ 314
embed@@ 314
wee@@ 314
condition@@ 313
pelv@@ 313
atis@@ 312
ophag@@ 312
cholester@@ 311
divid@@ 311
dominal 311
environ@@ 311
Gre@@ 309
atile 309
bean 308
commer@@ 308
inhabit@@ 308
monit@@ 308
ontal 308
simpli@@ 308
erical 307
peculi@@ 307
σ@@ 307
effici@@ 306
pop@@ 306
spre@@ 306
anol 305
photocataly@@ 305
embr@@ 304
fabr@@ 304
deman@@ 302
extrem@@ 302
j 302
cellul@@ 301
dyst@@ 301
iety 301
199@@ 299
endoc@@ 299
infl@@ 299
otyp@@ 299
γ@@ 299
dem@@ 298
neigh@@ 298
tude 298
ρ 298
feed@@ 297
mini@@ 297
pend@@ 297
Chem@@ 296
individ@@ 296
tled 296
Fir@@ 295
fulness 295
heterogen@@ 295
inno@@ 295
reh@@ 295
corro@@ 294
explan@@ 294
follow@@ 294
institu@@ 294
reas@@ 294
resear@@ 294
MOSF@@ 293
accord@@ 293
estim@@ 293
ogly@@ 293
essive 292
treat@@ 292
surro@@ 291
chang@@ 290
obe@@ 290
otop@@ 290
pers@@ 290
pyl@@ 290
OL 289
propor@@ 289
syndro@@ 289
wri@@ 289
otide 288
teleph@@ 288
Ul@@ 287
abra@@ 287
anastom@@ 287
immobil@@ 287
plast@@ 287
seri@@ 287
tubercul@@ 287
complex@@ 286
ovari@@ 286
tunn@@ 286
outh 285
sump@@ 285
ultr@@ 285
buff@@ 284
duced 284
oline 284
oscl@@ 284
sition 284
ampli@@ 283
experim@@ 283
tum@@ 283
Med@@ 282
impro@@ 282
summar@@ 282
fron@@ 281
shoul@@ 281
caro@@ 280
ign 280
imum 280
entative 279
furn@@ 279
networ@@ 279
spra@@ 279
istics 278
libr@@ 278
tism 278
Ger@@ 277
ime 277
menti@@ 277
pharmaceu@@ 277
respir@@ 277
til 277
zer@@ 277
√ 277
τ 276
nar@@ 275
popul@@ 275
schem@@ 275
ε@@ 275
aic 274
bral 273
deri@@ 273
industri@@ 273
lings 273
esthe@@ 272
agr@@ 270
efly 270
epil@@ 270
eties 270
ision 270
rect@@ 270
shad@@ 270
Indu@@ 269
clou@@ 269
iton 268
mirro@@ 268
restor@@ 268
manu@@ 267
thermore 267
wil@@ 267
ales 266
bom@@ 266
inite 265
neutroph@@ 265
questionn@@ 264
aches 263
eting 263
exce@@ 263
metall@@ 263
mobil@@ 263
omal@@ 263
omic 263
vitation 263
atur@@ 262
capsul@@ 262
oka 261
profil@@ 261
specially 261
const@@ 260
rais@@ 260
RD 259
gly 259
δ@@ 259
aris@@ 258
clonal 258
yel@@ 258
ancer 257
complic@@ 257
epid@@ 257
estive 257
fall@@ 257
jects 257
mia 257
plasia 257
deposi@@ 256
oug@@ 256
rheum@@ 256
comple@@ 255
exchang@@ 255
feat@@ 255
lem 255
clos@@ 254
germin@@ 254
ison 254
tened 254
vom@@ 254
κ 254
diam@@ 253
inking 252
uminescence 252
ask 251
assess@@ 251
custom@@ 251
differen@@ 251
zz@@ 251
aneurys@@ 250
antic@@ 250
collag@@ 250
occlu@@ 250
priv@@ 250
etes 249
exper@@ 249
expos@@ 249
pix@@ 249
alkal@@ 248
electrocardi@@ 248
iles 248
rati@@ 248
sla@@ 248
λ@@ 248
Character@@ 247
langu@@ 247
olec@@ 245
rix 245
amin 244
avy 244
contro@@ 244
incu@@ 244
opo@@ 244
vacc@@ 244
anded 243
nas@@ 243
owle@@ 242
Δ 242
exca@@ 241
aning 240
em 240
estionn@@ 240
iliary 240
occur@@ 240
olip@@ 240
ples 240
abs@@ 239
combus@@ 239
consci@@ 239
exi@@ 239
hypertroph@@ 239
thy 239
aero@@ 238
ej@@ 238
appli@@ 237
anx@@ 236
dary 236
shrin@@ 236
arith@@ 235
buil@@ 235
petro@@ 235
Dy@@ 234
fra@@ 234
pas@@ 234
calibr@@ 233
erm@@ 233
hydra@@ 233
ower 233
tid 233
anter@@ 232
iding 232
oluminescence 232
ureth@@ 232
ough 231
vement 231
elecommun@@ 230
laparo@@ 230
η 230
invari@@ 229
applic@@ 228
dens@@ 228
duoden@@ 228
dissi@@ 227
´ 227
leak@@ 226
Os@@ 225
cham@@ 225
ored 225
satur@@ 225
\ 224
jective 224
membr@@ 224
reason@@ 224
thetic 224
tious 224
Consi@@ 223
Kore@@ 223
anim@@ 223
great@@ 223
osclerosis 223
ounced 223
ypical 223
angu@@ 222
isting 222
atitis 221
fri@@ 221
saf@@ 221
suscep@@ 221
tention 221
arding 220
cence 220
defl@@ 219
fibril@@ 219
insec@@ 219
scen@@ 219
lique@@ 218
Hok@@ 217
molec@@ 217
rhea 217
astom@@ 216
gam@@ 216
hib@@ 216
protot@@ 216
stim@@ 216
elder@@ 215
fluores@@ 215
hness 215
planted 215
shap@@ 215
φ@@ 215
dispos@@ 214
miniatur@@ 214
ocar@@ 214
ousness 214
therap@@ 214
ull@@ 214
alve@@ 213
impul@@ 213
ν 213
accid@@ 212
bif@@ 212
ergy 212
emis@@ 211
epitax@@ 211
hybri@@ 211
pathy 211
reve@@ 211
where@@ 211
There@@ 210
electron@@ 210
ilization 210
orts 210
platel@@ 210
uncertain@@ 210
lay@@ 209
utili@@ 209
agre@@ 208
geome@@ 208
research@@ 208
robo@@ 208
utri@@ 208
ataly@@ 207
characteris@@ 207
genital 207
welling 207
fluidi@@ 206
passeng@@ 206
writ@@ 206
inste@@ 205
invasi@@ 205
semiconduc@@ 205
irs 204
ritic 204
strateg@@ 204
ede@@ 203
ensity 203
equip@@ 203
iconduc@@ 203
kidne@@ 203
ossible 203
promo@@ 203
vent 203
appar@@ 202
dings 202
dispens@@ 202
favor@@ 202
inhal@@ 202
ip 202
sens@@ 202
thres@@ 202
tocol 202
orith@@ 201
carbo@@ 200
edly 200
exist@@ 200
gradi@@ 200
ince 200
softw@@ 200
Lar@@ 199
rhyth@@ 199
suppres@@ 199
surfact@@ 199
xim@@ 199
onn@@ 198
orrh@@ 198
violet 198
conven@@ 197
indings 197
sat@@ 197
ultras@@ 197
Ham@@ 196
equilibri@@ 196
sour@@ 196
elucid@@ 195
mun@@ 195
adequ@@ 194
electrophore@@ 194
investig@@ 194
aints 193
aster@@ 193
erup@@ 193
abnorm@@ 192
anted 192
atical 192
flexi@@ 192
tensi@@ 192
volcan@@ 192
acqui@@ 191
need@@ 191
ought 190
resp@@ 190
urs 190
U.S.@@ 189
chick@@ 189
χ 189
aste 188
infarc@@ 188
nerv@@ 188
requi@@ 188
Temp@@ 187
dependently 187
elas@@ 187
emed 187
emit@@ 187
Ω@@ 187
conveni@@ 186
ZT 184
mach@@ 184
Jap@@ 183
antimicro@@ 183
ulc@@ 183
π@@ 183
ido 182
stiff@@ 182
inve@@ 181
itting 181
provid@@ 181
# 180
cium 180
een 180
imide 180
junc@@ 180
antum 179
outlin@@ 179
soy@@ 178
ury 178
rope 177
stitu@@ 176
τ@@ 175
Contro@@ 174
Develop@@ 174
iod@@ 174
plantation 174
quad@@ 174
tween 174
ω@@ 174
Ky@@ 173
bat@@ 173
ibr@@ 172
intro@@ 172
Tre@@ 171
grading 171
ption 171
surve@@ 171
went 171
annel 169
erec@@ 169
ready 169
Γ 169
Sci@@ 168
Tot@@ 168
hic@@ 167
ultrason@@ 167
moder@@ 166
experi@@ 165
prepa@@ 165
Fol@@ 164
anium 164
assemb@@ 164
beha@@ 164
coron@@ 164
intermit@@ 164
review@@ 164
segreg@@ 163
enor@@ 162
apop@@ 161
asic 161
deple@@ 161
fav@@ 161
htness 161
ren 161
sea@@ 161
circu@@ 160
mang@@ 160
hos@@ 159
igen@@ 159
istry 159
mech@@ 159
sures 159
uments 159
aeros@@ 158
dynam@@ 158
org@@ 158
prepar@@ 158
Λ 158
atmosph@@ 157
atures 157
aux@@ 157
inally 157
manent 157
opsy 157
Clin@@ 156
aks 156
diar@@ 156
ecture 156
mathem@@ 156
carri@@ 155
chil@@ 155
essity 155
establish@@ 155
uniqu@@ 155
deg@@ 154
ept@@ 154
i.@@ 154
lity 154
sel 154
tosis 154
uld 154
vo 154
nozz@@ 153
rif@@ 153
search@@ 153
versity 153
ζ 153
Impro@@ 152
aldehy@@ 152
anne@@ 152
olution 152
pepti@@ 152
verif@@ 152
consi@@ 151
dow@@ 151
rich@@ 150
aud@@ 149
confin@@ 149
exerc@@ 149
hibi@@ 149
tenance 149
Tor@@ 148
acidi@@ 148
ceram@@ 148
ilities 148
absc@@ 147
bub@@ 147
curren@@ 147
fig@@ 147
minary 147
Post@@ 146
chann@@ 146
ermal 146
knoc@@ 146
manufact@@ 146
ocarcin@@ 146
oppor@@ 146
piezo@@ 146
remain@@ 146
sched@@ 146
tent 146
Σ 146
control@@ 145
ength 144
ibility 144
pox@@ 144
tak@@ 144
ρ@@ 144
$ 143
stered 143
vide@@ 143
life@@ 142
tom 142
Engine@@ 141
child@@ 141
horm@@ 141
jug@@ 141
ulic 141
facil@@ 140
measure@@ 140
p. 140
shaf@@ 140
″ 140
effic@@ 139
kine 139
que 139
rein@@ 139
ves@@ 138
centrifug@@ 137
icro@@ 137
usting 137
athetic 136
curv@@ 136
diox@@ 136
estic 136
indo@@ 136
ondri@@ 136
spectroscop@@ 136
ucid@@ 136
acous@@ 135
compan@@ 135
teorological 134
ade@@ 133
agic 133
relati@@ 133
retri@@ 133
dril@@ 132
litis 132
shor@@ 132
umin 132
Gaus@@ 131
struction 131
cription 130
enzy@@ 130
reless 130
tropol@@ 130
… 130
bles 129
grasp@@ 129
import@@ 129
infra@@ 129
insic 129
omen@@ 129
filtr@@ 128
histor@@ 128
secon@@ 128
Fur@@ 127
decre@@ 127
educ@@ 127
oms 127
zeol@@ 127
excell@@ 126
oglobin 126
studi@@ 126
temperat@@ 126
accompan@@ 125
ove 125
θ@@ 125
e. 124
hund@@ 124
immunos@@ 124
manip@@ 124
num 124
individu@@ 123
atigue 121
equili@@ 121
intering 121
mous 121
orthog@@ 121
power@@ 121
influenz@@ 120
osc@@ 120
vements 120
deriv@@ 119
eutic 119
mosph@@ 119
ograp@@ 119
reng@@ 119
sequent 119
stic 119
success@@ 119
ystem 119
〔 119
_ 118
bow@@ 118
configur@@ 118
fair@@ 118
nd 118
〕 118
Tai@@ 117
epox@@ 117
grin@@ 116
neum@@ 116
oporo@@ 116
zzy 116
anese 115
config@@ 115
ept 115
inflam@@ 115
olds 115
oming 115
othel@@ 115
statis@@ 115
Chang@@ 114
anal@@ 114
atop@@ 114
d. 114
hou@@ 114
Four@@ 113
Treat@@ 113
icon@@ 113
opathic 113
Σ@@ 113
arbitr@@ 112
ecos@@ 112
iral 112
arsen@@ 111
devel@@ 111
inese 111
sufficiency 111
Compar@@ 110
allel 110
pha 110
icals 109
perpend@@ 109
seas 109
ationary 108
ffic 108
four@@ 108
gasi@@ 108
fare 107
asp 106
stit@@ 106
suppor@@ 106
toco@@ 106
‖ 106
ambul@@ 105
amoun@@ 105
chip@@ 105
cover@@ 105
craft 105
hind 105
inc 105
intesti@@ 105
ψ 105
ditional 104
earch 104
othermic 104
remot@@ 104
rophy 104
ν@@ 104
ery@@ 103
spectr@@ 103
demia 102
diaphrag@@ 102
leum 100
pie@@ 100
quick@@ 100
ensin 99
hybridi@@ 99
rand@@ 99
ammon@@ 98
pois@@ 98
tensive 98
Γ@@ 98
aily 97
entrop@@ 97
eth 97
lon@@ 96
magnit@@ 96
Λ@@ 95
mir@@ 94
pathophysi@@ 94
ushu 94
ution@@ 94
ambi@@ 93
hystere@@ 93
iden@@ 93
osyn@@ 93
reservo@@ 93
anch 92
cartil@@ 92
clear@@ 92
gau@@ 92
handic@@ 92
piec@@ 92
uli@@ 92
accur@@ 91
adenocarcin@@ 91
faction 91
ichi@@ 91
intersti@@ 91
lorescence 91
percent@@ 91
astically 90
tubation 90
veloci@@ 90
entific 89
gan@@ 89
imens 89
hospit@@ 88
idly 88
pad@@ 88
promis@@ 88
χ@@ 88
∝ 88
Networ@@ 87
anticip@@ 87
cial 87
fist@@ 87
hormon@@ 87
hous@@ 87
pitu@@ 87
sten 87
substr@@ 87
vical 87
vices 87
cryst@@ 86
morb@@ 86
navig@@ 86
ortation 86
strength@@ 86
common@@ 85
expres@@ 85
frequ@@ 85
ground@@ 85
lifer@@ 85
peo@@ 85
anisotrop@@ 84
dless 84
earli@@ 84
Ram@@ 83
ady 83
hepati@@ 83
imped@@ 82
malign@@ 82
une 82
vae 82
η@@ 82
alco@@ 81
entif@@ 81
ickel 81
Dop@@ 80
frame@@ 80
mediately 80
vised 80
sumption 79
uble 79
asion 78
assive 78
maj@@ 78
surance 78
dism 77
twor@@ 77
ument 77
carr@@ 76
hemorrh@@ 76
underst@@ 76
casc@@ 75
Bec@@ 74
aim@@ 74
enge 74
fur 74
moist@@ 74
⊥ 74
hosp@@ 73
matory 73
mechanis@@ 73
oratory 73
ovascular 73
squam@@ 73
epidemi@@ 72
gravit@@ 72
longit@@ 72
longitud@@ 72
proper@@ 72
schedul@@ 72
athyro@@ 71
consider@@ 71
gn 71
ocity 71
pregn@@ 71
princip@@ 71
quot@@ 71
Nov@@ 70
compo@@ 70
Da 69
degre@@ 69
detail@@ 69
signific@@ 69
uly 69
compli@@ 68
dysp@@ 68
erature 68
lo 68
dn@@ 67
ithel@@ 67
wan 67
Å@@ 67
asks 66
omen 66
elds 65
osin@@ 65
quantit@@ 65
tuation 65
apon@@ 64
coast@@ 64
elem@@ 64
eyn@@ 64
trun@@ 64
Eng@@ 63
ament 63
anomal@@ 63
dying 63
empir@@ 63
rical 63
rom 63
spind@@ 63
athem@@ 62
avig@@ 62
esel 62
organis@@ 62
atoid 61
enterpri@@ 61
ISA 60
Jan@@ 60
cision 60
electroph@@ 60
evap@@ 60
larg@@ 60
simultan@@ 60
teoro@@ 60
vine 60
ξ 60
indu@@ 59
oci@@ 59
seed@@ 59
vals 59
adjac@@ 58
asi 58
defici@@ 58
hibit@@ 58
hibited 58
judg@@ 58
light@@ 58
stment 58
Wel@@ 57
bation 57
erarch@@ 57
pler 57
rehabil@@ 57
Amer@@ 56
aort@@ 56
epide@@ 56
@ 55
respec@@ 55
Φ 55
apos@@ 54
entia 54
examp@@ 54
preli@@ 54
techniqu@@ 54
through@@ 54
↓ 54
aff 53
aor@@ 53
coag@@ 53
dair@@ 53
diment 53
g. 53
recombin@@ 53
sligh@@ 53
Φ@@ 53
Pac@@ 52
ainst 52
slur@@ 52
Heal@@ 51
angiot@@ 51
byp@@ 51
hol 51
ichia 51
ither 51
stances 51
erci@@ 49
osteoporo@@ 49
phar@@ 49
remark@@ 49
rescence 49
ype 49
cirrho@@ 48
fab@@ 48
purpos@@ 48
toug@@ 48
worl@@ 48
oden@@ 47
uture 47
Experim@@ 46
antation 46
compati@@ 46
cury 46
dehy@@ 46
ican 46
ocellular 46
residu@@ 46
slud@@ 46
totox@@ 46
∂ 46
espec@@ 45
lipi@@ 45
nited 45
ochondri@@ 45
promot@@ 45
umn 45
compon@@ 44
hyperlipi@@ 44
imer 44
isolone 44
proced@@ 44
voltaic 44
! 43
chrotron 43
describ@@ 43
tung@@ 43
autions 42
compu@@ 42
sever@@ 42
osen 41
throm@@ 40
criter@@ 39
guar@@ 39
ircon@@ 39
perim@@ 39
rhy@@ 39
uries 39
urities 39
vestock 39
≠ 39
cobal@@ 38
obic 38
opposi@@ 38
suffici@@ 38
uniform@@ 38
Euro@@ 37
Europe@@ 37
accum@@ 37
asy@@ 37
diaph@@ 37
oman 37
ophi@@ 37
Ψ 37
↑ 37
、 37
^ 36
atinum 36
precip@@ 36
stoch@@ 36
yrene 36
← 36
≡ 36
ainage 35
assium 35
isely 35
Sign@@ 34
cyl@@ 34
heimer 34
pene@@ 34
polic@@ 34
Θ 34
resour@@ 33
rifug@@ 33
ulomb 33
∈ 33
preven@@ 32
relation@@ 32
specific@@ 32
symptom@@ 32
Ferm@@ 31
allin@@ 31
demon@@ 31
illance 31
Lt@@ 30
Okin@@ 30
algorith@@ 30
□ 30
Soci@@ 29
advantag@@ 29
avail@@ 29
cip@@ 29
erosis 29
knock@@ 29
manufac@@ 29
questionnair@@ 29
tuations 29
itan 28
lobin 28
world@@ 28
allinity 27
aneur@@ 27
audit@@ 27
diame@@ 27
require@@ 27
blems 26
prep@@ 26
scinti@@ 26
‰ 26
greenh@@ 25
intered 25
rices 25
viron@@ 25
Ξ@@ 25
υ@@ 25
Reyn@@ 24
bey@@ 24
idne@@ 24
ubles 24
bear@@ 23
discri@@ 23
ember 23
manufacture@@ 23
qualit@@ 23
υ 23
≫ 23
「 23
agricul@@ 22
rable 22
establ@@ 21
exac@@ 21
turbul@@ 21
vie@@ 21
Π 21
」 21
ー@@ 21
Environ@@ 20
abdo@@ 20
phire 20
ζ@@ 20
△ 20
▽ 20
Ι 19
Π@@ 19
fluc@@ 18
joint@@ 18
Concer@@ 17
astin@@ 17
largement 17
predn@@ 17
regar@@ 17
⇔ 17
≪ 17
automob@@ 16
opin@@ 16
sociation 16
vistic 16
bust 15
dispensable 15
tissu@@ 15
ubility 15
abnormal@@ 14
ensities 14
inhibit@@ 14
vess@@ 14
Ξ 14
More@@ 13
earthqu@@ 13
ermis 13
mell@@ 13
previ@@ 13
uary 13
vant 13
÷ 13
Ψ@@ 13
ψ@@ 13
Hokka@@ 12
U.S@@ 12
batter@@ 12
daries 12
vehic@@ 12
Febr@@ 11
chall@@ 11
monary 11
waf@@ 11
wast@@ 11
ι 11
∫ 11
♂ 11
coeffici@@ 10
ejun@@ 10
elecom@@ 10
freed@@ 10
istered 10
linder 10
Amon@@ 9
Apri@@ 9
`@@ 9
advant@@ 9
cording 9
isph@@ 9
∇ 9
∧ 9
☆ 9
。 9
arching 8
cervi@@ 8
instr@@ 8
progr@@ 8
recor@@ 8
scher@@ 8
‡ 8
【 8
】 8
Escher@@ 7
abnor@@ 7
distin@@ 7
guidel@@ 7
princi@@ 7
transcri@@ 7
veral 7
Θ@@ 7
Χ 7
⊂ 7
⊆ 7
♀ 7
ー 7
Ο 6
Τ 6
ο@@ 6
♯ 6
Sept@@ 5
Thail@@ 5
deteri@@ 5
perfec@@ 5
¨ 5
Υ 5
ξ@@ 5
∩ 5
∪ 5
ischem@@ 4
tober 4
uncer@@ 4
Β@@ 4
Κ 4
ι@@ 4
Hosp@@ 3
dropl@@ 3
exhib@@ 3
limi@@ 3
zheimer 3
§ 3
¬ 3
ο 3
† 3
《 3
》 3
` 2
Β 2
Ι@@ 2
Χ@@ 2
∽ 2
『 2
』 2
． 2
＼ 2
harv@@ 1
suggest@@ 1
¢ 1
£ 1
Ε@@ 1
Η 1
Κ@@ 1
Ν 1
Ρ 1
с 1
− 1
∨ 1
⊃ 1
○ 1
（ 1
） 1
madeupword0000 0
madeupword0001 0
madeupword0002 0
