の 1699873
， 1302628
に 1140865
を 1041239
た 975459
。 958708
し 784320
は 629011
て 551481
で 543210
と 522904
が 458322
する 233557
） 194742
さ 182587
せい 170602
（ 166004
てき 144886
こと 141336
ある 141297
か 141242
な 141204
および 124373
つい 119649
れ 116370
より 106401
から 102890
いる 88448
２ 87272
‐ 86216
も 78028
こう 76349
ため 76113
ほう 75596
１ 73282
よる 70936
その 69351
てん 67545
この 67039
・ 64592
る 63076
ない 61882
や 59835
おけ 59479
もちい 59379
き 58795
けっか 57607
３ 57247
しょう 54886
よう 51341
れい 50974
など 50918
たい 49638
しめし 49434
さいぼう 47739
けい 46721
られ 46721
また 46514
あっ 46425
かん 45721
システム 45668
れる 45570
かいはつ 45140
／ 43582
がた 43394
のべ 42993
けんとう 42714
ひ 42153
けんきゅう 41303
こうぞう 40909
へ 40308
これ 39366
ちゅう 39266
じょう 38941
そくてい 38614
ねん 38257
こうか 38247
りょう 37300
い 36725
さい 36294
おい 35557
ぎじゅつ 35452
せん 34843
ら 34721
４ 34347
かいせき 33657
よっ 33614
しゃ 33555
じ 33475
かのう 33143
できる 32728
ほうほう 32561
だい 32390
たいする 31468
おこなっ 31356
ち 31317
りつ 31265
とう 31204
ちりょう 31076
ご 30978
ぱあせんと 30629
ちょう 30453
５ 30117
え 30107
そう 29972
しよう 29933
とくせい 29883
しょうかい 29733
みとめ 29355
ぶつ 29330
ひょうか 29055
かく 28698
へんか 28588
じっけん 28404
つ 28217
えいきょう 28014
モデル 27820
やく 27702
ひつよう 27503
なる 27233
かんじゃ 26848
きのう 26696
いじょう 26609
じかん 26322
さん 25893
すう 25553
しんだん 25224
せいぎょ 25086
ざい 24988
げんしょう 24876
エネルギー 24433
りよう 24195
おんど 24131
しょり 24120
〜 23987
なっ 23941
けいさん 23830
まく 23726
ぞうか 23663
もんだい 23654
ばあい 23433
あり 23362
しょうれい 23112
ひょうめん 23112
はんのう 23110
かい 23093
しらべ 23087
でんし 23065
０ 22908
いでん 22686
なかっ 22547
はっせい 22525
さよう 22411
かんきょう 22345
もの 22344
ひかく 22083
かいせつ 21967
しけん 21838
ぐん 21818
けいせい 21639
たいしょう 21492
ど 21476
しつ 21325
でき 21319
たいし 21279
しゅ 21103
さらに 20807
ほん 20576
かんがえ 20575
ぶ 20485
み 20478
データ 20432
とも 20392
ちょうさ 20097
られる 19977
せつめい 19945
６ 19939
ふ 19932
のう 19919
１０ 19865
じょうたい 19864
しき 19842
ぶんし 19664
ねつ 19642
「 19601
そうち 19582
かっせい 19578
」 19574
ほうこく 19471
ていあん 19431
じょうほう 19343
かがく 19161
かんけい 19110
きょう 19051
まで 19018
けっしょう 18971
いち 18942
イオン 18872
じゅうよう 18697
がく 18549
とくちょう 18519
せっけい 18462
そくど 18440
Ｉ 18250
けんさ 18234
せ 18227
のうど 18220
がん 18218
てい 18187
そしき 18062
ひょうき 17925
りょうほう 17855
Ｃ 17852
あきらか 17664
もつ 17586
さんか 17539
ぶんぷ 17033
こうせい 17023
じょうけん 16989
つき 16804
りょういき 16595
かいぜん 16511
にっぽん 16462
いぞん 16317
しん 16295
あんてい 16281
こうじょう 16266
ぶんせき 16263
たかい 16236
ゆうこう 16234
びょう 16095
しゅよう 15944
かんする 15568
さくせい 15497
ず 15378
ガス 15308
けんしゅつ 15170
それ 15132
けつごう 15124
かんれん 15096
せいちょう 14999
Ａ 14935
わかっ 14849
しっかん 14774
ざいりょう 14670
せいせい 14620
あたらしい 14528
しょうがい 14487
ていか 14223
てきよう 14214
かんり 14181
きかん 14113
かてい 14079
、 13975
そんざい 13932
すい 13782
けん 13728
７ 13658
しゅじゅつ 13657
りゅうし 13619
みつど 13614
しんけい 13570
きこう 13533
どう 13526
かんさつ 13476
Ｘ 13437
せいのう 13435
しさ 13432
しこう 13376
８ 13226
じげん 13212
ひかり 13148
こうりつ 13052
たんぱく 12981
しりょう 12962
えん 12932
はん 12767
めん 12766
− 12757
ほうこう 12750
もくてき 12723
けっかん 12711
どうにゅう 12532
Ｂ 12507
さいきん 12363
じゅう 12334
とうよ 12327
よくせい 12323
けいこう 12322
でんき 12300
かんせん 12280
げんし 12213
りんしょう 12190
かんそく 12165
はつげん 12148
ば 12077
Ｏ 12068
かくにん 11999
ぶんかい 11998
じき 11909
Ｔ 11905
いんし 11773
がぞう 11772
おこなう 11728
たん 11717
しゅほう 11711
Ｓ 11660
りょく 11479
ふか 11469
でんりゅう 11411
きょうど 11382
きばん 11351
あつ 11340
きんぞく 11331
せんい 11286
しょ 11260
かんし 11226
きゅう 11224
こ 11205
シミュレーション 11181
ぶっしつ 11132
なく 11130
Ｎ 11122
ごうせい 11112
うんどう 11102
レーザ 11078
Ｋ 11074
おうよう 11070
りろん 11054
Ｐ 11033
せる 11018
Ｈ 10970
ちゅうしん 10966
てんい 10944
げん 10910
りゅう 10878
こうそく 10867
たいおう 10831
せんたく 10824
だんせい 10748
どうみゃく 10686
はい 10634
ゆうい 10588
きん 10523
いか 10482
とき 10444
Ｄ 10421
おこない 10406
プラズマ 10375
かんすう 10365
おおく 10362
ぜん 10356
けってい 10337
せいさん 10331
じっし 10328
えすあい 10312
ふくむ 10244
かこう 10223
そうかん 10176
もと 10126
め 10122
かた 10113
ほうしき 10087
へいきん 10053
しゅうは 10038
そうご 9988
しんどう 9973
じどう 9970
ほうしゃ 9941
せいど 9936
じゅつご 9927
じゅつ 9899
スペクトル 9891
とくに 9869
がいせつ 9865
がいよう 9838
あいだ 9813
しめす 9610
えき 9590
ここ 9568
ていこう 9553
２０ 9549
さいてき 9445
Ｍ 9361
む 9360
ぶぶん 9329
こんご 9313
めんえき 9292
きゅうしゅう 9273
たいさく 9266
９ 9201
＋ 9200
しょうじょう 9195
めい 9195
いう 9187
レベル 9174
じこ 9147
ぞう 9145
． 9128
じつげん 9112
ゆうどう 9111
かだい 9089
リ@@ 9055
いどう 9038
ゆうき 8995
きほん 8981
げんいん 8973
すいてい 8962
まえ 8943
ちいき 8907
ア@@ 8893
す 8882
でんどう 8865
かんせつ 8840
じゅうらい 8833
じょうきょう 8825
よく 8803
こうがく 8779
しかし 8776
Ｂ@@ 8767
しゅるい 8757
つぎ 8751
なか 8751
せいぶん 8708
ひと 8706
Ｓ@@ 8704
Ｍ@@ 8693
はんい 8688
でんあつ 8665
しょうしゃ 8617
Ｈ@@ 8610
Ｖ 8598
しょけん 8584
おり 8578
せんけい 8551
こうさつ 8534
けいすう 8529
Ｒ 8516
１２ 8515
Ｌ@@ 8514
ろ 8513
ａ 8485
じん 8473
プロセス 8458
かいし 8456
Ｄ@@ 8438
しぼう 8435
すいそ 8419
ぶんり 8419
パラメータ 8415
でんりょく 8387
こうし 8384
あんぜん 8375
℃ 8343
けいかく 8305
およぼす 8279
Ｃ@@ 8241
こうりょ 8238
Ｔ@@ 8235
Ｆ@@ 8197
せつじょ 8176
ことなる 8160
いっ 8142
Ｆ 8136
こうたい 8133
よそく 8132
へんい 8126
きたい 8123
くうかん 8091
もちいる 8064
ゆうよう 8062
か@@ 8061
ラ@@ 8032
るい 8023
なり 8003
Ｐ@@ 8002
び 7981
１００ 7955
じゅよう 7944
Ｇ@@ 7928
かげつ 7895
もとめ 7885
ジ@@ 7880
し@@ 7833
きかい 7817
パターン 7777
しんごう 7771
かつどう 7769
いっぱん 7765
へんかん 7755
ほんこう 7754
がっぺい 7745
せいじょう 7743
あと 7734
Ｌ 7727
どうたい 7722
ス@@ 7722
げんざい 7699
Ｎ@@ 7699
ネットワーク 7698
みず 7650
かくりつ 7605
ｍ@@ 7605
じょせい 7598
けいじょう 7597
じく 7583
いく 7577
てんか 7566
リンパ 7540
さいだい 7537
けいたい 7528
こんごう 7512
いん 7505
こうちく 7495
モード 7494
さんそ 7490
ｓ 7488
ビーム 7450
いっち 7443
ｐ@@ 7394
Ｒ@@ 7379
のみ 7377
ぶんるい 7361
かいろ 7347
ｃ@@ 7329
ともなう 7309
３０ 7308
きょどう 7304
おおきく 7278
はっしょう 7258
はくまく 7256
もっとも 7239
がわ 7193
ゆうする 7187
そうさ 7159
ようせい 7159
ほうてい 7158
けいか 7114
いりょう 7106
すうち 7093
ＩＩ 7088
ｅ 7036
きじゅん 7016
Ｅ@@ 7009
： 6993
なのめえとる 6980
ねんど 6951
マウス 6940
おうりょく 6929
ひょうじゅん 6929
かくさん 6925
おおきな 6916
せいぶつ 6912
へんどう 6908
ようそ 6906
じょうしょう 6899
つう 6896
Ｏ@@ 6879
はつでん 6875
かくしゅ 6868
せいぞう 6858
ぞうだい 6832
ふく 6828
Ｅ 6821
Ａ@@ 6802
ていど 6776
おうとう 6772
せいひん 6772
でんきょく 6765
しせつ 6763
ていげん 6755
シ@@ 6752
つうしん 6738
Ｖ@@ 6718
くらべ 6717
やくわり 6712
１５ 6708
それぞれ 6699
もとづい 6687
しゅう 6648
ふくごう 6638
き@@ 6615
たんそ 6613
うち 6581
Ｋ@@ 6577
げんじょう 6565
Ｇ 6563
しいてぃい 6539
ウイルス 6520
せつ 6519
こうそ 6517
じゅうぶん 6499
しゅじゅ 6490
５０ 6484
ちゅうしゅつ 6483
じじょう 6467
マ@@ 6463
ごうきん 6444
１１ 6442
かいめん 6441
しょき 6441
パルス 6415
れんぞく 6408
せんしょく 6405
ぶんさん 6405
Ｉ@@ 6386
こつ 6369
がい 6366
ちょくせつ 6353
ｓ@@ 6338
きき 6336
こうかん 6325
ｍ 6321
い@@ 6277
そせい 6263
あつりょく 6243
あるいは 6235
とくい 6232
かいてん 6230
せつび 6215
ｔ@@ 6211
いしょく 6203
てきおう 6194
ｎ 6194
アルゴリズム 6187
ひんしつ 6180
けっせい 6176
ひふ 6166
あ@@ 6165
へんけい 6148
しょうこう 6143
ｉ@@ 6136
やくざい 6133
りょうこう 6131
ばん 6120
きそ 6112
みりめえとる 6110
だんかい 6109
ひ@@ 6107
どうこう 6106
カ@@ 6094
いき 6087
ようりょう 6086
べき 6080
マイクロ 6072
どうじ 6071
じぎょう 6056
かんぜん 6054
さぎょう 6018
える 5976
と@@ 5970
ｔ 5965
じんこう 5949
ちょうせい 5938
ふた 5925
けんび 5920
でぃいえぬええ 5919
おこなわ 5904
１@@ 5882
コ@@ 5867
ばい 5838
しんこう 5829
ぶん 5824
く 5822
ｄ@@ 5822
しゅつりょく 5817
れいき 5814
β 5793
すべて 5784
さんらん 5779
とうか 5765
しょくばい 5750
そがい 5749
こてい 5746
ピーク 5738
ｐ 5736
ばいよう 5730
た@@ 5720
イ@@ 5717
あい 5712
＝ 5712
しゅつげん 5688
こたい 5684
さいよう 5682
しょうじ 5664
さ@@ 5648
ぞく 5632
じょきょ 5628
すじ 5621
もとづく 5618
ろんじ 5617
だ 5610
ガラス 5605
ヒト 5593
ト@@ 5580
かんよ 5576
α 5552
りょうし 5544
きゅうせい 5541
タ@@ 5521
けいそく 5510
へいこう 5489
センサ 5489
コスト 5486
あげ 5483
へいせい 5482
さんせい 5481
どうさ 5480
やくぶつ 5475
ええ@@ 5472
ねんりょう 5465
ゆそう 5458
はかい 5451
こうど 5447
えええる 5430
せき 5412
２@@ 5411
ほね 5408
ｏ@@ 5405
きょうかい 5377
せっしょく 5376
いっぽう 5375
すぐれ 5371
うえ 5357
たかく 5351
せいしつ 5350
けいとう 5346
きろく 5344
うけ 5340
そくしん 5312
びょうへん 5308
ぶい 5308
ようえき 5308
うんてん 5301
きょく 5299
オ@@ 5289
そし 5280
べつ 5273
ｒ@@ 5272
ぶんや 5269
ａ@@ 5264
せいさく 5258
へん 5257
サービス 5255
Ｗ@@ 5242
は@@ 5240
いじ 5235
えふいい 5234
しょく 5230
こうげん 5227
じれい 5221
ｂ@@ 5220
はんしゃ 5213
ｉ 5212
４０ 5207
きゅうちゃく 5191
サイズ 5168
そこ 5166
ぞうしょく 5159
よぼう 5159
はっこう 5158
くみあわせ 5157
しげき 5151
ちっそ 5142
ぼうし 5135
さんぎょう 5121
ていりょう 5120
ひくい 5120
きょくしょ 5114
ねんかん 5108
けつ 5107
じっさい 5103
まず 5091
６０ 5088
おおきい 5087
ひじょう 5084
ほとんど 5084
ようい 5077
かぶ 5065
けつあつ 5053
ないぶ 5038
ｅ@@ 5030
きじゅつ 5023
しえん 5022
もけい 5022
だけ 5014
かごう 5009
はいれつ 5004
ｃ 5004
ｌ@@ 4989
せっち 4983
あたい 4982
つうじょう 4979
どうてい 4979
こんなん 4973
せいたい 4964
どうよう 4954
たいせき 4953
かねつ 4943
× 4941
かんたん 4933
えす@@ 4922
ないよう 4917
ラット 4915
でんかい 4914
１３ 4908
おんぱ 4901
く@@ 4893
こうもく 4886
めんせき 4885
しいゆう 4884
じせい 4879
ノ@@ 4878
ふ@@ 4875
ｅｒ@@ 4871
かくちょう 4864
たいせい 4861
そんしょう 4858
１４ 4856
こきゅう 4848
きどう 4840
ド@@ 4825
くうき 4804
かいふく 4789
ま@@ 4789
そうき 4787
しゅうき 4786
くわえ 4784
まんせい 4775
ｘ 4771
ｉｎ@@ 4765
ひんど 4764
じゅん 4763
ー 4763
ｎ@@ 4749
もう 4744
さいはつ 4740
おなじ 4739
きぼ 4736
つ@@ 4735
エ@@ 4728
あたえる 4727
スピン 4727
しゃかい 4726
かいりょう 4717
ｈ@@ 4717
ほうでん 4715
きょうきゅう 4707
おおい 4702
ようきゅう 4699
こ@@ 4695
とう@@ 4693
のうりょく 4689
そく 4688
μｍ 4684
こうおん 4681
つよい 4675
み@@ 4671
はば 4664
ル@@ 4664
かつ 4656
しぜん 4653
じ@@ 4650
にんしき 4646
だん 4643
しょうしつ 4630
お@@ 4623
せいこう 4622
ｙ 4617
セ@@ 4611
じしん 4608
ちゅうせい 4608
せつごう 4607
ほうしゅつ 4605
３@@ 4595
たいしゃ 4585
しょくぶつ 4579
メ@@ 4577
ｙ@@ 4570
きょり 4561
いこう 4560
けんさく 4555
こころみ 4555
しょうじる 4551
よういん 4551
バ@@ 4551
サ@@ 4543
づけ 4542
ナノ 4540
ぶんぴつ 4533
よい 4531
ロ@@ 4522
でんち 4519
あたえ 4516
みいだし 4504
せいり 4503
ミ@@ 4502
せんちめえとる 4490
ぜんたい 4483
ｄ 4482
しんらい 4481
ナ@@ 4481
じょうき 4478
Ｕ@@ 4478
けいざい 4474
しめさ 4471
す@@ 4467
せっしゅ 4467
しじょう 4462
びょうたい 4462
レ@@ 4455
ｆ@@ 4450
ふぜん 4449
ん 4444
ちゅうにゅう 4439
プログラム 4436
ｇ@@ 4436
ながれ 4430
バンド 4415
したがっ 4412
えいよう 4396
タイプ 4392
デ@@ 4387
ｕ@@ 4387
ゆうでん 4381
かくだい 4378
２５ 4376
へんこう 4372
ブ@@ 4366
１６ 4364
ビ@@ 4355
こう@@ 4350
せいかく 4346
なら 4338
はちょう 4329
ぶんか 4326
セル 4315
せいかつ 4314
まん 4309
ひん 4307
パ@@ 4307
けつえき 4305
ひょう 4291
ていきょう 4288
にて 4279
ほか 4278
ク@@ 4270
ようせつ 4267
かし 4264
よご 4250
げんり 4247
つかっ 4247
しいええ 4242
にゅういん 4241
ねんれい 4241
びょうり 4240
しょうひ 4239
ひょうげん 4230
がいねん 4227
ろん 4227
いそう 4226
じつよう 4220
じゅんかん 4219
きぎょう 4213
せかい 4207
かつよう 4204
こうほう 4202
さいせい 4199
さく 4194
はじめ 4192
はいき 4191
かいめい 4190
ｏｒ@@ 4179
しいおう 4162
ほぼ 4151
ぶんこう 4147
どじょう 4141
びょういん 4137
あっしゅく 4129
にゅうりょく 4117
しつりょう 4115
こがた 4113
てんかい 4110
こうれい 4101
おせん 4097
せいけい 4093
リン 4088
がんゆう 4087
ならび 4086
れいきゃく 4073
ｅｒ 4066
さまざま 4065
キ@@ 4060
な@@ 4055
ていじ 4047
ラ 4034
ン@@ 4034
ちゅうい 4024
しお 4023
せいせき 4017
そんしつ 4016
にん 3999
びさい 3999
デバイス 3997
さいしょう 3976
とうにょう 3968
たんいつ 3966
はっけん 3966
ー@@ 3964
Ｗ 3964
ｇ 3964
そう@@ 3963
り 3961
はあく 3957
しげん 3952
こうじ 3951
えきたい 3948
ニ@@ 3948
へき 3936
かんしょう 3935
ガ@@ 3930
ながら 3929
そして 3920
ていすう 3914
こくさい 3910
ｅｎ@@ 3908
じょうみゃく 3904
でんたつ 3898
せい@@ 3893
じゆう 3888
じょうひ 3873
しょう@@ 3866
けんしょう 3865
はってん 3850
８０ 3850
ぶひん 3843
テ@@ 3838
たっせい 3836
かんてん 3835
ベ@@ 3828
せん@@ 3823
かんど 3822
ちかん 3814
ちょうき 3810
きょう@@ 3806
かいよう 3800
じか 3799
えんしょう 3798
きょくせん 3789
かい@@ 3785
そ 3783
しんきん 3782
すいしん 3778
とし 3778
ッ@@ 3777
おん 3776
えぬあい 3775
へいよう 3775
かそく 3773
え@@ 3764
もくひょう 3757
う@@ 3756
おもわ 3752
きてい 3747
きんいつ 3747
ていおん 3747
む@@ 3747
じゅし 3746
ところ 3743
ステロイド 3739
しんてん 3737
イン@@ 3736
おう@@ 3732
ぎゃく 3725
りんかい 3718
り@@ 3709
ウ@@ 3707
ｖ@@ 3707
さい@@ 3706
ぜんしん 3706
かんわ 3701
チ@@ 3700
もっ 3698
こうてい 3696
てきせつ 3685
リ 3679
きんじ 3666
どうぶつ 3665
フィルタ 3641
ゆう@@ 3640
つよく 3638
ちょうせつ 3636
１８ 3631
してき 3622
ほぞん 3621
ス 3619
くどう 3617
ふくぶ 3610
ぶつり 3609
あらた 3607
でんか 3606
りかい 3604
てつ 3603
イン 3601
りきがく 3592
しょうか 3589
きょういく 3587
ひずみ 3582
たいよう 3581
りん 3577
いってい 3565
けいけん 3563
ちいさい 3562
しいでぃい 3561
ひょうじ 3560
ル 3554
ちゅうもく 3550
かいけつ 3549
はいち 3548
しひょう 3543
どうてき 3541
あ 3540
せいしん 3536
ａｌ@@ 3528
アミノ 3524
コンピュータ 3524
しゅうかん 3523
リスク 3520
ぜん@@ 3516
るいじ 3515
えいせい 3511
コード 3511
ほご 3510
１９@@ 3504
ていぎ 3499
わけ 3491
ぎょう 3490
りゅうたい 3483
こうどう 3475
よう@@ 3468
ｋ@@ 3462
しょうらい 3454
ゆらい 3452
きかく 3451
せいか 3443
しゅっけつ 3437
チャネル 3437
しょうさい 3436
たよう 3433
ボ@@ 3433
２１ 3433
ふくめ 3429
ちくせき 3424
こん 3422
２４ 3420
フ@@ 3408
７０ 3405
ねんしょう 3401
イ 3399
ちゅうかん 3393
モ@@ 3393
じゅしん 3388
４@@ 3381
ぞうえい 3380
ぎ 3379
よん 3370
どの 3368
リング 3359
ゆうげん 3357
ａｎ@@ 3356
あい@@ 3352
ポテンシャル 3352
じっしょう 3351
ふくざつ 3337
けんせつ 3336
サイクル 3336
むけ 3335
ネ@@ 3335
せってい 3333
えむああるあい 3331
けいろ 3331
つぶ 3323
かんげん 3319
げんかい 3311
なん 3309
あくせい 3308
かんかく 3307
さいしゅう 3306
だいたい 3305
ていし 3304
ぺえはあ 3304
ハ@@ 3302
きわめて 3297
しん@@ 3293
さいばい 3290
ちゅう@@ 3290
せつぞく 3286
ベース 3285
たいき 3284
さま 3279
じぞく 3278
び@@ 3276
ぬし 3273
けんこう 3271
かん@@ 3260
すすめ 3260
ホ@@ 3259
すいちょく 3247
ａｒ@@ 3244
ム 3242
でんい 3226
じゅみょう 3224
おおき 3222
いちぶ 3219
そ@@ 3218
でんそう 3218
ちがい 3214
チップ 3213
びしょう 3211
メカニズム 3209
ｔｒ@@ 3207
こんかい 3204
ール 3203
まとめ 3200
せんじょう 3197
せいぞん 3193
ストレス 3186
っ 3180
ｏ 3173
ライン 3171
ポンプ 3169
ン 3169
ｈ 3168
しんき 3153
ダ@@ 3150
１７ 3149
かいしゅう 3145
すくない 3145
たんじゅん 3145
ちきゅう 3144
ｏｌ@@ 3135
ｏｎ@@ 3129
テスト 3126
てぃいあい 3125
きせい 3120
ゲル 3114
さいしょ 3110
はいけい 3107
とうけい 3106
せいげん 3105
ート 3099
ピ@@ 3097
ね 3093
データベース 3092
たかかっ 3087
きんねん 3077
ぎろん 3072
ひふく 3072
ほしょう 3072
ＧａＡｓ 3072
そうたい 3071
ホルモン 3065
した 3062
ック 3062
しょうめい 3061
しょくひん 3057
そうごう 3056
ほど 3056
ブロック 3055
しゅうへん 3044
たすう 3044
プ@@ 3039
きけん 3038
でんじ 3036
いずれ 3032
しいあある 3032
エッチング 3032
ふきゅう 3029
ひんしゅ 3028
ぜつえん 3023
しゅ@@ 3021
９０ 3020
ロボット 3016
げん@@ 3014
ようかい 3013
ゆ 3010
たじゅう 3001
しさく 2999
だいがく 2999
Ｊ@@ 2999
せいび 2998
かえ 2997
ＩＩＩ 2996
きいん 2993
けんちょ 2984
ヒ@@ 2981
れっか 2975
じゅうごう 2972
じょうちゃく 2971
ほ@@ 2967
スト@@ 2967
ｘ@@ 2964
いい@@ 2963
げんすい 2958
はいしゅつ 2957
ろんぶん 2952
じゅうてん 2951
ごさ 2946
こつずい 2945
ないし 2930
たい@@ 2924
シフト 2922
コンクリート 2921
きょうめい 2920
しょうげき 2920
さくげん 2917
ｋ 2913
じゅつぜん 2911
マ 2910
えむ@@ 2909
きゅうそく 2902
ゲート 2902
５@@ 2891
しんじゅん 2882
とくてい 2881
とりくみ 2880
わ 2878
じょう@@ 2864
しらべる 2862
せんりょう 2861
２０００ 2860
だいひょう 2859
おう 2858
かくほ 2858
こうぎょう 2858
ｕｓ 2856
だいちょう 2854
おもに 2853
ぴいしい 2853
ａｃ@@ 2852
わ@@ 2849
かず 2847
ぐたい 2847
じゅうしょう 2846
ｌ 2845
ち@@ 2843
の@@ 2842
はんてい 2840
おもな 2837
さいご 2835
プロジェクト 2833
シリコン 2832
なが 2830
ど@@ 2829
パワー 2829
きょうりょく 2828
にょう 2827
おこる 2824
りゅうどう 2818
ディジタル 2817
きじょ 2816
ぴいてぃい 2808
トリ@@ 2808
なし 2806
こく 2802
ふくま 2802
かんじゅ 2800
２００ 2800
しゅうりょう 2796
ディ@@ 2796
コン@@ 2795
こん@@ 2790
てんしゃ 2784
きゅう@@ 2782
ゆうし 2782
Ｕ 2781
ししつ 2777
しすう 2777
ぼ@@ 2777
γ 2775
しいえる 2771
じっこう 2768
ともない 2767
ソ@@ 2765
ゆうはつ 2764
がいぶ 2762
かく@@ 2761
Ｘ@@ 2761
３００ 2760
しょうに 2757
いがい 2754
いし 2752
め@@ 2752
みぎ 2749
ほうわ 2747
ゆ@@ 2746
ますい 2745
ふくすう 2743
アレルギー 2739
げか 2738
グループ 2738
すくなく 2735
ねんまく 2725
ツ@@ 2725
がくしゅう 2719
あたり 2717
こうあつ 2702
かんそう 2699
ちけん 2698
ｅｌ@@ 2694
も@@ 2693
さいこう 2691
トンネル 2689
まっしょう 2685
うる 2684
しんせい 2683
ダ 2681
だ@@ 2680
しんくう 2679
しょ@@ 2678
けん@@ 2673
ごと 2670
オン 2668
きょうか 2667
プロ@@ 2667
ひだり 2666
ぷん 2664
ほじ 2662
いちじるしく 2658
クロ@@ 2656
げんそ 2653
ア 2648
ことなっ 2647
へんちょう 2647
しどう 2646
がい@@ 2643
うちゅう 2642
かじゅう 2642
こっせつ 2642
ぞうふく 2641
すなわち 2637
どう@@ 2636
きよ 2635
ともなっ 2635
ほん@@ 2633
ああるええ 2632
しゅうい 2628
じこう 2622
しゅうしゅく 2620
ね@@ 2620
そうにゅう 2617
せいけん 2615
リサイクル 2615
しんぷく 2613
ム@@ 2612
ポリ@@ 2611
しゅうしゅう 2610
えふ@@ 2609
みりぐらむ 2609
ポリ 2609
ざつおん 2608
きょうしん 2607
こうつう 2607
つつ 2607
ぼう 2604
えむえす 2598
さくたい 2597
ース 2595
ま 2593
ａｔ@@ 2591
しいおうつう 2589
てんぼう 2588
う 2586
ちょっけい 2585
しい@@ 2584
りんさん 2584
ぴいでぃい 2583
らん 2582
ファイバ 2581
クラスタ 2577
べん 2575
６@@ 2573
こゆう 2569
よ@@ 2560
しつおん 2555
ファ@@ 2554
る@@ 2549
や@@ 2548
ちょう@@ 2547
もとづき 2546
てい@@ 2542
ちか 2539
ペプチド 2539
かんえん 2538
に@@ 2536
ａｍ@@ 2528
２２ 2524
１９ 2523
ちょしゃ 2522
ｉｃ@@ 2519
ええあある 2518
プローブ 2518
せっちゃく 2517
ギャップ 2517
ちしき 2516
ぴい@@ 2514
ほんぽう 2513
プラント 2512
きそく 2511
しょうとつ 2511
じっ 2510
さん@@ 2506
Ｙ 2493
ちほう 2491
てきしゅつ 2487
しがい 2486
ちかく 2486
け@@ 2480
ず@@ 2480
３５ 2480
さいげん 2477
しゃ@@ 2477
れ@@ 2475
しじ 2474
ｕｌ@@ 2474
くりかえし 2473
インターネット 2470
２３ 2469
ら@@ 2468
きれつ 2466
ぎょうむ 2465
たいいき 2460
ク 2457
が@@ 2454
めいかく 2453
サイト 2453
はい@@ 2452
フェ@@ 2451
ｉｎｇ 2451
あわせ 2449
かじょう 2445
ようと 2443
せだい 2441
げんりょう 2440
ようばい 2436
カメラ 2435
ロ 2433
ぎょうこ 2432
しゅうごう 2430
せっかい 2430
けっそん 2429
とっ 2428
エンジン 2428
じつ 2426
こうはん 2424
えきしょう 2423
えぬええ 2422
どうりょく 2422
チン 2422
きょうつう 2418
ほう@@ 2417
しゅう@@ 2416
きんぼう 2415
ット 2415
ふんまつ 2414
いろ 2412
にゅう 2410
ペ@@ 2410
じったい 2402
はん@@ 2398
ポ@@ 2398
ろう 2394
しい 2392
ｒｅ@@ 2391
ぜんそく 2388
けい@@ 2387
ふしょく 2384
ブ 2384
はいこう 2382
ぶんれつ 2380
ユーザ 2379
ジン 2378
まさつ 2375
てんかん 2374
カルシウム 2373
たんい 2370
ちえん 2370
ちいさく 2369
むき 2368
ｏｓ@@ 2368
たん@@ 2362
へいそく 2362
しきゅう 2360
たか 2359
にく 2359
あいしい 2357
でんぱん 2354
ようゆう 2353
きん@@ 2352
しょくどう 2352
べいこく 2350
でんげん 2348
ｂ 2341
てぃいしい 2331
けいしき 2330
どうろ 2330
しゅそ 2329
たんしゅく 2329
ゆうごう 2329
えし 2326
しゅうせき 2323
かすい 2322
レンズ 2319
ソフトウェア 2318
もち 2317
へんせい 2316
いぎ 2314
おおがた 2313
せいき 2311
° 2310
せいざい 2310
とり 2309
グ@@ 2305
こうしん 2304
キャリア 2302
ポイント 2302
くに 2301
コントロール 2301
けつろん 2298
とうごう 2298
Ｑ@@ 2297
ほけん 2293
フロー 2291
シート 2289
いほう 2285
げんば 2279
ほぜん 2277
かたち 2272
けっちゅう 2268
でんじょう 2266
Ｚ 2264
きょうどう 2263
しきそ 2263
モータ 2262
うむ 2261
ぞうきょう 2261
すいよう 2259
めざし 2256
ていじょう 2255
てきし 2252
ふっこう 2247
ロン 2247
うんよう 2244
］ 2239
はったつ 2237
いない 2232
たんかん 2232
ｆ 2232
アンケート 2229
えん@@ 2227
ｓｉ@@ 2225
４５ 2221
ほうそう 2220
ふきん 2217
Ｑ 2214
じんそく 2212
ナ 2212
５００ 2212
ステップ 2208
しょうばん 2207
やすい 2206
シン 2206
ひろう 2205
のべる 2201
あある@@ 2198
ぶんかつ 2193
えんき 2192
ａｓ@@ 2188
かくど 2187
て@@ 2187
ごう 2186
とり@@ 2186
サブ 2185
せんこう 2181
いんか 2180
ふりょう 2180
はいえん 2179
［ 2175
ｃｈ@@ 2174
ふごう 2173
いみ 2172
えぬ@@ 2170
μ 2167
スケール 2165
ろ@@ 2164
どういつ 2163
がいかん 2162
しら 2162
かんべつ 2161
しんりょう 2160
かけ 2159
はり 2159
うず 2156
けっせん 2152
ざんりゅう 2152
がんりょう 2151
せんてい 2151
りゅうりょう 2151
にゅうしゃ 2149
ワ@@ 2149
ほせい 2148
ヘ@@ 2148
ガイドライン 2147
ひろく 2146
ｚ@@ 2144
がつ 2140
ちょぞう 2140
へいめん 2139
ば@@ 2138
しんぞう 2137
セラミック 2136
けんちく 2135
ウエハ 2129
はんめい 2128
Ｚ@@ 2128
そうこう 2125
たいりょう 2124
せきぶん 2123
はんだん 2121
ディスク 2121
だつ 2120
てん@@ 2118
ほじょ 2116
ター 2114
ぎょうれつ 2111
かなり 2103
とりあげ 2103
Ｊ 2103
けいしゃ 2100
ひこう 2100
７@@ 2100
れんけい 2098
アレイ 2098
ツール 2098
ベクトル 2098
あん 2096
かんせい 2095
ゆう 2094
カ 2093
かんぞう 2092
とおし 2092
ぞうき 2091
センター 2090
ーム 2090
しゅうせい 2089
せんたん 2089
ふちゃく 2088
かんない 2085
せんりゃく 2085
きょうぶ 2084
どうき 2082
ｏｍ@@ 2082
なみ 2081
きょうちょう 2080
すいい 2080
プラスチック 2079
しんぽ 2078
しゅだん 2077
そうおん 2077
ゲノム 2076
しんちょう 2075
あいぴい 2074
まんぞく 2074
てじゅん 2073
しいえす 2071
かぞく 2069
ｉｌ@@ 2065
おうじ 2064
しかく 2062
アプローチ 2060
いん@@ 2058
シグナル 2058
いんせい 2056
ｗ@@ 2054
そっ 2051
しょうてん 2049
はいすい 2044
ご@@ 2043
フィルム 2043
７５ 2043
” 2041
お 2041
わりあい 2041
しゅうだん 2040
フラ@@ 2040
ｉｎ 2038
ＩＬ 2034
ちく 2033
ｐｈ@@ 2031
ちゅうおう 2030
せんもん 2027
のうぎょう 2027
１０@@ 2026
ド 2025
ちつじょ 2022
つよ 2022
ｔｉ@@ 2022
モジュール 2020
タ 2019
フィ@@ 2018
ひれい 2017
のうほう 2016
ドープ 2013
ＳｉＯ 2012
ｒａ@@ 2011
うける 2009
きそん 2009
あら 2008
こしょう 2008
さき 2008
アンテナ 2006
コア 2004
ちゅうごく 2003
かこ 2002
けつりゅう 2002
チューブ 2000
もうまく 1998
ぴいしいあある 1997
かどう 1995
リー 1995
ソフト 1994
ループ 1994
ひくく 1993
てんねん 1992
ト 1990
しはい 1988
しゃしん 1988
はかる 1987
えむじい 1986
りょうしゃ 1985
たこう 1984
せきがい 1983
ちょうかん 1983
ほんぶん 1982
まげ 1980
ひょうほん 1979
おき 1978
たはつ 1978
くうちょう 1977
けっきゅう 1977
ライ@@ 1976
こうばい 1973
ａｌ 1973
もとめる 1971
れきし 1971
おく 1970
Ｙ@@ 1970
ｒｏ@@ 1967
ちょくせん 1965
いた 1963
きょくざい 1962
こころ 1962
マーカー 1962
ぶ@@ 1961
けいげん 1956
せいみつ 1955
チタン 1954
そん 1945
ケ@@ 1945
コー@@ 1944
はつねつ 1942
だっ 1940
ｍＲＮＡ 1937
ぜんご 1936
ほこう 1935
アン@@ 1935
おんせい 1933
はっけつ 1933
ふじゅん 1933
バイアス 1933
えむえぬ 1932
アップ 1929
えいちあいぶい 1928
かんがえる 1928
けいぞく 1928
アルミニウム 1927
ぶんきょく 1924
かぶしきがいしゃ 1921
じっそう 1921
すいぶん 1921
かんじょう 1919
しま 1919
マルチ 1918
かいほう 1915
むし 1914
かかわる 1912
にんしん 1912
ばくろ 1910
ひょうてき 1910
コイル 1909
はじめて 1908
２８ 1907
のう@@ 1906
さどう 1904
ぐ 1903
ついせき 1903
なま 1903
ぽん 1902
スト 1901
きょうさく 1899
きしつ 1898
さいしゅ 1898
２６ 1894
いしき 1892
おお@@ 1892
きろぐらむ 1892
けいりょう 1891
ぶん@@ 1891
クリ@@ 1891
はっしん 1889
ナトリウム 1889
３２ 1889
にんげん 1888
ゴ@@ 1888
ｉｓ@@ 1886
ああるえふ 1885
じゅうたく 1885
せいじん 1885
すいへい 1883
ふくじん 1879
にゅう@@ 1878
ターゲット 1875
じゅんい 1874
つかい 1874
せんだん 1872
ぜんれい 1870
ード 1870
だんめん 1867
へいれつ 1866
ｅｔ@@ 1866
しゃりょう 1865
ｉａ 1865
せんしゅ 1864
プレス 1863
きゃど 1861
はけい 1861
けいえい 1859
ひろい 1859
はれ 1858
きんきゅう 1857
たんさく 1857
アルコール 1857
たいけい 1853
シリーズ 1853
しょく@@ 1849
つね 1847
とうきょう 1842
げんご 1841
げんぱつ 1841
ぼう@@ 1841
こうさん 1839
しょうさん 1838
ええじい 1837
なけれ 1835
ユニット 1835
せつだん 1834
ほっさ 1834
じゅうりょう 1833
ｉｄ@@ 1833
くっせつ 1831
６５ 1831
ひしつ 1830
ふせい 1830
しきい 1828
うごき 1825
ｕｒ@@ 1825
ばいたい 1823
しはん 1822
パス 1822
メチル 1822
ップ 1821
４００ 1821
８@@ 1821
ｒ 1821
ぎょうしゅう 1818
せいいく 1815
せきしゅつ 1815
で@@ 1815
まい 1815
レーション 1814
け 1813
でんぱ 1812
いぜん 1811
でんわ 1810
じゅう@@ 1809
ラジカル 1809
７３ 1807
じゅ@@ 1806
りてん 1806
ｅｃ@@ 1806
むせん 1804
てぃい@@ 1802
とくしゅ 1802
９@@ 1801
かえる 1800
けっちょう 1799
どうは 1799
こうしゃ 1796
ゆうり 1796
すい@@ 1793
たそう 1790
えす 1789
せいじゅく 1786
つけ 1786
ほうかい 1786
０@@ 1785
しゃだん 1784
こうきん 1783
ｏｐ@@ 1783
はし 1778
いど 1775
すんぽう 1774
Ｉｎ@@ 1774
ｅｍ@@ 1774
しんとう 1773
わずか 1770
どくりつ 1766
はんえい 1766
パー@@ 1764
かしょ 1761
どうしゅつ 1761
たんのう 1760
げんきゅう 1759
せいやく 1759
どくせい 1759
メモリ 1757
りったい 1755
しょうひん 1754
ひっぱり 1754
ワクチン 1754
ｉｔ@@ 1752
とく 1749
マトリックス 1749
２７ 1749
せきずい 1748
ひまん 1745
ぴい 1745
せいし 1743
キシ@@ 1743
ｅＶ 1743
たけい 1742
ｅｓ 1742
おんきょう 1741
ｌｅ@@ 1741
フ 1740
エン@@ 1739
きょけつ 1738
でぃいしい 1738
しゅうちゅう 1737
しゅとく 1737
はく 1736
ようき 1734
へんすう 1731
コ 1731
みゃく 1730
たかね 1729
± 1728
せきゆ 1725
ｕ 1725
ぶんけん 1724
エコー 1721
てきせい 1717
きろめえとる 1714
Ａｌ@@ 1713
とうさい 1712
はくり 1712
けいい 1709
かき 1705
ぜっとえぬ 1705
けいぶ 1704
とつぜん 1703
はんけい 1700
しょち 1698
せいごう 1697
かべ 1696
じょ 1696
いがく 1695
たいじゅう 1695
ホール 1694
こうき 1692
じいいい 1692
すれ 1692
すいちゅう 1691
ダイオード 1691
ｕｍ 1690
てきごう 1689
ぜんこく 1687
りょう@@ 1687
クラス 1687
あいえすおう 1686
きおく 1686
はつ 1682
よこ 1681
ビタミン 1681
ランダム 1681
せんがん 1680
みりりっとる 1680
かかく 1679
ちかい 1679
ゆか 1679
こうりゅう 1678
ちから 1676
おおかっ 1675
バルク 1673
よそう 1672
じゅうりょく 1671
つれ 1670
１９９８ 1669
けいしつ 1665
ダイ@@ 1663
ケーブル 1662
ント 1660
いがん 1659
おおはば 1659
かかわら 1659
３３ 1657
ふう@@ 1655
ふかけつ 1655
こじん 1652
グラフ 1651
える@@ 1649
１９９９ 1647
きょうせい 1645
さつえい 1644
ｏｃ@@ 1644
いくせい 1643
クラ@@ 1642
ひくかっ 1641
なん@@ 1640
いれ 1637
えすあある 1637
アルカリ 1636
じい@@ 1635
とうぶ 1635
さんしゅつ 1634
ゾ@@ 1633
だい@@ 1629
ぶったい 1629
よてい 1629
すでに 1628
せ@@ 1626
レート 1625
きほう 1624
はいせん 1624
アクセス 1622
じばん 1621
きか 1619
はいい 1619
１１１ 1619
ちょめい 1618
しょうけつ 1614
しんたい 1611
えいちいい 1610
ない@@ 1610
モーメント 1609
５５ 1608
でぃい@@ 1607
けっせつ 1606
３１ 1606
かんご 1603
でん 1602
しゅうそく 1599
かそう 1596
たんか 1596
スイッチ 1596
まわり 1595
ほうしん 1594
ぎ@@ 1593
ｉｓ 1591
タイム 1589
ゆらぎ 1588
たいりゅう 1586
トラ@@ 1585
きゅうおうえる 1581
ひょう@@ 1579
だし 1577
ＭＡ@@ 1577
けっとう 1576
ついか 1574
りゅうさん 1573
たいじ 1572
ふく@@ 1572
ぼうちょう 1572
いいん 1571
へい 1571
ヤ@@ 1571
かんき 1566
にゅうとう 1565
ひょうしき 1565
ひがい 1564
りゆう 1561
ないひ 1558
ひっしゃ 1558
アジア 1556
サ 1556
５３ 1556
しゅうしょく 1555
だとう 1555
ドット 1555
ｏｎ 1555
すいみん 1554
アーク 1552
げ@@ 1547
じょ@@ 1547
じょうぶ 1547
ます 1547
まれ 1546
フォ@@ 1545
４８ 1545
バランス 1544
ダイオキシン 1543
ミクロ 1543
ハイブリッド 1542
えるしい 1541
バ 1537
ぴいええ 1535
ビット 1535
たんどく 1534
しつない 1533
レン 1530
でぃいびい 1528
ｅｄ 1528
おのおの 1527
ひし 1527
もん 1525
ａｇ@@ 1525
かせん 1524
すすむ 1523
ヘッド 1523
ックス 1522
れき 1521
２００１ 1521
さいしん 1520
１０００ 1520
３６ 1520
ＮＡ@@ 1520
じゅ 1519
せきたん 1519
じりつ 1518
ひざ 1516
えんか 1515
こみ 1515
トン 1515
ふくまく 1514
シャ@@ 1511
しょくじ 1510
ギ@@ 1510
せきそう 1509
ドメイン 1509
かいてい 1507
きゅうげき 1507
ひき@@ 1507
ルミネセンス 1507
にちじょう 1506
しきべつ 1504
ニーズ 1503
ｅｓ@@ 1503
えんかく 1501
かわ 1501
ちいさな 1500
なんこつ 1500
ほ 1500
そく@@ 1499
ちゅうしゃ 1499
ぴいえす 1499
けっ 1498
しいぴい 1498
こうさ 1497
えるあい 1496
きど 1496
えんちょう 1493
ええしい 1492
しょほう 1492
よば 1492
えんざん 1491
ながい 1491
ズ@@ 1491
あえん 1490
あっか 1490
ＧａＮ 1487
えすてぃい 1486
０００ 1485
たて 1483
デザイン 1483
３７ 1482
せいてき 1480
つかわ 1480
まもう 1480
こくない 1479
マスク 1479
Ｇａ 1479
きげん 1478
れつ 1478
プレ@@ 1478
ばいち 1477
ｅｎ 1477
びょうげん 1476
こうこう 1475
ししん 1475
ゼ@@ 1474
さいがい 1473
しゅし 1473
にんい 1472
きせつ 1470
チ 1469
きょうゆう 1467
してん 1467
はついく 1467
さく@@ 1465
じん@@ 1465
りゅうそく 1463
ＣＡ@@ 1463
とうめい 1462
みちびい 1462
ふんいき 1461
ビル 1461
かと 1459
てんけい 1459
じてん 1457
どうとう 1457
けいれつ 1456
ざ@@ 1455
たり 1455
Ｓｉ@@ 1455
そうい 1454
かくせい 1453
がいらい 1453
いやく 1452
あし 1451
しょうちょう 1451
ニン 1451
ぜんしゃ 1450
いちよう 1448
ばしょ 1448
ぶんき 1447
トランジスタ 1446
しんにゅう 1445
とうせき 1444
よび 1444
セット 1444
ネット 1443
ぴいびい 1441
インピーダンス 1441
２９ 1441
ええゆう 1439
びいええ 1439
ゆうせん 1439
ケア 1439
カラー 1438
サイ@@ 1438
りょうがわ 1437
スクリーニング 1436
２００２ 1436
スタ@@ 1433
かいり 1432
けいど 1430
しょうへき 1430
ｕｎ@@ 1430
かせつ 1429
らんりゅう 1429
パネル 1428
とうけつ 1425
あな 1424
たんさん 1422
ダイヤモンド 1421
ああるえぬええ 1420
わが 1420
つうじ 1419
ディスプレイ 1419
フィードバック 1419
３４ 1418
じだい 1417
フリー 1416
かくてい 1415
ざ 1415
そと 1415
つうか 1415
ひっす 1415
いんさつ 1414
りん@@ 1414
クローン 1414
ラー 1414
りゅうい 1413
らん@@ 1410
ろう@@ 1410
インスリン 1410
えきがく 1406
ちょうは 1406
でん@@ 1406
あん@@ 1405
ちょくちょう 1405
けんじょう 1399
リウマチ 1399
おす 1398
ふかい 1398
モニタリング 1398
しろ 1397
せっきょく 1397
かかん 1396
せいそう 1396
さいけん 1395
たいいん 1393
しゅくしょう 1390
ちゆ 1389
はんぷく 1388
まったん 1388
やま 1388
どうい 1386
カル@@ 1386
コレステロール 1386
たっし 1384
Ｃｈ@@ 1384
ａｎ 1384
いと 1383
りんせつ 1383
あいあある 1382
しんしゅう 1382
はんばい 1382
びぶん 1382
ｏｄ@@ 1382
そなえ 1381
よわい 1379
ベン@@ 1379
てつどう 1378
わん 1378
メタン 1378
ｅｌ 1378
たてもの 1376
とうろく 1375
えいちぴい 1374
けっかく 1374
みん 1373
めいりょう 1373
あいてぃい 1370
しゅぎ 1370
じょうはつ 1369
ジ 1368
ぬ@@ 1366
はく@@ 1366
キ 1366
スコア 1366
ヤ 1366
ないふく 1365
かいご 1364
きち 1364
みる 1364
ＰＥ 1363
サンプル 1361
レジスト 1361
きゅうにゅう 1359
ふくん 1359
３８ 1359
きしょう 1358
ふれ 1358
よ 1357
ＣＶＤ 1357
アポトーシス 1356
ふう 1355
スイッチング 1355
Ｇａ@@ 1355
こえ 1354
なまり 1354
りゅうかい 1354
ちじょう 1353
さんぶつ 1352
びい@@ 1351
りゅう@@ 1351
ぎがへるつ 1349
グリ@@ 1349
６００ 1347
ミン 1345
いっかん 1344
かち 1344
じゃく 1343
しんり 1342
せっさく 1342
ていしき 1342
どく 1342
シ 1341
ついたち 1338
ロール 1338
つう@@ 1337
えんそ 1336
そうとう 1336
ぶそく 1336
ぐ@@ 1335
ひまく 1335
じゅんかつ 1334
ちょくりゅう 1333
らんそう 1333
げんそく 1332
じんたい 1332
はんてん 1331
ーク 1331
びりょう 1330
かくじつ 1327
えんとう 1325
かんい 1325
シン@@ 1325
ちょうりょく 1324
タービン 1324
ＰＡ@@ 1324
タン 1323
もう@@ 1322
じしゃく 1321
きょうし 1320
くんれん 1320
こく@@ 1319
しんしつ 1319
ニング 1319
かいそう 1318
６４ 1318
かいとう 1317
アプリケーション 1317
かくまく 1315
ノイズ 1315
だん@@ 1314
ｏｔ@@ 1314
こうくう 1312
ｔｅｒ@@ 1312
かいしゃ 1311
オゾン 1311
バイオ 1311
リンク 1311
こっかく 1310
デジタル 1310
かんべん 1309
きり@@ 1309
まま 1308
かいこう 1307
はどう 1307
ふへん 1307
ぶっせい 1307
マイ@@ 1307
ゴム 1305
ひりつ 1304
しめ 1302
ちゅうすう 1302
めっき 1300
ａｐ@@ 1300
いしゅく 1298
えるえすあい 1298
じゅっちゅう 1297
どうでん 1297
トロ@@ 1297
みじかい 1296
２００３ 1296
しゅうふく 1293
ちょくご 1293
かへん 1292
ａｅ 1292
きょだい 1291
はら 1290
ダー 1290
Ａｓ 1290
すすん 1289
そざい 1289
はんそう 1289
１５０ 1289
おくれ 1288
しか 1288
まひ 1287
あか 1286
でぃいえむ 1286
ニューロン 1286
ええでぃい 1285
おうえいち 1283
かふん 1282
へい@@ 1282
みち 1282
レータ 1282
かじつ 1281
じっせき 1281
＜ 1280
いたる 1279
すいさん 1279
ちゃく 1279
５６ 1279
あらわれ 1278
かいしゃく 1278
ろんり 1278
カーボン 1278
とりあつかい 1277
ｕｓ@@ 1277
プラ@@ 1275
がん@@ 1274
じゅうにしちょう 1274
っ@@ 1273
へいさ 1272
ダム 1272
きょうそう 1270
バー 1270
はかっ 1269
オー@@ 1269
ピン 1269
サイトカイン 1268
こえる 1267
たかめる 1267
はいがん 1267
ヘテロ 1267
しゅたい 1266
ＰＥ@@ 1265
ちんちゃく 1264
プレート 1264
しゅつ 1262
まつ 1262
やく@@ 1260
１９９７ 1260
ａｄ@@ 1259
ｖｉ@@ 1259
えむあある 1258
けんたい 1258
さくさん 1258
じょじょ 1258
ねんせい 1258
コラーゲン 1258
ノ 1258
しんか 1256
ごみ 1255
びょう@@ 1255
てぃい 1254
ステ@@ 1254
ティング 1254
あらわす 1253
ひょうひ 1253
ブロ@@ 1253
ティ@@ 1252
４２ 1252
あたっ 1251
きさい 1248
８５ 1248
けんち 1246
しゅちょう 1245
にんしょう 1244
へいかつ 1244
ｕｍ@@ 1244
かいがい 1243
そうてい 1243
はっぴょう 1242
パソコン 1241
ライト 1240
たいひ 1239
えい@@ 1238
ひか 1238
いち@@ 1237
しせい 1237
えきちゅう 1236
すいしつ 1234
すべり 1234
みっ 1234
じゅつしき 1233
ちっか 1233
はたす 1233
トロン 1233
あらわれる 1232
りゅうけい 1232
かいせい 1231
ふよう 1229
りさん 1229
つくる 1228
グラム 1228
ｌｏ@@ 1227
うすい 1225
てぃいええ 1224
マン@@ 1224
スタ 1223
ビジネス 1223
ＳＣ@@ 1223
びい 1222
チャ@@ 1222
そくせん 1221
かいぎ 1220
レビュー 1220
ざい@@ 1219
ほうい 1219
トルク 1219
チャンネル 1218
かいひ 1217
オフ 1215
“ 1214
ようする 1214
ジェット 1214
えいぞう 1213
かいぞう 1213
ずつう 1213
ゆうがい 1213
ｉｍ@@ 1213
いちじるしい 1212
かんしつ 1212
づくり 1212
アメリカ 1212
かでん 1211
だんそう 1211
せいしょく 1210
たんり 1209
じょうか 1207
ＳｉＣ 1207
かながた 1206
ふめい 1206
めがへるつ 1206
れん@@ 1206
メータ 1206
レス 1205
ｖｉｔｒｏ 1205
ゆうかい 1204
ａｔｉｏｎ 1204
ぶもん 1203
いらい 1202
くち 1201
すいしょう 1200
キナーゼ 1200
のうしゅく 1199
エピ 1199
すう@@ 1198
っくす 1194
めす 1194
きょ 1193
せんぐ 1193
ぞう@@ 1193
ぴいぴい 1192
シリカ 1192
えぬえむあある 1191
もれ 1191
ザ@@ 1189
にっ@@ 1188
グ 1188
ラン@@ 1188
＞ 1188
ことなり 1187
ひんけつ 1187
ほしゅ 1187
はんよう 1186
ほかく 1186
ステンレス 1185
プロセッサ 1184
じゅうなん 1183
イメージ 1183
ビデオ 1183
たく 1182
スパッタリング 1182
きろわっと 1181
ック@@ 1181
いんきょく 1180
オ 1179
ゆうぼう 1178
りとく 1178
ろうどう 1176
えええす 1175
たんまつ 1175
レーザー 1175
げんみつ 1174
こうほ 1174
きょ@@ 1173
ーン 1173
ｕｔ@@ 1173
さくてい 1171
ゆうぶい 1171
にち 1169
ッチ 1169
フェノール 1169
７２ 1169
ｏｇ@@ 1169
はいかん 1168
おおきかっ 1167
ＲＳ 1167
ｕｃ@@ 1167
かれい 1166
セメント 1166
ちくねつ 1165
らく 1165
かんこう 1164
ぎほう 1164
わり 1164
うつ 1163
ツ 1163
シング 1162
へ@@ 1160
じかい 1159
ロー@@ 1159
リアル 1158
７７ 1158
らい 1157
しりょく 1156
たいきゅう 1154
えええむ 1153
すいそく 1153
とうし 1153
ゼロ 1153
しんりん 1152
リン@@ 1152
とりょう 1151
める 1151
ちゃくもく 1150
アクチュエータ 1150
さゆう 1149
００１ 1149
ＰＳ@@ 1149
ろか 1148
とくべつ 1147
じょうりゅう 1146
ニウム 1145
しょうりょう 1144
キー 1144
サー@@ 1144
こうへん 1143
たいしょ 1142
ステージ 1141
くみたて 1140
トレ@@ 1140
パッケージ 1140
フレーム 1140
モンテカルロ 1140
５２ 1138
トリ 1137
しいでぃいえぬええ 1136
はいりょ 1136
ｉｇ@@ 1136
５１ 1135
８００ 1135
せいそく 1134
つづい 1134
ウ 1134
ファジィ 1134
コーティング 1133
′ 1132
おこっ 1132
きっこう 1132
べ@@ 1132
みつ 1132
メタノール 1132
レット 1131
えんしん 1130
ひよう 1130
アルミナ 1130
ぎょ 1129
てぃいあある 1129
３９ 1128
エタノール 1127
ＩＦＮ 1127
かくとく 1126
きんにく 1126
しょうきゃく 1126
じゅうみん 1126
だっ@@ 1126
こうぐ 1124
じっそく 1124
へいほうせんちめえとる 1124
２０@@ 1124
けんしん 1123
クション 1123
せつどう 1122
もたらす 1122
カラム 1122
あいえす 1121
かわり 1120
ケース 1120
エチレン 1119
しけつ 1118
つかう 1117
６３ 1117
あつみ 1114
みっせつ 1113
がいしょう 1112
きしゅ 1112
くみかえ 1112
こうまく 1112
１９９０ 1112
ＴｉＯ 1112
かた@@ 1111
にゅうがん 1111
１１０ 1111
しいしい 1110
じいええ 1110
そとがわ 1110
けいそ 1108
ちょうこう 1108
ぴいえる 1108
みいださ 1108
いわ 1106
えい 1106
ひしん 1105
ぎょ@@ 1104
へん@@ 1104
こてん 1103
とうき 1103
π 1102
だす 1102
しゅうかく 1101
グルコース 1101
ＥＬ 1101
ｖ 1100
っと 1099
せきつい 1097
アンモニア 1097
ぜんりつ 1096
わたっ 1096
インバータ 1096
Δ 1095
えすしい 1095
ごうり 1095
エピタキシャル 1095
そしょう 1094
まし 1094
かんけつ 1093
へんたい 1093
９９ 1092
ｊ@@ 1091
エステル 1090
９５ 1090
こうとう 1089
クト@@ 1089
グラ@@ 1089
ｅｄ@@ 1089
Ｌｉ@@ 1088
４３ 1087
とる 1086
にょうちゅう 1084
ふんごう 1083
みな@@ 1083
５４ 1083
Ｓｅ 1083
こうけん 1082
はしら 1082
きんしゅ 1081
６７ 1081
ぷ 1080
てきとう 1079
’ 1078
ふしゅ 1078
ズ 1078
かっ 1077
ッド 1076
ちゅうし 1075
ヘルニア 1075
けえ 1074
そくめん 1074
せっ@@ 1073
かみ 1072
きょよう 1072
ちんつう 1072
ようきょく 1072
Ｂｉ 1072
とりつけ 1071
フラックス 1071
げんち 1070
つばさ 1070
とりこみ 1069
かいすい 1068
ちゅうどく 1068
ｑ 1068
ゲージ 1067
ｒｉ@@ 1067
かんりゅう 1065
まったく 1065
ション 1065
おんだん 1064
きり 1064
わたる 1064
Ｃｏ@@ 1064
５８ 1063
じくうけ 1062
トラップ 1062
ａｂ@@ 1062
たいでん 1061
ドナー 1061
イド 1059
ちょうわ 1058
アーキテクチャ 1058
ウェ@@ 1058
こうばん 1057
ひろがり 1057
スパッタ 1056
ざひょう 1055
せいでん 1055
かいき 1053
りゅうしゅつ 1053
メーカ 1052
びょうき 1051
れい@@ 1051
ｚ 1051
とうしゃ 1050
フロ@@ 1050
ていせい 1049
ノズル 1049
モデリング 1049
うたがわ 1048
でぃいえす 1048
プロトコル 1048
ざんぞん 1047
めん@@ 1047
フォト 1047
まっ 1046
カテーテル 1045
Å 1044
なさ 1043
レン@@ 1043
へいたん 1042
きょうぞん 1041
じそく 1041
しる 1039
ずい 1039
ほっかいどう 1039
モ 1038
えすえす 1037
すいじゅん 1037
にんち 1037
ひきおこす 1037
インフルエンザ 1037
ぴいいいてぃい 1036
ほうりゅう 1036
６６ 1036
ＲＡ@@ 1036
はつがん 1035
ついで 1034
ぴいあある 1034
かぎゃく 1033
はいせつ 1033
ふあん 1033
いいでぃい 1032
ＴＥ@@ 1031
きつえん 1030
けた 1029
クリープ 1029
リー@@ 1029
しや 1027
とおり 1027
ぎょうせい 1026
こむ 1026
みぎ@@ 1026
アニール 1025
おこし 1024
きんせつ 1024
さつ 1024
びいぴい 1024
１４@@ 1024
さいてい 1023
せき@@ 1023
ナー 1023
ｉｃ 1023
おうべい 1022
ししょう 1022
バイ@@ 1022
かいしつ 1020
インシュリン 1020
５７ 1020
６１ 1020
おこり 1019
ＰＴ@@ 1019
なお 1018
ふん 1018
ｔｈ@@ 1018
えんさん 1017
けいひ 1017
かんこく 1016
きも 1016
６２ 1016
ようしき 1015
いっ@@ 1014
じんぞう 1014
ふくし 1014
れいとう 1014
だんねつ 1013
つぎて 1013
けっせき 1012
けつぼう 1012
ｉｆ@@ 1012
かげ 1011
４４ 1010
９８ 1010
えいどう 1009
４６ 1009
きそう 1008
ミトコンドリア 1008
ゆがみ 1007
プリ@@ 1007
かわる 1006
くう 1006
ＧＨ 1006
ハイ@@ 1005
あある 1004
こくえん 1004
マルチメディア 1004
ワイヤ 1004
ＣＡ 1004
もた 1003
Ｎｂ 1003
たいこう 1002
くうどう 1001
うぇぶ 1000
げんてい 1000
しめる 1000
ベンゼン 1000
いま 999
４７ 999
じしょう 998
やや 998
はたし 997
イソ@@ 997
いたみ 996
えすおう 996
アル@@ 996
シミュレータ 996
ざん 994
ヒート 994
ール@@ 994
ぬ 993
はやい 992
ぶざい 992
がっこう 991
とじこめ 991
あつでん 990
リチウム 990
ていき 989
ゆうせい 989
れん 989
まだ 988
りゅうつう 988
アナログ 988
アミン 987
ＳＡ@@ 987
せんざい 986
ジャ@@ 986
せんよう 985
ぼうぎょ 985
やせい 985
ンド 985
えふしい 984
けんま 984
ごう@@ 984
した@@ 984
しつど 984
たんじゅう 984
たしかめ 983
１９９６ 983
えむしい 982
わくぐみ 981
サーバ 981
しっ@@ 980
アル 980
ぎゅう 979
くうこう 979
じかく 979
たいねつ 979
はしゅ 979
ひだい 979
１９９５ 979
Ａｓ@@ 979
ゲ@@ 978
いいしい 977
こうあん 977
しょくもつ 977
つくっ 977
ずれ 976
１２０ 975
ング 974
くふう 973
ぜったい 973
だぶりゅう@@ 973
せいふ 972
けいじ 971
しょうずる 971
４１ 971
ＳＴ 971
たいしん 970
６８ 970
ＳＴ@@ 970
いちれん 969
なんぶ 967
ボール 967
もうけ 966
マイシン 966
ＲＰ 966
でぃいぴい 965
コミュニケーション 965
いったい 964
ていしょう 964
はやく 964
おこす 963
コンパクト 962
めぶ 961
モニタ 961
あぶら 960
しゅくしゅ 960
Ｍｏ 960
げんじつ 958
ぞうけつ 958
ティ 958
ないぞう 957
ポリエチレン 957
とっき 956
かいすう 955
ようせき 955
みえ 954
よく@@ 954
ニ 954
こうそう 953
Ｔｈ 953
あつ@@ 952
しゅうりつ 952
とっきょ 952
へいばん 952
まる 952
こうちゅう 951
びん 951
ふうりょく 951
ぶんぱい 951
ぽう 951
ＩｇＧ 951
こうぼ 950
じゅうとく 950
じゅんすい 950
グル@@ 950
ソース 950
７８ 950
ｅｐ@@ 950
→ 949
えいち@@ 949
ブル 948
ちてん 947
もぎ 947
キャ@@ 947
レー@@ 947
だっすい 946
はんだ 946
しんでん 945
ようこ 945
りゅうにゅう 945
ろく 945
コンセプト 945
ニッケル 945
えんけい 944
わたり 944
ダウン 943
ＣＴ@@ 943
ＰＩ 943
だいすう 941
ディング 941
ノン 941
ブラ@@ 941
ＨＣＶ 941
テーマ 940
Ｃａ@@ 940
プリント 939
δ 938
ああるしい 938
さんかく 938
エージェント 938
かいせん 937
のび 937
プル 937
５９ 937
あつえん 936
ざいたく 936
へんせん 936
Ｓｎ 936
いいえす 935
ふまえ 935
やすく 935
カリウム 935
てっ@@ 934
かんじ 933
りょうせい 933
しいく 932
きあつ 931
だか 931
ｅｇ@@ 931
バー@@ 930
ｉｒ@@ 930
おうえす 929
おでい 929
こうえん 929
しいえふ 929
フェイス 929
さいし 928
カオス 928
クリーン 928
ぷ@@ 927
セン@@ 927
あっ@@ 926
きめ 926
こきゃく 926
けいかい 925
しょうわ 925
ｉｂ@@ 925
ひけん 924
ショック 924
ゆけつ 923
きおう 922
れっしゃ 922
ホーム 922
Ｆｅｒｍｉ 922
ごく 921
たいへい 921
ほきょう 921
チェ@@ 921
； 921
でぃい 920
れんけつ 920
ぴいぴいえむ 918
ふんたい 918
ノール 918
ええてぃいぴい 917
ふたん 917
あげる 916
めい@@ 916
ドーピング 916
ａｔｉ@@ 916
りかん 915
スポット 915
ソーム 915
こおり 914
われわれ 914
ターゼ 914
こべつ 913
セキュリティ 913
いろいろ 912
ぎん 912
けいかん 912
えぬおうえっくす 911
くらい 911
ゆにゅう 911
エッジ 911
いおう 910
おうだん 909
かいいき 909
こうい 909
せいめい 909
ニア 908
パー 908
レ 908
ひょうそう 907
ぼうこう 907
むげん 907
メ 906
いいあある 905
かんしん 905
せいさ 905
アトピー 904
コン 904
くっさく 903
フェライト 903
てんそう 902
リア 902
ーズ 902
ヨ@@ 901
かいさい 900
たいない 900
のぞましい 900
せんてん 899
そうちゃく 899
じす 898
プロ 898
ＣＮ@@ 898
ＳＩ@@ 898
ｏｌ 898
はっき 897
ウシ 897
フォノン 897
ずがい 896
スペース 896
きょくげん 895
へんぺい 895
えすびい 894
はっ@@ 894
れんさ 894
オブジェクト 894
へいほうめえとる 893
カード 893
７１ 893
かんかい 892
じゅん@@ 892
ラム 892
ぜんてい 891
とうたつ 891
せまい 890
どくじ 890
スラグ 890
タクシー 890
ＰＳ 890
じゅんび 889
ニュー@@ 889
ピッチ 889
しゃへい 888
だいのう 888
しんぼう 887
Ｃｄ 887
ほそく 886
ター@@ 886
１８@@ 886
ざんき 885
しばしば 885
じりょく 885
ひがし 885
ＰＣ@@ 885
あろう 884
すいとう 883
かりゅう 882
そうしん 882
がく@@ 881
ぱすかる 881
スキ@@ 881
マシン 881
メント 881
Ｎｄ 881
きたし 880
しょうのう 880
ニューラル 880
Ｆｅ@@ 880
ＭＡ 880
こうきょう 878
ずし 878
げすい 877
みどり 877
バス 877
ライフ 877
きろ@@ 876
にゅうさん 876
うたがい 875
ファイル 875
Ｌａ 875
Ｚｒ 875
とそう 874
スルー 874
きしゃく 873
こうかい 873
こっか 873
さんこう 873
ほうさく 873
がしゅ 872
しょしん 872
ないまく 872
のぞま 872
ＭＰａ 872
そうじょう 871
ないしょう 871
がんめん 869
たんどう 869
インタ 869
キサ@@ 869
チェック 869
２５０ 869
あまり 868
えすええ 868
すうがく 868
シミュレート 868
うちがわ 867
せんろ 866
ばい@@ 866
ボ 866
モノ@@ 866
でぃいええ 865
われ 865
７４ 865
Ｓｔ@@ 865
じゅうじつ 864
すいろん 864
たちば 864
ほうごう 864
きょくせい 863
けつ@@ 863
なが@@ 863
きんしつ 862
こっとう 862
ポリマー 862
ＭＥ@@ 862
ラーゼ 861
じはつ 860
・@@ 860
ｉｕｍ 860
しやく 859
ショ@@ 859
モル 859
４９ 859
しゃくど 858
カチオン 858
えふええ 857
むずかしい 857
コンデンサ 857
もる 856
あて 855
マネジメント 855
しつもん 854
たまき 854
デ 854
いせい 853
ぜんぽう 853
よぶ 853
あいえ@@ 852
かいにゅう 852
キング 852
スーパー 852
こども 851
ノード 851
たち 850
みまん 850
マーク 850
しょくせい 848
たがい 848
タル 848
ラン 848
さっきん 847
ＴＥＭ 847
ぶんしょ 846
えむてぃい 845
びいあある 845
りそう 845
へるつ 844
かかる 843
じいしい 843
ぴいえむ 843
クロマトグラフィー 843
くみ 842
とういつ 842
やかん 842
ザ 842
メッシュ 842
してい 841
パケット 841
＊ 841
かいてき 840
ついきゅう 840
ほかん 840
サポート 840
あたらしく 839
くる 839
アイ@@ 838
きおん 837
そうきょく 837
ｎｅ@@ 837
おく@@ 836
たんたい 836
チオ@@ 836
ａｒ 836
エンド 835
ネ 835
なえ 834
グロブリン 834
タンク 834
６９ 834
いい 833
さしつ 833
すくなかっ 833
にゅうぼう 833
まい@@ 833
きんえん 832
せひ 832
ぶい@@ 832
ケット 832
しめ@@ 831
ぼうじょ 831
７６ 831
Ｂａ@@ 831
いいゆう 829
ばいしつ 829
りがく 829
がくせい 828
ぎょうしゅく 828
ぞうあく 828
たりょう 828
おおさか 827
ずみ 827
ていする 827
べ 827
シス 827
ゾール 827
しんわ 826
じゅんど 826
たとえば 826
はくしょく 826
ｔｉｏｎ 826
とくはつ 825
チーム 825
ＰＡ 825
がら 824
フィールド 822
プロフィル 822
レンジ 822
ｓｏｎ 822
うし 821
たんさ 821
きゅうきゅう 820
べん@@ 820
１９９４ 819
えんばん 818
たまご 818
もくざい 818
バイオマス 818
ファミリー 818
はは 817
ジェ@@ 817
ボイラ 817
とい 816
びいえす 816
きゃく 815
きゅうきん 815
ちょっこう 815
てぃいえむ 815
コヒーレント 815
マー 815
えんちゅう 814
ながく 814
コントラスト 814
あいでぃい 813
うち@@ 813
たね 813
まち 813
あらわし 812
かきょう 812
すいおん 812
でぃいえふ 812
ねん@@ 812
ッピング 812
おん@@ 811
しんし 811
シクロ@@ 811
ようしゅつ 810
マクロファージ 810
おんそく 809
からだ 809
スチ@@ 809
マクロ 809
メリット 809
７９ 809
ＮＡ 809
たいしょく 808
でんり 808
カー 806
ルー@@ 805
はたらく 804
ＲＩ@@ 804
ちけい 803
みたす 803
メーカー 803
くわえる 802
０１ 802
ＩｎＰ 802
ちょうえん 801
メン@@ 801
しんぴ 800
なか@@ 800
ジュ@@ 800
ＥＳ@@ 800
たいじょう 799
のぞい 799
アニーリング 799
マン 799
こうもん 798
なんち 798
はいごう 798
ティブ 798
７００ 798
ＳＳ@@ 798
えぬしい 797
ｓｐ@@ 796
きゅういん 795
じゅせい 795
ｐｌ@@ 795
かよう 794
しぼり 794
しき@@ 793
とち 793
シー 793
フィン 793
ムシ 793
ロバスト 793
かんよう 792
とりいれ 792
びょうそう 792
ケ 792
バルブ 792
ｉｐ@@ 792
かっ@@ 791
きりかえ 791
ちょく@@ 791
バッファ 791
ていち 790
ほんしつ 790
もじ 790
かぎら 789
きょうやく 789
しょぶん 789
じたい 789
はれつ 789
へんさ 789
ガ 789
センタ 789
ａｓｅ 789
えいちええ 788
たかめ 788
まき 788
プロトン 788
ＡＣ@@ 788
ビ 787
おうええ 786
しいもす 786
えんがん 785
アルゴン 785
ぐち 784
けっ@@ 784
しんど 784
ほしゅう 784
フル@@ 784
ＨＥ@@ 784
こうしき 783
りっぽう 783
きんい 782
じっせん 782
すすめる 782
せいりつ 782
ぎゃくりゅう 781
けんだく 781
しごと 780
せきえい 780
ファン 780
ＮＨ 780
あれ 779
タン@@ 779
ーリング 779
りょうぐん 778
ベクター 778
くべつ 777
せむ 777
ちゅうぞう 777
スペ@@ 777
セルロース 777
げり 776
ＮＦ 776
かぎ 775
しょうたい 775
すいぎん 775
せいまく 775
しゅっしょう 774
マップ 774
かいちょう 773
こよう 773
もんみゃく 773
ドロ@@ 773
ルール 773
０５ 773
しいえいち 772
ぴいえふ 772
クタ 772
シー@@ 772
ＭＣ@@ 771
Ｔｅ 771
インド 770
ε 769
みとめる 769
カン@@ 769
いっそう 768
たて@@ 768
にく@@ 768
はんしょく 768
カー@@ 768
ｓｔ@@ 768
えふてぃい 767
ぎょかく 767
じい 767
ていあつ 767
べい 767
こうがい 766
ちいさかっ 766
ジストロフィー 766
ＡＮ@@ 766
とくゆう 765
ニック 765
フェニル 765
えきてき 764
づ@@ 764
あつかう 763
えすえぬ 763
ハードウェア 763
ｌｅ 763
ああるてぃい 762
ひりょう 762
やくり 762
ホット 762
こういき 761
ほんたい 761
さける 760
しいえええむ 760
メディア 760
ｉｎｅ 760
えすぴい 759
てんけん 759
ｉｌｌ@@ 759
ひばく 758
ふくよう 758
オープン 758
ａｋ@@ 758
かんさ 757
しいしいでぃい 757
せんしん 757
だえん 757
てぃいえす 757
ドライ 757
ポリマ 757
こし 755
すいけい 755
サイド 755
プロファイル 755
リソグラフィー 755
ころ 754
しいえむ 754
ふうそく 754
ＡＦＭ 754
ＰＩ@@ 754
かっこく 753
しょうどく 753
そうでん 753
ふくやく 753
まり 753
セラミックス 753
ラミ@@ 753
ｖｉｖｏ 753
きょうみ 751
さらなる 751
しゅかん 751
てぃいぶい 751
ゆうえき 751
ッシュ 751
ＲＥ@@ 751
かくしん 750
たば 750
ふせぐ 750
タイ 750
くい 749
オーバ 749
ンス 749
ａｎｓ 749
ｋＶ 749
かいぼう 748
コントローラ 748
ランプ 748
ＣＯ@@ 748
えむぴい 747
しっぺい 747
ちゃく@@ 747
ナーゼ 747
ＩＣ@@ 747
ええぴい 746
こくふく 746
だんぺん 746
やくだつ 746
ｅｌｌ@@ 746
アルブミン 745
えきそう 744
ねつてき 744
アミド 744
ドイツ 744
きぐ 742
くかん 742
せきにん 742
ミ 742
ぴいえ@@ 741
ぶんべん 741
ＬＩ@@ 741
かならず 740
かびん 740
こつばん 740
さくもつ 740
アニオン 740
ＭＯＳＦＥＴ 740
ＴＳ 740
えいきゅう 739
ぎょう@@ 739
くいき 739
こうさく 739
ぱ@@ 739
ｐｅｒ@@ 739
σ 738
すいわ 738
００@@ 738
ＺｎＯ 738
おうしゅう 737
くすり 737
かり 736
しいあい 736
せいご 736
ろこう 736
イル 736
ミラー 736
メチル@@ 736
みなおし 735
よれ 735
アラ@@ 735
ける 734
ふっそ 734
とらえ 733
ふつう 733
ヌクレオチド 733
サンプリング 732
トランス 732
カプセル 731
ＰＭ@@ 731
じゃくねん 730
ｏｒ 730
ｕｂ@@ 730
えるしいでぃい 729
きょくめん 729
きんし 729
バック 729
いかに 728
さんてい 728
へらす 728
ｙｌ@@ 728
えすえふ 727
けってん 727
ちてき 727
ＩｇＥ 727
ＰＬ@@ 727
きょうごう 726
さんしょう 726
ビン 726
ＩＩ@@ 726
ふん@@ 724
ープ 724
えき@@ 723
かっしょく 723
げんこう 723
エストロゲン 723
ダニ 722
ｋｅＶ 722
じんせい 721
ソー@@ 721
ｅｎｔ 721
ふゆう 720
ようちゅう 720
＆ 720
おんぞん 719
アクリル 719
シールド 719
ジア@@ 719
かぎり 718
ぼうさい 717
らせん 717
コンダクタンス 717
テレビ 717
かせい 716
しょうめつ 716
やぐ 716
Ｂｒ@@ 716
ねんえき 715
いかし 714
ざん@@ 714
ＨＡ@@ 714
いいてぃい 713
おんな 713
たんき 713
いんえい 712
たっする 712
ＭＰ@@ 712
ぞくする 711
ねつげん 711
２００４ 711
えぬてぃいてぃい 710
ようつい 710
アルキル 710
やさい 709
ギ 709
さぶん 708
すいりょく 708
つい@@ 708
どうしゃ 708
オキシ@@ 708
ガイド 708
ルーム 708
ＭＯ@@ 708
ＰＯ@@ 708
μｇ 707
あっぱく 707
げんきょう 707
とうほう 707
ましん 707
マー@@ 707
ｏｂ@@ 707
おさえ 706
しくみ 706
つくら 706
てんとう 706
ぶんあつ 706
てんてき 705
エントロピー 705
９６ 705
ＬＡ@@ 705
せいほう 704
せんし 704
ぜんき 704
ほうそ 704
ＳＴＭ 704
かたい 703
ぶた 703
λ 702
しょうえね 702
はんすう 702
ふかつ 702
しし 701
しゅく 701
すいさつ 701
びんかん 701
ゆび 701
しんぱく 700
じゃっかん 700
じゅうじ 700
ふんりゅう 700
シル 700
タイミング 700
バリ@@ 700
こうう 699
ないか 699
にょう@@ 699
ゆえき 699
ミリ 699
８８ 699
ａｎｇ@@ 699
おや 698
エンジニアリング 698
マルチ@@ 698
こうろ 696
つくり 696
シール 696
ｐ‐ 696
ｗ 696
ばん@@ 695
アクティブ 695
モニター 695
ｉｄ 695
あやまり 694
のうやく 694
ロジー 694
Ｔａ 694
たんすい 693
どりょく 693
ろうじん 693
パラ@@ 693
かんげき 692
じいえ@@ 692
ちょりゅう 692
ボード 692
いびつ 691
ヘリウム 691
ちしつ 690
ぱつ 690
みつ@@ 690
プレ 690
きいろ 689
だっちゃく 689
つづく 689
ほじょう 689
Ｌａ@@ 689
じじつ 688
とりひき 688
あつめ 687
うんえい 687
きゅうじょう 687
しあげ 687
にくしゅ 687
ふくつう 687
ぼ 687
ゆき 687
イネ 687
クロム 687
テン 687
いり 686
かんがん 686
ぴいぶい 686
ふかく 686
ＭｇＯ 686
なつ 685
ふんむ 685
ヒステリシス 685
Ａｒ@@ 685
うめこみ 684
しかん 684
ちゅうすい 684
ふうりえ 684
きゅうこう 683
たかまっ 683
つづけ 683
９３ 682
ｔｉｃ@@ 681
ふくせい 680
せつりつ 679
ん@@ 679
パイプ 679
けんてい 678
ごうけい 678
ぜんめん 678
アク@@ 678
ゴ 678
１９９３ 678
ＤＳ 678
しも 677
はじまっ 677
ほんしょう 677
けんしゅう 676
じち 676
ひろ@@ 676
ゾル 676
トラヒック 676
じょうちゅう 675
てっこう 675
イメージング 675
グルタミン 675
はさい 674
ろしん 674
グラフィー 674
ハウス 674
８６ 674
ＴＮＦ 674
ぴいぜっとてぃい 673
キシン 673
クト 673
マイクロ@@ 673
おこなえる 672
くぶん 672
ふえ 672
ビリティ 672
Ｃｒ@@ 672
はな@@ 671
うん 670
えんちょく 670
きはつ 670
しゅうし 670
しょうすう 670
じゅしょう 670
エン 670
フォト@@ 670
ＰＤ 670
しょうにん 669
びし 669
ぼうすい 669
むね 669
ゆあつ 669
テープ 669
たいせつ 668
むこう 668
りゅうこう 668
わっ 668
ＴＰ 668
ねったい 667
ソン 667
ビニル 667
こくりつ 666
じけん 666
ほんやく 666
ｙｎ@@ 666
すいそう 665
ふんさい 665
ソ 665
かお 664
もたらし 664
ビジョン 664
さいどう 663
しゃめん 663
だんじ 663
ＥＳＲ 663
しみん 662
とふ 662
バリア 662
ヒドロキシ 662
ブリ@@ 662
あんか 661
エア 661
ーゼ 661
ふのう 660
エチル 660
デン@@ 660
プロテアーゼ 660
メンテナンス 660
ＥＣ@@ 660
きょくぶ 659
じぇえ@@ 659
にんてい 659
よこ@@ 659
レーダ 659
あき 658
しんぶ 658
にせ 658
たま 657
ちんでん 657
のうか 657
あみ 656
すがた 656
そん@@ 656
ウエ@@ 656
あつい 655
いご 655
うわ@@ 655
くさり 655
したがい 655
ゼオライト 655
ディーゼル 655
ータ 655
ＰＣ 655
えんい 654
かざん 654
こな 654
しょかい 654
てぃいえいち 654
ぼく 654
ダイナミック 654
プット 654
ＣＨ@@ 654
ねじ 653
はつが 653
シラン 653
ＰＤ@@ 653
こんにゅう 652
そすい 652
はいじょ 652
じむ 651
とうおん 651
わる 651
キュ@@ 651
ｔｅｒ 651
ええてぃい 650
びょうせい 650
グリーン 650
マニュアル 650
たか@@ 649
もち@@ 649
りゅうか 649
オリ@@ 649
おと 648
りゅうど 648
カイ@@ 648
ピング 648
えいちえふ 647
きた 647
きょく@@ 647
じゅんじょ 647
びょうけい 647
しだい 646
じょうげ 646
ぜ@@ 646
とうにゅう 646
ｔｏ@@ 646
おか 645
きろへるつ 645
そうどう 645
でんねつ 645
はんぶん 645
ほうふ 645
コンテンツ 645
えいちじい 644
のこり 644
ふくすい 644
まど 644
グラフィ 644
ソリトン 644
リハビリテーション 644
いいえむ 643
えるぴい 643
くっきょく 643
しょうほう 643
せいてい 643
りゅうち 643
ヒドロ@@ 643
Ｐｈ@@ 643
ｑｕ@@ 643
えるいいでぃい 642
おうと 642
かんりょう 642
だんじょ 642
ぼうけん 642
ゾーン 642
ミクロン 642
リード 642
８３ 642
ｓｃ@@ 642
ああるあい 641
かさい 641
しんせん 641
アーゼ 641
そうぎょう 640
ついかん 640
どくそ 640
ろうか 640
パッチ 640
かっぱつ 638
けっこう 638
じねつ 638
スカ@@ 638
ハイ 638
じっしつ 637
だんぼう 637
ていしゅつ 637
セグメント 637
かちく 636
くみ@@ 636
しゅっか 636
そうせい 636
ちゅうかく 636
サーボ 636
スタチン 636
Ｍｏ@@ 636
≦ 635
しるし 635
ちゅうとう 635
ほゆう 635
もうさい 635
ようし 635
イレウス 635
こっ@@ 634
さつぞう 634
ほうる 634
ジング 634
きょうりょう 633
しく 633
こうせん 632
シュ@@ 632
プログラミング 632
８４ 632
ｙｓ@@ 632
いっか 631
めざす 631
ようご 631
ウサギ 631
ＧＡ 631
Ω 630
しんがた 630
たんとう 630
ちゃ@@ 630
にっすう 630
テレ@@ 630
こうふく 629
しんしゅつ 629
てっきん 629
みんかん 629
カット 629
えすでぃい 628
きょうと 628
スポーツ 628
ｓｐ 628
しゅりゅう 627
しょとう 627
すみやか 627
クロ 627
くも 626
さだめ 626
りゅうき 626
れいじ 626
スギ 626
タンパク 626
くう@@ 625
しざい 625
づける 625
はいでん 625
アミロイド 625
ドリフト 625
フル 625
Ｃｏｕｌｏｍｂ 625
しつ@@ 624
シド 624
スケ@@ 624
トランス@@ 624
リズム 624
うん@@ 623
けいき 623
ようざい 623
コール 623
ＨＳ@@ 623
こうぶつ 622
っき 622
ＥＮ@@ 622
ＦＡ@@ 622
かあつ 621
ヌ@@ 621
かぜ 620
かど 620
こんちゅう 620
さんぷ 620
はぐるま 620
ほにゅう 620
０２ 620
えすえむ 619
きゅうめい 619
こうがん 619
トラブル 619
うったえ 618
かいごう 618
かそ 618
ちひょう 618
ふよ 618
１８０ 618
きざい 617
すぎ 617
ひきおこさ 617
もと@@ 617
バイパス 617
マグネシウム 617
８２ 617
Ｇｌ@@ 617
ちず 616
ッキング 616
ノイド 616
ＢＰ 616
おそい 615
きんりょく 615
つながる 615
はがね 615
ひん@@ 615
ふくそ 615
みじかく 615
アルデヒド 615
スキーム 615
ぜんてき 614
はな 614
えすいい 613
しょうよう 613
みず@@ 613
シリ@@ 613
スター 613
ｅｎｓｉｓ 613
きょうぎ 612
しゅびょう 612
じいぴいえす 612
クス 612
おんしつ 611
たほう 611
てぃいえ@@ 611
サン@@ 611
いけい 610
にょうそ 610
クローニング 610
おもみ 609
かわ@@ 609
てき@@ 609
みかけ 609
ようてん 609
センス 609
ノル@@ 609
プレドニゾロン 609
えらいざ 608
えるでぃい 608
けえ@@ 608
クロス 608
あく@@ 607
ええええ 607
げ 607
じぜん 607
ひだり@@ 607
めがわっと 607
りゅういき 607
ｏｐｈ@@ 607
おきなわ 606
ちょうかく 606
りれき 606
４５０ 606
ＭＩ@@ 606
あら@@ 605
じょじ 605
どうちょう 605
アニ@@ 605
ハン@@ 605
バイオ@@ 605
プライ@@ 605
ｅｎｔ@@ 605
きけい 604
サイクロトロン 604
シナプス 604
トップ 604
ナイト 604
レジ@@ 604
ＢＡ@@ 604
えむええ 603
しいええ@@ 603
たいすう 603
でぃいあある 603
ぷんかん 603
アレルゲン 603
アンモニウム 603
クォーク 603
サー 603
みとおし 602
カバー 602
あいええ 601
きたす 601
せいちゅう 601
アロ@@ 601
スケーリング 601
トラック 601
９４ 601
ＡＬ@@ 601
いな 600
うす 600
ちゃ 600
でぃいえ@@ 600
ーション 600
えむえる 599
ぎょぎょう 599
じゅきゅう 599
ばくはつ 599
ｅｂ@@ 599
いぶつ 598
かかわり 598
ｕｇ@@ 598
サブユニット 597
たいりょく 596
ロック 596
ｉｚ@@ 596
いえる 595
ええてぃいえむ 595
しょうせい 595
やま@@ 595
エッチ 595
オイル 595
スピ@@ 595
ニル 595
ロード 595
ｅｌｌａ 595
いちじ 594
きびしい 594
すいでん 594
たんし 594
タイ@@ 594
ａｎｃ@@ 594
がいこく 593
しょん 593
せっぺん 593
たいか 593
いき@@ 592
だえき 592
コロニー 592
シンクロ 592
マグ@@ 592
ろん@@ 591
ああるえいち 590
かけい 590
ちょうふく 590
にくい 590
スポ@@ 590
センシング 590
ダイ 590
トマト 590
κ 589
びょうしゅつ 589
びょうとう 589
ぶんかく 589
エポキシ 589
リティ 589
きゃっかん 588
くるま 588
とうしょ 588
コロナ 588
ランド 588
８７ 588
えいちえるええ 586
だて 586
Ｃｌ 586
しいああるぴい 585
まくちゅう 585
ｅｔ 585
いけん 584
いんとう 584
びいしい 584
ようやく 584
ねっ@@ 583
ＸＰＳ 583
えるえす 582
とうじ 582
のうどう 582
ＰＰ@@ 582
ＳＨ@@ 582
けいゆ 581
じつれい 581
ていけい 581
はだん 581
むすび@@ 581
インターフェロン 581
かるい 580
がんきゅう 580
ようしつ 580
わりあて 580
ブレーキ 580
しんしゅ 579
グラフト 579
１９９２ 579
えむあい 578
きりゅう 578
しゅだい 578
とりくん 578
サブ@@ 578
ドレイン 578
ット@@ 577
きぼう 576
しんそう 576
じゃっき 576
ぞうせい 576
ちたい 576
ばっ@@ 576
リニア 576
じゅうし 575
ちり 575
ドリ@@ 575
たもつ 574
べく 574
ＣＣ@@ 574
かみなり 573
くす 573
むら 573
ｍｓ 573
あんごう 572
じゅうでん 572
せんゆう 572
たいべつ 572
っこう 572
ほじゅう 572
みや@@ 572
かくらん 571
きゅうぞう 571
げき 571
どり 571
ふうどう 571
ほそせん 571
ようけん 571
れいばい 571
ガンマ 571
ソフトウエア 571
ネート 571
パン 571
えるびい 570
くみこん 570
ちょくれつ 570
どうしゅ 570
ミング 570
ＭＰ 570
Ｓｈ@@ 570
いまだ 569
おぶ 569
かいしょう 569
かえん 569
こうはい 569
ストリング 569
ポート 569
ｉｎｇ@@ 569
あく 568
いす 568
えるええ 568
はんべつ 568
ほそう 568
マッピング 568
じんえん 567
じんしょう 567
すいぞう 567
ふんしゃ 567
アナ@@ 567
クラスター 567
サージ 567
ヒスタミン 567
ュー@@ 567
ｙｃ@@ 567
るいせき 566
９７ 566
ＤＣ@@ 566
Ｐｒｏ@@ 566
すいあつ 565
たいわ 565
ぴいじい 565
８１ 565
うつ@@ 564
がる 563
たまかず 563
どく@@ 563
のぞく 563
ふっか 563
ふるまい 563
ろしゅつ 563
インター@@ 563
チル 563
ドル 563
ｅｒｍ@@ 563
いえん 562
しんすい 562
はんたい 562
らっか 562
ノックアウト 562
ＬＤ@@ 562
ｏｍａ 562
あわ 561
いちに 561
ええいい 561
かいざい 561
こうご 561
こつ@@ 561
しょうきょ 561
フィラメント 561
ＶＰ 561
えむでぃい 560
しすてむ 560
じゅうだい 560
ただしい 560
ちゅうぶ 560
ダーゼ 560
きゅうしん 559
きゅうすい 559
こうすい 559
センサー 559
ドレナージ 559
かいかく 558
くせい 558
けいれん 558
こつざい 558
そうほう 558
はんきゅう 558
もしくは 558
シア@@ 558
１９８０ 558
Ｃｅ 558
いしゅ 557
ちん@@ 557
わく 557
ゾ 557
とりまとめ 556
みちびく 556
ようほう 556
ヨーロッパ 556
ＰＲ@@ 556
ｙｐ@@ 556
どうし 555
ケー@@ 555
ワード 555
おさえる 554
おもい 554
がいりゃく 554
しょうこ 554
すいせい 554
はたらき 554
むじゅん 554
ジョ@@ 554
おと@@ 553
こうけい 553
そうしょう 553
はいねつ 553
がめん 552
けっしつ 552
でぃいあい 552
へきめん 552
ほうもん 552
りょうさん 552
シェル 552
しいじい 551
ちゃっか 551
アミ@@ 551
９２ 551
すな 550
はなれ 550
プロモーター 550
ＨＣ@@ 550
えむああるえすええ 549
すいどう 549
そち 549
ははおや 549
れんさい 549
１９９１ 549
かつ@@ 548
そくばく 548
スラブ 548
ｉｉ 548
ぎゅう@@ 547
くうりょく 547
だいず 547
ちちゅう 547
にし 547
プロトタイプ 547
リガンド 547
ＦＥＴ 547
ＨＢ@@ 547
ＶＩ 547
かいじょう 546
こうない 546
ぜんぱん 546
でんぷん 546
とうじょう 546
ユ@@ 546
ＴＩ@@ 546
きょうせん 545
だんたい 545
てきかく 545
どめ 545
わか@@ 545
アレ@@ 545
ブタ 545
えええるえす 543
へんあつ 543
めんない 543
テトラ@@ 543
ＣＦ@@ 543
えんぶん 542
ださ 542
だぶりゅう 542
もく@@ 542
メト@@ 542
ＦＥＭ 542
ａｎｄ@@ 542
くり@@ 541
しゃしゅつ 541
のり 541
ゆうてん 541
ウム 541
コリン 541
モノクローナル 541
ロイ@@ 541
だっきゅう 540
ふじょう 540
りにょう 540
グローバル 540
シナリオ 540
ハロゲン 540
ポスト 540
ｎｇ 540
かいきょう 539
がそ 539
じょうし 539
ｌａ@@ 539
いた@@ 538
げんあつ 538
はいほう 538
ぺん 538
ＴｉＮ 538
φ 537
あお 537
そうだん 537
とうさ 537
のうは 537
ほうし 537
ミド 537
１９８９ 537
ＳＬＥ 537
トール 536
プラットフォーム 536
えむ 535
けっしゅ 535
じっ@@ 535
ぜんとう 535
ふり@@ 535
チル@@ 535
９１ 535
ＰＯ 535
ＳＯ@@ 535
しんさ 534
ねつでん 534
らい@@ 534
ホル@@ 534
メタ@@ 534
きめる 533
げんきょく 533
ていちゃく 533
ぱ 533
ひだりがわ 533
グレード 533
ルート 533
しいいい 532
すすみ 532
ぞ@@ 532
はばひろい 532
メタ 532
かりょく 531
けいそう 531
たいわん 531
はるか 531
ＰＧ@@ 531
ｍａｎ 531
かいか 530
ぶどう 530
リスト 530
ｏｖ 530
みぎがわ 529
ゆういん 529
りょうめん 529
エーテル 529
キシ 529
３５０ 529
うまく 528
がっかい 528
たつ 528
でんせん 528
とく@@ 528
ほうけい 528
ページ 528
ボンド 528
ねつりょう 527
ふぞく 527
アッセイ 527
カテ@@ 527
Ｃｕ@@ 527
ＤＡ@@ 527
ＧＰａ 527
いいぴい 526
とういん 526
いんない 525
きょくりつ 525
アモルファス 525
エレクトロニクス 525
ダクト 525
ドン 525
ＡｌＮ 525
のぞ@@ 524
あおいろ 523
ぎじ 523
せんかい 523
にくがん 523
ひろがっ 523
みぞ 523
りゅうじょう 523
フォー@@ 523
ホスト 523
いたっ 522
しゃぞう 522
とうほく 522
なんこう 522
ねんちゃく 522
メン 522
ＴＧ 522
ちょ@@ 521
ていそく 521
ほうかつ 521
えええふ 520
えだ 520
なり@@ 520
ふくげん 520
クル 520
ダスト 520
Ｎｅ@@ 520
ＳＰ 520
あご 519
さいかん 519
しさん 519
そうぞう 519
Ｇａｕｓｓ 519
ＵＳ 519
ｋＤａ 519
ばね 518
ひねつ 518
パイロット 518
パーソナル 518
ｏｗ@@ 518
あたま 517
いがた 517
とめ 517
コート 517
パ 517
ポリイミド 517
ええあい 516
えぬいい 515
しょうりょく 515
つける 515
ゆえ 515
マッチング 515
ルス 515
ワーク 515
ＥＭ@@ 515
ＭＢＥ 515
ＶＡ 515
ａｔａ 515
ｆｆ@@ 515
あわ@@ 514
にゅうじ 514
イベント 514
スイ@@ 514
いりぐち 513
うみ 513
ぐん@@ 513
こか 513
ざいしつ 513
しっちょう 513
たしゅ 513
にゅうしゅ 513
ロース 513
いわゆる 512
かせき 512
きゅうめん 512
くみあわせる 512
でぃ@@ 512
ージ 512
ささえる 511
でぐち 511
ふたたび 511
ゆうりょく 511
かね 510
がいらん 510
くわ@@ 510
たる 510
びまん 510
ぶつりゅう 510
まき@@ 510
やす 510
ッシング 510
トポ@@ 510
かみ@@ 509
かんぽう 509
じゅじょう 509
のり@@ 509
ゲン 509
ダン@@ 509
ハ 509
ボックス 509
マルテンサイト 509
９００ 509
ＥＢ 509
みなみ 508
パン@@ 508
ベー@@ 508
ロジ@@ 508
ω 507
あいてぃいえす 507
きまる 507
きゅうよ 507
しゅっぱつ 507
っか 507
てぃいぴい 507
スカラー 507
メタル 507
８９ 507
ＰＮ 507
えんすい 506
けいしょう 506
こけい 506
こりつ 506
さいか 506
にょうさん 506
オール 506
キャパシタ 506
ＭＴ@@ 506
あらわさ 505
たんぞう 505
はっきん 505
リモート 505
せきちゅう 504
そっちゅう 504
ほうそく 504
ゆちゃく 504
ようぼう 504
シリンダ 504
ゾン 504
ボルト 504
ＨＢＶ 504
ＬＤＬ 504
ｒｆ 504
ｙｍ@@ 504
じすう 503
せんばつ 503
なめらか 503
れいぼう 503
キャスト 503
プランクトン 503
かぶ@@ 502
ぎゃく@@ 502
さき@@ 502
ほくぶ 502
わだい 502
スラリー 502
モン@@ 502
Ｄｉ@@ 502
えんせい 501
かいがん 501
かわっ 501
けいつい 501
しょうどん 501
めんじょう 501
プロット 501
ｕｄ@@ 501
しょくりょう 500
ひてい 500
ぴいしいびい 500
キット 500
シンチ@@ 500
ペー@@ 500
ｖｅ 500
ねんとう 499
りょうよう 499
ステント 499
０３ 499
Ｔｒ@@ 499
えすおうあい 498
かつまく 498
はつびょう 498
ようりょく 498
ウラン 498
ベータ 498
ＯＳ 498
ＳＨ 498
おも@@ 497
たんきゅう 497
ちくじ 497
アルミ 497
ピリ@@ 497
ュ@@ 497
Ｒｕ 497
やね 496
コロイド 496
あんど 495
いえ@@ 495
いっしゅ 495
じゃく@@ 495
じょうよう 495
てぃいえふてぃい 495
はすう 495
やき 495
レール 495
ＥＣＲ 495
ｐｙｌｏｒｉ 495
ぎんが 494
こんじ 494
ちし 494
ちゅうくう 494
つり@@ 494
はじまり 494
ＴＭ@@ 494
えきか 493
じくさく 493
ぞくせい 493
まく@@ 493
ＶＴ 493
ｌａｓ@@ 493
こうにゅう 492
しんぱい 492
じゃ@@ 492
じゅく 492
やけ 492
こうのう 491
じゅうすい 491
なんか 491
ようつう 491
フレ@@ 491
ＢＳ 491
いえ 490
こうしゅう 490
ちゃくしょく 490
とうえい 490
インタフェース 490
ハード 490
バースト 490
ａｔｅ 490
きょくだい 489
しかも 489
でぃいぶいでぃい 489
わり@@ 489
アスペクト 489
クロロ@@ 489
コンバータ 489
ッジ 489
１０５ 489
ガソリン 488
Ｔｏｒｒ 488
ｍＭ 488
ええしいいい 487
おとこ 487
かくぶん 487
くけい 487
でぃいてぃい 487
へんりょう 487
スキャン 487
うけいれ 486
じゅうかく 486
たいがい 486
のうしゅ 486
コレ@@ 486
ライブラリー 486
ＩｎＡｓ 486
Ｌｅ@@ 486
こうげき 485
すこし 485
せっけつ 485
てぃいしいぴい 485
とむ 485
ウォ@@ 485
ナイ@@ 485
リソ@@ 485
Ｐｒ@@ 485
かいじょ 484
こうよう 484
しょうぎょう 484
せいいん 484
ちく@@ 484
はこ@@ 484
アセスメント 484
おしだし 483
ちん 483
ばかり 483
グラファイト 483
チュ@@ 483
きゅうし 482
じぶん 482
みりあんぺあ 482
フロン 482
マス 482
ワー@@ 482
Ｐａｒ@@ 482
ｏｘ@@ 482
きょじゅう 481
アーム 481
じいあいえす 480
スケジューリング 480
マンガン 480
けつまく 479
はかり 479
はつ@@ 479
ぼうがい 479
カルボ@@ 479
クチン 479
ヘモグロビン 479
ＴＲ@@ 479
ｆｏｒ@@ 479
はり@@ 478
クレーン 478
ＧＦ@@ 478
ＬＨ 478
ＴＡ@@ 478
ええでぃいえる 477
みだれ 477
ティー 477
ロータ 477
ＩｇＡ 477
ＮＰ 477
えふぴい 476
かれ 476
ちょうしょ 476
がいちゅう 475
きょくしょう 475
はんぱつ 475
よら 475
レセプター 475
あらかじめ 474
えるてぃい 474
ＣＯ 474
Ｎｉ@@ 474
ｓｉｏｎ 474
いつ 473
しょこく 473
しれい 473
すず 473
よち 473
よみとり 473
スクリーン 473
１３０ 473
ＥＳ 473
じつ@@ 472
じゅんちょう 472
シル@@ 472
ホモ 472
ミス 472
ＣＮ 472
ＤＭ@@ 472
ａｓ 472
たち@@ 471
でぃいでぃい 471
とりまく 471
なく@@ 471
オフセット 471
ＩＣＰ 471
ｔｅ@@ 471
きょてん 470
そら 470
たさい 470
ねんだい 470
のこっ 470
エコ 470
エラー 470
シリコーン 470
ロー 470
あいえす@@ 469
あっと 469
えむおうえす 469
きょし 469
はいぶ 469
ますます 469
ゆしゅつ 469
アン 469
テクノロジー 469
トル@@ 469
トレー@@ 469
Ｇｙ 469
こま 468
みっちゃく 468
テン@@ 468
ミュ@@ 468
かきこみ 467
したがう 467
せんぱく 467
のぞき 467
まね@@ 467
サファイア 467
チオ 467
ＦＩ@@ 467
ＨＲ@@ 467
しゅく@@ 466
じゅどう 466
ながれば 466
ぷろ@@ 466
オン@@ 466
トキシン 466
ピット 466
おうはん 465
がっ 465
きんこう 465
げる 465
ねじれ 465
もり 465
カスケード 465
チャー 465
トランスジェニック 465
Ｓｐ@@ 465
あう 464
のうえん 464
アンプ 464
ウェーブ 464
グレ@@ 464
ラス 464
きんき 463
せんはば 463
いったん 462
てんじ 462
とん 462
なう 462
ねつりゅう 462
はいにょう 462
ナノ@@ 462
Ｍａｒ@@ 462
えきじょう 461
けんぜん 461
フラッシュ 461
ＶＡ@@ 461
かんつう 460
こんきょ 460
さけ 460
そくへき 460
ぶんべつ 460
ガラ@@ 460
ジョン 460
フラクタル 460
プラ 460
かんじ@@ 459
がみ 459
きょうこう 459
オーステナイト 459
シア 459
ワイ@@ 459
ＰＨ@@ 459
ＳＥ@@ 459
ちゅうき 458
のうない 458
エミッタ 458
ニュー 458
パイ@@ 458
１０４ 458
ＦＥ@@ 458
かこく 457
じんざい 457
ひきおこし 457
キン 457
１９８８ 457
ｅｘ@@ 457
あじ 456
かざぐるま 456
じょきん 456
ぜんきん 456
クター 456
テトラ 456
θ 455
えっくす 455
きはく 455
くわしく 455
しゅうさ 455
じいえむ 455
にん@@ 455
はつばい 455
ぽ@@ 455
ブレー@@ 455
ＮＩ@@ 455
うら@@ 454
さんいつ 454
ちそう 454
にょうろ 454
キノ@@ 454
タングステン 454
ＡｌＧａＡｓ 454
Ｔｈ@@ 454
かんのう 453
きゅうけい 453
くつ 453
ざんさ 453
そうじ 453
ちんこう 453
とじょう 453
ふゆ 453
アウト 453
ＶＤ 453
｝ 453
あんせい 452
えふあある 452
きょくたん 452
せいりゅう 452
たいけん 452
とけい 452
ひらい 452
ほんかく 452
カイン 452
ボイド 452
えんかつ 451
しんぎ 451
てつづき 451
にさん 451
びいえ@@ 451
へいはつ 451
ピン@@ 451
１９８７ 451
かくか 450
しゅどう 450
ぴいえす@@ 450
わら 450
カン 450
キン@@ 450
ボソン 450
えいちえす 449
えふえむ 449
じょうらん 449
せいふく 449
でぃく 449
ぬれ 449
はいっ 449
カム 449
ステーション 449
フルオロ@@ 449
プ 449
ポリープ 449
ＭＨＤ 449
ＳＡ 449
ｉｃｈ@@ 449
いれる 448
かわら 448
くみこみ 448
そうび 448
たいおん 448
とど@@ 448
ひたち 448
イヌ 448
｛ 448
しゃたい 447
しゅん@@ 447
でんけん 447
なのせかんど 447
ろうえい 447
アド@@ 447
グリッド 447
シロ@@ 447
テ 447
ワ 447
ＴＴ@@ 447
じぇ@@ 446
はや@@ 446
アセチル 446
カル 446
セル@@ 446
ブラック 446
ペル@@ 446
しゃく 445
すいこう 445
ぜんちょう 445
ほどこし 445
まいめえとる 445
りゅうろ 445
グリコール 445
メッセージ 445
モルヒネ 445
こくみん 444
さげ 444
はる 444
ばし 444
らく@@ 444
スケジュール 444
ソリューション 444
プール 444
いいええ 443
えぬけえ 443
ぜつ 443
にっしゃ 443
はし@@ 443
ひとしい 443
オペ@@ 443
１４０ 443
おし@@ 442
くろ 442
けいこつ 442
さび 442
しょくえん 442
するどい 442
ちのう 442
ないそう 442
チャ 442
ＲＴ@@ 442
せってん 441
とまく 441
はそん 441
ふくしゃ 441
ゆうそう 441
エク@@ 441
バイ 441
がいそう 440
たんらく 440
ガー 440
フィン@@ 440
ＭＤ 440
ただしく 439
つかれ 439
りんり 439
セン 439
タスク 439
ルト 439
Ａｎ@@ 439
ＧＦ 439
ＸＲＤ 439
ていり 438
てんじょう 438
へんでん 438
りえき 438
エキシマ 438
カップリング 438
ザー 438
きろばいと 437
たもた 437
てってい 437
なんちょう 437
ひとり 437
インテ@@ 437
オフィス 437
ヘリカル 437
ＬＡ 437
Ｔａ@@ 437
ｈｅ@@ 437
ｐｓ 437
あけ 436
じょうわん 436
ゆいいつ 436
るい@@ 436
インパルス 436
ウン@@ 436
ｙｄ@@ 436
おび 435
がんばん 435
こうかく 435
こま@@ 435
しいでぃいえむええ 435
しょうし 435
インフラ 435
エビデンス 435
オリゴ 435
モル@@ 435
００ 435
ＣＭ@@ 435
ＴＥ 435
ａｂ 435
おり@@ 434
かす 434
せんもう 434
だつり 434
もんしん 434
キャビテーション 434
ヘル@@ 434
ロケット 434
うけ@@ 433
かくし 433
きんちょう 433
くうかく 433
くろいろ 433
しいええいい 433
しゅうやく 433
じょし 433
はっさん 433
むかっ 433
カッ@@ 433
ターボ 433
バル@@ 433
リジン 433
レイ@@ 433
Ａｃ@@ 433
がっ@@ 432
けいやく 432
さかん 432
しんけつ 432
じる 432
そうせつ 432
どうけい 432
カラ@@ 432
タイト 432
テキスト 432
マグネトロン 432
１６０ 432
ＡＢ@@ 432
ぞうせつ 431
たいりつ 431
どちら 431
ふうにゅう 431
めが@@ 431
ようけつ 431
りょうきん 431
ストリップ 431
トラン@@ 431
ペレット 431
ａｒｄ 431
うんこう 430
えぬえす 430
えふ 430
てぃいえふ 430
ながれる 430
ねっすい 430
はいけつ 430
れんらく 430
わるい 430
ポール 430
リバ@@ 430
リポ 430
ＨＤ 430
こうしょう 429
こうひょう 429
さいりょう 429
めえとるまいびょう 429
りき 429
トー@@ 429
フォーム 429
かんれい 428
ほんらい 428
ゆごう 428
アブレーション 428
Ｃｅ@@ 428
ＴＧＦ 428
いいいい 427
しいおうぴいでぃい 427
ビーズ 427
ベンチ 427
モバイル 427
リパーゼ 427
ｒｅｓ@@ 427
すいしゃ 426
そうかつ 426
まん@@ 426
やき@@ 426
カリ@@ 426
チュー@@ 426
ＣＢ@@ 426
ＯＮ 426
ＲＦ@@ 426
おき@@ 425
そうしゅつ 425
はっぽう 425
キレート 425
プライマー 425
ポリエステル 425
メディ@@ 425
リポソーム 425
こうねつ 424
しいえすえふ 424
せいどう 424
っかん 424
コンポーネント 424
ルド 424
ＤＰ@@ 424
あんない 423
いくしゅ 423
がんか 423
ねらい 423
ぴいえいち 423
コンタクト 423
ｔｏｒ 423
あつかい 422
いちょう 422
つく@@ 422
どん@@ 422
はこ 422
コバルト 422
スラ@@ 422
フィルター 422
１９８６ 422
ＳＬ@@ 422
あつかっ 421
くさ@@ 421
わかり 421
ファイバー 421
マル@@ 421
きょうまく 420
しゅうたん 420
ハミルトニアン 420
リウム 420
１２@@ 420
ＴＣ@@ 420
およぼし 419
がしつ 419
きせき 419
こつりょう 419
しいえ@@ 419
しょくよく 419
ただちに 419
でぃいえす@@ 419
ふぁ@@ 419
まくじょう 419
スル@@ 419
リボ@@ 419
ＲＭ 419
あさい 418
えすゆう 418
がきゅう 418
こうりょく 418
しゅうけい 418
せんべつ 418
なんびょう 418
ひっ@@ 418
らいいん 418
グロー 418
サンゴ 418
ジャー 418
テンソル 418
ＡＡ@@ 418
ＡＭ@@ 418
ｈｏ@@ 418
ｓｅ 418
ぎょうかい 417
さんざい 417
ししゅん 417
しょよう 417
だいしょう 417
ほうりつ 417
カソード 417
スク@@ 417
ミル 417
Ｅｎ@@ 417
ＩｎＧａＡｓ 417
えいちでぃい 416
きでん 416
ぎょるい 416
げんびょう 416
じこく 416
とっ@@ 416
もく 416
ポリスチレン 416
ード@@ 416
ｅｎｄ@@ 416
ｍａｎｎ 416
いいじい 415
かいたい 415
アンギオテンシン 415
ラジ@@ 415
１５@@ 415
ＣＮＴ 415
― 414
そけい 414
ちょうじょう 414
ちんか 414
スティ@@ 414
ターン 414
チング 414
ホロ@@ 414
ｗｔ 414
あさ 413
えむえむ 413
きた@@ 413
ぎし 413
エナ@@ 413
エラ@@ 413
エル@@ 413
テク@@ 413
ホス@@ 413
ＦＬ@@ 413
ＧＡ@@ 413
ａｎａ 413
いんしゅ 412
くろ@@ 412
しいいいええ 412
ぶいいいじいえふ 412
ぼうご 412
セロトニン 412
ティック 412
バン@@ 412
プラン 412
けんざい 411
しんげん 411
としょ 411
ばらつき 411
テル@@ 411
フランス 411
ブロット 411
だち 410
びこう 410
やし 410
スチン 410
スティック 410
Ｃｌ@@ 410
ＨＯ@@ 410
かながわ 409
じゅもく 409
たんかく 409
でんとう 409
はて 409
ほっそく 409
ろっ@@ 409
ベンゾ@@ 409
ボリ@@ 409
メラ@@ 409
ＨＤＬ 409
Ｎａ@@ 409
Ｓｅ@@ 409
いいびいえむ 408
こたえる 408
ようすい 408
れいかん 408
アミラーゼ 408
フレキシブル 408
ラベル 408
０６ 408
とらえる 407
はち 407
ばいかい 407
オキシ 407
クリニカル 407
コピー 407
ソル@@ 407
テロ@@ 407
フタ@@ 407
ｄｉ@@ 407
ｔｏｎ 407
しょうじゅつ 406
じゅうど 406
ずいえき 406
ずけい 406
ぶいえす 406
ほんしゅ 406
れっ@@ 406
オーダ 406
グラス 406
ネル 406
ユニ@@ 406
ＡＩ@@ 406
ＤＥ@@ 406
おさ@@ 405
ぎがばいと 405
じいあい 405
ずいまく 405
ちみつ 405
スクリュー 405
ベルト 405
えんじょ 404
かさ@@ 404
アパタイト 404
ドライブ 404
ＭＢ@@ 404
Ｍｎ@@ 404
えいこく 403
げきしょう 403
つち 403
ぼうじゅん 403
グルコ@@ 403
ダイア@@ 403
トポロジー 403
ビア 403
ベル@@ 403
あらい 402
きょうよう 402
しば 402
じょうこう 402
たざい 402
たっ 402
ほし 402
ぼし 402
ＤＧ 402
ｙｓ 402
えさ 401
こうふん 401
ていさん 401
とうがい 401
にほん 401
ぱん 401
ほうさん 401
ｅｓｓ@@ 401
うみ@@ 400
かんさん 400
くき 400
しんこく 400
じぇえあある 400
たんせき 400
ちくさん 400
みたし 400
よわく 400
スパ@@ 400
フェムト 400
ＳＰ@@ 400
ＶＣ@@ 400
おきる 399
かさね 399
しいえふでぃい 399
せいべつ 399
たとう 399
だつりゅう 399
としおとこ 399
ともなわ 399
ばく@@ 399
ふくみ 399
みどりいろ 399
アリング 399
チア@@ 399
フラグメント 399
ロッド 399
３０００ 399
Ｒｅ@@ 399
Ｔｉ@@ 399
ｄｅ@@ 399
ｔｉｃ 399
たんちょう 398
どうが 398
ぬき 398
へんえん 398
アセト@@ 398
シャル 398
チロシン 398
バッチ 398
ｋｉｎ@@ 398
ええ 397
になう 397
アセ@@ 397
デン 397
ニド 397
ｉｔ 397
ｖｅｒ@@ 397
おんすい 396
がんすい 396
けいねん 396
せつ@@ 396
たいふう 396
ちょうてん 396
ぬの 396
ほく@@ 396
ほっ@@ 396
ランク 396
ｓｉｔｕ 396
おんねつ 395
きず 395
くりこみ 395
だれ 395
はめん 395
ナス 395
ポジ@@ 395
ポー@@ 395
ＧＳ 395
ｓｔｒ@@ 395
ρ 394
じょうい 394
ぜいじゃく 394
っせい 394
でしりっとる 394
めんしん 394
もり@@ 394
ジー 394
ＳＭ@@ 394
ｉｔｙ 394
えいちあある 393
かかっ 393
かりょう 393
しゅつ@@ 393
アンチ 393
テーブル 393
トカマク 393
トルエン 393
ペン@@ 393
ペースト 393
１９８５ 393
Ｐｂ@@ 393
あな@@ 392
いんりょう 392
かほう 392
がんせき 392
たいかん 392
どうせい 392
どぼく 392
シーケンス 392
ストロ@@ 392
プス 392
ｃｏｎ@@ 392
さげる 391
じょうげん 391
すみ@@ 391
たんしん 391
カプ@@ 391
タール 391
トータル 391
ミニ 391
ワー 391
ＳＭ 391
Ｓｃｈ@@ 391
けいび 390
さいねん 390
さかな 390
たんじ 390
やがい 390
サル 390
チェーン 390
ホルムアルデヒド 390
ＰＢ@@ 390
おおわ 389
しんしん 389
ただし 389
ねんぴ 389
エル 389
ケミカル 389
ション@@ 389
ミセル 389
Ｂｏ@@ 389
ｉｃａ 389
けいちょう 388
たえ 388
ないいん 388
にゅうせん 388
ふき 388
やくひん 388
りっち 388
ストリ@@ 388
ボトル 388
ポルフィリン 388
ＣＴ 388
ＨＭ@@ 388
ａｌｌ@@ 388
ｕｒｅ 388
さあ@@ 387
しゃない 387
りき@@ 387
トナー 387
メール 387
ＮＮ 387
ＴＨ@@ 387
かかわっ 386
かき@@ 386
ぐんかん 386
じょうじ 386
せきしょく 386
ちょっ@@ 386
てぃいえすえいち 386
ひろしま 386
まっぷ 386
アルカ@@ 386
えぬてぃい 385
がき 385
ていたい 385
はね 385
スモン 385
ライド 385
Ｚｎ@@ 385
いちらん 384
えるえぬじい 384
かんち 384
ねっと 384
ひさん 384
へんしゅう 384
みつもっ 384
ゆうえす 384
ゲーム 384
チャート 384
Ｃｕｒｉｅ 384
ＨＶ 384
Ｒｈ@@ 384
がんしん 383
ざいらい 383
ふっ@@ 383
Ｇｄ 383
およぶ 382
きょうしょう 382
ぎむ 382
さくい 382
たき 382
びいえむあい 382
ほそ 382
みゃくらく 382
バチ 382
Ｍａ@@ 382
Ｏｘ 382
ＷＤＭ 382
えらん 381
しゅうまつ 381
じしゅ 381
たいぷ 381
フェニ@@ 381
モノ 381
１２５ 381
ＴＯ@@ 381
けんすう 380
げきてき 380
じょうそう 380
とめる 380
スロット 380
ブドウ 380
１９７０ 380
ＥＢ@@ 380
しつてき 379
そこ@@ 379
ついじゅう 379
ぴいおう 379
ぼたい 379
ようす 379
ゲイン 379
フェニル@@ 379
すいいき 378
ようぞん 378
インテリジェント 378
コース 378
ショット 378
ッパ 378
Ｄｏｐｐｌｅｒ 378
Ｍｅ@@ 378
ＰＭ 378
から@@ 377
さんち 377
エネルギ 377
タンス 377
フェン 377
ータ@@ 377
ＥＲ@@ 377
かんすい 376
くもまく 376
こうざい 376
ごろ 376
しゅっ@@ 376
ちょく 376
ふっき 376
ふるい 376
りょうりつ 376
ノー@@ 376
すぺくと 375
そくさ 375
どしゃ 375
どん 375
むしろ 375
アルドステロン 375
アー 375
エピ@@ 375
コドン 375
ＣｕＯ 375
ＤＣ 375
τ 374
いえき 374
じっき 374
ぜんねん 374
そうない 374
たんぶ 374
っく 374
スリット 374
ドウ 374
ドラ@@ 374
レイアウト 374
１０６ 374
１３@@ 374
Ａｄ@@ 374
おんがく 373
せいぶ 373
ちば 373
でぃいえいち 373
コンセント 373
タグ 373
ニン@@ 373
いく@@ 372
さいど 372
しいん 372
ちょうたつ 372
はじまる 372
はら@@ 372
びいえる 372
ぽ 372
ブルー 372
ミー 372
ＲＡ 372
Ｔｇ 372
かる 371
こうぶ 371
じいぴい 371
はこつ 371
みっ@@ 371
ウン 371
カタ@@ 371
プロテオ@@ 371
ュ 371
ＤＳ@@ 371
ｓｈ@@ 371
こうざつ 370
こうでん 370
しいぴいゆう 370
ずい@@ 370
スタッフ 370
タバコ 370
ッタ 370
Ｃｄ@@ 370
ｅｎｎ@@ 370
ｌｕ@@ 370
でんしゃ 369
∞ 368
あいいいしい 368
せいれつ 368
せっきん 368
イモ 368
コンプライアンス 368
ＢＥ@@ 368
おくがい 367
おんげん 367
ぴいけえ 367
キシド 367
ブチル 367
レプチン 367
ＢＴ 367
ＤＨ 367
ＲＳ@@ 367
げっけい 366
ぜ 366
ねんだん 366
みらい 366
わかい 366
ＡＴ@@ 366
ｉｎｄ@@ 366
ぎゃくてん 365
しっしき 365
しゅんじ 365
たいかく 365
のうそん 365
ぼうえき 365
もっ@@ 365
アクチン 365
エリア 365
キラル 365
フライ 365
プリオン 365
プロト@@ 365
メーション 365
じくう 364
ぜんかい 364
のぼ@@ 364
ばな 364
ひょうご 364
めがばいと 364
りんかく 364
スコ@@ 364
ＤＩ@@ 364
ａｃ 364
ｏｃｈ@@ 364
かいへい 363
せいせん 363
てる 363
まつ@@ 363
シース 363
テー@@ 363
プロテ@@ 363
ーブ 363
ＶＥ 363
がらす 362
こうずい 362
じぇえおうええ 362
たいはん 362
ふき@@ 362
みこみ 362
カルバ@@ 362
スライ@@ 362
おうぴい 361
きゅうれい 361
しゅっさん 361
にち@@ 361
はいえき 361
みじゅく 361
めまい 361
ウス 361
Ｏｅ 361
Ｒｅｙｎｏｌｄｓ 361
ｃａｒ@@ 361
かいへん 360
ずる 360
たんそう 360
ちんせい 360
エ 360
セレン 360
バージョン 360
レー 360
ＳＳ 360
Ｓｒ@@ 360
ＴＮ 360
ｙｒ@@ 360
しゅくたい 359
はいぶん 359
むす@@ 359
カテゴリー 359
ーラ 359
ＤＳＣ 359
ｍＷ 359
うら 358
えいぎょう 358
ちゅうじょう 358
とうど 358
とん@@ 358
にゅうしゅつりょく 358
ねんねん 358
ゆうしい 358
パーキンソン 358
ベル 358
Ｓｂ 358
ｐｒｏ@@ 358
あいてぃいおう 357
ぎんみ 357
げんぞう 357
しんせつ 357
とうやく 357
ぴいいいじい 357
へんぱ 357
まっくす 357
エアコン 357
オク@@ 357
Ｂｒａｇｇ 357
ｎｅｒ 357
おお 356
かくしゃ 356
さえ 356
じゅこう 356
たいえき 356
てぃ@@ 356
ぶいおうしい 356
みりょく 356
やぶれ 356
わかれ 356
スプレー 356
ダル 356
Ｗｅ@@ 356
うし@@ 355
がんてい 355
こたえ 355
しょうおん 355
じゅんじ 355
だっしゅう 355
だんれつ 355
のうじょう 355
ふさ 355
ダイズ 355
トンネリング 355
こうち 354
しいびい 354
すきま 354
はげしい 354
りだつ 354
れんどう 354
スクラ@@ 354
ハンド 354
ＥＬ@@ 354
ＳＷ@@ 354
うつびょう 353
ついたい 353
でぃいえるしい 353
ぼうだい 353
まさ@@ 353
アクチ@@ 353
インドネシア 353
ビオ@@ 353
ＲＮＡ 353
えいちえむ 352
かいば 352
だんし 352
にんぷ 352
ぶいえ@@ 352
オキシド 352
コヒーレンス 352
フォロー 352
ワン 352
ＣＭＰ 352
Ｃｏｎ@@ 352
ＩｇＭ 352
ＳＮＰ 352
しっぱい 351
しょうけい 351
じょうおん 351
たあ 351
にちれい 351
ひと@@ 351
ひとびと 351
ぴいあい 351
オピオイド 351
モン 351
０８ 351
ａｔｈ@@ 351
ｓｅ@@ 351
うえ@@ 350
うんぱん 350
こうてき 350
じく@@ 350
ぜんぶ 350
なづけ 350
エーロゾル 350
コーダ 350
ビス@@ 350
マニ@@ 350
レプ@@ 350
１０３ 350
えぬ 349
かいだん 349
ざくつ 349
とりだし 349
ねつかん 349
ひびわれ 349
びいえむ 349
カドミウム 349
フェージング 349
フォーマット 349
Ｒｕ@@ 349
ａｗ@@ 349
ｍａ@@ 349
えすでぃいえす 348
きょうきゃく 348
しいえすぴい 348
じっしゅう 348
はいしん 348
はなし 348
ふる@@ 348
ほうち 348
もどし 348
カロ@@ 348
パル@@ 348
ファイ@@ 348
ｅａ 348
えむえむぴい 347
えむおう 347
しょくぎょう 347
すいろ 347
せいてつ 347
ていぶ 347
でぃいえる 347
なす 347
ゆか@@ 347
らむ 347
ウンド 347
ＣＹＰ 347
おうてぃい 346
かずおおく 346
かせ 346
けつじょ 346
じいえす 346
でる 346
とおる 346
ないあつ 346
やさしい 346
クロマチン 346
コークス 346
ニワトリ 346
ｔｈ 346
きゅうじ 345
きゅうとう 345
つり 345
のうしつ 345
ひやく 345
りい 345
ろうしゅつ 345
フェルミオン 345
【 344
】 344
ぐう@@ 344
こうしつ 344
しず@@ 344
ていしょく 344
てっこつ 344
てんき 344
どこ 344
セリン 344
ペルオキシダーゼ 344
ＩＤ@@ 344
Ｘｅ 344
しゅうそ 343
ずいはん 343
ひってき 343
エンド@@ 343
ケトン 343
スペクトロ@@ 343
バエ 343
パイプライン 343
Ｓｃｈｏｔｔｋｙ 343
ｍｏｎ@@ 343
うで 342
えいちてぃい 342
かな@@ 342
そうるい 342
ひじゅう 342
めいじ 342
ようじょう 342
エンタルピー 342
クレ@@ 342
ドライバ 342
ログ 342
ＲＯ@@ 342
ｐｏｒ@@ 342
えむいい 341
えむでぃいえす 341
およそ 341
みつけ 341
よくじつ 341
アセトン 341
ＨＧＦ 341
Ｓｎ@@ 341
ｕｃｈ@@ 341
くうげき 340
ちょうせん 340
つよ@@ 340
ダブル 340
ノウハウ 340
パラメーター 340
ビニ@@ 340
ＣＤ@@ 340
いたく 339
うご@@ 339
うたがっ 339
おこら 339
おそく 339
かにゅう 339
しゅうこう 339
ちょうりゅう 339
とりあつかう 339
ぱく 339
びょうれき 339
ふくおか 339
ようじ 339
アイソ@@ 339
ビング 339
ＧＬ 339
だぶりゅうえいちおう 338
びいでぃい 338
へらし 338
ろむ 338
コンテナ 338
スパイク 338
ユニーク 338
ールド 338
ＭＲ 338
しんしょく 337
ふしん 337
まっき 337
エレクト@@ 337
クロロフィル 337
シュート 337
２００５ 337
ＡＮ 337
ＤＭ 337
ＭＦ@@ 337
ＳＵＳ 337
Ｓｍ 337
ａｔｅｄ 337
あらゆる 336
きゅうすう 336
こうはつ 336
どくとく 336
ねつりょく 336
ばり 336
ふか@@ 336
ガン@@ 336
グリコ@@ 336
シェ@@ 336
ファン@@ 336
ユー@@ 336
ロープ 336
ンジ 336
ＭＳ 336
ＲＩ 336
Ｓｍ@@ 336
うまれ 335
しんさつ 335
のこる 335
はいざ 335
ばあ 335
みん@@ 335
アスコルビン 335
スタン 335
パルプ 335
ブレンド 335
ＰＤＰ 335
Ｓｔｏｋｅｓ 335
ｃｏ@@ 335
ｉｌｌｕｓ 335
かくこう 334
のこさ 334
ふっきゅう 334
アリ@@ 334
シップ 334
プリンタ 334
ＳＥ 334
￣ 334
うめ@@ 333
けねん 333
といし 333
とつ 333
ぴ 333
ぼうしょく 333
もし 333
キサン 333
シック 333
マシニング 333
Ｂｉ@@ 333
ＤＮＡ 333
かくない 332
こうぎ 332
ぞうしん 332
できれ 332
ないくう 332
ぶんたん 332
りっそく 332
クロマト@@ 332
チョ@@ 332
ニトロ@@ 332
ヒューマン 332
ＨＤ@@ 332
Ｈａｒ@@ 332
ＺｎＳｅ 332
くりかえす 331
こくないがい 331
ちょっか 331
にいがた 331
ほうぼく 331
ＦＧＦ 331
ａｔｕｓ 331
ｂａｃ@@ 331
ｆｅｒ@@ 331
ｏｎｅ 331
がんあつ 330
ぐりいん 330
そうしつ 330
たいい 330
てんがん 330
てんすう 330
もろ 330
ようしゃ 330
ナイロン 330
ピック 330
Ｇｅ@@ 330
ｉｕｓ 330
ざつ 329
しかっ 329
そくとう 329
ちゅうけい 329
とっしゅつ 329
インフォームド 329
エマルション 329
カルボン 329
サイクリン 329
ッカー 329
ＭＯＣＶＤ 329
ｅｔｒ@@ 329
じょがい 328
なまし 328
ぶいあある 328
りょうてき 328
ＦＣ@@ 328
ＨＰ@@ 328
Ｐｃ 328
えすおうでぃい 327
かんしき 327
かんとう 327
きない 327
くち@@ 327
しきん 327
ちょうない 327
つくり@@ 327
とうりょう 327
どうじく 327
エビ 327
キシル 327
バルーン 327
ピリジン 327
フェーズ 327
ＮＥ@@ 327
Ｐｕ 327
ｆｆ 327
いか@@ 326
おくり 326
くし 326
さむ 326
なんねん 326
みせ 326
ゆうもん 326
ウィ@@ 326
ェ 326
ップ@@ 326
ピー 326
マネ@@ 326
ＯＨ 326
ｉｃａｌ 326
せきせつ 325
てぃいえる 325
でぃいらむ 325
とうかい 325
とうすい 325
のうし 325
オル@@ 325
カナダ 325
シティ 325
スライス 325
ドーパント 325
プラグ 325
ペア 325
レシ@@ 325
１５７ 325
Ｂａｒ@@ 325
えらび 324
かくり 324
きょぜつ 324
こすう 324
へいけい 324
へんぶん 324
ぼざい 324
やきいれ 324
カルボニル 324
バック@@ 324
プラスミド 324
プロテイン 324
ラク@@ 324
リド@@ 324
Ｓｃ@@ 324
えだ@@ 323
えっくすえむえる 323
げんだい 323
こむぎ 323
ごうたい 323
ししゅう 323
しんたつ 323
ちゅうだん 323
つまり 323
びいあい 323
びぶ 323
コミュニティ 323
シクロスポリン 323
６５０ 323
ＥＭＣ 323
ｂｒ@@ 323
ｓｋｉ 323
ああるびい 322
しょうぼね 322
ずめん 322
わい 322
オーストラリア 322
グラフィック 322
プロピ@@ 322
ポーター 322
ｏｃｏｃｃｕｓ 322
あか@@ 321
えるしいええ 321
おし 321
がいけい 321
すいたい 321
そうりゅう 321
たんご 321
ぢ@@ 321
つうき 321
はしかけ 321
アクリ@@ 321
エキス 321
フト 321
マトリ@@ 321
ＬＥ@@ 321
ｌｉ@@ 321
〈 320
きゅうおうえす 320
しれ 320
じゅうせき 320
そくほう 320
になっ 320
めぐる 320
エー@@ 320
シングル 320
バックグラウンド 320
ホログラム 320
モー@@ 320
〉 319
くうちゅう 319
けしょう 319
たかまり 319
ばんごう 319
ひきつづき 319
ふし 319
ふんべん 319
りょく@@ 319
りんぎょう 319
わた@@ 319
アドレナリン 319
ナル 319
ヒドロ 319
ブリッジ 319
ミネラル 319
Ｌａｎｇｍｕｉｒ 319
ＴＬ@@ 319
かんむり 318
きじ 318
げた 318
じんい 318
ひら@@ 318
ぶどまり 318
みいだす 318
ようそう 318
ろめん 318
わかる 318
インチ 318
カレント 318
キセ@@ 318
ニー 318
ｍａｘ 318
ｒｅｃ@@ 318
ういんどうず 317
うす@@ 317
うすく 317
かいする 317
きょうひ 317
ちょうこつ 317
アデノウイルス 317
インタ@@ 317
エイズ 317
オプ@@ 317
コル@@ 317
サル@@ 317
プラズモン 317
ｏｋ@@ 317
えすじい 316
えむえふ 316
せいとう 316
ぜんわん 316
ぞい 316
てきする 316
アクセプタ 316
イソ 316
トリチウム 316
ネス 316
ＳｉＨ 316
きゅうき 315
しょくいん 315
せつり 315
つかえる 315
トム 315
パラメトリック 315
フロント 315
ボンディング 315
１２００ 315
ＵＶ 315
ｓｉｓ 315
≧ 314
えるぴいえす 314
かねん 314
こうきゅう 314
そうぼう 314
ちょくぜん 314
つな@@ 314
クロック 314
ッキ 314
マーカ 314
ＢＤ@@ 314
ｄｃ 314
ｒｈ@@ 314
ν 313
あし@@ 313
つき@@ 313
ぼうえん 313
むじん 313
らくのう 313
オキシダーゼ 313
ッ 313
ラテックス 313
ＤＬ@@ 313
ＨＣＣ 313
Ｒａｙｌｅｉｇｈ 313
きりつ 312
こんせい 312
じさつ 312
じゅりつ 312
じょうざい 312
そうぐう 312
とじ 312
なわ 312
ひゃく 312
ひんもく 312
ふぉ@@ 312
むり 312
カルテ 312
ソウ 312
ッティング 312
Ｒａ@@ 312
ｍａｓｓ 312
けいさい 311
こうごう 311
しそう 311
しゅうえき 311
つめ 311
みみ 311
よくうつ 311
カルス 311
キャン@@ 311
クリン 311
コネ@@ 311
パフォーマンス 311
モルタル 311
ローラ 311
１９８４ 311
ＩＧＦ 311
ＭＩＣ 311
ＰＧ 311
ａｎｎ@@ 311
うめたて 310
えぬいいしい 310
くだ@@ 310
しゅんかん 310
びいえぬ 310
アシドーシス 310
イル@@ 310
ジオ@@ 310
バンプ 310
Ａｕｇｅｒ 310
ＣＳ 310
ＤＯ@@ 310
ｉｓｔ@@ 310
えふゆう 309
きょうざい 309
けいほう 309
こうねん 309
たいばん 309
ちかづく 309
つぎ@@ 309
ふっとう 309
エーション 309
スタート 309
モルモット 309
リス 309
Ｈｅ@@ 309
ＬＤＨ 309
Ｐａ@@ 309
ｕｐ@@ 309
いいえふ 308
さし 308
しいえいちふぉう 308
しょうど 308
だつらく 308
めつ 308
アセチレン 308
アーチ 308
シアン 308
トレーサ 308
フレー@@ 308
プラス 308
ヘパリン 308
ワークステーション 308
０４ 308
Ｐｌ@@ 308
えるいい 307
きれ 307
したじ 307
びえん 307
ぶかい 307
まいせつ 307
わん@@ 307
エレ@@ 307
タイヤ 307
ピンチ 307
ペロブスカイト 307
ＡｌＡｓ 307
うぇる 306
ぐう 306
そうやく 306
ためん 306
ほんにん 306
アミノ@@ 306
イノ@@ 306
インキ 306
クライアント 306
スコープ 306
ブリ 306
メー@@ 306
きょうめん 305
ざっそう 305
なれ 305
にゅうか 305
ふじん 305
よごれ 305
れいすい 305
わける 305
ドレ@@ 305
ネマチック 305
ＥＧＦ 305
ａｌｉｓ 305
ｃｏｌ@@ 305
ｅｌｄ 305
かえ@@ 304
じょうちょう 304
ぴき 304
ゆるやか 304
ホン 304
ミッション 304
χ 303
あいじい 303
いくびょう 303
えすしいしい 303
そうすう 303
なんばあ 303
のうち 303
はんげん 303
エミッション 303
クロロ 303
Ｐｓ 303
ｏｔ 303
ちょうざい 302
ななめ 302
にゅうようじ 302
ひろがる 302
ぷう 302
めがぼると 302
ようしょく 302
ようぶ 302
りっしょう 302
アデ@@ 302
インド@@ 302
バン 302
ホモ@@ 302
レチ@@ 302
ＬＣ 302
ＬＯ@@ 302
ｋｏｖ 302
いんよう 301
がいいん 301
きごう 301
しいえむ@@ 301
たんじょう 301
ちょうがん 301
ふせつ 301
ぶいしい 301
りっぽうめえとる 301
アノード 301
サーベイランス 301
ザル 301
セレ@@ 301
プロフィール 301
ベッド 301
ポリメラーゼ 301
モリブデン 301
Ｂｌ@@ 301
ＴＯ 301
おぎ@@ 300
かしょう 300
くじょう 300
げんか 300
この@@ 300
こんざい 300
のうりつ 300
はつじょう 300
ひんぱん 300
ほあん 300
まいにち 300
むら@@ 300
アドレス 300
インダクタンス 300
グレー@@ 300
サルコイドーシス 300
スルホン 300
トリプ@@ 300
１４００１ 300
ＢＤ 300
ＬＣ@@ 300
ａｍ 300
あさ@@ 299
いしょ 299
こうてん 299
こす 299
じゅたい 299
たちあがり 299
ぴいだぶりゅうえむ 299
ほんざい 299
まる@@ 299
めいめい 299
エキスパート 299
キソ@@ 299
トロイダル 299
トロピン 299
ドーパミン 299
レーザ@@ 299
５５０ 299
ｅｖｉ@@ 299
えいい@@ 298
おおむね 298
おんあつ 298
そうか 298
たんりょう 298
てぃいびい 298
はいる 298
ばっきょ 298
ほうせん 298
りくじょう 298
ウェイ 298
スタディ 298
ネズミ 298
フラット 298
ミック 298
レギュ@@ 298
かさん 297
ぜい 297
のうさん 297
びょうが 297
わんきょく 297
バンク 297
ＮＯ@@ 297
ＳＱＵＩＤ 297
ＴＴ 297
ａｎｄ 297
げんじゃく 296
すぐれる 296
はっきり 296
みえる 296
らし 296
わくせい 296
ゴル@@ 296
タミン 296
ニュ@@ 296
リア@@ 296
ＥＤ@@ 296
ｌｏｗ 296
ｓｃｈ@@ 296
ぎのう 295
しいああるてぃい 295
じゅつ@@ 295
すと 295
そうあつ 295
どあい 295
ゆみ 295
オレフィン 295
ゲナーゼ 295
ピエ@@ 295
ーフ 295
ｉｄｅ 295
しいえす@@ 294
しょくち 294
すてえじ 294
ちか@@ 294
ちゃくしゅ 294
ちゅうわ 294
なごや 294
ひんぱく 294
まきせん 294
りょかく 294
ると 294
オート@@ 294
カイラル 294
クラック 294
セミ@@ 294
ュー 294
リレー 294
えすえる 293
つづき 293
びょうてき 293
ふてい 293
ほきゅう 293
まがり 293
みゃく@@ 293
れっきょ 293
アー@@ 293
ジメチル 293
スタック 293
トリー 293
ピストン 293
ポリペプチド 293
Ａｇ@@ 293
Ｅｒ 293
さいけつ 292
しんしゅく 292
びらん 292
サテライト 292
シャント 292
ニュートリノ 292
ＧＲ 292
Ｊｏｓｅｐｈｓｏｎ 292
ａｕ@@ 292
いたあつ 291
かたむき 291
かゆみ 291
くだ 291
けんいん 291
げんゆ 291
しまう 291
ちくでん 291
なまごみ 291
はいらん 291
びき 291
みちびき 291
オーダー 291
オート 291
クレアチニン 291
Ｋｅｒｒ 291
ａｖ@@ 291
ぞうかん 290
ちょうしゅ 290
れいだんぼう 290
コルチゾール 290
スム@@ 290
トリプシン 290
ドレーン 290
ニトロ 290
フィルタリング 290
フランジ 290
ホスファターゼ 290
ＢＬ@@ 290
きゃく@@ 289
げんそん 289
こんせき 289
たわみ 289
どうかん 289
どれ 289
コムギ 289
ダイナミクス 289
ダンパ 289
トレーニング 289
トロ 289
ラー@@ 289
ＲＣ 289
ｅｒｓ 289
ｇｅｎ@@ 289
ぇ@@ 288
おこさ 288
せいすう 288
びいぴいえす 288
ふみん 288
アゾ 288
キャリ@@ 288
クル@@ 288
スペーサ 288
チトクローム 288
チン@@ 288
フォール 288
０７ 288
１５００ 288
ｏｍｏｎａｓ 288
ぜつ@@ 287
たえる 287
はろう 287
びいえふ 287
やっきょく 287
らんほう 287
Ｃｙ@@ 287
ＩＶ@@ 287
ＲＥ 287
ｃｅｌｌ 287
ｔｅ 287
へんそく 286
みかく 286
アスピリン 286
クタ@@ 286
スタン@@ 286
ビー@@ 286
プロトコール 286
１７@@ 286
Ｈａ@@ 286
ｉｄａ 286
ｊ 286
あた@@ 285
かくち 285
かける 285
げんたい 285
ざっしゅ 285
しご 285
しょっかく 285
つかい@@ 285
ばく 285
キャップ 285
ジル 285
ハイブリダイゼーション 285
メソ 285
ＭＳ@@ 285
ＰＴＨ 285
ＴＨＡ 285
ｃｈ 285
η 284
しつじゅん 284
ぞうせん 284
はたん 284
ふくへき 284
やくがく 284
アウ@@ 284
ファクター 284
モジュ@@ 284
ｌｅｒ 284
えすえいち 283
てつ@@ 283
にょうどう 283
びる 283
みちびか 283
らか 283
イス 283
コメント 283
ビス 283
ファイン 283
マネージメント 283
ＨＣｌ 283
いいえす@@ 282
いてん 282
うぃ@@ 282
えらぶ 282
おだく 282
しゅうじゅつ 282
じゅくれん 282
すぐ 282
たけ 282
はっしょく 282
みつびし 282
もくしつ 282
りつ@@ 282
れんせい 282
ウェー@@ 282
コツ 282
ドーム 282
ハイドロ 282
パラジウム 282
プラー 282
ＰＫＣ 282
ＲＴ 282
ｍｕｌ@@ 282
えいちしい 281
かくさ 281
さこつ 281
づめ 281
ふずい 281
ザン 281
ボランティア 281
Ｃａｒ@@ 281
ＩＡ@@ 281
ＰＢＣ 281
ａｎｓ@@ 281
ａｎｔ 281
ｇｒａ@@ 281
ｐａｒ@@ 281
あいえむ@@ 280
あいず 280
ある@@ 280
つうふう 280
ねんじ 280
ぴいえいちえす 280
ぴいええ@@ 280
めいれい 280
りつあん 280
ウマ 280
ガン 280
ポ 280
ｉｔｉ@@ 280
ｏｎｄ@@ 280
ｕｋ@@ 280
いず 279
きんたい 279
ごうりゅう 279
しきさい 279
へくたある 279
アカ@@ 279
アフリカ 279
イタ@@ 279
オーディオ 279
グリセリド 279
ヒドロキシ@@ 279
フラーレン 279
ホイール 279
ホスホ@@ 279
ポン 279
マンド 279
レニン 279
１２３ 279
ＡＮＣＡ 279
Ｃｕｓｈｉｎｇ 279
ＱＴ 279
ＳＦ@@ 279
ｔｉｖｅ 279
ああるあある 278
あきた 278
かたがわ 278
かんおう 278
げじゅん 278
しゅじく 278
ずつ 278
ないけい 278
べんり 278
ほうねつ 278
みりぼると 278
アラニン 278
カップ 278
クエン@@ 278
スピーカ 278
スライド 278
デキ@@ 278
ブロードバンド 278
メチレン 278
ラミン 278
ルト@@ 278
１０２ 278
ＣＯＸ 278
ＳＭＡ 278
ｓｋ@@ 278
えいちてぃいえるぶい 277
かげん 277
こうわん 277
ていい 277
でぃいえいち@@ 277
とりこま 277
ゆうびょう 277
アセチルコリン 277
インパクト 277
ヨード 277
１０７ 277
ＩＭ 277
ＶＢ 277
ｅｒｎ@@ 277
ｆａｃ@@ 277
ｏｂａｃｔｅｒ 277
ｏｖ@@ 277
ｔａ 277
うすいた 276
おら 276
しいおう@@ 276
せまく 276
ちつ 276
ないがい 276
のこし 276
ひるま 276
ぶくろ 276
ろせん 276
プレッ@@ 276
ＭＤ@@ 276
ＱＷ 276
さんかん 275
じま 275
とりくむ 275
めいはく 275
もの@@ 275
キメラ 275
クリアランス 275
ヘキサ@@ 275
ラクタ@@ 275
ラル 275
ＴＫＡ 275
ｐｏｌ@@ 275
かいわ 274
しいおうぴい 274
たくえつ 274
のうかん 274
ぱい 274
ほうてき 274
りょうしつ 274
パラフィン 274
マッ@@ 274
マツ 274
Ｃｏｍｐ@@ 274
ＧａＰ 274
ＲＦ 274
ｇｌ@@ 274
あくしゅう 273
こくど 273
しいえええ@@ 273
ぞくはつ 273
とうちょう 273
とくしょく 273
はねぐるま 273
もうじょう 273
エステラーゼ 273
スラッジ 273
デヒドロゲナーゼ 273
リモデリング 273
レイ 273
レル 273
Ｌａｎｄａｕ 273
ＳＤ@@ 273
おきかえ 272
じょくそう 272
どうか 272
ぼつ 272
エクソン 272
ゼラチン 272
フロー@@ 272
ラジオ 272
ラップ 272
Ｇｒａ@@ 272
ｏｍｙｃｅｓ 272
かこま 271
きづ@@ 271
きゅうみん 271
さいりゅう 271
しゅうかい 271
せいきょく 271
たもち 271
たもっ 271
つづける 271
てんぷ 271
よさん 271
りめん 271
んど 271
アザ@@ 271
アルファ 271
イング 271
コナ@@ 271
ジア 271
ペン 271
ボル@@ 271
ＦＣ 271
ｍｅＶ 271
〔 270
いっかつ 270
かつりょう 270
かわさき 270
こうせき 270
しつがい 270
しゃりん 270
じょうすい 270
すうひゃく 270
ただん 270
はつめい 270
オペレータ 270
クランプ 270
クー@@ 270
ドリル 270
パッド 270
ユーザー 270
ＣＥ@@ 270
Ｓｉ 270
ｅｓｓ 270
えんじ 269
かご 269
かつやく 269
がいし 269
こうは 269
こき 269
しょゆう 269
はんとう 269
ふじ 269
みょう 269
アルツハイマー 269
ストリー@@ 269
セミ 269
ダイナミックス 269
デス@@ 269
ヒータ 269
プロセ@@ 269
ＴＤ 269
あみ@@ 268
うしなわ 268
うちわけ 268
えんこう 268
おりもの 268
しょうごう 268
じり 268
たいとう 268
たんしょ 268
たんに 268
ちょうり 268
とりあつ@@ 268
はいし 268
はから 268
へいほう 268
まいとし 268
もよう 268
エリ@@ 268
エリテマトーデス 268
クトース 268
クライ@@ 268
スマート 268
スロ@@ 268
フリ@@ 268
ホ 268
リッチ 268
ＡＧ@@ 268
ｃＡＭＰ 268
ｅｎｓ 268
ｏｌｔ@@ 268
あや@@ 267
きちょう 267
きょうぞう 267
ざき 267
しずおか 267
ちゅうちょう 267
とうしつ 267
ひじ 267
ふみ@@ 267
まじえ 267
バッグ 267
ファセット 267
ポーラ 267
メートル 267
ＣＴＬ 267
Ｉｓｉｎｇ 267
ｉｐ 267
ｕｌａｒ 267
こめ 266
しゅつがん 266
すり 266
せんちゅう 266
ぜんせん 266
つみ@@ 266
とうるい 266
ふくそう 266
ほど@@ 266
れいぞう 266
ろうねん 266
ハー@@ 266
フルオロ 266
レバー 266
Ｔｌ 266
ＷＳ 266
ａｎｎ 266
ｆｉ@@ 266
ｏｕｓ 266
えふああるぴい 265
かいけい 265
しこく 265
つういん 265
どうぐ 265
ねり 265
ほうじん 265
ゴン 265
スメクチック 265
ピコ 265
フィリピン 265
モールド 265
Ｋｏｎｄｏ 265
ＴＢ@@ 265
ａｎｇ 265
ａｓｔ@@ 265
あきら 264
いかん 264
おうとつ 264
おかやま 264
がけ 264
げんかく 264
こつが 264
すみ 264
そうほ 264
てぃいえす@@ 264
とぼし 264
なんせい 264
ひだりした 264
もうら 264
ろんぎ 264
トランスフェラーゼ 264
ＣＭＶ 264
ＧｅＶ 264
ｅｃｋ@@ 264
ｏｗ 264
うすがた 263
きじょう 263
ぐみ 263
げい 263
げぎょう 263
しゅうとく 263
そうじゅう 263
とうこう 263
のうこう 263
ほんれい 263
りく@@ 263
れんごう 263
アダ@@ 263
カロリー 263
ストリン 263
ニクス 263
フリップ 263
ペット 263
１９６０ 263
２２０ 263
うず@@ 262
きんゆう 262
しゅくごう 262
すいりょう 262
せきさん 262
やわら@@ 262
ゅう@@ 262
ようこう 262
りく 262
セルラ 262
ブラシ 262
ボディ 262
マニピュレータ 262
ルミ@@ 262
ＤＢ@@ 262
ＭＯ 262
ａｔ 262
ｆｃｃ 262
ｊａｐｏｎ@@ 262
ｐｒ@@ 262
×@@ 261
きえき 261
きてん 261
ぎゅうにゅう 261
しゃほう 261
はいそく 261
ぷろ 261
ぼくそう 261
もうちょう 261
コージェネレーション 261
ジェネ@@ 261
テンプレート 261
トウモロコシ 261
バーナ 261
ビリルビン 261
ヤー 261
リゾ@@ 261
１０８ 261
ＲＨＥＥＤ 261
｜ 261
ああるでぃい 260
がいきょう 260
きやく 260
きょうすい 260
そうふう 260
たび 260
つうでん 260
はっせき 260
びょうじょう 260
ろぐ 260
ケモカイン 260
シグ@@ 260
スパン 260
ナビゲーション 260
ネック 260
ベーション 260
ライブラリ 260
Ｐｒ 260
〕 259
あいまい 259
うよう 259
えすしいえむ 259
おや@@ 259
こと@@ 259
じゅかん 259
そくじ 259
にょうかん 259
はんしん 259
ほしょく 259
アンカー 259
アンドロゲン 259
ガー@@ 259
キャベツ 259
クロー@@ 259
コレクタ 259
ブレーク 259
１６@@ 259
５０００ 259
ｖａｎ 259
うちあげ 258
おくない 258
おこなえ 258
ぐんしゅう 258
しっしん 258
ちち@@ 258
むええ 258
アシル 258
アラインメント 258
ニコチン 258
ポリプロピレン 258
マグネ@@ 258
ミクロ@@ 258
メタクリ@@ 258
メンバー 258
ローカル 258
ーマ 258
ｅｌｌ 258
ｉｎｅ@@ 258
いざん 257
うき 257
かんにゅう 257
こうざん 257
ことば 257
しんちょく 257
ばこ 257
びいえむ@@ 257
みぎめ 257
ゆうせつ 257
れれ 257
ろない 257
ツリー 257
ユビキチン 257
ロス 257
ＦＳ 257
Ｍｅｔ@@ 257
ＮｉＯ 257
Ｐｅｒ@@ 257
あっつう 256
ぎもん 256
せんど 256
ないめん 256
におい 256
ぴいえふ@@ 256
みずから 256
もんぶ 256
インプラント 256
ネコ 256
ブレード 256
プロスタグランジン 256
１７０ 256
ＥＩ@@ 256
Ｓｔｒ@@ 256
ｍａ 256
こうべ 255
しきちょう 255
しゆう 255
じつむ 255
じゅうしん 255
だいもう 255
ちゅうじゅん 255
てきか 255
とうきゅう 255
ぶっ@@ 255
ほうしゅう 255
りっぽうせんちめえとる 255
ウム@@ 255
テクスチャ 255
ＣａＯ 255
ＲＨ 255
ｉｔｅ 255
Γ 254
いし@@ 254
おち@@ 254
かいいん 254
けっさつ 254
こうしょく 254
しかた 254
しせん 254
じゅんきょ 254
ちゅうかい 254
ちょこう 254
とら 254
のうにゅう 254
ばつ 254
ぴいえすええ 254
へんかく 254
ぺ@@ 254
エピトープ 254
オオ 254
コンサル@@ 254
７５０ 254
ＴＳ@@ 254
ｄｉｓ@@ 254
ｋｓ 254
ｌａｃ@@ 254
ｏｃｋ 254
おそらく 253
しお@@ 253
じば 253
せつやく 253
せんぷく 253
ぜんいき 253
とぼしい 253
むずかしく 253
インク 253
キノン 253
ストラ@@ 253
ヒュー@@ 253
フィー@@ 253
ＫＬ 253
いかなる 252
いやけ 252
かり@@ 252
くろしお 252
けんかい 252
めんと 252
もど@@ 252
キャビティ 252
グル 252
スチレン 252
ステレオ 252
プロポ 252
ラジオ@@ 252
１０１ 252
ＥＡ@@ 252
ＴＭＲ 252
ＺｎＳ 252
ｓｔ 252
いちばん 251
えむいいえむえす 251
かんくう 251
きょうしつ 251
ぐんらく 251
ごかん 251
ささえ 251
さっ@@ 251
しょうりゃく 251
すいり 251
そくりょう 251
ふたしか 251
よみ 251
クリプ@@ 251
コネクタ 251
ゼピン 251
リグニン 251
３０４ 251
Ｄｅ@@ 251
ＰＵ@@ 251
ＶＤ@@ 251
えふでぃいてぃいでぃい 250
おうこう 250
かひ 250
しいぶい 250
せきどう 250
はいべん 250
はくそう 250
ぴいぶいしい 250
ふどう 250
ましく 250
りょっか 250
クラッド 250
クレー@@ 250
グア@@ 250
トロンビン 250
ファ 250
マト@@ 250
０００１ 250
ＩＮ@@ 250
ＰＭＭＡ 250
ｏｒｄ@@ 250
あま@@ 249
かくがた 249
ぎり 249
しょうえん 249
じゅうきん 249
だぶりゅうあある 249
どるい 249
べつべつ 249
もも 249
らしい 249
ストリーム 249
ティカル 249
トニン 249
ネクチン 249
バリウム 249
ＥＸＡＦＳ 249
ｔｅｒｉｕｍ 249
いけ 248
えすええあある 248
がっち 248
さいき 248
そいん 248
はや 248
まちづくり 248
やくしん 248
らんし 248
りべん 248
フィル 248
メカニカル 248
えっくす@@ 247
えるえふ 247
かんりゃく 247
くみあい 247
しゅと 247
なんきょく 247
はいり 247
ひらなめ 247
ふんしゅつ 247
むすぶ 247
ようどう 247
エレメント 247
サイン 247
タイル 247
トランスポ@@ 247
ハイドレート 247
ＳＢ@@ 247
ｇｅ 247
あいえすでぃいえぬ 246
えんしゅう 246
ていかく 246
でぃいえすぴい 246
にゅうぎゅう 246
ひなん 246
ふにん 246
めんせつ 246
コンビ@@ 246
スプリ@@ 246
マット 246
Ａｍ@@ 246
ｏｎｉ@@ 246
いんしょう 245
えええふぴい 245
こうだん 245
ざいさん 245
しゃさい 245
しんぶん 245
じゅぎょう 245
ていけつ 245
でんちゃく 245
ぶつ@@ 245
アポ 245
カルシ@@ 245
ドア 245
ナン@@ 245
バクテリア 245
ベーチェット 245
ＢＧ 245
ＥＳＴ 245
あいち 244
おうしょく 244
おそれ 244
しちょう 244
ひしょう 244
ようさん 244
グルタチオン 244
ジョイント 244
ノーマ 244
ファクタ 244
ブル@@ 244
プシン 244
メトリー 244
ーター 244
ＡＭＬ 244
ＧＦＰ 244
ＨＬ 244
ａｎｔ@@ 244
ｉｌ 244
あまみず 243
きき@@ 243
きんだい 243
さらさ 243
しみ 243
じゅしゅ 243
たいりく 243
だぶりゅうだぶりゅうだぶりゅう 243
ちがっ 243
つとめ 243
ていしつ 243
よかっ 243
エアロゾル 243
サーチ 243
ノキ 243
ピロ@@ 243
ホウレン 243
メチ@@ 243
２０１０ 243
ｅｎｔｉ@@ 243
ｉｎａ 243
Λ 242
きんむ 242
しゅうか 242
ないかく 242
シード 242
テーション 242
レド@@ 242
Ｂａｃ@@ 242
Ｍｕｌ@@ 242
ＹＢＣＯ 242
ｏｔｈ@@ 242
ｓｔｅ@@ 242
あやまりりつ 241
がり 241
ごうい 241
さっぽろ 241
てんたい 241
なっ@@ 241
ふえる 241
ぶり 241
みっぺい 241
もたらさ 241
よみだし 241
わるく 241
アリ 241
オキ@@ 241
オレ@@ 241
ジル@@ 241
ブラン@@ 241
プラスト 241
ＦＢ 241
ＮＯＳ 241
ＯＰＬＬ 241
ｒｐｍ 241
ああるいい 240
かんがい 240
がいとう 240
くえん 240
さばく 240
せいさい 240
せいれん 240
とくてん 240
はっそう 240
ひべん 240
ほうき 240
むきん 240
グリア 240
サンドイッチ 240
シンチグラフィー 240
デュ@@ 240
トレンチ 240
プタ 240
ベイ 240
リボン 240
ＡＳ@@ 240
Ｈｏ@@ 240
ＭＣ 240
ＭＰＯ 240
ＭｎＯ 240
ＲＯ 240
ＴＲ 240
ＹＳＺ 240
あたる 239
およぼさ 239
かいじ 239
しっきん 239
しゅうらく 239
しょはつ 239
じょそう 239
たかまる 239
てぃいでぃいえむ 239
とうちゃく 239
はいふ 239
みゃくどう 239
れえ@@ 239
ウレタン 239
ガイ 239
グメンテーション 239
ゲスト 239
ズム 239
トラッキング 239
ハドロン 239
プリズム 239
ヘキサン 239
レッド 239
ａｉ 239
ｏｓ 239
あいて 238
かおん 238
かくそう 238
かしん 238
かもつ 238
きみつ 238
こくしょく 238
しゃえい 238
しゅうねつ 238
せんえん 238
だっちつ 238
ていでん 238
のうき 238
ゴニスト 238
システイン 238
シンポジウム 238
ジャ 238
ミル@@ 238
ＭＯＳ 238
ＲＢ@@ 238
Ｒｉ@@ 238
Ｓｃｈｗ@@ 238
ｓｕｂ@@ 238
おとる 237
きっ@@ 237
さら@@ 237
して 237
じんるい 237
ぞうりょう 237
ねっしょう 237
ふとう 237
ゆたか 237
ゆる@@ 237
らんおう 237
りねん 237
アイランド 237
バンチ 237
ｉｋ@@ 237
えむええしい 236
おうえむ 236
ぐあい 236
げんど 236
しぼっ 236
たいちょう 236
だつもう 236
てぃいいい@@ 236
とうなん 236
ねんすう 236
はっか 236
ばんきん 236
ぴいえええす 236
まら 236
りっ@@ 236
ろく@@ 236
アリル 236
イド@@ 236
エキソン 236
コーン 236
ジメチル@@ 236
ミエ@@ 236
ＩＧＢＴ 236
あて@@ 235
えむぺぐ 235
こんわ 235
ごく@@ 235
せいと 235
ちょすい 235
ぴょう 235
やまがた 235
りょこう 235
カリ 235
キャッシュ 235
ジャンプ 235
スルホ@@ 235
ッシ@@ 235
バル 235
パウ@@ 235
ミニ@@ 235
ルシ@@ 235
Ｅｘ@@ 235
ＦＡ 235
Ｙｂ 235
いきち 234
えるぶい 234
がいりょく 234
ざっ@@ 234
しする 234
しもん 234
しゅうじん 234
はさっぷ 234
はじめる 234
ほそい 234
ゲル@@ 234
バッテ@@ 234
マイグレーション 234
ミジン 234
レーン 234
ンテ@@ 234
ＤＬ 234
ＤＰ 234
ＧＥ@@ 234
ＭＩ 234
ＶＬ@@ 234
ｅｈ@@ 234
ｏｕ@@ 234
ｓｉａ 234
かかり 233
きんそう 233
げんすう 233
せんたい 233
そろ@@ 233
ぞうけい 233
ちゅうてつ 233
つみ 233
のち 233
ふんじん 233
よげん 233
よみ@@ 233
カウン@@ 233
コンパ@@ 233
ジルコニア 233
ダイヤ@@ 233
ピクセル 233
プレー@@ 233
２３０ 233
Ｐｏ@@ 233
ＴＡＥ 233
せっし 232
だんそせい 232
ちゅうさん 232
てきじょ 232
びょうがい 232
ほたい 232
よじょう 232
るく 232
アスファルト 232
キサン@@ 232
グリカン 232
バイポーラ 232
フィブリ@@ 232
ミノ@@ 232
メラーゼ 232
２４０ 232
ＳｒＴｉＯ 232
ＵＴ 232
ｄｅ 232
ｆｓ 232
おちい@@ 231
がったい 231
きぶ 231
きゅうしゅん 231
きんるい 231
しんがい 231
じすべり 231
そっこう 231
ぞうた 231
たいど 231
だね 231
ちゅうそう 231
ないじ 231
にし@@ 231
ばら 231
ひだりめ 231
ふくそく 231
へいしん 231
アイデア 231
エコ@@ 231
オプション 231
ドー@@ 231
ピート 231
ＬＬ 231
ＺｒＯ 231
ａｒｙ 231
ｅｅ 231
Σ 230
いよう 230
えきせい 230
おうえる 230
こうざ 230
しいおうでぃい 230
じゃば 230
はち@@ 230
みせる 230
むい 230
むかえ 230
エア@@ 230
カーブ 230
ターミナル 230
ナル@@ 230
ニア@@ 230
メニ@@ 230
ルータ 230
ロシア 230
ング@@ 230
ＡＥＳ 230
ＣｄＳ 230
Ｈｂ@@ 230
Ｈｕｂｂａｒｄ 230
ＩＦ@@ 230
ＮＫＴ 230
ＮｂＯ 230
ｏｎｇ@@ 230
あんしん 229
いんた@@ 229
えふでぃい 229
かごしま 229
ぎん@@ 229
けいすい 229
せんめい 229
だぶりゅうじい 229
ていめん 229
てく@@ 229
ととの@@ 229
ほくせい 229
よこはま 229
るいけい 229
アブ@@ 229
フェンタニル 229
プロパ@@ 229
ロータ@@ 229
１０９ 229
ｉｎｉｔｉｏ 229
おうでぃい 228
およ@@ 228
かいれつ 228
ぎてい 228
さっちゅう 228
すいこみ 228
そうつい 228
はたらい 228
ぴいえるしい 228
ぺき 228
ゆっくり 228
りょうめ 228
インジウム 228
インデックス 228
ガリウム 228
クシ@@ 228
ケラチン 228
ネーション 228
メル@@ 228
ンプ 228
９０００ 228
Ｈｅｉｓｅｎｂｅｒｇ 228
Ｒｅ 228
かんさい 227
かんそ 227
かんろ 227
きぞく 227
きりくず 227
くみこま 227
しぼ@@ 227
ひとしく 227
みつもり 227
アニリン 227
ドラッグ 227
ニック@@ 227
バイン 227
フタロシアニン 227
ホッピング 227
メタロ@@ 227
リーク 227
ＯＣ@@ 227
ＳＧ@@ 227
うごく 226
けんき 226
じつじょう 226
じょうせい 226
ちょうせき 226
てんぽ 226
ないざい 226
はくしつ 226
ひつにゅう 226
ぶいえる@@ 226
まもる 226
ろっぽう 226
チロ@@ 226
ニホン 226
ノーゲン 226
ポリウレタン 226
ＫＣｌ 226
Ｒｂ 226
ＷＴ 226
ｅｘ 226
‘ 225
いろ@@ 225
うしつ 225
がくじゅつ 225
ぎゃっこう 225
けいはつ 225
けんりょう 225
こうび 225
すいしゅ 225
すうしき 225
そしゃく 225
とび@@ 225
とみ 225
みなし 225
みんせい 225
ウェア 225
カスタ@@ 225
シス@@ 225
ショウ@@ 225
シリン 225
ストローク 225
ブレ@@ 225
ポーラス 225
リアクタ 225
ースト 225
ＳＯ 225
Ｔｂ 225
ｃｈａｒ@@ 225
あおもり 224
いんが 224
しいけえ 224
しょうみ 224
しょてい 224
せんじ 224
とお@@ 224
びりゅう 224
よび@@ 224
らくよう 224
イギリス 224
エチ@@ 224
エレクトロ@@ 224
サラ@@ 224
ソーダ 224
デルタ 224
ミオシン 224
メル 224
ＭＴ 224
あいえぬ@@ 223
きょくち 223
こうさい 223
さが@@ 223
さまたげ 223
じょうがく 223
じょうじゅん 223
すいめん 223
ぜんそう 223
ぞん 223
とちゅう 223
はたけ 223
びょうぞう 223
ぶいえふ 223
ゆうあい 223
イト 223
グリセロール 223
チノイド 223
ティクス 223
ヒスト@@ 223
ペプチ@@ 223
マイコン 223
（@@ 223
ＴＡ 223
ｔｉｎ@@ 223
ああるぴい 222
えすだぶりゅう 222
じしゃ 222
すいせん 222
たいしつ 222
たに 222
つうろ 222
にしき 222
ひょうこう 222
びいじい 222
へんしん 222
ぼうしつ 222
よほう 222
らっ 222
ろんじゅつ 222
エキ@@ 222
クリーニング 222
ゲ 222
サスペンション 222
サン 222
シンターゼ 222
バラ@@ 222
プラトー 222
ューム 222
Ｐｓｅｕｄ@@ 222
ＶＩ@@ 222
ｌｅｃ@@ 222
ｕｒｏ@@ 222
きろめえとるまいじ 221
さくねん 221
しゃこう 221
しょくば 221
ちょうふ 221
とげ 221
のこ@@ 221
アミロイドーシス 221
グリシン 221
ッカ 221
ッチ@@ 221
ドッ@@ 221
ベスト 221
ホスファチジル@@ 221
マテリアル 221
ミオ@@ 221
ミクス 221
２２@@ 221
Ｙｏｕｎｇ 221
ｉｇｈ@@ 221
ｋｅｒ 221
かんもん 220
じゅうまん 220
たら 220
でしめえとる 220
はっかん 220
ぱあ@@ 220
へき@@ 220
アオ@@ 220
スタイル 220
テックス 220
ドライ@@ 220
ナック 220
ヒー@@ 220
プリ 220
２００@@ 220
ＰＰ 220
ｔｉｓ 220
いふ 219
がね 219
きょさい 219
きんまく 219
たいあつ 219
だんたん 219
ちょっかく 219
ながさき 219
ぬけ 219
ものづくり 219
ウント 219
サイト@@ 219
タンデム 219
ファリン 219
フュー@@ 219
フルラン 219
プラーク 219
ＡＦ@@ 219
ＰＶ@@ 219
いわて 218
ええおう 218
かさなり 218
かび 218
じゅうたい 218
せんず 218
ぴいぶいええ 218
ふきょく 218
みたさ 218
アイソザイム 218
オブザーバ 218
ストレ@@ 218
テストステロン 218
トル 218
バナジウム 218
フォル@@ 218
ムギ 218
１１００ 218
ＭＨＣ 218
ａｔｏｒ 218
ｉｃｕｓ 218
ｋｉｎ 218
ｔａ@@ 218
えんかん 217
おうえふでぃいえむ 217
かくぶ 217
ぐうはつ 217
げき@@ 217
さし@@ 217
しいだぶりゅう 217
すぎる 217
そくし 217
とうぎ 217
ぽうそう 217
よき 217
コンピューティング 217
シェア 217
ステム 217
バーチャル 217
ファージ 217
フィット 217
フォーカス 217
プレーナ 217
モザイク 217
リーブ 217
ＢＣ@@ 217
ＭＲＡ 217
えっ@@ 216
おわり 216
けつにょう 216
しゅうよう 216
たいへん 216
つよかっ 216
ぬり 216
めっきん 216
グラフィックス 216
シーン 216
ストラク@@ 216
パラ 216
ベンチャー 216
ＡＰ 216
ＡＶ@@ 216
ＢＥＲ 216
ＳＨＧ 216
ＴＯＦ 216
ｎｉ@@ 216
いいえっくす 215
おんせん 215
かかえ 215
きゅうむ 215
きょうじゅ 215
さんにゅう 215
せつげん 215
ぜせい 215
ぜんはん 215
だっしゅつ 215
ちはつ 215
ちゃくよう 215
みい@@ 215
やまい 215
インジェクション 215
オリゴ@@ 215
キトサン 215
グルココルチコイド 215
シェー@@ 215
セント 215
デオキシ@@ 215
ニューロ@@ 215
パッシブ 215
マレーシア 215
メイン 215
メタゾン 215
モノマー 215
ランタ@@ 215
レース 215
ｉａｌ 215
ｐｏ@@ 215
ｔｙ 215
えんるい 214
きんせい 214
くさち 214
くん 214
たいぶつ 214
たいら 214
でぃいおう 214
ばんぐみ 214
ふたり 214
パンチ 214
マル 214
マントル 214
モチーフ 214
ｈｅｉｍｅｒ 214
ｉｎｇｅｒ 214
ｏｍｂ@@ 214
あっぷ 213
えいず 213
さいかい 213
しが 213
じゅちゅう 213
ずう 213
つか@@ 213
どうほう 213
まさかた 213
アナフィラキシー 213
カウンセリング 213
ジッタ 213
スキャナ 213
ダク@@ 213
トモグラフィー 213
ハブ 213
ホー@@ 213
ボン 213
ｈｍ 213
ｈｙ@@ 213
うながす 212
えつ 212
おんじょう 212
くらべる 212
しびれ 212
しろ@@ 212
せんこつ 212
ぞうげ 212
たてる 212
ちち 212
ちょくめん 212
ぴいしいええ 212
ふやす 212
ほおん 212
もくし 212
ウル@@ 212
キャリブレーション 212
サイクリ@@ 212
システ@@ 212
チャンバ 212
ハンド@@ 212
ポット 212
レクチン 212
Ｈｂ 212
ＮＢ@@ 212
ＸＹ 212
ｉｒ 212
ｔｈｅｒ@@ 212
ｕｎｄ@@ 212
えきまく 211
きせん 211
きちゃく 211
きょうつい 211
げんけい 211
さぐる 211
しんやく 211
じょうあつ 211
ぞうりゅう 211
とまっ 211
ながの 211
なみ@@ 211
はたら@@ 211
ふきだし 211
アンジオテンシン 211
ストライプ 211
タイピング 211
テオフィリン 211
ブラジル 211
メソ@@ 211
メラニン 211
リゼーション 211
ルテ@@ 211
レオロジー 211
ＰＬ 211
ａｒｄ@@ 211
ｏｂａｃ@@ 211
ｏｌｄ@@ 211
ぎょば 210
さくしゅつ 210
しゅっすい 210
じきゅう 210
ぜっしょく 210
ぜんよう 210
とつにゅう 210
とれ 210
どうちゃく 210
ぬぴい 210
めいそう 210
ろうむ 210
キャピラリー 210
コンポジット 210
ショナル 210
ソリッド 210
バブル 210
ピックアップ 210
フェノ@@ 210
フォトン 210
ポン@@ 210
ＤＭＤ 210
ＦＴ 210
ＬＰＥ 210
ａｒｃ@@ 210
ｆｒ@@ 210
いつだつ 209
えすいいえ@@ 209
えふだぶりゅう 209
かいもう 209
けいりゅう 209
さかい 209
しゅうり 209
しゅっぱん 209
じょうやく 209
すいてき 209
すた@@ 209
ほうぶつ 209
ほね@@ 209
むぎ 209
もくぞう 209
オーバー@@ 209
スクリ@@ 209
ビー 209
ユビキタス 209
リアク@@ 209
ＦＯ@@ 209
ＫｒＦ 209
Ｎｘ 209
Ｐｏｉｓｓｏｎ 209
ＴＤ@@ 209
がたい 208
こい 208
さいたま 208
たんぱ 208
だろう 208
とっぱつ 208
にんか 208
ばめん 208
ひきだし 208
へんしつ 208
インダクタ 208
キュウリ 208
シナ 208
ゼーション 208
チャージ 208
フィブロ@@ 208
ＭＵ@@ 208
えきほう 207
おおい@@ 207
きんでん 207
ざわ 207
しんさい 207
なぜ 207
にっちゅう 207
にゅうよく 207
はいや 207
ぴん 207
ふぉう 207
アライ@@ 207
エピネフリン 207
カルボキシル 207
サルモネラ 207
スピン@@ 207
チオール 207
ビール 207
Ａｎｄ@@ 207
ＡｒＦ 207
あがり 206
あつみつ 206
ぎめ 206
けえあある 206
げつ 206
さんがく 206
じゅうほうでん 206
すうりょう 206
ひいく 206
ふたい 206
へいほう@@ 206
やか 206
るまい@@ 206
ウィンドウ 206
ギヤ 206
デー 206
ピュ@@ 206
マラリア 206
ＡＤＨ 206
Ｆａｒａｄａｙ 206
Ｌａｎｇ@@ 206
Ｍｙ@@ 206
Ｎｂ@@ 206
Ｒａｍａｎ 206
Ｔｒｉ@@ 206
ｏｌｅ 206
ｏｓａ 206
いちいん 205
しゅうのう 205
せんねつ 205
そうりょう 205
たんしょう 205
ちょうけい 205
とりゅう 205
はいめん 205
よやく 205
アルコ@@ 205
ウラ@@ 205
ジウム 205
ディ 205
トウ 205
バンコ@@ 205
プリン@@ 205
リフト 205
レージ 205
ＢＯ 205
Ｇａｌ@@ 205
Ｍｇ@@ 205
ＳＶ@@ 205
ｅｃｈ@@ 205
あいいい@@ 204
いちげん 204
えんせき 204
がいせん 204
きゅうでん 204
けえつう 204
こうりょう 204
ちょ 204
びいてぃい 204
ふんか 204
べんぴ 204
まな@@ 204
むだ 204
アルギニン 204
インキュ@@ 204
グリセリン 204
ケール 204
ドデ@@ 204
ネフローゼ 204
パール 204
プラチン 204
ヤング 204
リブ 204
ーニング 204
ＮＴ 204
ｋＡ 204
ｏｒａ 204
あいいい 203
いいえむあい 203
ええてぃいしい 203
ええぶい 203
しば@@ 203
じぇええ@@ 203
たしょう 203
ちゅうに 203
はんね 203
ひにょう 203
ふくい 203
ほそ@@ 203
やっこう 203
りっとる 203
れいしん 203
ッセン@@ 203
トラクタ 203
トラス 203
トーシス 203
バイン@@ 203
フェリ@@ 203
ヘリックス 203
ルアミン 203
ルビン 203
Ｃｓ@@ 203
ＧＩ@@ 203
ＧＶＨＤ 203
Ｍｉｃｒｏ@@ 203
ＲＤ 203
Ｔｃ 203
いばらき 202
うわまわる 202
おうしい 202
さぐ@@ 202
せっせん 202
であ 202
みゃくあつ 202
めやす 202
ょ 202
ろんじる 202
アセトニトリル 202
アテロ@@ 202
グローブ 202
スピード 202
プロピル 202
ヘテロ@@ 202
ルーティング 202
ロイド 202
１９８３ 202
Ｐｏｌ@@ 202
ＴＨｚ 202
ｑ@@ 202
あわせ@@ 201
うんゆ 201
えええす@@ 201
きんとう 201
ぎがびっと 201
ぎゃば 201
げんちゅう 201
こうたく 201
こうへき 201
せいざん 201
せいゆ 201
ぜっと 201
だいしゃ 201
どうしん 201
ひき 201
るえす 201
イズ 201
クール 201
スリ@@ 201
トピックス 201
ドミル 201
ナート 201
ペプ@@ 201
１９８２ 201
Ｂｒ 201
Ｌｏｒｅｎｔｚ 201
Ｌｙａｐｕｎｏｖ 201
Ｎｅｗｔｏｎ 201
ＰＷ@@ 201
Ｚｒ@@ 201
ｂｃｃ 201
ｏｎａｌ 201
√ 200
うっ@@ 200
こんだく 200
さいしょく 200
しゅうどう 200
ぜんげん 200
そだい 200
たず@@ 200
だせつ 200
にくが 200
みゃっかん 200
めざ@@ 200
ゆうりょう 200
スルフィ@@ 200
フォワード 200
ランニング 200
リオ@@ 200
０９ 200
ＡＬＰ 200
Ｃｒｏｈｎ 200
ＮＣ@@ 200
ｆｔ 200
ｒｙ 200
うりあげ 199
えふえふ 199
きゅうがい 199
しちゅう 199
じゅうゆ 199
じんてき 199
ちょうるい 199
ひんみゃく 199
みの@@ 199
りょ@@ 199
わあく 199
カリキュラム 199
ケーション 199
コンベ@@ 199
ジアミン 199
ボルタンメトリー 199
ライフスタイル 199
ＣｄＴｅ 199
ＰＩＤ 199
ａｌｂ@@ 199
ａｒｉ@@ 199
ｉｔｚ 199
ｏｐｓｉｓ 199
ｕｌａ 199
あわせる 198
いれ@@ 198
おりたたみ 198
げんよう 198
しか@@ 198
しんかく 198
すむ 198
そくさく 198
たんしょく 198
はんめん 198
ぴこぐらむ 198
ほねきり 198
アスパラギン 198
サリ@@ 198
スカ 198
スピネル 198
デュー@@ 198
マイコ@@ 198
モデ@@ 198
ージング 198
２１０ 198
Ｃｏ 198
Ｄｓｇ 198
ＧＣ@@ 198
Ｍａｃｈ 198
Ｎａｖｉ@@ 198
ＰＫ@@ 198
ａｃｈ@@ 198
ｃｌ@@ 198
あいびい 197
いいえむえす 197
いな@@ 197
かたまり 197
かたわく 197
かっき 197
きょか 197
くまもと 197
こころみる 197
このましい 197
しいおうええ 197
しま@@ 197
じゅうぎょう 197
たど@@ 197
ぶんぽう 197
もうかん 197
らあ 197
イミダ@@ 197
オラン@@ 197
タンニン 197
チオフェン 197
トマ@@ 197
バーサル 197
ミカン 197
ＱＣＤ 197
ＴＣＲ 197
ｅｐｈ@@ 197
ええぴいえす 196
かくしつ 196
がんない 196
しょくみ 196
しんざい 196
すく@@ 196
たすけ 196
ぴいあある@@ 196
べんもう 196
ぼうか 196
めいしょう 196
アポ@@ 196
アルギ@@ 196
イチゴ 196
クトン 196
シアニン 196
スタリング 196
トライボ@@ 196
ベトナム 196
メア 196
リル 196
ルギ@@ 196
４０００ 196
８５０ 196
ＣＪＤ 196
ａｚ@@ 196
ｔｏｍ@@ 196
あてはめ 195
ええびい 195
かため 195
かたより 195
しょくご 195
すえ@@ 195
てがかり 195
にちべい 195
ぼうまん 195
みつける 195
ようじゃく 195
りゅうと 195
るつぼ 195
グラン@@ 195
ジャイロ 195
スーパ 195
センサス 195
テラス 195
ムチン 195
１１@@ 195
ＡＣＴＨ 195
ＦＥ 195
ＯＣ 195
ｂｕｒ@@ 195
ｃｅｒ@@ 195
ｉｎｔｅｒ@@ 195
あいてぃいゆう 194
いいぶい 194
いしょう 194
えいちでぃいでぃい 194
おろ@@ 194
きぶん 194
ぎょうしゅ 194
しいあある@@ 194
しゅうろく 194
なら@@ 194
はらい 194
ばけもの 194
ふせ@@ 194
へきかい 194
みしょう 194
りょうひ 194
イカ 194
ウレ@@ 194
オーバー 194
カット@@ 194
クリニック 194
シャフト 194
スプライ@@ 194
ヒアル@@ 194
フィブリン 194
フェロモン 194
ＨＳＰ 194
Ｈｅｌｉｃ@@ 194
ＱＤ 194
ＴｉＣ 194
ａｂｌｅ 194
ｍｏｄ@@ 194
ああるぶい 193
うたがう 193
うめこん 193
えむえいち 193
かくれ 193
きょうてい 193
けつぞう 193
こうせつ 193
ごこち 193
つく 193
てきど 193
とわ 193
ながかっ 193
びいしいじい 193
ぴいぴいびい 193
ふぃっ@@ 193
むかう 193
もん@@ 193
ゆるみ 193
ようり 193
よゆう 193
アッシュ 193
ガム 193
クロロホルム 193
コンピュー@@ 193
ダイレクト 193
チョウ 193
ヒストン 193
ファジ@@ 193
プロゲステロン 193
ヘリコ@@ 193
ホルマリン 193
ボン@@ 193
ポリカーボネート 193
メガ 193
メダ@@ 193
メルト 193
レプリ@@ 193
ＨＢＴ 193
ＮＯ 193
ＰＡＲ 193
ａｙ 193
ｏｒｅ 193
かさねあわせ 192
きゃ@@ 192
こくさん 192
こわ@@ 192
さだめる 192
せいじ 192
そうぐ 192
たいむ 192
てきてい 192
とくしつ 192
のあ 192
ひんい 192
みじ@@ 192
もほう 192
よぶん 192
より@@ 192
りな@@ 192
るす 192
れんりつ 192
イオ@@ 192
シラ@@ 192
ヌス 192
ハード@@ 192
ハードウエア 192
ベンジル 192
ホテル 192
レイノルズ 192
ＡＰＣ 192
ＤＣＴ 192
Ｎｐ 192
ＴＲＡ@@ 192
ｒａｍ@@ 192
あつく 191
おうたい 191
かえり 191
かんぶ 191
くっ@@ 191
しほん 191
ぞうばい 191
たの@@ 191
だつえん 191
つながっ 191
とら@@ 191
べる 191
インタビュー 191
スコピー 191
ダー@@ 191
ニオブ 191
バイオテクノロジー 191
ミット 191
リシン 191
ルーチン 191
レントゲン 191
ＦＭ 191
ＮＢ 191
Ｓｃｈｒｏｅｄｉｎｇｅｒ 191
ＶＯ 191
ａｓｓ@@ 191
ｔｉｌ@@ 191
うったえる 190
かしょく 190
ちゃくりく 190
でい@@ 190
どうねん 190
はくどう 190
はっちゅう 190
ぶいえるえすあい 190
もっと 190
ウイ@@ 190
エストラジオール 190
バリオン 190
ビスマス 190
プラス@@ 190
Ｆｅ 190
ａｃｅ@@ 190
ｅｎｃ@@ 190
ｈｒ 190
ｏｉｄｅｓ 190
ｓｕ@@ 190
がいき 189
がいまく 189
けんり 189
ただ 189
つうさん 189
つくりだす 189
ひさい 189
びいえいち 189
へいきゅう 189
らくさん 189
イコ@@ 189
シンク 189
スリップ 189
トリウム 189
ヌクレオ@@ 189
フレームワーク 189
プリン 189
ポニン 189
ャ@@ 189
レーター 189
Ｍｏｄ@@ 189
Ｐｅ@@ 189
ａｎｔｈ@@ 189
ｍａｒ@@ 189
えいちびい 188
かいぎょう 188
かいどく 188
がれ 188
きい 188
ぎふ 188
こけ 188
こめ@@ 188
ざいいん 188
せいきゅう 188
ぞくし 188
だんほうじん 188
のん 188
ひょうじょう 188
ひろげ 188
もうける 188
りつい 188
サーマル 188
スプリング 188
ナン 188
プログラ@@ 188
ペンタ@@ 188
メモリー 188
ヤマ@@ 188
３６０ 188
Ｆａｓ 188
Ｆｒ@@ 188
ＲＬ 188
ｙｌ 188
きょうだい 187
けんない 187
じぇえええ 187
じゅんか 187
じょほう 187
でぃいえふ@@ 187
とうろん 187
とき@@ 187
はばひろく 187
ひそ 187
ふじつう 187
ぼうしん 187
まいりっぽうめえとる 187
まえむき 187
もどっ 187
りょうたん 187
ろうりょく 187
アディポ@@ 187
セッション 187
トレース 187
ナノス 187
バッ@@ 187
パラダイム 187
ピ 187
フーリエ 187
ボイラー 187
マーケット 187
レジン 187
レトロ@@ 187
ロット 187
ＡＤ@@ 187
ＣＩ@@ 187
ＮＲ 187
ｃｒ@@ 187
いいえ@@ 186
いたら 186
えいご 186
おもて 186
かしつ 186
きし 186
くど 186
こかつ 186
ころがり 186
こんらん 186
しゅすい 186
しょうもう 186
しょくさい 186
しんたん 186
たし 186
はじ 186
ほくとう 186
むすい 186
らいん 186
アブラ@@ 186
ゴミ 186
スパイラル 186
トロン@@ 186
パック 186
ヒアリング 186
ペニシリン 186
ロジック 186
ート@@ 186
Ｃａｎｄ@@ 186
Ｃｕ 186
ａｌｌ 186
ｏｓｉｓ 186
≒ 185
あいんしゅたいん 185
うしん 185
ききょう 185
くうほう 185
げけつ 185
さくにゅう 185
じわい 185
ちがう 185
ちゅうしょう 185
とりのぞく 185
のうりん 185
はんとし 185
ひがし@@ 185
みき 185
みつかっ 185
よくあつ 185
よこぎる 185
りこみ 185
エリスロ@@ 185
カンチ@@ 185
シンボル 185
セルフ 185
ナント 185
ビリ@@ 185
ヘルペスウイルス 185
ＧＤ 185
ＨＡｐ 185
Ｈｃ 185
Ｓｔｒｅｐｔ@@ 185
ｂｅｒ@@ 185
ああるえぬ 184
ああるじい 184
いよく 184
えぬいいでぃいおう 184
さっきゅう 184
しょぞく 184
しわ 184
しんまく 184
ぞうげん 184
ちい 184
ひもの 184
ひょうだい 184
ふり 184
みこま 184
れんそう 184
わっ@@ 184
アシスト 184
アナライザ 184
インターロイキン 184
エレクトロルミネセンス 184
サイレージ 184
スマ@@ 184
バイス 184
フタ 184
フレア 184
プロペラ 184
ベ 184
マスター 184
ランス 184
ラント 184
ワイヤー 184
Ｂｅ@@ 184
Ｄｉｓ@@ 184
ＧＰ@@ 184
Ｉｎｔ@@ 184
ＫＯＨ 184
ａｌｓ 184
ｙｓｔ@@ 184
えすいい@@ 183
くうふく 183
こくち 183
しょうあつ 183
しょうさ 183
しょげん 183
じいてぃいぴい 183
そっ@@ 183
てぃいでぃい 183
ぴ@@ 183
グロビン 183
ゲン@@ 183
サート 183
サーボモータ 183
スパーゼ 183
ッグ 183
ハザード 183
ハロー 183
ヒラ@@ 183
フェロ@@ 183
フローサイトメトリー 183
プロジェ@@ 183
リムス 183
ワークショップ 183
ＦＰＤ 183
Ｍｓ 183
ＳＥＴ 183
ＵＮ@@ 183
ｂａｕｅｒ 183
ｉｃｈ 183
ｉｃｋ@@ 183
スー@@ 182
ＦＳＨ 182
Ｈｉｇｇｓ 182
ＭＤＡ 182
ＰＲ 182
ＷＭ 182
ｅｎｃｅ 182
ｔｓ 182
きび@@ 181
ッチング 181
メカ@@ 181
ちかづ@@ 180
ンバ 180
くと 179
そと@@ 179
ひつ@@ 179
ヘ 179
こころ@@ 178
フルエン@@ 178
アスペ@@ 177
ジルコ@@ 177
トラ 177
プラン@@ 177
やぶ@@ 176
＝@@ 176
々 175
ＬＬ@@ 175
ｓｉｔ@@ 175
あお@@ 174
ゃく@@ 174
アント 174
ステリ@@ 174
バータ 174
リド 174
きわ@@ 173
ぺえ@@ 173
まち@@ 173
ネラ 173
ュアル 173
えいち 172
きる 172
ＸＡＦＳ 172
アデノ@@ 170
シウム 170
おな@@ 169
とし@@ 169
ぴいだぶりゅう@@ 169
ホスファ@@ 169
ーツ 169
ζ 168
ねじ@@ 168
エンジ@@ 168
コロ@@ 168
スク 168
フィード@@ 168
メラ 168
メージ 168
モンド 168
キャパシ@@ 167
リハ@@ 167
ｏｍｐ@@ 167
かぎ@@ 166
っちゅう 166
ニトリル 166
べい@@ 165
すく 164
アルキ@@ 164
フィス 164
えら@@ 163
はげ@@ 163
ｂｅｒｇ 163
１９８@@ 162
けれ 161
びっと 161
ゃ@@ 161
コルチコ@@ 161
タル@@ 161
バクテ@@ 161
ベイ@@ 161
ョ 161
いわ@@ 160
よわ@@ 160
トランスフェ@@ 160
トープ 160
ョ@@ 160
ＹＢ@@ 160
ぞく@@ 159
チウム 159
バナ@@ 159
たた@@ 158
とも@@ 158
まっ@@ 158
タス 158
する@@ 157
はた@@ 157
ぷく 157
ィ@@ 156
かざ@@ 155
ザイム 155
セラミ@@ 155
チック 155
かず@@ 154
イミド 154
インターフェ@@ 154
ヘリ@@ 154
メーター 154
レオ@@ 154
ぅ@@ 153
とぼ@@ 153
なえる 153
ゲノ@@ 153
スキャ@@ 153
とつ@@ 152
モニ@@ 152
うた@@ 151
げっ@@ 151
だく 151
つげん 151
ゃ 151
アス@@ 150
はま 149
グロ@@ 149
ピー@@ 149
ＫＡ 149
ｉｅ 149
ふぃ@@ 148
サイクロ@@ 147
ジストロ@@ 147
ソード 147
タク@@ 147
チド 147
モーター 147
ユ 147
はは@@ 146
マラ@@ 146
ャ 146
ＣＤ 146
ィ 145
セプ@@ 145
さまた@@ 144
つなが@@ 144
りょ 144
くす@@ 143
くず 143
らべ 143
エマル@@ 143
プロピレン 143
すべ@@ 142
たく@@ 142
インフ@@ 142
たま@@ 141
めて 141
エータ 141
うわま@@ 140
さか@@ 140
エピタキシ@@ 140
スペー@@ 139
ゅ@@ 138
インデ@@ 138
ジェネレーション 138
´ 137
ぽう@@ 137
デス 137
ハロ@@ 137
フルオ@@ 137
ｕｎｇ 137
しいえふ@@ 136
でい 136
りゃく 136
タリング 136
レンス 136
いいい 135
アス 135
ッケ@@ 135
ヒ 135
うなが@@ 134
たしか@@ 134
Ｍａｃ@@ 134
ふてぃい 133
テル 133
ヌクレ@@ 133
ＫＴ 133
ｒａｇ@@ 133
すな@@ 132
アセチル@@ 132
Ｉｓ@@ 132
ぃ@@ 131
づ 131
えじ 130
さだ@@ 130
シナ@@ 130
らき 129
シリン@@ 129
ミッ@@ 129
あき@@ 128
あては@@ 128
カス 128
メトリ@@ 128
あぶ@@ 127
かんが@@ 127
ころ@@ 127
シミュ@@ 127
ヘルペ@@ 127
ペ 127
＃ 127
ｃｕｓ 127
びれ 126
プレドニ@@ 126
ルミネ@@ 126
Ｋｒ@@ 126
ｉｃｒｏ@@ 126
みちび@@ 125
アト@@ 125
ステロール 125
がかり 124
たいん 124
ェ@@ 124
すて@@ 123
ぜっ@@ 123
ほく 123
むず@@ 123
アンス 123
ケミ@@ 123
エポ@@ 122
キャビ@@ 122
ダンス 122
モグラフィー 122
アンギ@@ 121
オス 121
Ｈｅｌ@@ 121
カナ@@ 120
コルチ@@ 120
ビュー 120
ポル@@ 120
ねつ@@ 119
はる@@ 119
ヨー@@ 119
あらわ@@ 118
つえん 118
ゅう 118
プラズ@@ 118
ｈｎ 118
かいどう 117
しいえいち@@ 117
はば@@ 117
ばら@@ 117
トライ@@ 117
ＰＬＬ 117
ぃ 116
ながれ@@ 116
クレア@@ 116
フラン@@ 116
ＵＩ@@ 116
ψ 115
おそ@@ 115
アシ@@ 115
タノール 115
ピラ@@ 115
Φ 114
しゅん 114
たしか 114
グリセ@@ 114
ミネ@@ 114
ライザ 114
リガ@@ 114
』 113
ぺい 113
ぼね 113
ましい 113
フィリン 113
『 112
もた@@ 112
らす 112
オブ 112
セ 112
トン@@ 112
リポ@@ 112
ナンス 111
えぬじい 110
ドミ@@ 110
プライン 109
かさね@@ 108
グラフィ@@ 108
ペラ 108
おうえっくす 107
ょく 107
イミ@@ 107
フト@@ 107
ＪＤ 107
″ 106
ぞ 106
たす@@ 106
みち@@ 106
クロマ@@ 106
ソル 106
ホイ@@ 106
ａｕ 106
デル@@ 105
ヌ 105
パッケ@@ 105
フェン@@ 105
さま@@ 104
ターゲ@@ 104
ペロ@@ 104
うぇ@@ 102
でぃいえぬ@@ 102
エミッ@@ 102
コンド@@ 102
トナ@@ 102
プン 102
だつ@@ 101
グルタ@@ 101
ステロン 101
ハイブリ@@ 101
ブリン 101
セッ@@ 100
とじ@@ 99
アルミ@@ 99
インダ@@ 99
クトル 99
グレーション 99
ケート 99
ジュール 99
スピー@@ 99
セキュ@@ 99
ＳＱ@@ 99
たたみ 98
ＭＨ@@ 98
ビジ@@ 97
ＩＧ@@ 97
ｖｏ 97
‖ 96
しる@@ 96
たと@@ 96
なま@@ 96
めえ@@ 96
ギュ@@ 96
トウ@@ 96
ｅｐｔ@@ 96
すす@@ 95
マチック 95
えむあある@@ 94
くそう 94
ちい@@ 94
るしい 94
ウリ 94
リモ@@ 94
ｓｅｕｄ@@ 94
コルチコイド 93
ずか 92
クォ@@ 92
コンタ@@ 92
ゼ 92
ミュニ@@ 92
ぴいゆう 91
プラット@@ 91
ベント 91
まじ@@ 90
みり@@ 90
テクノ@@ 90
ニカル 90
ネリング 90
ｕｓｈ@@ 90
いちじる@@ 89
いり@@ 89
インジェ@@ 89
スプレイ 89
マネー@@ 89
ｏｉｄ@@ 89
おこ@@ 88
ぺぐ 88
やわ@@ 88
アパ@@ 88
ゲーション 88
おか@@ 87
インス@@ 87
デザ@@ 87
どい 86
エキシ@@ 86
エピタ@@ 86
カテゴ@@ 86
ザー@@ 86
ダイナ@@ 86
マリン 86
… 85
ええす 85
チオン 85
プロー@@ 85
くりか@@ 84
すぺ@@ 84
ソリ@@ 84
Ｉｇ@@ 84
ピオ@@ 83
えば 82
ふじ@@ 82
わく@@ 82
カマ@@ 82
クローナル 82
ビデ@@ 82
フィル@@ 82
モチ@@ 82
ｏｒｉ 82
ぎる 81
ステン@@ 81
ＧＶ@@ 81
￣@@ 81
えいちてぃいえ@@ 80
ぎが@@ 80
てぃいてぃい 80
やさ@@ 80
ギャ@@ 80
ューション 80
ジェント 79
たっ@@ 78
ぴいえいち@@ 78
インシュ@@ 78
ブラジ@@ 78
ひが@@ 77
むずか@@ 77
ナビ@@ 77
バックグラ@@ 77
ロバ@@ 77
あいぶい 76
セロ@@ 76
ポテン@@ 76
リオ 76
ルギ 76
ルギー 76
ティア 75
クセル 74
フラク@@ 74
ムス 74
ぎゃ@@ 73
ペニ@@ 73
？ 73
ぶいええ 72
スメク@@ 72
フィ 72
フィラ@@ 72
フレキシ@@ 72
メリ@@ 72
シーケ@@ 71
スケジュー@@ 71
テキ@@ 71
バコ 71
ＣＹ@@ 71
くま@@ 70
インメント 70
ショップ 70
ニコ@@ 70
プロスタ@@ 70
メトリック 70
ＥＤ 70
ぉ@@ 69
おの@@ 69
イチ@@ 69
プレド@@ 69
メンテーション 69
サルコ@@ 68
マニピュ@@ 68
Ｄａ 68
∝ 67
はね@@ 67
われ@@ 67
ｏｔｔ@@ 67
クローム 66
セプター 66
トランジ@@ 66
ヘモ@@ 66
ゃく 64
セプタ 64
ファイト 64
フィー 64
リウ@@ 64
＿ 64
ささ@@ 63
ゥ@@ 63
スプレ@@ 63
デヒドロ@@ 63
パーキン@@ 63
ａｓｓ 63
ｔｒｏ 63
ξ 62
だぶ@@ 62
でぃいえむええ 62
ぶいいい@@ 62
データ@@ 62
レオ 62
うけい@@ 61
アミロ@@ 61
Ｌｙ@@ 61
ｋｙ 61
あいてぃい@@ 60
ひく@@ 60
ォ 60
ストン 60
セス 60
ｏｍｙｃ@@ 60
しく@@ 59
アンモニ@@ 59
チト@@ 59
つば@@ 58
まいびょう 58
イメー@@ 58
でぃいえぬ 57
サス 57
スペン@@ 57
セプト 57
ロボ@@ 57
ＳＦＥＴ 57
ひだ@@ 56
Ｒａｍ@@ 56
らさ 55
コミュニ@@ 55
ゼン 55
パシ@@ 55
Ｇａｕｓ@@ 55
△ 54
はじ@@ 54
ぶいでぃい 54
アルド@@ 54
ジメント 54
スパイ@@ 54
フィリ@@ 54
メカニ@@ 54
リウマ@@ 54
レント 54
ｅｎｂｅｒｇ 54
いつ@@ 53
べつ@@ 53
らぎ 53
コントロ@@ 53
ザイ@@ 53
ステロ@@ 53
ホルム 53
マシ@@ 53
Ｃｒｏ@@ 53
いいえむ@@ 52
イント 52
ッセ@@ 52
フリン 52
レンチ 52
ｏｍｏｎ@@ 52
さか 51
じる@@ 51
アンドロ@@ 51
カウンセ@@ 51
クタンス 51
チレン 51
ファイア 51
Ｋｅｒ@@ 51
っくり 50
ギン 50
ドロン 50
メク@@ 50
いび@@ 49
おもり 49
ひび@@ 49
ザーバ 49
ドロ 49
フォーマ@@ 49
）@@ 49
＠ 49
くも@@ 48
ァ@@ 48
スポリン 48
チニン 48
ノック@@ 48
うり@@ 47
せかんど 47
ぴつ 47
ウィン@@ 47
グロー@@ 47
ジャイ@@ 47
フー@@ 47
プラスチ@@ 47
↓ 46
えすおう@@ 46
ごや 46
パッシ@@ 46
ホルム@@ 46
ポジット 46
くん@@ 45
ぜい@@ 45
へく@@ 45
アーキテク@@ 45
ケモ@@ 45
ネット@@ 45
パーソ@@ 45
ホスファチ@@ 45
リグ@@ 45
いいい@@ 44
おおき@@ 44
ぺ 44
クリート 44
ダイナミ@@ 44
ｋｅｓ 44
ｐｍ 44
そし@@ 43
とりく@@ 43
りっぽう@@ 43
ックアップ 43
ユビキ@@ 43
Ｎｅｗ@@ 43
Ｔｏｒ@@ 43
ＹＳ@@ 43
かかわ@@ 42
さつ@@ 42
アスパラ@@ 42
ウエア 42
カイト 42
ガイド@@ 42
ヅ@@ 42
テオ@@ 42
トー 42
！ 42
⊥ 41
アスファ@@ 41
カーボネート 41
ｏｃｃｕｓ 41
あんぺ@@ 40
くり 40
けもの 40
りえ 40
ファミ@@ 40
Θ 39
Ψ 39
↑ 39
ぐらむ 39
オフ@@ 39
みた@@ 38
アメリ@@ 38
イレ@@ 38
キト@@ 38
ヘパ@@ 38
えふでぃいえむ 37
つよう 37
へる@@ 37
アプリ@@ 37
Ｃｕｒ@@ 37
□ 36
つづ@@ 36
なめ 36
めっ@@ 36
やっ@@ 36
ストライ@@ 36
ブロード@@ 36
Ｌｏｒ@@ 36
ｍｕ@@ 36
Ξ 35
μ@@ 35
なめ@@ 35
ょう@@ 35
エステ@@ 35
ジュー@@ 35
％ 35
ａｕｅｒ 35
Π 34
じゅく@@ 34
アフリ@@ 34
アランス 34
インテリ@@ 34
オブ@@ 34
サギ 34
ソフト@@ 34
ボラン@@ 34
ーゼ@@ 34
Ｌａｎｄ@@ 34
ども 33
まいじ 33
エネ@@ 33
カテー@@ 33
マクロ@@ 33
あたら@@ 32
んかん 32
エアロ@@ 32
エストロ@@ 32
キャピラ@@ 32
スパッ@@ 32
マテ@@ 32
≠ 31
ひっぱ@@ 31
チェット 31
フェース 31
ワーク@@ 31
← 30
≡ 30
カーボ@@ 30
コンデン@@ 30
コンピ@@ 30
スタッ@@ 30
モンテ@@ 30
こち 29
ただ@@ 29
イダル 29
ネシア 29
ボルタン@@ 29
ヨ 29
おの 28
ハミ@@ 28
フォーマンス 28
かじ@@ 27
ぼると 27
アクチュ@@ 27
エキスパ@@ 27
スメント 27
ミナル 27
ｃＡ@@ 27
ｃｃ 27
ｉｇｇ@@ 27
ｉｍｅｒ 27
オキシン 26
ルミオン 26
Ｈｕｂｂ@@ 26
Ｐｏｉｓ@@ 26
ｉｎｉｔｉ@@ 26
ぐり@@ 25
ぜっと@@ 25
クテ@@ 25
ゼオ@@ 25
テライト 25
ネズ@@ 25
ｕｂｂ@@ 25
‰ 24
すき@@ 24
つおん 24
つぼ 24
るま 24
ゴニ@@ 24
ヂ@@ 24
ちいさ@@ 23
ズル 23
デヒ@@ 23
ネフロ@@ 23
フーリ@@ 23
ｙｌｅ@@ 23
≪ 22
オーディ@@ 22
テマ@@ 22
トロピー 22
ニアン 22
ャル 22
ＡＦＳ 22
Ｄｏｐ@@ 22
ざま 21
オテン@@ 21
コヒー@@ 21
ダイレ@@ 21
プロゲ@@ 21
モロ@@ 21
レント@@ 21
ロシアニン 21
ｏｍｂ 21
ぇ 20
すん@@ 20
ぜっとてぃい 20
もとづ@@ 20
トラスト 20
モンテカル@@ 20
ーゼル 20
‐@@ 19
≫ 19
ここ@@ 19
ちつ@@ 19
まり@@ 19
アディ@@ 19
ザード 19
トラヒ@@ 19
ミト@@ 19
メッセ@@ 19
Ａｕｇ@@ 19
えいい 18
ます@@ 18
エスト@@ 18
コンテン@@ 18
サーボ@@ 18
ゾロン 18
トピ@@ 18
ドイ@@ 18
ドーシス 18
モリブ@@ 18
有@@ 18
Ｙｏ@@ 18
ぅ 17
かう 17
せんと 17
なの@@ 17
みどり@@ 17
ゅ 17
エンタル@@ 17
オード 17
ピュータ 17
ロッパ 17
Ｄｓ@@ 17
∇ 16
いざ 16
えね 16
がう 16
どり@@ 16
びと 16
ほと@@ 16
ゥ 16
スウイルス 16
ニトリ@@ 16
バルト 16
ムワーク 16
ーシス 16
ｉｇｈ 16
ｙｌｏｒｉ 16
∂ 15
∈ 15
どまり 15
ァ 15
ォ@@ 15
スタミン 15
ヂ 15
プリング 15
ホウ@@ 15
Ｓｔｏ@@ 15
かご@@ 14
コル 14
ニッケ@@ 14
ボイ@@ 14
ンネル 14
Ｃｏｕｌ@@ 14
Ｆａｒ@@ 14
＾ 14
せんち@@ 13
ゐ@@ 13
アンジ@@ 13
エーロ@@ 13
コラー@@ 13
ジェクト 13
フォーム@@ 13
プロスタグラン@@ 13
ペロブス@@ 13
１９９@@ 13
Ｆｅｒｍ@@ 13
Χ 12
υ 12
しょっ@@ 12
すぐ@@ 12
っそ 12
らべる 12
アルブ@@ 12
オピオ@@ 12
ハウ 12
バイル 12
ブス@@ 12
プライアンス 12
リブ@@ 12
ＡＣＴ@@ 12
ι 11
―@@ 11
たわ@@ 11
だぶりゅうだぶりゅう@@ 11
ゆる 11
アナフィラ@@ 11
アルゴ@@ 11
アルデヒ@@ 11
エピネ@@ 11
グメント 11
シンポ@@ 11
ジタル 11
スチャ 11
ネント 11
バーチャ@@ 11
》 10
ぐるま 10
アレル@@ 10
アーキ@@ 10
キシー 10
ジェニック 10
デム 10
フローサイト@@ 10
プロセッ@@ 10
ライフ@@ 10
＄ 10
ｊａｐ@@ 10
ｕｓｈｉｎｇ 10
⇔ 9
−@@ 9
☆ 9
♯ 9
すいた 9
でぃいてぃいでぃい 9
めえとる 9
もす 9
キャリブ@@ 9
サスペン@@ 9
タング@@ 9
ボル 9
メモ@@ 9
Ｓｃｈｒｏ@@ 9
∪ 8
ょ@@ 8
よご@@ 8
カスケ@@ 8
ハイブリダイ@@ 8
プロフィ@@ 8
マレー@@ 8
÷ 7
⊆ 7
♂ 7
《 7
ちら 7
めえとる@@ 7
インピー@@ 7
コンポー@@ 7
ッセイ 7
テスト@@ 7
ニワ@@ 7
ノウ@@ 7
フラー@@ 7
ヘテ@@ 7
モザイ@@ 7
モット 7
Ｊｏｓ@@ 7
￥ 7
⇒ 6
∫ 6
ぁ@@ 6
あんぺあ 6
いは 6
ぉ 6
ぢ 6
とと@@ 6
アモル@@ 6
インフルエン@@ 6
テナ 6
トリノ 6
ビキ@@ 6
＋@@ 6
Ｒｅｙｎ@@ 6
ＵＩＤ 6
±@@ 5
∩ 5
⊂ 5
▽ 5
♀ 5
アイデ@@ 5
アスピ@@ 5
アルツハイ@@ 5
エンジニア@@ 5
コシ 5
ヅ 5
フェンタ@@ 5
メンテ@@ 5
モロコシ 5
ヴ@@ 5
Ｌｏｒｅｎｔ@@ 5
Ｓｃｈｒｏｅｄ@@ 5
ｉｓｅｎｂｅｒｇ 5
ｏｌｄｓ 5
ｐｌｅｒ 5
Δ@@ 4
Υ 4
ο 4
ぐる 4
それ@@ 4
わっと 4
イギ@@ 4
エリテマ@@ 4
ガソ@@ 4
キュラム 4
クトロ@@ 4
トーデス 4
ベツ 4
リパ@@ 4
，@@ 4
／@@ 4
Ｆａｒａｄ@@ 4
Ｈｉｇｇ@@ 4
ａｐｕｎｏｖ 4
ｕｎｏｖ 4
ｙｌｅｉｇｈ 4
¨ 3
Β 3
Η 3
δ@@ 3
θ@@ 3
б 3
‡ 3
√@@ 3
〉@@ 3
じゅうに@@ 3
すかる 3
とる@@ 3
はあ 3
ばらき 3
を@@ 3
アスコル@@ 3
イドーシス 3
サーベイ@@ 3
ステン 3
ハイド@@ 3
パク 3
パソ@@ 3
Ｂｒａｇ@@ 3
Ｊｏｓｅｐｈ@@ 3
［@@ 3
］@@ 3
ｍｕｉｒ 3
ｏｎｄｏ 3
¬ 2
κ@@ 2
ρ@@ 2
Г 2
”@@ 2
∧ 2
∫@@ 2
〃 2
〈@@ 2
〔@@ 2
〕@@ 2
えぬいい@@ 2
およぼ@@ 2
すみや@@ 2
ひきおこ@@ 2
ぽろ 2
エビデ@@ 2
オーストラ@@ 2
サンドイ@@ 2
ヒステリ@@ 2
ファス 2
フォームド 2
ミトコンド@@ 2
ライブラ@@ 2
ラジオール 2
ヲ 2
＊@@ 2
ＲＨＥ@@ 2
｀ 2
ｏｔｔｋｙ 2
￥@@ 2
÷@@ 1
Ε@@ 1
Σ@@ 1
Τ 1
Χ@@ 1
Ψ@@ 1
ε@@ 1
η@@ 1
ι@@ 1
π@@ 1
τ@@ 1
Н 1
П 1
’@@ 1
℃@@ 1
∞@@ 1
∽ 1
⊃ 1
○ 1
」@@ 1
ぁ 1
がいしゃ 1
でし@@ 1
ばいと 1
みゃ@@ 1
るぶい 1
ゝ 1
オテンシン 1
オーステ@@ 1
カドミ@@ 1
ダイム 1
ツハイ@@ 1
ドレナ@@ 1
ハミルト@@ 1
ヒネ 1
ベトナ@@ 1
マルテン@@ 1
ムト 1
ラチン 1
リハビリ@@ 1
ロイキン 1
ヲ@@ 1
；@@ 1
＞@@ 1
＼ 1
madeupword0000 0
madeupword0001 0
madeupword0002 0
madeupword0003 0
madeupword0004 0
madeupword0005 0
madeupword0006 0
