# 12655650
< 12655650
> 12655650
の 1700556
， 1304102
に 1161236
を 1041240
た 987483
。 958708
し 939222
は 630444
て 563051
で 544183
と 525214
が 464265
umc 303572
い 242693
する 233791
ldbi 229071
る 216959
さ 203469
か 200488
） 196851
nrr 186596
oyd 176660
な 176254
せい 172262
（ 168113
nkrs 168111
tgex 153929
れ 146709
xsbr 146423
てき 145568
ある 141576
こと 141336
vbzs 139229
ya 138773
wd 138536
hmy 134112
fvkz 131239
odaj 125024
meby 124546
および 124373
つい 120276
wzmc 116343
nfa 112823
Ｃ 109755
sods 108740
き 108398
より 106596
zbja 105684
oi 104437
から 103414
sjld 103073
す 100289
っ 99951
kfvv 99536
xdug 97976
jivv 97241
rlym 96587
xdk 96239
sy 95413
２ 94325
fojo 92289
え 90322
いる 88448
Ａ 88329
zqrr 88138
bk 87870
gd 87324
も 86634
‐ 86216
skrs 85554
ida 84323
taii 83973
Ｓ 83917
fjzm 83628
fzho 83164
wdco 82753
nark 81656
め 81431
ckb 80647
ufzm 80103
べ 79578
こう 78587
び 78583
yms 78343
mbro 77758
ほう 77617
ため 76308
１ 75978
felb 75436
zizi 75429
く 75195
oifs 74717
aepd 74008
mbbd 73820
kakb 73660
tigs 72833
oizr 72717
gdq 72619
ym 71900
nmid 71298
よる 70936
sujy 70614
favv 70113
Ｐ 69998
その 69351
tgwz 68443
slbj 68402
てん 68328
vlkd 68032
a 67754
ymj 67475
seda 67099
vdwy 67078
この 67039
xdae 66759
pdpl 65888
sooy 65225
clr 64921
zki 64799
・ 64724
ldod 64705
ら 64410
kv 63836
aekb 63833
kbds 63384
じ 63202
ecb 62964
ない 62778
gjkd 62304
aid 62184
ciz 62065
や 61924
mamb 60230
Ｔ 59942
Ｍ 59609
bm 59525
おけ 59479
もちい 59379
mlka 59259
Ｉ 59239
３ 59106
kqvv 58061
Ｄ 57900
znkv 57897
けっか 57607
tgkk 57001
mbjw 56926
しょう 56789
myos 56041
cujo 55881
vszn 54688
． 54594
fdor 54451
bkro 54384
fpd 54078
り 53681
kogr 53609
nrs 53488
qry 53405
よう 53161
kcxs 52579
ecq 52296
mekb 52211
たい 51962
sujr 51541
れい 51517
mblk 51082
など 50918
fsw 50859
sysw 50859
う 50069
しめし 49434
svze 49386
mfkb 49176
odc 48437
み 48421
ｍ 48174
けい 48142
oda 48114
bukk 48103
かん 47937
flvv 47859
さいぼう 47739
qekg 47410
sqxa 47369
rsrs 47289
lkel 47165
られ 46721
Ｒ 46561
また 46514
あっ 46425
mwy 46068
byi 45765
システム 45668
uawd 45661
rrrr 45652
れる 45570
cirh 45374
／ 45298
つ 45219
かいはつ 45140
nlj 44835
gae 44454
ひ 44380
cha 44139
zxb 44098
がた 43877
vklk 43856
ggb 43657
aij 43490
flc 43436
jjiw 43296
gdiy 43123
sdsa 43063
のべ 42993
Ｎ 42843
kieo 42832
けんとう 42714
sulw 42709
ta 42621
Ｏ 42598
fjw 42470
jdj 42457
buyx 42435
vxi 42161
ufzd 42077
woqy 41849
nbzs 41734
ggnk 41707
bmaz 41554
へ 41462
shbi 41429
けんきゅう 41303
nsu 40931
こうぞう 40909
ちゅう 40763
じょう 40594
ufte 40321
mzvv 39937
ffbk 39927
zlc 39565
ld 39529
boqu 39526
ち 39421
これ 39366
りょう 39360
Ｈ 39309
ねん 39171
md 39165
idju 38961
bi 38946
lra 38835
dexs 38767
vhaj 38728
vmi 38644
そくてい 38614
sufp 38443
ka 38347
さい 38309
zsrw 38279
こうか 38247
nelz 37889
ko 37818
nfj 37618
Ｅ 37516
hsbi 37289
yzzi 37168
gi 37144
bhja 37126
tdro 37044
oiad 37032
せん 36977
pdxs 36925
Ｌ 36473
la 36410
Ｆ 36242
kojl 36223
mbsr 36146
ljw 36142
kuuc 35971
syy 35917
ｉ 35824
vzj 35821
おい 35813
odnd 35716
nl 35523
dsqd 35497
ぎじゅつ 35452
najo 35237
kskp 35035
４ 34962
zsod 34915
ｅ 34764
wz 34625
dszm 34599
xmlk 34583
evnf 34224
gwni 34033
しゃ 33978
kaig 33969
manl 33721
かいせき 33657
よっ 33614
sopd 33318
だい 33204
かのう 33143
fkbz 33013
mfrr 32831
できる 32728
ｎ 32643
とう 32606
ほうほう 32561
jd 32505
そう 32504
soal 32494
vsnr 32433
け 32406
rsid 32385
guzz 32379
せ 32311
ご 32303
ちょう 32013
aua 31764
りつ 31698
symy 31533
たいする 31468
rsj 31408
おこなっ 31356
わ 31266
niw 31263
aza 31253
ちりょう 31076
Ｂ 30913
かく 30692
％ 30664
ぱあせんと 30629
５ 30391
ａ 30333
cljr 30144
ncds 30125
ufsg 30120
fkw 30061
jjj 30059
mfkd 30059
jjjj 30008
dkai 29969
zzsk 29934
しよう 29933
とくせい 29883
wzm 29813
ぶつ 29753
しょうかい 29733
zyja 29673
mle 29532
kc 29424
saua 29397
dbds 29374
みとめ 29355
rsqd 29344
gdib 29338
やく 29109
ひょうか 29055
pdw 29033
wxld 28984
djxb 28814
uaqk 28796
へんか 28588
fdm 28587
wdzm 28421
じっけん 28404
summ 28303
boyy 28281
kion 28266
kom 28259
mfjc 28077
nmz 28058
えいきょう 28014
モデル 27820
さん 27717
ひつよう 27503
なる 27485
sonk 27431
lw 27401
bd 27319
wdcj 27273
bskr 27151
qmkb 26929
pdxp 26894
かんじゃ 26848
hmjw 26792
aii 26779
きのう 26696
sukw 26633
いじょう 26609
tisr 26520
xdj 26430
じかん 26322
mbds 26307
yymo 26278
fxhr 26174
vdke 26151
oiiy 26147
od 26105
すう 26022
vwoj 26020
Ｇ 25715
mfcl 25507
odxj 25472
ざい 25410
fdyy 25329
alb 25287
wobi 25246
しんだん 25224
symo 25223
せいぎょ 25086
edlc 24981
げんしょう 24876
まく 24805
akzi 24678
fyxa 24615
njf 24474
xsxi 24455
エネルギー 24433
wooj 24374
pvwx 24372
kkk 24320
しつ 24319
かい 24292
りよう 24195
む 24189
su 24173
zixs 24137
おんど 24131
しょり 24120
vqf 24054
〜 24053
ucl 24047
pa 24008
ぶ 24000
q 23959
なっ 23941
ど 23860
cexs 23839
けいさん 23830
sozn 23792
xmau 23732
eao 23699
ぞうか 23663
もんだい 23654
scvv 23644
Ｖ 23551
rjgq 23457
ばあい 23433
wdrb 23431
あり 23362
jyms 23328
nrjg 23293
jilw 23260
ldbj 23164
しょうれい 23112
ひょうめん 23112
はんのう 23110
ふ 23093
しらべ 23087
bdkv 23086
０ 23075
でんし 23065
もの 23030
drlg 22876
nsvv 22833
eaqm 22737
いでん 22686
oiqm 22641
なかっ 22547
はっせい 22525
jdcs 22500
wdzf 22451
さよう 22411
fkoo 22406
hdyd 22378
かんきょう 22345
nmb 22341
xi 22268
tjjl 22201
bdrd 22188
ufsu 22169
drk 22105
ひかく 22083
しゅ 22048
かいせつ 21967
sxo 21899
しけん 21838
ぐん 21818
こ 21781
けいせい 21639
fukv 21570
ん 21517
たいしょう 21492
ｌ 21457
でき 21319
たいし 21279
wwfk 21222
ucq 21207
ryia 20814
さらに 20807
ほん 20767
wdml 20590
yomf 20586
かんがえ 20575
uouo 20501
mbj 20451
データ 20432
とも 20392
ねつ 20363
１０ 20306
しき 20289
smym 20223
vned 20222
vkkg 20205
fpxs 20193
のう 20124
６ 20118
ちょうさ 20097
nk 19996
られる 19977
jirj 19976
せつめい 19945
じょうたい 19864
mxy 19811
ぶんし 19664
nif 19636
「 19601
zbwr 19598
そうち 19582
かっせい 19578
」 19574
gdli 19509
きょう 19496
ほうこく 19471
ず 19467
ていあん 19431
wslr 19373
じょうほう 19343
がく 19262
かがく 19161
いち 19131
ｏ 19117
suk 19115
かんけい 19110
nhs 19067
maeu 19056
てい 19024
まで 19018
zskh 19013
しん 19011
ox 19007
けっしょう 18971
イオン 18872
dgh 18845
ucbi 18783
qaed 18744
じゅうよう 18697
ｔ 18677
qprh 18608
boyj 18554
とくちょう 18519
ufcq 18504
がん 18484
せっけい 18462
bdol 18446
そくど 18440
dni 18346
けんさ 18234
のうど 18220
oicm 18204
rsf 18080
そしき 18062
ｃ 18034
yske 18004
wski 17939
cdvs 17927
ひょうき 17925
りょうほう 17855
もつ 17824
ｒ 17766
あきらか 17664
ｓ 17624
ejmf 17555
さんか 17539
jdej 17198
ま 17124
ぶんぷ 17033
こうせい 17023
nsrh 16992
じょうけん 16989
odwg 16946
nds 16929
々 16910
iiak 16850
uagw 16818
つき 16804
zrsa 16768
ysy 16716
ば 16703
vxgd 16695
ucuj 16657
りょういき 16595
かいぜん 16511
にっぽん 16462
uanw 16423
xmil 16378
びょう 16372
Ｘ 16344
dtzs 16333
いぞん 16317
qkro 16305
yxo 16292
あんてい 16281
こうじょう 16266
ぶんせき 16263
たかい 16236
ゆうこう 16234
wdjk 16212
odbz 16195
よ 16185
tgf 16142
wtkr 16056
hmjj 16043
しゅよう 15944
wtyd 15938
ｐ 15908
zwan 15881
maj 15825
ｇ 15768
aks 15674
づ 15618
かんする 15568
vsc 15545
tma 15541
さくせい 15497
alll 15496
mfld 15444
dqx 15404
それ 15376
すい 15358
wyeo 15329
vkq 15318
brtd 15312
ガス 15308
vgnk 15252
nlkd 15249
どう 15182
けんしゅつ 15170
rxwz 15159
soos 15134
けつごう 15124
かんれん 15096
Ｋ 15092
frj 15090
せいちょう 14999
enaj 14882
xmeh 14859
わかっ 14849
しっかん 14774
jykd 14747
dry 14676
ざいりょう 14670
せいせい 14620
めん 14567
あたらしい 14528
しょうがい 14487
kyju 14475
odsx 14460
fszo 14441
hma 14432
oiui 14385
ていか 14223
てきよう 14214
wbuc 14212
かんり 14181
arkd 14152
きかん 14113
７ 14082
かてい 14079
、 13978
fka 13939
そんざい 13932
mqym 13893
edxs 13856
neml 13837
けん 13728
koxb 13678
えん 13659
しゅじゅつ 13657
りゅうし 13619
みつど 13614
８ 13611
sli 13604
しんけい 13570
znia 13547
げ 13534
きこう 13533
jdbn 13486
かんさつ 13476
nyi 13475
myz 13442
せいのう 13435
しさ 13432
yrbk 13387
しこう 13376
ub 13294
nue 13268
vmzy 13249
fjai 13233
じげん 13212
nub 13188
saii 13165
ひかり 13148
jzor 13093
llgu 13089
こうりつ 13052
djlo 13028
lijk 12984
はん 12982
たんぱく 12979
しりょう 12962
felc 12930
oixb 12901
xii 12894
− 12757
ほうこう 12750
もくてき 12723
けっかん 12711
ykro 12680
qvoz 12678
rli 12648
jaza 12647
mfj 12640
ucsx 12626
Ｗ 12615
じゅう 12599
たん 12595
どうにゅう 12532
し@@ 12444
げん 12406
ro 12371
さいきん 12363
wsb 12354
あつ 12340
とうよ 12327
リ@@ 12325
よくせい 12323
けいこう 12322
でんき 12300
ga 12290
りゅう 12286
かんせん 12280
きゅう 12250
ajug 12231
げんし 12213
りんしょう 12190
かんそく 12165
bmjl 12148
はつげん 12148
zszr 12120
xmkv 12111
か@@ 12056
sskh 12055
zmef 12034
かくにん 11999
ぶんかい 11998
ア@@ 11914
じき 11909
ｕ 11909
りょく 11900
qrk 11892
njej 11886
Ｃ@@ 11883
tgzs 11872
pskr 11839
jdot 11791
wdhb 11790
いんし 11773
がぞう 11772
Ｓ@@ 11770
ebm 11747
cd 11746
eawl 11729
おこなう 11728
しゅほう 11711
きん 11703
しょ 11703
ii 11679
bdzm 11644
Ｍ@@ 11643
fekg 11595
qmkr 11571
txld 11542
mfte 11527
qali 11519
ふか 11469
wtfb 11442
Ｆ@@ 11440
でんりゅう 11411
ろ 11391
きょうど 11382
きばん 11351
きんぞく 11331
せんい 11286
Ｂ@@ 11285
rld 11255
せる 11248
かんし 11226
シミュレーション 11181
ｄ 11175
ywbr 11154
ぶっしつ 11132
なく 11130
szq 11114
ごうせい 11112
iiow 11108
うんどう 11102
レーザ 11078
おうよう 11070
Ｔ@@ 11062
りろん 11054
neo 11042
yzch 11008
evfd 11007
ちゅうしん 10966
てんい 10944
vdom 10899
tqx 10886
rloa 10878
so 10878
こうそく 10867
xmyj 10861
い@@ 10838
たいおう 10831
ncqx 10824
せんたく 10824
ｋ 10798
vkrr 10797
き@@ 10794
dxs 10793
zmzj 10791
glds 10786
だんせい 10748
Ｄ@@ 10738
どうみゃく 10686
はい 10634
bsj 10633
じゅつ 10628
pld 10615
ba 10593
ゆうい 10588
かた 10581
kbxi 10562
uosu 10549
cirx 10523
bigo 10512
えすあい 10502
いか 10482
Ｈ@@ 10449
とき 10444
mbod 10420
Ｐ@@ 10416
おこない 10406
プラズマ 10375
かんすう 10365
おおく 10362
Ｒ@@ 10360
ぜん 10357
けってい 10337
せいさん 10331
じっし 10328
もと 10323
zm 10321
ぞう 10304
vjrd 10275
ufxj 10256
ふくむ 10244
arrr 10243
sulg 10223
かこう 10223
Ｎ@@ 10191
そうかん 10176
zmya 10116
ggky 10109
mbqf 10099
だ 10088
ほうしき 10087
ラ@@ 10067
Ｇ@@ 10063
へいきん 10053
Ｌ@@ 10043
dpf 10040
しゅうは 10038
そうご 9988
しんどう 9973
じどう 9970
ほうしゃ 9941
pvyz 9939
せいど 9936
じゅつご 9927
スペクトル 9891
qnkv 9876
gxi 9874
とくに 9869
がいせつ 9865
kkgo 9858
えき 9851
tdow 9850
rjrd 9839
がいよう 9838
dkc 9827
ikrd 9824
あいだ 9813
２０ 9812
besr 9803
odaw 9717
めい 9694
９ 9667
mfyy 9663
fkki 9640
しめす 9610
ぼ 9575
ここ 9568
eaon 9567
drs 9563
ていこう 9553
Ａ@@ 9543
ihkw 9514
さいてき 9445
mfmw 9442
dpd 9441
kiym 9425
るい 9419
nrgo 9414
maju 9401
ja 9388
kia 9367
skf 9361
ぶぶん 9329
こんご 9313
めんえき 9292
きゅうしゅう 9273
たいさく 9266
ed 9260
ス@@ 9243
miz 9241
ｍ@@ 9235
afvv 9232
xmsb 9220
uoeg 9215
＋ 9205
akos 9196
しょうじょう 9195
よく 9194
いう 9187
xbby 9182
レベル 9174
rssu 9167
gako 9158
oiqx 9151
じこ 9147
yzi 9131
nmro 9124
た@@ 9115
じつげん 9112
ゆうどう 9111
Ｖ@@ 9104
Ｕ 9093
かだい 9089
oikr 9060
ｔ@@ 9051
いどう 9038
nzod 9003
ゆうき 8995
ジ@@ 8990
きほん 8981
げんいん 8973
すいてい 8962
nixm 8948
まえ 8943
じん 8940
bzs 8923
マ@@ 8913
ｃ@@ 8913
ちいき 8907
mbrd 8881
vcq 8870
でんどう 8865
qehh 8853
いん 8851
ｂ 8851
かんせつ 8840
じゅうらい 8833
じょうきょう 8825
hxq 8809
こうがく 8779
しかし 8776
しゅるい 8757
つぎ 8751
なか 8751
nawr 8729
ｐ@@ 8712
せいぶん 8708
ひと 8706
はんい 8688
fkqk 8672
でんあつ 8665
ふ@@ 8663
しょうしゃ 8617
と@@ 8592
tdrl 8585
しょけん 8584
おり 8578
ubkd 8559
せんけい 8551
シ@@ 8543
こうさつ 8534
けいすう 8529
kkd 8521
１２ 8515
Ｅ@@ 8505
fdby 8490
eaz 8484
プロセス 8458
かいし 8456
yrrn 8448
しぼう 8435
すいそ 8419
ぶんり 8419
パラメータ 8415
hbmo 8388
でんりょく 8387
こうし 8384
あんぜん 8375
Ｉ@@ 8349
ひ@@ 8348
℃ 8343
pyqx 8341
wdgq 8318
vwof 8316
けいかく 8305
およぼす 8279
zoaj 8267
wdbr 8265
ｉ@@ 8264
mxk 8261
qujr 8257
こうりょ 8238
なり 8221
moaj 8216
せつじょ 8176
１００ 8173
ことなる 8160
wtxi 8157
eezf 8143
いっ 8142
jmua 8138
こうたい 8133
よそく 8132
へんい 8126
きたい 8123
くうかん 8091
もちいる 8064
ゆうよう 8062
arhm 8016
ldia 8012
きかい 8011
pmod 7977
コ@@ 7964
vkia 7952
ｙ 7950
じゅよう 7944
ｓ@@ 7908
かげつ 7895
みず 7893
もとめ 7885
exau 7876
zhzi 7868
mfjl 7867
じく 7861
ｏ@@ 7844
ト@@ 7825
イ@@ 7800
kme 7786
いく 7783
fkxb 7782
パターン 7777
しんごう 7771
かつどう 7769
いっぱん 7765
へんかん 7755
ほんこう 7754
zozw 7753
Ｏ@@ 7751
がっぺい 7745
edlo 7743
せいじょう 7743
あと 7734
どうたい 7722
ajli 7716
bdkw 7704
yaz 7701
げんざい 7699
ネットワーク 7698
しゅう 7680
ー@@ 7655
こう@@ 7654
yznl 7633
nc 7613
しょく 7607
かくりつ 7605
じょせい 7598
ufoy 7597
けいじょう 7597
vnsm 7588
み@@ 7581
１@@ 7570
てんか 7566
qyfn 7555
つう 7543
３０ 7541
リンパ 7540
がい 7538
さいだい 7537
けいたい 7528
こんごう 7512
ufij 7510
Ｋ@@ 7505
こうちく 7495
モード 7494
さんそ 7490
shqc 7485
krod 7482
vagu 7476
がわ 7471
hos 7465
さ@@ 7460
ビーム 7450
いっち 7443
せつ 7415
のみ 7377
ぶんるい 7361
arel 7360
かいろ 7347
fhe 7332
ajkk 7316
ともなう 7309
カ@@ 7305
きょどう 7304
senx 7303
おおきく 7278
pxkv 7267
gdbi 7259
はっしょう 7258
はくまく 7256
ｅ@@ 7240
もっとも 7239
レ@@ 7238
xddm 7210
lxo 7205
ｈ 7200
ｄ@@ 7188
ゆうする 7187
は@@ 7171
ucmh 7167
そうさ 7159
ようせい 7159
gdj 7158
ほうてい 7158
けいか 7114
qia 7109
いりょう 7106
オ@@ 7098
すうち 7093
oibd 7091
ＩＩ 7088
fbud 7077
お@@ 7067
ｘ 7063
メ@@ 7051
dsul 7050
vxwx 7043
きじゅん 7016
ふく 7011
： 7008
rhyk 6997
なのめえとる 6980
ねんど 6951
yrmb 6944
マウス 6940
５０ 6934
ええ@@ 6933
vell 6929
おうりょく 6929
ひょうじゅん 6929
かくさん 6925
おおきな 6916
せいぶつ 6912
arsr 6908
へんどう 6908
ようそ 6906
ル@@ 6903
じょうしょう 6899
とう@@ 6896
nxby 6885
はつでん 6875
かくしゅ 6868
こつ 6862
ロ@@ 6862
せいぞう 6858
ぞうだい 6832
vdwl 6821
yy 6818
koqk 6802
lzko 6790
く@@ 6789
２@@ 6779
nirp 6776
ていど 6776
dkia 6773
ked 6773
おうとう 6772
せいひん 6772
でんきょく 6765
しせつ 6763
fxo 6762
じ@@ 6755
ていげん 6755
lwgq 6749
edwz 6745
つうしん 6738
pklo 6729
ｂ@@ 6723
つ@@ 6721
ウイルス 6721
くらべ 6717
やくわり 6712
１５ 6708
ymii 6704
それぞれ 6699
もとづい 6687
ま@@ 6667
wohb 6666
ａ@@ 6663
ぶい 6660
あ@@ 6656
uazw 6651
ふくごう 6638
kiq 6626
あい 6621
たんそ 6613
うち 6583
qyia 6577
ylc 6576
ji 6571
げんじょう 6565
ｒ@@ 6560
ggyy 6553
ミ@@ 6543
fvgh 6540
しいてぃい 6539
いき 6529
こうそ 6517
じゅうぶん 6499
zld 6498
そせい 6495
fmko 6490
しゅじゅ 6490
ちゅうしゅつ 6483
ド@@ 6481
じじょう 6467
デ@@ 6462
ぶん 6455
える 6447
ごうきん 6444
１１ 6442
かいめん 6441
しょき 6441
タ@@ 6437
flwz 6434
パルス 6415
れんぞく 6408
せんしょく 6405
ぶんさん 6405
ｌ@@ 6395
qka 6378
す@@ 6376
せき 6372
ばん 6371
ちょくせつ 6353
wogs 6352
こ@@ 6341
きき 6336
flkd 6332
こうかん 6325
きょく 6322
pyql 6316
xd 6297
oikb 6289
lco 6259
koml 6246
り@@ 6244
あつりょく 6243
あるいは 6235
ン 6235
とくい 6232
かいてん 6230
う@@ 6228
せつび 6215
いしょく 6203
ク@@ 6196
てきおう 6194
アルゴリズム 6187
ひんしつ 6180
ー 6177
けっせい 6176
ihkq 6166
ひふ 6166
せん@@ 6157
fkvv 6156
へんけい 6148
nji 6144
しょうこう 6143
パ@@ 6141
えす@@ 6135
やくざい 6133
りょうこう 6131
sa 6119
Ｗ@@ 6117
きそ 6111
みりめえとる 6110
だんかい 6109
どうこう 6106
kkgh 6097
gfxi 6094
sumh 6086
ようりょう 6086
べき 6080
マイクロ 6072
どうじ 6071
vbza 6059
じぎょう 6056
かんぜん 6054
ぞく 6043
ル 6036
ばい 6030
ｈ@@ 6030
bno 6025
ナ@@ 6021
さぎょう 6018
リン 6014
Ｊ 5995
edjm 5986
zpgx 5970
iikg 5963
tgrs 5962
じんこう 5949
あげ 5940
ｉｎ@@ 5939
ちょうせい 5938
ふた 5925
けんび 5920
でぃいえぬええ 5919
かい@@ 5915
ｙ@@ 5910
bo 5904
おこなわ 5904
ｆ@@ 5897
qroz 5839
odjy 5833
しんこう 5829
もう 5825
しゅつりょく 5817
れいき 5814
ｅｒ@@ 5812
じゅん 5803
β 5793
lokd 5790
すべて 5784
ｚ 5782
さんらん 5779
fjvv 5773
xohr 5772
とうか 5765
wwza 5759
nbvv 5754
しょくばい 5750
そがい 5749
こてい 5746
ピーク 5738
ばいよう 5730
zrtd 5720
nwld 5719
＝ 5712
tgxi 5696
しゅつげん 5688
uowm 5685
こたい 5684
さいよう 5682
ｇ@@ 5681
エ@@ 5671
yajl 5669
しょうじ 5664
バ@@ 5662
せい@@ 5661
fkro 5652
ン@@ 5648
odxw 5646
サ@@ 5631
じょきょ 5628
ndgo 5626
かん@@ 5625
すじ 5621
もとづく 5618
ろんじ 5617
ガラス 5605
ウ@@ 5596
ヒト 5593
おう@@ 5592
キ@@ 5592
dpgx 5583
ニ@@ 5578
かんよ 5576
vyi 5564
ノ@@ 5563
α 5552
wdob 5551
チ@@ 5550
tgbr 5548
りょうし 5544
きゅうせい 5541
zclo 5539
６０ 5539
けつ 5537
jbko 5529
cuho 5525
npxs 5523
べつ 5522
vlw 5515
szrd 5514
けいそく 5510
いじ 5489
へいこう 5489
センサ 5489
コスト 5486
へいせい 5482
さんせい 5481
ldoo 5480
どうさ 5480
やくぶつ 5475
へん 5473
mfrk 5471
agd 5467
そく 5466
ねんりょう 5465
rhys 5458
ゆそう 5458
はかい 5451
djjf 5450
meeb 5447
こうど 5447
４０ 5439
リ 5438
vsnd 5436
wxuc 5436
qwbi 5431
えええる 5430
セ@@ 5413
しょう@@ 5410
kiwz 5409
ほね 5408
cizy 5398
tdxi 5394
きょう@@ 5390
bdko 5386
uf 5381
きょうかい 5377
せっしょく 5376
いっぽう 5375
そう@@ 5375
ス 5374
すぐれ 5371
うえ 5357
Ｕ@@ 5352
たかく 5351
せいしつ 5350
けいとう 5346
bzy 5344
きろく 5344
うけ 5340
bmy 5335
ｋ@@ 5323
ｕ@@ 5313
そくしん 5312
む@@ 5310
びょうへん 5308
ようえき 5308
な@@ 5307
ビ@@ 5303
うんてん 5301
ぎ 5300
zy 5299
ａｒ@@ 5295
ajer 5293
eszk 5286
ozs 5285
そし 5280
ぶんや 5269
yobz 5267
myw 5261
wxjm 5260
せいさく 5258
サービス 5255
xbk 5243
ｎ@@ 5242
えふいい 5234
よ@@ 5232
bmym 5230
こうげん 5227
Ｚ 5226
じれい 5221
はんしゃ 5213
しゅう@@ 5209
テ@@ 5209
ベ@@ 5208
しん@@ 5207
ッ@@ 5193
きゅうちゃく 5191
iaa 5189
たい@@ 5179
iikm 5170
サイズ 5168
そこ 5166
あい@@ 5162
ぞうしょく 5159
よぼう 5159
だん 5158
はっこう 5158
くみあわせ 5157
イン@@ 5157
しげき 5151
ちゅう@@ 5150
ちっそ 5142
gds 5138
ぼうし 5135
さんぎょう 5121
ていりょう 5120
ひくい 5120
きょくしょ 5114
かつ 5112
ねんかん 5108
じっさい 5103
まず 5090
おおきい 5087
ひじょう 5084
ほとんど 5084
zryi 5083
jdf 5077
ようい 5077
ｏｒ@@ 5068
かぶ 5065
nsj 5054
けつあつ 5053
sjag 5043
ないぶ 5038
３@@ 5034
ｅｒ 5030
きじゅつ 5023
しえん 5022
もけい 5022
だけ 5012
かごう 5009
tgff 5007
はいれつ 5004
カ 4999
せっち 4983
あたい 4982
つうじょう 4979
どうてい 4979
こんなん 4973
vwm 4964
せいたい 4964
fjgo 4963
tirq 4962
vxc 4954
どうよう 4954
たいせき 4953
かねつ 4943
yzke 4942
× 4941
かんたん 4933
ldjw 4929
ほうでん 4921
ないよう 4917
ラット 4915
でんかい 4914
１３ 4908
Ｑ 4907
おんぱ 4901
fa 4900
uo 4898
ね 4897
ehfk 4895
uklx 4893
こうもく 4886
めんせき 4885
しいゆう 4884
ぜん@@ 4882
ち@@ 4882
じせい 4879
qmi 4876
xsry 4871
かくちょう 4864
たいせい 4861
そんしょう 4858
１４ 4856
ガ@@ 4849
こきゅう 4848
さい@@ 4846
きどう 4840
vrxb 4829
ytyn 4818
くうき 4804
zxgq 4792
かいふく 4789
そうき 4787
しゅうき 4786
くわえ 4784
まんせい 4775
ネ@@ 4773
ひんど 4764
せんちめえとる 4745
iiuz 4743
さいはつ 4740
おなじ 4739
きぼ 4736
あたえる 4727
スピン 4727
しゃかい 4726
まん 4724
かいりょう 4717
jihx 4715
きょうきゅう 4707
ｅｎ@@ 4706
nx 4704
おおい 4702
ようきゅう 4699
え@@ 4698
バンド 4693
のうりょく 4689
μｍ 4684
fmjl 4683
きん@@ 4683
こうおん 4681
boll 4677
つよい 4675
ラ 4675
edyy 4665
はば 4664
ホ@@ 4663
モ@@ 4660
しぜん 4653
イ 4651
pqja 4646
にんしき 4646
げん@@ 4642
tirr 4635
sbxj 4631
しょうしつ 4630
せいこう 4622
スト@@ 4620
dcv 4618
ａｎ@@ 4616
よう@@ 4609
じしん 4608
ちゅうせい 4608
せつごう 4607
ブ@@ 4607
snds 4606
ほうしゅつ 4605
ゆう@@ 4597
たいしゃ 4585
しょくぶつ 4579
uaku 4574
nd 4565
きょり 4561
peda 4560
いこう 4560
けんさく 4555
こころみ 4555
あ 4554
しょうじる 4551
よういん 4551
ボ@@ 4550
rzll 4548
づけ 4542
ナノ 4540
そ 4538
フ@@ 4536
ぶんぴつ 4533
odii 4531
よい 4531
でんち 4519
あたえ 4516
ム 4516
ール 4505
みいだし 4504
せいり 4503
ピ@@ 4498
vdwf 4492
ぜんたい 4483
しんらい 4481
じょうき 4478
けいざい 4474
しめさ 4471
せっしゅ 4467
suc 4462
しじょう 4462
びょうたい 4462
lk 4461
しいええ 4454
nsc 4452
ふぜん 4449
yzyt 4445
yrik 4440
ちゅうにゅう 4439
プログラム 4436
ながれ 4430
プ@@ 4422
へき 4421
かく@@ 4420
したがっ 4412
kmc 4408
giai 4406
ろん 4406
えいよう 4396
タイプ 4392
ハ@@ 4386
ぎょう 4383
wmsy 4382
さく 4381
ゆうでん 4381
かくだい 4378
２５ 4376
へんこう 4372
１６ 4364
zeku 4362
イン 4349
せいかく 4346
なら 4338
はちょう 4329
ぶんか 4326
セル 4315
せいかつ 4314
dpqx 4308
ehi 4308
ひん 4307
けつえき 4305
ひょう 4291
ていきょう 4288
aimo 4287
そ@@ 4287
sh 4286
にて 4279
ほか 4278
qmbu 4277
しお 4275
ようせつ 4267
かし 4264
ggfi 4257
よご 4250
げんり 4247
つかっ 4247
にん 4245
ｖ@@ 4243
にゅういん 4241
ねんれい 4241
びょうり 4240
しょうひ 4239
qsy 4235
び@@ 4233
とし 4231
ひょうげん 4230
ヒ@@ 4229
がいねん 4227
いそう 4226
おん 4226
じょう@@ 4226
oiel 4223
じつよう 4220
じゅんかん 4219
きぎょう 4213
せかい 4207
ダ@@ 4207
かつよう 4204
wyd 4203
こうほう 4202
さいせい 4199
zsj 4198
feko 4193
はじめ 4192
はいき 4191
かいめい 4190
edmy 4180
bser 4166
しいおう 4162
dwof 4151
ほぼ 4151
ぶんこう 4147
どじょう 4141
dxhb 4140
fgyw 4138
びょういん 4137
bjrw 4135
あっしゅく 4129
はい@@ 4129
aed 4128
smia 4127
ファ@@ 4124
にゅうりょく 4117
しつりょう 4115
こがた 4113
てんかい 4110
こうれい 4101
rhay 4099
おせん 4097
ａｌ@@ 4097
せいけい 4093
uakk 4088
がんゆう 4087
ならび 4086
ｏｌ@@ 4086
jlo 4082
dyia 4079
ｆ 4079
ット 4076
れいきゃく 4073
ぐ 4072
の@@ 4071
ｏｎ@@ 4068
odte 4067
さまざま 4065
ろ@@ 4055
wdaj 4051
ていじ 4047
がい@@ 4039
りん 4032
ちゅうい 4024
てい@@ 4020
にゅう 4018
fni 4017
せいせき 4017
そんしつ 4016
えふ@@ 4015
えむ@@ 4011
vdkf 4003
びさい 3999
プロ@@ 3998
デバイス 3997
どう@@ 3987
lcym 3982
ート 3982
vdwi 3976
さいしょう 3976
lkrw 3971
もっ 3969
とうにょう 3968
たんいつ 3966
はっけん 3966
はあく 3957
ア 3956
しげん 3952
こうじ 3951
えきたい 3948
zuza 3945
fjkr 3942
kib 3939
bdjk 3938
qyxs 3938
コン@@ 3937
かんしょう 3935
dka 3934
yojo 3930
ながら 3929
そして 3920
しゅ@@ 3919
ていすう 3914
ック 3914
こくさい 3910
じょうみゃく 3904
nlwz 3902
きゅう@@ 3902
ほ@@ 3899
でんたつ 3898
tgfm 3889
uflc 3888
じゆう 3888
じょうひ 3873
けんしょう 3865
mh 3864
rgyy 3851
はってん 3850
８０ 3850
ぶひん 3843
たっせい 3836
てつ 3836
かんてん 3835
マ 3833
yybh 3824
ksjk 3822
かんど 3822
ａｃ@@ 3815
ちかん 3814
enrr 3813
ちょうき 3810
myal 3808
Ｙ 3806
かいよう 3800
じか 3799
えんしょう 3798
ら@@ 3795
なん 3791
きょくせん 3789
しんきん 3782
すいしん 3778
しょ@@ 3777
えぬあい 3775
へいよう 3775
かそく 3773
リング 3768
１９@@ 3767
eako 3765
fkqm 3764
わけ 3759
zsgp 3758
もくひょう 3757
おもわ 3752
けん@@ 3752
nmby 3751
きてい 3747
きんいつ 3747
ていおん 3747
じゅし 3746
ところ 3743
ステロイド 3739
komy 3738
しんてん 3737
あある@@ 3733
nkic 3730
ぎゃく 3725
ポ@@ 3725
dyms 3724
りんかい 3718
かえ 3714
しゃ@@ 3712
ぜんしん 3706
かんわ 3701
こうてい 3696
すい@@ 3696
vomb 3691
てきせつ 3685
oijm 3680
ほう@@ 3673
きんじ 3666
ちょう@@ 3666
どうぶつ 3665
わ@@ 3665
ゆ 3662
７０ 3661
symm 3660
えん@@ 3645
フィルタ 3641
vmrd 3640
つよく 3638
ちょうせつ 3636
fvrj 3634
１８ 3631
してき 3622
ほぞん 3621
る@@ 3621
くどう 3617
こん 3615
ふくぶ 3610
ぶつり 3609
あらた 3607
でんか 3606
りかい 3604
gszn 3594
nako 3592
りきがく 3592
おう 3591
eh 3589
しょうか 3589
きょういく 3587
dmk 3583
ぴい@@ 3583
ひずみ 3582
たいよう 3581
４@@ 3577
edae 3568
いってい 3565
けいけん 3563
ちいさい 3562
しいでぃい 3561
ひょうじ 3560
jdds 3554
ちゅうもく 3550
かいけつ 3549
はいち 3548
いい@@ 3547
szef 3544
oirg 3543
しひょう 3543
どうてき 3541
せいしん 3536
チン 3527
が@@ 3526
アミノ 3524
コンピュータ 3524
ム@@ 3524
しゅうかん 3523
リスク 3520
topd 3519
るいじ 3515
vuc 3514
はん@@ 3512
えいせい 3511
コード 3511
だ@@ 3510
ほご 3510
vwrd 3509
たん@@ 3509
dnym 3506
ブ 3505
kirj 3499
ていぎ 3499
foc 3488
tird 3484
vdjj 3483
りゅうたい 3483
biym 3480
こうどう 3475
bni 3467
ｕｌ@@ 3464
ffvv 3458
しょうらい 3454
ゆらい 3452
きかく 3451
vqj 3446
xsbg 3445
ク 3444
せいか 3443
ょ 3438
しゅっけつ 3437
チャネル 3437
しょうさい 3436
ず@@ 3433
たよう 3433
２１ 3433
sps 3430
ふくめ 3429
ちくせき 3424
pdxw 3420
２４ 3420
voq 3415
こん@@ 3411
odjk 3407
も@@ 3402
ehh 3401
ねんしょう 3401
odmw 3400
oxaj 3398
ちゅうかん 3393
め@@ 3389
じゅしん 3388
ぞうえい 3380
fsc 3379
よん 3370
どの 3368
sufl 3365
cids 3364
ップ 3361
ゆうげん 3357
じゅう@@ 3353
ポテンシャル 3352
じっしょう 3351
tgob 3348
mb 3342
ｕｓ 3340
ふくざつ 3337
けんせつ 3336
サイクル 3336
fkqy 3335
むけ 3335
せってい 3333
えむああるあい 3331
けいろ 3331
した 3326
つぶ 3323
１０@@ 3323
フィ@@ 3322
かんげん 3319
ry 3313
べん 3313
qexs 3312
suld 3312
げんかい 3311
ぼ@@ 3311
あくせい 3308
かんかく 3307
さいしゅう 3306
vkku 3305
だいたい 3305
ていし 3304
ぺえはあ 3304
クリ@@ 3303
ほ 3298
きわめて 3297
ｉｃ@@ 3297
kdwl 3296
lowa 3294
さいばい 3290
akds 3288
ポリ@@ 3288
せつぞく 3286
ベース 3285
たいき 3284
さま 3279
じぞく 3278
しい@@ 3275
ど@@ 3275
ぬし 3273
けんこう 3271
ゆう 3267
グ@@ 3264
すすめ 3260
ツ@@ 3257
スト 3249
すいちょく 3247
にょう 3246
に@@ 3245
Ｑ@@ 3243
vikm 3236
wdmh 3233
qmnx 3232
jcvv 3231
jrz 3230
ば@@ 3227
でんい 3226
や@@ 3225
じゅみょう 3224
おおき 3222
いちぶ 3219
でんそう 3218
kbuo 3214
ちがい 3214
チップ 3213
びしょう 3211
ゆ@@ 3211
メカニズム 3209
ｔｒ@@ 3207
こんかい 3204
ペ@@ 3203
さん@@ 3202
まとめ 3200
ｘ@@ 3199
せんじょう 3197
せいぞん 3193
ぜ 3193
ストレス 3186
zduo 3182
しい 3175
ライン 3171
れ@@ 3169
ポンプ 3169
klgd 3165
sjqu 3162
rrxi 3157
vpya 3157
しんき 3153
５@@ 3150
１７ 3149
naj 3147
ナ 3146
かいしゅう 3145
すくない 3145
たんじゅん 3145
ちきゅう 3144
tgxk 3142
xmzz 3138
テスト 3126
てぃいあい 3125
skrh 3121
きせい 3120
のう@@ 3120
wxo 3115
ゲル 3114
さいしょ 3110
はいけい 3107
mfea 3106
とうけい 3106
せいげん 3105
jino 3103
csc 3102
y 3097
tguw 3096
データベース 3092
たかかっ 3087
シン 3086
きんねん 3077
ぎろん 3072
ひふく 3072
ほしょう 3072
ＧａＡｓ 3072
そうたい 3071
こく 3067
ホルモン 3065
しょうめい 3061
ニン 3060
しょくひん 3057
そうごう 3056
ほど 3056
ジン 3055
ブロック 3055
fvgl 3050
けい@@ 3050
ロ 3045
しゅうへん 3044
たすう 3044
きけん 3038
でんじ 3036
evrj 3033
いずれ 3032
しいあある 3032
エッチング 3032
なし 3031
ふきゅう 3029
ひんしゅ 3028
ぜつえん 3023
hmlk 3022
pek 3021
edld 3020
wxjs 3020
９０ 3020
ロボット 3016
ようかい 3013
xs 3011
zse 3008
ディ@@ 3002
たじゅう 3001
しさく 2999
だいがく 2999
Ｊ@@ 2999
せいび 2998
ＩＩＩ 2996
きいん 2993
idj 2992
vdeh 2984
けんちょ 2984
ごう 2979
タ 2979
ソ@@ 2976
ぞう@@ 2975
れっか 2975
Ｘ@@ 2973
nxwx 2972
じゅうごう 2972
じょうちゃく 2971
zjjf 2970
ご@@ 2965
げんすい 2958
はいしゅつ 2957
ｔｉ@@ 2955
ろんぶん 2952
じゅうてん 2951
ごさ 2946
edgs 2945
こつずい 2945
ダ 2937
ないし 2930
lopx 2927
xsxs 2925
シフト 2922
コンクリート 2921
きょうめい 2920
しょうげき 2920
tgoo 2917
さくげん 2917
リー 2913
じゅつぜん 2911
きゅうそく 2902
ゲート 2902
aym 2899
ほん@@ 2896
osgl 2892
ろう 2889
ね@@ 2885
しんじゅん 2882
とくてい 2881
とりくみ 2880
syyw 2876
qbup 2868
フェ@@ 2864
ース 2863
しらべる 2862
せんりょう 2861
２０００ 2860
zzho 2859
だいひょう 2859
かくほ 2858
こうぎょう 2858
オン 2858
てん@@ 2856
だいちょう 2854
ｗ 2854
おもに 2853
ぴいしい 2853
fj 2851
はつ 2851
かず 2847
ぐたい 2847
じゅうしょう 2846
ない@@ 2843
ーム 2843
っ@@ 2841
はんてい 2840
おもな 2837
さいご 2835
プロジェクト 2833
vwko 2832
シリコン 2832
６@@ 2832
なが 2830
パワー 2829
きょうりょく 2828
おこる 2824
sbma 2823
tdfk 2818
りゅうどう 2818
ディジタル 2817
きじょ 2816
ゴ@@ 2816
e@@ 2815
fdqe 2812
ａｔ@@ 2809
ぴいてぃい 2808
トリ@@ 2808
ふくま 2802
ｃｈ@@ 2802
かんじゅ 2800
２００ 2800
ydan 2799
しゅうりょう 2796
ード 2793
ｉｓ@@ 2792
ａｍ@@ 2790
vaj 2787
pyqj 2786
ki 2784
てんしゃ 2784
ゆうし 2782
edj 2780
ししつ 2777
しすう 2777
γ 2775
しいえる 2771
oxry 2769
お 2769
じっこう 2768
らん 2768
プラント 2768
ともない 2767
ええあある 2766
じゅ@@ 2766
ゆうはつ 2764
dfb 2762
がいぶ 2762
sjko 2760
３００ 2760
しょうに 2757
いん@@ 2756
ｒａ@@ 2756
いがい 2754
nsws 2752
いし 2752
みぎ 2749
２３ 2748
ほうわ 2747
ますい 2745
fkq 2743
ふくすう 2743
アレルギー 2739
げか 2738
グループ 2738
llg 2737
すくなく 2735
bdok 2728
Ｙ@@ 2727
zaaa 2726
ねんまく 2725
ぎ@@ 2720
がくしゅう 2719
ｉｎｇ 2718
あたり 2717
け@@ 2714
こうあつ 2702
bxm 2701
かんそう 2699
ちけん 2698
ｅｌ@@ 2694
さいこう 2691
トンネル 2689
wdad 2686
まっしょう 2685
zmmb 2684
うる 2684
しんせい 2683
しんくう 2679
raa 2674
ごと 2670
gduo 2667
gkq 2667
きょうか 2667
mfek 2666
ひだり 2666
ぷん 2664
ldeo 2662
ほじ 2662
ヘ@@ 2662
いちじるしく 2658
クロ@@ 2656
げんそ 2653
txi 2652
とり@@ 2648
ことなっ 2647
へんちょう 2647
ｒｏ@@ 2647
しどう 2646
ａｓ@@ 2644
うちゅう 2642
かじゅう 2642
こっせつ 2642
あわせ 2641
ぞうふく 2641
ぼう@@ 2641
７@@ 2640
ックス 2639
ライ@@ 2639
すなわち 2637
きよ 2635
ともなっ 2635
bwrd 2633
ああるええ 2632
jeel 2628
しゅうい 2628
じこう 2622
しゅうしゅく 2620
しょく@@ 2618
そうにゅう 2617
せいけん 2615
リサイクル 2615
ド 2614
しんぷく 2613
て@@ 2611
しゅうしゅう 2610
uojf 2609
みりぐらむ 2609
ポリ 2609
ざつおん 2608
きょうしん 2607
こうつう 2607
つつ 2607
wdki 2605
ぼう 2604
えむえす 2598
さくたい 2597
たか 2596
lyhd 2591
しいおうつう 2589
てんぼう 2588
もち 2588
ちょっけい 2585
りんさん 2584
ぴいでぃい 2583
ファイバ 2581
クラスタ 2577
ｏｓ@@ 2574
りょう@@ 2570
こゆう 2569
vld 2564
ふく@@ 2556
しつおん 2555
つう@@ 2553
ター 2547
もとづき 2546
ちか 2539
ペプチド 2539
かんえん 2538
げ@@ 2536
ｗ@@ 2536
axm 2535
dwrb 2534
てぃいしい 2534
vlj 2529
qwxo 2528
２２ 2524
１９ 2523
ちょしゃ 2522
プローブ 2518
せっちゃく 2517
ギャップ 2517
ちしき 2516
ほんぽう 2513
きそく 2511
しょうとつ 2511
でん 2511
じっ 2510
bdnd 2507
iirz 2505
もう@@ 2505
さき 2497
ｏｍ@@ 2492
ちほう 2491
egj 2488
てきしゅつ 2487
しがい 2486
ちかく 2486
gkm 2482
３５ 2480
ぶ@@ 2478
さいげん 2477
ぴい 2475
しじ 2474
くりかえし 2473
hxz 2470
インターネット 2470
wwrd 2466
きれつ 2466
ぎょうむ 2465
bkb 2460
たいいき 2460
phml 2459
ｓｉ@@ 2459
めいかく 2453
サイト 2453
qzj 2452
ｖ 2449
smed 2445
かじょう 2445
モータ 2445
vxfv 2444
zoui 2443
ようと 2443
プラ@@ 2443
せだい 2441
げんりょう 2440
ようばい 2436
カメラ 2435
ぎょうこ 2432
しゅうごう 2430
せっかい 2430
けっそん 2429
とっ 2428
エンジン 2428
で@@ 2427
じつ 2426
こうはん 2424
そく@@ 2424
えきしょう 2423
えぬええ 2422
どうりょく 2422
きょうつう 2418
アン@@ 2418
きんぼう 2415
ふんまつ 2414
いろ 2412
じったい 2402
ｉｄ@@ 2398
ト 2397
ｒｅ@@ 2391
ａｌ 2389
ぜんそく 2388
ふしょく 2384
はいこう 2382
ぶんれつ 2380
ユーザ 2379
ケ@@ 2377
あん 2376
まさつ 2375
てんかん 2374
カルシウム 2373
zxkv 2372
たんい 2370
ちえん 2370
ちいさく 2369
むき 2368
へいそく 2362
fexs 2361
しきゅう 2360
dkcx 2359
にく 2359
あいしい 2357
jos 2356
えぬ@@ 2356
でんぱん 2354
ようゆう 2353
しょくどう 2352
べいこく 2350
tokw 2348
でんげん 2348
pxoa 2343
ｚ@@ 2340
kpgx 2336
ひろく 2333
コ 2332
にゅう@@ 2331
けいしき 2330
どうろ 2330
しゅそ 2329
たんしゅく 2329
だつ 2329
ゆうごう 2329
チ 2328
dpki 2327
えし 2326
フラ@@ 2326
wdrj 2324
しゅうせき 2323
かすい 2322
はっ@@ 2322
レンズ 2319
ソフトウェア 2318
kkok 2317
へんせい 2316
いぎ 2314
おおがた 2313
せいき 2311
vdnd 2310
° 2310
せいざい 2310
とり 2309
こうしん 2304
キャリア 2302
ポイント 2302
ptzs 2301
くに 2301
コントロール 2301
フ 2300
けつろん 2298
とうごう 2298
nlan 2297
ほけん 2293
フロー 2291
まい 2289
シート 2289
いほう 2285
げんば 2279
ｅＶ 2278
ほぜん 2277
nswa 2274
かたち 2272
えす 2270
けっちゅう 2268
pysq 2266
zzym 2266
でんじょう 2266
uzlo 2264
きょうどう 2263
しきそ 2263
うむ 2261
ぞうきょう 2261
すいよう 2259
めざし 2256
ｉｎ 2256
ていじょう 2255
vdcm 2252
てきし 2252
xmhb 2248
ント 2248
boqy 2247
rsvv 2247
ふっこう 2247
ロン 2247
じょ@@ 2245
キシ@@ 2245
うんよう 2244
］ 2239
だし 2237
はったつ 2237
もん 2235
ぬ@@ 2234
いない 2232
たんかん 2232
アンケート 2229
４５ 2221
ほうそう 2220
vsul 2217
ふきん 2217
v@@ 2216
wyed 2212
じんそく 2212
５００ 2212
celw 2210
ステップ 2208
pfxs 2207
しょうばん 2207
vry 2206
やすい 2206
ｉｔ@@ 2206
こく@@ 2205
ひろう 2205
コー@@ 2205
ｅｓ 2204
mnds 2202
eked 2201
zrha 2201
のべる 2201
ぶんかつ 2193
えんき 2192
ギ@@ 2192
llqq 2190
wdjn 2190
キャ@@ 2189
かくど 2187
サブ 2185
ちゃく 2184
らん@@ 2182
アップ 2182
せんこう 2181
いんか 2180
ふりょう 2180
はいえん 2179
シ 2177
［ 2175
いち@@ 2174
ひょう@@ 2173
ふごう 2173
フォ@@ 2173
いみ 2172
mfya 2170
シン@@ 2170
０００ 2168
μ 2167
スケール 2165
vjal 2164
どういつ 2163
がいかん 2162
しら 2162
かんべつ 2161
しんりょう 2160
かけ 2159
はり 2159
うず 2156
けっせん 2152
ざんりゅう 2152
がんりょう 2151
せんてい 2151
なん@@ 2151
りゅうりょう 2151
zflk 2150
にゅうしゃ 2149
ワ@@ 2149
しま 2148
ほせい 2148
ガイドライン 2147
がつ 2140
ちょぞう 2140
スタ@@ 2140
へいめん 2139
しんぞう 2137
セラミック 2136
けんちく 2135
hb 2134
uxgd 2133
える@@ 2130
ウエハ 2129
はんめい 2128
Ｚ@@ 2128
れん@@ 2127
そうこう 2125
ldgd 2124
niuo 2124
たいりょう 2124
せきぶん 2123
ｅｔ@@ 2123
はんだん 2121
ディスク 2121
vrvv 2117
ほじょ 2116
hxvv 2114
ぎょうれつ 2111
cuxi 2110
dgxs 2109
かなり 2103
せ@@ 2103
とりあげ 2103
けいしゃ 2100
ひこう 2100
おお@@ 2099
れんけい 2098
アレイ 2098
ツール 2098
ベクトル 2098
かんせい 2095
かんぞう 2092
とおし 2092
ぞうき 2091
センター 2090
しゅうせい 2089
せんたん 2089
xsju 2088
ふちゃく 2088
ぶん@@ 2088
fvxb 2087
ihku 2085
かんない 2085
せんりゃく 2085
だい@@ 2085
zxjm 2084
きょうぶ 2084
どうき 2082
さく@@ 2081
なみ 2081
サイ@@ 2081
きょうちょう 2080
すいい 2080
プラスチック 2079
しんぽ 2078
しゅだん 2077
そうおん 2077
rkkz 2076
ゲノム 2076
しんちょう 2075
あいぴい 2074
へん@@ 2074
まんぞく 2074
てじゅん 2073
ろう@@ 2073
しいえす 2071
ｅｃ@@ 2070
かぞく 2069
belo 2065
ダイ@@ 2065
ｉｌ@@ 2065
おうじ 2064
しかく 2062
アプローチ 2060
シグナル 2058
いんせい 2056
ツ 2053
レン 2052
mfmo 2051
そっ 2051
しょうてん 2049
ッド 2045
はいすい 2044
フィルム 2043
７５ 2043
fako 2042
” 2041
てぃい@@ 2041
わりあい 2041
ラン@@ 2041
しゅうだん 2040
ちく 2035
pcds 2034
はく@@ 2034
ＩＬ 2034
horo 2032
vqda 2032
ウ 2031
オ 2031
ｐｈ@@ 2031
ちゅうおう 2030
９@@ 2029
せんもん 2027
のうぎょう 2027
トラ@@ 2027
レーション 2026
ちつじょ 2022
つよ 2022
ds 2021
モジュール 2020
ｕｒ@@ 2020
fv 2019
mfkm 2019
vtex 2017
ひれい 2017
エン@@ 2017
８@@ 2017
のうほう 2016
ドープ 2013
とく 2012
ＳｉＯ 2012
はく 2011
uofb 2009
うける 2009
きそん 2009
あら 2008
こしょう 2008
アンテナ 2006
supg 2004
コア 2004
ちゅうごく 2003
バ 2003
かこ 2002
けつりゅう 2002
ーク 2002
ciq 2000
チューブ 2000
xmmh 1998
もうまく 1998
ぴいしいあある 1997
ゼ@@ 1997
かどう 1995
nblo 1994
ソフト 1994
ループ 1994
ひくく 1993
てんねん 1992
fsoo 1989
vsyz 1989
しはい 1988
しゃしん 1988
バー 1988
はかる 1987
えむじい 1986
りょうしゃ 1985
０@@ 1985
たこう 1984
せきがい 1983
ちょうかん 1983
ほんぶん 1982
ｏｐ@@ 1982
osfq 1981
まげ 1980
ひょうほん 1979
ymjf 1978
かた@@ 1978
たはつ 1978
uaqb 1977
おき 1977
くうちょう 1977
けっきゅう 1977
こうばい 1973
もとめる 1971
れきし 1971
おく 1970
びい@@ 1970
びょう@@ 1970
へい@@ 1970
ちょくせん 1965
bmrr 1964
いた 1963
ヤ@@ 1963
ｌｅ@@ 1963
きょくざい 1962
こころ 1962
マイ@@ 1962
マーカー 1962
wohi 1961
だぶりゅう@@ 1959
fkal 1958
Ｉｎ@@ 1958
けいげん 1956
d@@ 1955
せいみつ 1955
oiom 1954
チタン 1954
だん@@ 1953
yteo 1952
qkkg 1949
drqd 1947
qfzm 1947
そん 1945
mfzm 1943
ザ@@ 1943
はつねつ 1942
だっ 1940
アル@@ 1940
nlgs 1937
クタ 1937
ｍＲＮＡ 1937
ぜんご 1936
ほこう 1935
しゅつ 1934
bohz 1933
おんせい 1933
はっけつ 1933
ふじゅん 1933
バイアス 1933
えむえぬ 1932
ざ@@ 1929
みゃく 1929
えいちあいぶい 1928
かんがえる 1928
けいぞく 1928
こみ 1928
じょ 1928
アルミニウム 1927
llex 1925
ぶんきょく 1924
womi 1921
かぶしきがいしゃ 1921
じっそう 1921
すいぶん 1921
かんじょう 1919
マルチ 1918
かいほう 1915
かっ 1914
むし 1914
zmgh 1912
かかわる 1912
にんしん 1912
ばくろ 1910
ひょうてき 1910
コイル 1909
はじめて 1908
らく 1908
２８ 1907
さどう 1904
ついせき 1903
なま 1903
ぽん 1902
じん@@ 1901
きょうさく 1899
すう@@ 1899
nkjl 1898
きしつ 1898
さいしゅ 1898
ｏｃ@@ 1898
ふう 1895
drxi 1894
ゾ@@ 1894
２６ 1894
いしき 1892
きろぐらむ 1892
クラ@@ 1892
けいりょう 1891
はっしん 1889
ナトリウム 1889
３２ 1889
にんげん 1888
wdya 1885
ああるえふ 1885
じゅうたく 1885
せいじん 1885
すいへい 1883
ふくじん 1879
めい@@ 1877
dai 1875
ターゲット 1875
じゅんい 1874
つかい 1874
せんだん 1872
レート 1872
ぜんれい 1870
チャ@@ 1870
だんめん 1867
でぃい 1867
でぃい@@ 1866
へいれつ 1866
しゃりょう 1865
ｉａ 1865
せんしゅ 1864
bwqq 1863
プレス 1863
きゃど 1861
はけい 1861
けいえい 1859
ひろい 1859
はれ 1858
きんきゅう 1857
たんさく 1857
アルコール 1857
skv 1855
たいけい 1853
シリーズ 1853
ｕｎ@@ 1851
ａｎ 1849
ゲ@@ 1848
zyms 1847
つね 1847
とうきょう 1842
げんご 1841
げんぱつ 1841
こうさん 1839
しょうさん 1838
ええじい 1837
なけれ 1835
ユニット 1835
せつだん 1834
ほっさ 1834
Ｇａ@@ 1834
じゅうりょう 1833
ksk 1831
くっせつ 1831
６５ 1831
ひしつ 1830
ふせい 1830
しきい 1828
うごき 1825
バー@@ 1825
レー@@ 1824
ばいたい 1823
しはん 1822
パス 1822
メチル 1822
４００ 1821
armk 1819
ryzs 1819
ぎょうしゅう 1818
じい@@ 1818
せいいく 1815
せきしゅつ 1815
ckmh 1814
レータ 1814
でんぱ 1812
ハイ@@ 1812
いぜん 1811
でんわ 1810
ぷ 1810
mazy 1809
ラジカル 1809
７３ 1807
りてん 1806
ざ 1804
むせん 1804
とくしゅ 1802
びい 1802
グリ@@ 1802
かえる 1800
けっちょう 1799
どうは 1799
llae 1796
こうしゃ 1796
ゆうり 1796
nxpx 1795
ebzl 1792
gdzn 1792
やく@@ 1792
fekk 1790
たそう 1790
ベン@@ 1787
せいじゅく 1786
つけ 1786
ほうかい 1786
qfok 1785
ピン 1785
しゃだん 1784
こうきん 1783
xbkk 1780
でぃいえむ 1779
はし 1778
ａｐ@@ 1777
サー@@ 1776
いど 1775
すんぽう 1774
ｅｍ@@ 1774
ぐ@@ 1773
しんとう 1773
ｅｓ@@ 1773
わずか 1770
iirn 1767
どくりつ 1766
はんえい 1766
ｏｄ@@ 1765
eki 1764
パー@@ 1764
かしょ 1761
どうしゅつ 1761
たんのう 1760
げんきゅう 1759
せいやく 1759
どくせい 1759
ubyy 1757
メモリ 1757
ｔｅｒ@@ 1756
りったい 1755
しょうひん 1754
ひっぱり 1754
プレ@@ 1754
ワクチン 1754
gqed 1750
mxbd 1750
sbwr 1750
マトリックス 1749
２７ 1749
せきずい 1748
ひまん 1745
zbia 1744
せいし 1743
たけい 1742
z@@ 1741
おんきょう 1741
ぴいえ@@ 1741
きょけつ 1738
でぃいしい 1738
あある 1737
しゅうちゅう 1737
しゅとく 1737
じゅ 1734
ようき 1734
lmeb 1733
udyu 1733
へんすう 1731
たかね 1729
± 1728
ええしい 1728
せきゆ 1725
トン 1725
kiai 1724
ぶんけん 1724
ティ@@ 1724
ステ@@ 1723
エコー 1721
deaj 1719
てきせい 1717
u@@ 1716
ひき@@ 1715
きろめえとる 1714
Ａｌ@@ 1713
とうさい 1712
はくり 1712
セット 1711
fqed 1709
けいい 1709
ざん 1709
tgby 1708
サ 1707
れつ 1706
かき 1705
ぜっとえぬ 1705
シャ@@ 1705
ション 1705
けいぶ 1704
snd 1703
とつぜん 1703
mwvv 1701
はんけい 1700
しょち 1698
ldkd 1697
せいごう 1697
mld 1696
かべ 1696
いがく 1695
たいじゅう 1695
ぴいえす 1695
vbok 1694
ホール 1694
こうき 1692
じいいい 1692
すれ 1692
すいちゅう 1691
ダイオード 1691
ルミネセンス 1691
uskw 1690
ｕｍ 1690
てきごう 1689
pfki 1688
ぜんこく 1687
クラス 1687
あいえすおう 1686
きおく 1686
よこ 1681
ビタミン 1681
ランダム 1681
せんがん 1680
みりりっとる 1680
かかく 1679
ちかい 1679
づくり 1679
ゆか 1679
wsjk 1678
こうりゅう 1678
ッチ 1677
ちから 1676
パラ@@ 1676
おおかっ 1675
ける 1673
ティング 1673
バルク 1673
よそう 1672
オー@@ 1672
じゅうりょく 1671
つれ 1670
たり 1669
１９９８ 1669
wdds 1665
けいしつ 1665
ケーブル 1662
ック@@ 1661
ybob 1660
p@@ 1659
いがん 1659
おおはば 1659
かかわら 1659
jduy 1658
３３ 1657
mazm 1656
ふう@@ 1655
ふかけつ 1655
わん 1655
ee 1654
キ 1654
こじん 1652
ざい@@ 1652
やま 1652
でん@@ 1651
グラフ 1651
えい@@ 1648
１９９９ 1647
きょうせい 1645
さつえい 1644
みん 1644
いくせい 1643
ネ 1643
ひくかっ 1641
mdl 1637
いれ 1637
えすあある 1637
アルカリ 1636
とうぶ 1635
あん@@ 1634
さんしゅつ 1634
ぴいびい 1634
zrj 1631
カル@@ 1631
mfk 1630
zyy 1630
ぶったい 1629
よてい 1629
oxml 1628
すでに 1628
odmf 1627
wdy 1624
きほう 1624
はいせん 1624
ミン 1623
アクセス 1622
じばん 1621
きか 1619
はいい 1619
１１１ 1619
ちょめい 1618
dwfk 1615
しょうけつ 1614
えいち@@ 1612
しんたい 1611
えいちいい 1610
モーメント 1609
５５ 1608
けっせつ 1606
３１ 1606
かんご 1603
ラー 1601
しゅうそく 1599
きち 1598
yurm 1596
かそう 1596
たんか 1596
スイッチ 1596
まわり 1595
ほうしん 1594
リア 1593
vlri 1592
ｉｓ 1591
きょ@@ 1589
タイム 1589
ゆらぎ 1588
pvzm 1587
たいりゅう 1586
ce 1585
きゅうおうえる 1581
cekh 1580
i@@ 1580
だっ@@ 1579
みつ@@ 1579
らい 1579
める 1577
ＭＡ@@ 1577
けっとう 1576
みつ 1576
anrs 1575
ついか 1574
りゅうさん 1573
ヤ 1573
ＰＥ 1573
たいじ 1572
ぼうちょう 1572
いいん 1571
へい 1571
ｉｇ@@ 1570
dmi 1569
elgd 1567
y@@ 1566
かんき 1566
にゅうとう 1565
ひょうしき 1565
ひがい 1564
みる 1561
りゆう 1561
ロール 1561
dnk 1558
ないひ 1558
ひっしゃ 1558
アジア 1556
５３ 1556
ｏｔ@@ 1556
しゅうしょく 1555
だとう 1555
ドット 1555
ｏｎ 1555
ved 1554
すいみん 1554
アーク 1552
りゅう@@ 1550
じょうぶ 1547
ます 1547
ショ@@ 1547
まれ 1546
めん@@ 1545
４８ 1545
バランス 1544
とる 1543
ダイオキシン 1543
ミクロ 1543
ハイブリッド 1542
えるしい 1541
rstd 1539
gij 1538
じゃく 1538
きり@@ 1536
せき@@ 1535
ぴいええ 1535
ビット 1535
たんどく 1534
しつない 1533
どく 1530
でぃいびい 1528
ｅｄ 1528
おのおの 1527
ひし 1527
プレート 1525
ａｇ@@ 1525
かせん 1524
すすむ 1523
ヘッド 1523
れき 1521
２００１ 1521
rxb 1520
さいしん 1520
れい@@ 1520
１０００ 1520
３６ 1520
ＮＡ@@ 1520
せきたん 1519
ニング 1519
じりつ 1518
ＰＡ@@ 1517
ひざ 1516
えんか 1515
リー@@ 1515
ふくまく 1514
fff 1512
れん 1511
しょくじ 1510
せきそう 1509
ドメイン 1509
pdgo 1508
tgnd 1508
かいてい 1507
きゅうげき 1507
せっ@@ 1507
にちじょう 1506
jjzg 1504
ごう@@ 1504
しきべつ 1504
ニーズ 1503
かわ 1502
vyof 1501
えんかく 1501
ちいさな 1500
なんこつ 1500
ちゅうしゃ 1499
けっ 1498
しいぴい 1498
べん@@ 1498
こうさ 1497
えるあい 1496
きど 1496
まい@@ 1494
uaol 1493
えんちょう 1493
しょほう 1492
よば 1492
えんざん 1491
ながい 1491
ズ@@ 1491
あえん 1490
あっか 1490
xsmf 1487
ＧａＮ 1487
えすてぃい 1486
なが@@ 1486
syxi 1484
トロ@@ 1484
たて 1483
デザイン 1483
dvsm 1482
３７ 1482
てき@@ 1481
せいてき 1480
つかわ 1480
まもう 1480
こくない 1479
マスク 1479
Ｇａ 1479
きげん 1478
しっ@@ 1477
ばいち 1477
ｅｎ 1477
sjyy 1476
びょうげん 1476
こうこう 1475
ししん 1475
さいがい 1473
しゅし 1473
vxrr 1472
z 1472
にんい 1472
sisr 1470
がん@@ 1470
きせつ 1470
fds 1469
ａｄ@@ 1469
pelo 1467
きょうゆう 1467
してん 1467
はついく 1467
すべり 1465
りゅうそく 1463
ジャ@@ 1463
ＣＡ@@ 1463
とうめい 1462
みちびい 1462
グ 1462
ふんいき 1461
ビル 1461
ブロ@@ 1461
かと 1459
てんけい 1459
てぃい 1458
じてん 1457
どうとう 1457
ｖｉ@@ 1457
けいれつ 1456
Ｓｉ@@ 1455
そうい 1454
ｉｍ@@ 1454
かくせい 1453
がいらい 1453
いやく 1452
あし 1451
しょうちょう 1451
ぜんしゃ 1450
ング 1449
いちよう 1448
ばしょ 1448
きょ 1447
ぶんき 1447
ykkk 1446
トランジスタ 1446
プリ@@ 1446
しんにゅう 1445
k 1444
とうせき 1444
よび 1444
ネット 1443
インピーダンス 1441
２９ 1441
ええゆう 1439
びいええ 1439
ゆうせん 1439
ケア 1439
カラー 1438
マン@@ 1438
りょうがわ 1437
スクリーニング 1436
２００２ 1436
だぶりゅう 1433
かいり 1432
けいど 1430
しょうへき 1430
fvoy 1429
かせつ 1429
らんりゅう 1429
パネル 1428
こま 1427
とうけつ 1425
あな 1424
oylo 1423
タン@@ 1423
c@@ 1422
deki 1422
たんさん 1422
ダイヤモンド 1421
q@@ 1420
ああるえぬええ 1420
わが 1420
つうじ 1419
ディスプレイ 1419
フィードバック 1419
ｔｈ@@ 1419
３４ 1418
じだい 1417
ロー@@ 1417
ＣＴ@@ 1417
フリー 1416
かくてい 1415
そと 1415
つうか 1415
ひっす 1415
いんさつ 1414
りん@@ 1414
クローン 1414
vhau 1413
りゅうい 1413
メント 1411
インスリン 1410
foi 1409
っくす 1409
ふん@@ 1408
ＭＡ 1408
えきがく 1406
ちょうは 1406
ちょくちょう 1405
じい 1402
oxro 1400
けんじょう 1399
リウマチ 1399
fdek 1398
おす 1398
ふかい 1398
モニタリング 1398
ラーゼ 1398
しろ 1397
せっきょく 1397
かかん 1396
せいそう 1396
hbkd 1395
mdhm 1395
あっ@@ 1395
さいけん 1395
にっ@@ 1395
たいいん 1393
ジ 1393
しゅくしょう 1390
ちゆ 1389
アミン 1389
ブラ@@ 1389
ーン 1389
はんぷく 1388
まったん 1388
どうい 1386
コレステロール 1386
ミ 1385
たっし 1384
Ｃｈ@@ 1384
いと 1383
たく 1383
りんせつ 1383
あいあある 1382
しんしゅう 1382
はんばい 1382
びぶん 1382
そなえ 1381
わり 1380
よわい 1379
リアル 1379
てつどう 1378
メタン 1378
ｅｌ 1378
sujk 1376
たてもの 1376
とうろく 1375
えいちぴい 1374
けっかく 1374
ぽう 1374
めいりょう 1373
b@@ 1372
えき@@ 1371
snrs 1370
あいてぃい 1370
しゅぎ 1370
じょうはつ 1369
２０@@ 1367
emzm 1366
スコア 1366
ないふく 1365
かいご 1364
しく 1363
ｊ@@ 1363
lgkk 1362
サンプル 1361
ノ 1361
レジスト 1361
bnj 1360
きゅうにゅう 1359
ふくん 1359
３８ 1359
きしょう 1358
ふれ 1358
クト@@ 1357
ＣＶＤ 1357
アポトーシス 1356
あいえ@@ 1355
スイッチング 1355
dxzz 1354
こえ 1354
なまり 1354
へ@@ 1354
りゅうかい 1354
veeq 1353
ちじょう 1353
さんぶつ 1352
vji 1350
あつ@@ 1349
ぎがへるつ 1349
６００ 1347
qbzy 1344
いっかん 1344
かち 1344
ＴｉＯ 1344
しんり 1342
せっさく 1342
ていしき 1342
ウェ@@ 1340
うち@@ 1339
ついたち 1338
クション 1338
えんそ 1336
そうとう 1336
ぶそく 1336
ひまく 1335
じゅんかつ 1334
えい 1333
じゅん@@ 1333
ちょくりゅう 1333
らんそう 1333
げんそく 1332
じんたい 1332
はんてん 1331
びりょう 1330
qwry 1328
ねん@@ 1328
tdrz 1327
かくじつ 1327
しき@@ 1327
えんとう 1325
かんい 1325
セン@@ 1325
ちょうりょく 1324
タービン 1324
タン 1323
モデリング 1322
じしゃく 1321
きょうし 1320
くんれん 1320
ずい 1320
dji 1319
xms 1319
しんしつ 1319
かいそう 1318
６４ 1318
かいとう 1317
アプリケーション 1317
づ@@ 1316
かくまく 1315
ノイズ 1315
ぎょ@@ 1314
f@@ 1313
こうくう 1312
かいしゃ 1311
アイ@@ 1311
オゾン 1311
バイオ 1311
リンク 1311
fhos 1310
こっかく 1310
デジタル 1310
かんべん 1309
まま 1308
かいこう 1307
はどう 1307
ふへん 1307
ぶっせい 1307
ゴム 1305
ひりつ 1304
ＰＴ@@ 1304
しめ 1302
ちゅうすう 1302
めっき 1300
tgfg 1299
マー 1299
いしゅく 1298
えるえすあい 1298
けえ 1298
じゅっちゅう 1297
どうでん 1297
みじかい 1296
２００３ 1296
selb 1294
しゅうふく 1293
ちょくご 1293
かへん 1292
ａｅ 1292
きょだい 1291
だす 1291
ズ 1291
はら 1290
ダー 1290
Ａｓ 1290
すすん 1289
そざい 1289
はんそう 1289
１５０ 1289
おくれ 1288
しか 1288
まひ 1287
baa 1286
あか 1286
ニューロン 1286
ええでぃい 1285
ｅｄ@@ 1285
いっ@@ 1284
おうえいち 1283
みぎ@@ 1283
ＣＡ 1283
lczw 1282
かふん 1282
みち 1282
かじつ 1281
じっせき 1281
szzk 1280
＜ 1280
いたる 1279
すいさん 1279
５６ 1279
あらわれ 1278
かいしゃく 1278
さつ 1278
ろん@@ 1278
ろんり 1278
カーボン 1278
jikk 1277
とりあつかい 1277
エ 1277
フロ@@ 1277
ｕｓ@@ 1277
いい 1276
vewl 1274
じゅうにしちょう 1274
ｒｉ@@ 1273
eeys 1272
j@@ 1272
けつ@@ 1272
へいさ 1272
ダム 1272
アラ@@ 1271
きょうそう 1270
はかっ 1269
サイトカイン 1268
こえる 1267
たかめる 1267
はいがん 1267
ヘテロ 1267
しゅたい 1266
キュ@@ 1266
ＰＥ@@ 1265
ちんちゃく 1264
ンド 1264
きり 1262
まつ 1262
カー@@ 1262
fvki 1261
イド 1261
メ 1261
odw 1260
１９９７ 1260
zlod 1259
えむあある 1258
けんたい 1258
さくさん 1258
じょじょ 1258
ねんせい 1258
コラーゲン 1258
cuxs 1257
くう 1257
まっ 1257
しんか 1256
ａｂ@@ 1256
ごみ 1255
レン@@ 1255
バイ@@ 1254
あらわす 1253
veoy 1252
ひょうひ 1252
４２ 1252
あたっ 1251
kowf 1250
uook 1250
ｕｂ@@ 1249
きさい 1248
８５ 1248
zylo 1246
けんち 1246
しゅちょう 1245
もく@@ 1245
にんしょう 1244
へいかつ 1244
ｕｍ@@ 1244
かいがい 1243
そうてい 1243
はっぴょう 1242
にょう@@ 1241
パソコン 1241
チオ@@ 1240
ライト 1240
xoy 1239
たいひ 1239
おん@@ 1238
ひか 1238
しせい 1237
wdan 1236
えきちゅう 1236
oxce 1235
vsk 1235
すいしつ 1234
みっ 1234
メタ@@ 1234
じゅつしき 1233
ちっか 1233
とく@@ 1233
はたす 1233
トロン 1233
あらわれる 1232
りゅうけい 1232
かいせい 1231
っこう 1231
ｅｐ@@ 1231
drj 1229
ふよう 1229
りさん 1229
つくる 1228
グラム 1228
ＲＡ@@ 1228
g@@ 1227
ｌｏ@@ 1227
ｑ 1226
うすい 1225
ぎゅう 1225
zsoo 1224
てぃいええ 1224
スタ 1223
ビジネス 1223
ＳＣ@@ 1223
jdjr 1222
そくせん 1221
かいぎ 1220
レビュー 1220
ほうい 1219
ケ 1219
トルク 1219
チャンネル 1218
aigo 1217
かいひ 1217
オフ 1215
“ 1214
ようする 1214
ジェット 1214
えいぞう 1213
かいぞう 1213
ずつう 1213
ゆうがい 1213
いちじるしい 1212
かんしつ 1212
アメリカ 1212
かでん 1211
だんそう 1211
oisc 1210
せいしょく 1210
ティ 1210
nlni 1209
たんり 1209
zwld 1208
じょうか 1207
ＳｉＣ 1207
かながた 1206
ふめい 1206
めがへるつ 1206
メータ 1206
レス 1205
ｖｉｔｒｏ 1205
evjf 1204
ゆうかい 1204
ａｔｉｏｎ 1204
dkib 1203
ぶもん 1203
いらい 1202
スピ@@ 1202
くち 1201
カル 1201
すいしょう 1200
キナーゼ 1200
bdod 1199
のうしゅく 1199
エピ 1199
ルー@@ 1198
qqx 1197
チェ@@ 1197
Ｃａ@@ 1195
mamz 1194
めす 1194
ノン 1194
ｓｔ@@ 1194
せんぐ 1193
モ 1193
ぴいぴい 1192
シリカ 1192
tmj 1191
えぬえむあある 1191
まる 1191
もれ 1191
vv 1190
x@@ 1188
ぷ@@ 1188
＞ 1188
ことなり 1187
ひんけつ 1187
ほしゅ 1187
はんよう 1186
ほかく 1186
ゲン 1185
ステンレス 1185
プロセッサ 1184
じゅうなん 1183
イメージ 1183
ビデオ 1183
スパッタリング 1182
きろわっと 1181
いんきょく 1180
ッシュ 1179
jfvv 1178
しつ@@ 1178
ゆうぼう 1178
りとく 1178
ヨ@@ 1178
ろうどう 1176
えええす 1175
たんまつ 1175
ソン 1175
レーザー 1175
fvbz 1174
げんみつ 1174
こうほ 1174
ｕｔ@@ 1173
さくてい 1171
ゆうぶい 1171
ジウム 1171
にち 1169
フェノール 1169
７２ 1169
ｏｇ@@ 1169
はいかん 1168
おおきかっ 1167
ＲＳ 1167
ｕｃ@@ 1167
かれい 1166
セメント 1166
ちくねつ 1165
かんこう 1164
ぎほう 1164
うつ 1163
シング 1162
k@@ 1161
exbi 1160
じかい 1159
ブル 1158
７７ 1158
ytyt 1157
しりょく 1156
mi 1154
たいきゅう 1154
ータ 1154
えええむ 1153
すいそく 1153
とうし 1153
ゼロ 1153
zmwl 1152
しんりん 1152
ちゃく@@ 1152
リン@@ 1152
とりょう 1151
ちゃくもく 1150
アクチュエータ 1150
さゆう 1149
００１ 1149
ＰＳ@@ 1149
cua 1148
pvfp 1148
ぜ@@ 1148
ろか 1148
ごく 1147
とくべつ 1147
ガ 1147
じょうりゅう 1146
ばん@@ 1145
ニウム 1145
しょうりょう 1144
キサ@@ 1144
キー 1144
こうへん 1143
たいしょ 1142
nkw 1141
ステージ 1141
ニア 1141
くみたて 1140
トレ@@ 1140
パッケージ 1140
フレーム 1140
モンテカルロ 1140
よく@@ 1139
ろく 1139
５２ 1138
トリ 1137
しいでぃいえぬええ 1136
はいりょ 1136
ターゼ 1136
５１ 1135
８００ 1135
ngs 1134
せいそく 1134
つづい 1134
ファジィ 1134
fman 1133
コーティング 1133
′ 1132
おこっ 1132
きっこう 1132
べ@@ 1132
メタノール 1132
ラジ@@ 1131
レット 1131
えんしん 1130
ひよう 1130
アルミナ 1130
vooj 1129
ぎょ 1129
てぃいあある 1129
３９ 1128
jrod 1127
エタノール 1127
コン 1127
ＩＦＮ 1127
かくとく 1126
きんにく 1126
しょうきゃく 1126
じゅうみん 1126
kkju 1124
こうぐ 1124
じっそく 1124
へいほうせんちめえとる 1124
けんしん 1123
せつどう 1122
もたらす 1122
カラム 1122
あいえす 1121
かわり 1120
ケース 1120
エチレン 1119
しけつ 1118
つかう 1117
６３ 1117
ター@@ 1116
dvwl 1115
あつみ 1114
みっせつ 1113
ajua 1112
co 1112
がいしょう 1112
きしゅ 1112
くみかえ 1112
こうまく 1112
１９９０ 1112
にゅうがん 1111
１１０ 1111
くみ@@ 1110
しいしい 1110
じいええ 1110
そとがわ 1110
ｉｕｍ 1109
けいそ 1108
ちょうこう 1108
ぴいえる 1108
みいださ 1108
jbvv 1106
ruca 1106
いわ 1106
がく@@ 1106
ひしん 1105
ニュー@@ 1104
こてん 1103
とうき 1103
ａｒ 1103
π 1102
ひだり@@ 1102
wd@@ 1101
しゅうかく 1101
グルコース 1101
ＥＬ 1101
っと 1099
hlka 1098
l 1097
きろ@@ 1097
せきつい 1097
アンモニア 1097
f 1096
ぜんりつ 1096
わたっ 1096
インバータ 1096
vman 1095
Δ 1095
えすしい 1095
ごうり 1095
エピタキシャル 1095
ラム 1095
mfnx 1094
おく@@ 1094
そしょう 1094
まし 1094
r@@ 1093
かんけつ 1093
へんたい 1093
ldul 1092
なえ 1092
９９ 1092
エステル 1090
９５ 1090
こうとう 1089
グラ@@ 1089
wdel 1088
ーション 1088
Ｌｉ@@ 1088
かつ@@ 1087
ラス 1087
４３ 1087
nhkd 1086
サン@@ 1085
sk 1084
にょうちゅう 1084
ジュ@@ 1084
ふんごう 1083
みな@@ 1083
５４ 1083
Ｓｅ 1083
こうけん 1082
はしら 1082
もる 1082
きんしゅ 1081
モノ@@ 1081
６７ 1081
てきとう 1079
me 1078
’ 1078
ふしゅ 1078
velb 1077
jcyg 1076
ちゅうし 1075
スチ@@ 1075
ヘルニア 1075
tgfk 1074
そくめん 1074
よこ@@ 1073
かみ 1072
きょよう 1072
ちんつう 1072
ようきょく 1072
Ｂｉ 1072
wmng 1071
とりつけ 1071
フラックス 1071
げんち 1070
つばさ 1070
とりこみ 1069
かいすい 1068
ちゅうどく 1068
ゲージ 1067
フィン 1067
ラン 1067
かんりゅう 1065
まったく 1065
カー 1065
vhm 1064
おんだん 1064
でぃいえ@@ 1064
わたる 1064
Ｃｏ@@ 1064
nba 1063
５８ 1063
じくうけ 1062
トラップ 1062
たいでん 1061
ドナー 1061
メン@@ 1059
wo 1058
ちょうわ 1058
アーキテクチャ 1058
こうばん 1057
ひろがり 1057
sxs 1056
クス 1056
スパッタ 1056
ざひょう 1055
せいでん 1055
xkcd 1054
bilo 1053
かいき 1053
りゅうしゅつ 1053
メーカ 1052
０１ 1052
しめ@@ 1051
びょうき 1051
fmo 1050
とうしゃ 1050
ソ 1050
ていせい 1049
ノズル 1049
n@@ 1048
うたがわ 1048
でぃいえす 1048
プロトコル 1048
ーゼ 1048
ざんぞん 1047
フォト 1047
ＨＥ@@ 1047
カテーテル 1045
ＡＮ@@ 1045
ＥＳ@@ 1045
mfgl 1044
ypxs 1044
Å 1044
なさ 1043
へいたん 1042
bka 1041
きょうぞん 1041
じそく 1041
しる 1039
ほっかいどう 1039
ッピング 1039
けっ@@ 1038
えすえす 1037
すいじゅん 1037
にんち 1037
ひきおこす 1037
インフルエンザ 1037
ぴいいいてぃい 1036
ほうりゅう 1036
６６ 1036
はつがん 1035
qgq 1034
ついで 1034
ぴいあある 1034
ニ 1034
かぎゃく 1033
はいせつ 1033
ふあん 1033
いいでぃい 1032
ＴＥ@@ 1031
ｓｏｎ 1031
きつえん 1030
ぬ 1030
けた 1029
クリープ 1029
しや 1027
とおり 1027
ぎょうせい 1026
こむ 1026
ＣＯ@@ 1026
アニール 1025
おこし 1024
きんせつ 1024
びいぴい 1024
１４@@ 1024
t@@ 1023
wdpk 1023
さいてい 1023
ナー 1023
ｉｃ 1023
おうべい 1022
ぐん@@ 1022
ししょう 1022
dpez 1021
かいしつ 1020
インシュリン 1020
５７ 1020
６１ 1020
zmxy 1019
おこり 1019
ケット 1019
zrcw 1018
けえ@@ 1018
なお 1018
ふん 1018
ランプ 1018
えんさん 1017
けいひ 1017
かんこく 1016
きも 1016
６２ 1016
ようしき 1015
gdaj 1014
じんぞう 1014
ふくし 1014
れいとう 1014
しいえむ 1013
だんねつ 1013
つぎて 1013
けっせき 1012
けつぼう 1012
ｉｆ@@ 1012
かげ 1011
ちょ@@ 1010
４４ 1010
９８ 1010
えいどう 1009
４６ 1009
きそう 1008
ミトコンドリア 1008
ゆがみ 1007
かわる 1006
ひん@@ 1006
ＧＨ 1006
こくえん 1004
マルチメディア 1004
ワイヤ 1004
ちょく@@ 1003
もた 1003
フル@@ 1003
Ｎｂ 1003
たいこう 1002
くうどう 1001
うぇぶ 1000
げんてい 1000
しめる 1000
ジェ@@ 1000
ベンゼン 1000
いま 999
４７ 999
じしょう 998
やや 998
はたし 997
イソ@@ 997
いたみ 996
えすおう 996
シミュレータ 996
jkk 994
ヒート 994
ール@@ 994
くう@@ 993
はやい 992
ぶざい 992
がっこう 991
とじこめ 991
あつでん 990
リチウム 990
foxd 989
scqa 989
wdot 989
ていき 989
ゆうせい 989
まだ 988
りゅうつう 988
アナログ 988
００@@ 988
ＳＡ@@ 987
fcbi 986
せんざい 986
せんよう 985
ぼうぎょ 985
やせい 985
fvow 984
えふしい 984
けんま 984
した@@ 984
しつど 984
たんじゅう 984
ュー@@ 984
たしかめ 983
１９９６ 983
l@@ 982
えむしい 982
わくぐみ 981
サーバ 981
ＰＭ@@ 981
たて@@ 980
アル 980
くうこう 979
じかく 979
たいねつ 979
はしゅ 979
ひだい 979
１９９５ 979
Ａｓ@@ 979
bbds 978
いいしい 977
こうあん 977
しいおう@@ 977
しょくもつ 977
つくっ 977
ずれ 976
ビン 976
アナ@@ 975
１２０ 975
くふう 973
ぜったい 973
ホル@@ 973
mfwg 972
せいふ 972
メチル@@ 972
けいじ 971
しょうずる 971
４１ 971
ＳＴ 971
たいしん 970
ブレー@@ 970
６８ 970
ＳＴ@@ 970
Ｔｅ 970
いちれん 969
b 968
かり 968
にく@@ 968
なんぶ 967
べい 967
ボール 967
arzj 966
もうけ 966
マイシン 966
ＲＰ 966
lomo 965
でぃいぴい 965
コミュニケーション 965
いったい 964
ていしょう 964
はやく 964
レ 964
おこす 963
コンパクト 962
pujr 961
めぶ 961
モニタ 961
s@@ 960
あぶら 960
しゅくしゅ 960
Ｍｏ 960
xmej 959
ニック 959
ュ@@ 959
げんじつ 958
ぞうけつ 958
シル 958
おも@@ 957
ないぞう 957
ポリエチレン 957
ｌｅ 957
とっき 956
かいすう 955
ようせき 955
beaj 954
mcu 954
みえ 954
カン@@ 954
こうそう 953
じつ@@ 953
ＰＩ@@ 953
Ｔｈ 953
mfuo 952
しゅうりつ 952
とっきょ 952
へいばん 952
ＭＰ@@ 952
こうちゅう 951
びし 951
びん 951
ふうりょく 951
ぶんぱい 951
ＩｇＧ 951
こうぼ 950
じゅうとく 950
じゅんすい 950
まり 950
グル@@ 950
ゴ 950
ソース 950
７８ 950
→ 949
ｏｒ 948
ちてん 947
もぎ 947
だっすい 946
はんだ 946
ＭＯ@@ 946
しんでん 945
ようこ 945
りゅうにゅう 945
コンセプト 945
ソー@@ 945
ニッケル 945
vfd 944
えんけい 944
わたり 944
ダウン 943
ＰＩ 943
fvry 942
qcha 942
ygqw 942
だいすう 941
ディング 941
ＨＣＶ 941
mf@@ 940
クチン 940
テーマ 940
u 939
プリント 939
vfpd 938
δ 938
ああるしい 938
さんかく 938
エージェント 938
wmq 937
かいせん 937
のび 937
プル 937
５９ 937
あつえん 936
ざいたく 936
へんせん 936
Ｓｎ 936
いいえす 935
ふまえ 935
やすく 935
カリウム 935
てっ@@ 934
かんじ 933
ぎょう@@ 933
りょうせい 933
しいく 932
oxwy 931
きあつ 931
だか 931
ｅｇ@@ 931
kyj 930
szok 930
ｉｒ@@ 930
おうえす 929
おでい 929
こうえん 929
しいえふ 929
フェイス 929
さいし 928
カオス 928
クリーン 928
ｔｅｒ 928
びいえ@@ 927
きめ 926
こきゃく 926
けいかい 925
しょうわ 925
ｉｂ@@ 925
vnf 924
xizn 924
ひけん 924
やす 924
ショック 924
jro 923
ゆけつ 923
オキシ@@ 923
きおう 922
れっしゃ 922
ヒドロ@@ 922
ホーム 922
Ｆｅｒｍｉ 922
sovv 921
たいへい 921
ほきょう 921
； 921
ffk 920
れんけつ 920
すがた 919
ゾル 919
oibb 918
ぴいぴいえむ 918
ふんたい 918
ノール 918
ええてぃいぴい 917
ふたん 917
あげる 916
ドーピング 916
ａｔｉ@@ 916
りかん 915
スポット 915
ソーム 915
こおり 914
われわれ 914
グラフィー 914
ビ 914
こべつ 913
セキュリティ 913
いろいろ 912
おか 912
ぎん 912
けいかん 912
えぬおうえっくす 911
がっ@@ 911
くらい 911
ゆにゅう 911
エッジ 911
llaj 910
ufeo 910
いおう 910
さっ@@ 910
おうだん 909
かいいき 909
こうい 909
せいめい 909
コール 909
パー 908
ひょうそう 907
ぼうこう 907
むげん 907
いいあある 905
かんしん 905
せいさ 905
ロジー 905
vuuo 904
アトピー 904
シア 904
くっさく 903
フェライト 903
てんそう 902
ーズ 902
おり@@ 900
かいさい 900
たいない 900
のぞましい 900
せんてん 899
そうちゃく 899
ＨＡ@@ 899
じす 898
ぱつ 898
プロ 898
ＣＮ@@ 898
ＳＩ@@ 898
ｏｌ 898
はっき 897
ウシ 897
フォノン 897
リウム 897
mbmo 896
wmgd 896
ずがい 896
スペース 896
きょくげん 895
へんぺい 895
えすびい 894
れんさ 894
オブジェクト 894
ブリ@@ 894
マー@@ 894
lodm 893
へいほうめえとる 893
カード 893
セル@@ 893
７１ 893
かんかい 892
Ａｒ@@ 892
ぜんてい 891
とうたつ 891
せまい 890
どくじ 890
スラグ 890
タクシー 890
バリ@@ 890
ＰＳ 890
ikvv 889
じゅんび 889
ピッチ 889
しゃへい 888
たか@@ 888
だいのう 888
wsii 887
しんぼう 887
Ｃｄ 887
ほそく 886
１８@@ 886
ざんき 885
しばしば 885
じりょく 885
ひがし 885
ＰＣ@@ 885
あろう 884
すいとう 883
ihgk 882
nfvv 882
かりゅう 882
そうしん 882
ぱすかる 881
スキ@@ 881
マシン 881
Ｎｄ 881
dkro 880
epf 880
あく@@ 880
きたし 880
しょうのう 880
ニューラル 880
Ｆｅ@@ 880
かわ@@ 879
カン 879
qrgy 878
こうきょう 878
ずし 878
げすい 877
みどり 877
バス 877
ライフ 877
tmkd 876
えふ 876
にゅうさん 876
アロ@@ 876
うたがい 875
ファイル 875
ボ 875
Ｌａ 875
Ｚｒ 875
とそう 874
スルー 874
ＴＨ@@ 874
きしゃく 873
こうかい 873
こっか 873
さんこう 873
ほうさく 873
vejq 872
wozw 872
がしゅ 872
しょしん 872
ないまく 872
のぞま 872
ＭＰａ 872
そうじょう 871
ないしょう 871
きょく@@ 870
がんめん 869
たんどう 869
みず@@ 869
インタ 869
チェック 869
２５０ 869
あまり 868
えすええ 868
すうがく 868
シミュレート 868
うちがわ 867
vkro 866
せんろ 866
ばい@@ 866
クト 866
たま 865
でぃいええ 865
われ 865
７４ 865
Ｓｔ@@ 865
じゅうじつ 864
すいろん 864
せつ@@ 864
たちば 864
ひろ@@ 864
ほうごう 864
オリ@@ 864
ルト 864
きょくせい 863
リズム 863
きんしつ 862
こっとう 862
ザ 862
ポリマー 862
ＭＥ@@ 862
じはつ 860
ん@@ 860
デ 860
・@@ 860
しやく 859
ピング 859
モル 859
４９ 859
しゃくど 858
カチオン 858
えふええ 857
むずかしい 857
らく@@ 857
コンデンサ 857
あて 855
ッキング 855
マネジメント 855
しつもん 854
たまき 854
スル@@ 854
バン@@ 854
いせい 853
ぜんぽう 853
よぶ 853
わる 853
ＰＤ 853
かいにゅう 852
キング 852
スーパー 852
こども 851
ノード 851
tgai 850
たち 850
みまん 850
マーク 850
zmsy 849
ええ 848
しょくせい 848
たがい 848
タル 848
さっきん 847
エピ@@ 847
ＰＣ 847
ＴＥＭ 847
ぶんしょ 846
ノー@@ 846
えむてぃい 845
びいあある 845
りそう 845
ドリ@@ 845
へるつ 844
かかる 843
じいしい 843
ぴいえむ 843
クロマトグラフィー 843
スパ@@ 843
くみ 842
とういつ 842
やかん 842
メッシュ 842
dpwx 841
してい 841
パケット 841
＊ 841
かいてき 840
ついきゅう 840
ほかん 840
サポート 840
あたらしく 839
くる 839
ノイド 839
ＭＰ 838
きおん 837
そうきょく 837
スポ@@ 837
ｎｅ@@ 837
たんたい 836
エンド 835
グロブリン 834
タンク 834
６９ 834
Ｓｃｈ@@ 834
cilo 833
さしつ 833
すくなかっ 833
にゅうぼう 833
ＨＣ@@ 833
きんえん 832
せひ 832
ぶい@@ 832
アニ@@ 832
ぼうじょ 831
７６ 831
Ｂａ@@ 831
txo 830
やま@@ 830
いいゆう 829
ばいしつ 829
りがく 829
nuyu 828
がくせい 828
ぎょうしゅく 828
ぞうあく 828
たりょう 828
おおさか 827
ずみ 827
ていする 827
シス 827
ゾール 827
しんわ 826
じゅんど 826
たとえば 826
はくしょく 826
ｔｉｏｎ 826
こつ@@ 825
とくはつ 825
チーム 825
ランド 825
ＰＡ 825
mb@@ 824
ryk 824
zs 824
うん@@ 824
がら 824
ニル 824
フィールド 822
プロフィル 822
レンジ 822
うし 821
たんさ 821
きゅうきゅう 820
ねっ@@ 820
グリセ@@ 820
っき 819
はた@@ 819
１９９４ 819
txb 818
えんばん 818
たまご 818
もくざい 818
コリン 818
バイオマス 818
ファミリー 818
はは 817
ハン@@ 817
ボイラ 817
ＨＳ@@ 817
とい 816
びいえす 816
uf@@ 815
きゃく 815
きゅうきん 815
ちょっこう 815
てぃいえむ 815
コヒーレント 815
rrgo 814
zswl 814
えんちゅう 814
ながく 814
ぱ 814
コントラスト 814
あいでぃい 813
たね 813
まち 813
ヌ@@ 813
eklm 812
あらわし 812
かきょう 812
すいおん 812
でぃいえふ 812
Ｃｌ 812
eof 811
しんし 811
シクロ@@ 811
ｅｎｔ@@ 811
ll@@ 810
ようしゅつ 810
マクロファージ 810
vclo 809
おんそく 809
からだ 809
マクロ 809
メリット 809
７９ 809
ＮＡ 809
ぎゅう@@ 808
たいしょく 808
でんり 808
znli 807
タイ@@ 805
ネート 805
zkkz 804
はたらく 804
ＲＩ@@ 804
rr 803
ちけい 803
みたす 803
メーカー 803
くわえる 802
ＩｎＰ 802
phzi 801
ちょうえん 801
ノル@@ 801
ＡＬ@@ 801
m@@ 800
wdjg 800
しんぴ 800
なか@@ 800
たいじょう 799
のぞい 799
アニーリング 799
プライ@@ 799
マン 799
Ｃｄ@@ 799
こうもん 798
なんち 798
はいごう 798
ジョ@@ 798
ティブ 798
７００ 798
ＳＨ@@ 798
ＳＳ@@ 798
えぬしい 797
スター 797
バイオ@@ 796
ｓｐ@@ 796
きゅういん 795
しゅっ@@ 795
じゅせい 795
ｐｌ@@ 795
pnia 794
かよう 794
しぼり 794
とち 793
シー 793
ムシ 793
ロバスト 793
かんよう 792
とりいれ 792
びょうそう 792
バルブ 792
ｉｐ@@ 792
かっ@@ 791
きりかえ 791
バッファ 791
ていち 790
ほんしつ 790
もじ 790
かぎら 789
きょうやく 789
しょぶん 789
じたい 789
はれつ 789
へんさ 789
センタ 789
ポ 789
ａｓｅ 789
mfik 788
えいちええ 788
たかめ 788
まき 788
プロトン 788
ＡＣ@@ 788
くせい 787
おうええ 786
しいもす 786
ナル 786
ciyg 785
えんがん 785
アルゴン 785
ぐち 784
しんど 784
ほしゅう 784
こうしき 783
りっぽう 783
skbr 782
きんい 782
じっせん 782
すすめる 782
せいりつ 782
shl 781
ぎゃくりゅう 781
けんだく 781
odjf 780
しごと 780
せきえい 780
ファン 780
ＮＨ 780
あれ 779
ーリング 779
ｖｅ 779
lprm 778
saia 778
りょうぐん 778
サル@@ 778
ベクター 778
dmvv 777
くべつ 777
せむ 777
ちゅうぞう 777
スペ@@ 777
セルロース 777
げり 776
ＮＦ 776
uoai 775
かぎ 775
しょうたい 775
すいぎん 775
せいまく 775
しゅっしょう 774
マップ 774
marm 773
かいちょう 773
こよう 773
もんみゃく 773
ドロ@@ 773
ルール 773
０５ 773
a@@ 772
しいえいち 772
ぴいえふ 772
シー@@ 772
えむ 771
ット@@ 771
ＭＣ@@ 771
fjbk 770
pxby 770
qy 770
インド 770
zmjr 769
ε 769
みとめる 769
ckbn 768
esy 768
mjej 768
いっそう 768
はんしょく 768
シェ@@ 768
eej 767
yram 767
あく 767
えふてぃい 767
ぎょかく 767
ていあつ 767
こうがい 766
ちいさかっ 766
ジストロフィー 766
とくゆう 765
フェニル 765
えきてき 764
Ｎｅ@@ 764
あつかう 763
えすえぬ 763
ハードウェア 763
ああるてぃい 762
ひりょう 762
やくり 762
ッジ 762
ホット 762
こういき 761
ほんたい 761
さける 760
しいえええむ 760
とめ 760
メディア 760
ｉｎｅ 760
えすぴい 759
てんけん 759
ｉｌｌ@@ 759
ひばく 758
ふくよう 758
オープン 758
ギ 758
ＤＣ@@ 758
ａｋ@@ 758
かんさ 757
しいしいでぃい 757
せんしん 757
だえん 757
っか 757
てぃいえす 757
ドライ 757
ポリマ 757
pda 756
jszo 755
こし 755
すいけい 755
サイド 755
プロファイル 755
リソグラフィー 755
ワード 755
oojr 754
ころ 754
ふうそく 754
わく 754
パ 754
ＡＦＭ 754
かっこく 753
しょうどく 753
そうでん 753
ふくやく 753
セラミックス 753
ベー@@ 753
ラミ@@ 753
ｖｉｖｏ 753
edjr 752
きょうみ 751
さらなる 751
しゅかん 751
てぃいぶい 751
ゆうえき 751
ＲＥ@@ 751
かくしん 750
たば 750
ふせぐ 750
タイ 750
くい 749
はつ@@ 749
オーバ 749
ンス 749
ａｎｓ 749
ｋＶ 749
かいぼう 748
のぞく 748
コントローラ 748
suke 747
w@@ 747
えむぴい 747
しっぺい 747
インター@@ 747
ナーゼ 747
ＩＣ@@ 747
jjd 746
ええぴい 746
こくふく 746
だんぺん 746
やくだつ 746
ＴＭ@@ 746
ｅｌｌ@@ 746
アルブミン 745
コレ@@ 745
えきそう 744
しいじい 744
ねつてき 744
やけ 744
アミド 744
ドイツ 744
jihm 742
ssya 742
きぐ 742
くかん 742
せきにん 742
ぶんべん 741
ＬＩ@@ 741
かならず 740
かびん 740
こつばん 740
さくもつ 740
アニオン 740
クター 740
シンチ@@ 740
フォー@@ 740
ＨＢ@@ 740
ＭＯＳＦＥＴ 740
ＴＳ 740
えいきゅう 739
くいき 739
こうさく 739
ぱ@@ 739
ＯＳ 739
ｏｖ 739
ｐｅｒ@@ 739
rz 738
σ 738
すいわ 738
＆ 738
ＺｎＯ 738
おうしゅう 737
くすり 737
fsqd 736
しいあい 736
せいご 736
ろこう 736
イル 736
ミラー 736
みなおし 735
よれ 735
ふっそ 734
みゃく@@ 734
rjsw 733
とらえ 733
ふつう 733
ヌクレオチド 733
サンプリング 732
トランス 732
カプセル 731
Ｎｉ@@ 731
じゃくねん 730
えるしいでぃい 729
きょくめん 729
きんし 729
テン@@ 729
バック 729
いかに 728
さんてい 728
しゅく@@ 728
へらす 728
ａｎｄ@@ 728
ｙｌ@@ 728
tidg 727
えすえふ 727
けってん 727
ちてき 727
ＩｇＥ 727
ＰＬ@@ 727
nklz 726
きょうごう 726
さんしょう 726
ロイ@@ 726
ＩＩ@@ 726
fd@@ 725
fgbq 725
エリ@@ 725
いた@@ 724
ープ 724
nskw 723
かっしょく 723
げんこう 723
エストロゲン 723
じゃ@@ 722
ダニ 722
パン@@ 722
ＧＦ@@ 722
ｋｅＶ 722
tgij 721
えふぴい 721
じんせい 721
ｅｎｔ 721
xmkr 720
くろ 720
ふゆう 720
ようちゅう 720
フト 720
ワーク 720
ージ 720
mfl 719
suuo 719
uo@@ 719
おんぞん 719
アクリル 719
シールド 719
ジア@@ 719
ゾン 719
かぎり 718
ぼうさい 717
らせん 717
コンダクタンス 717
テレビ 717
ufqe 716
かせい 716
しょうめつ 716
やぐ 716
Ｂｒ@@ 716
ＣＯ 716
あいえす@@ 715
あわ@@ 715
ねんえき 715
いかし 714
ざん@@ 714
いいてぃい 713
おんな 713
たんき 713
エク@@ 713
オペ@@ 713
いんえい 712
たっする 712
カイン 712
iyxa 711
ぞくする 711
ねつげん 711
２００４ 711
ＴＡ@@ 711
えぬてぃいてぃい 710
ようつい 710
アルキル 710
やさい 709
がっ 708
さぶん 708
すいりょく 708
つい@@ 708
どうしゃ 708
ガイド 708
ザー 708
ルーム 708
ＰＯ@@ 708
μｇ 707
あっぱく 707
げんきょう 707
とうほう 707
ましん 707
ｏｂ@@ 707
おさえ 706
しくみ 706
つくら 706
てんとう 706
ぶんあつ 706
su@@ 705
てんてき 705
エントロピー 705
９６ 705
ＬＡ@@ 705
いえ@@ 704
せいほう 704
せんし 704
ぜんき 704
ぴいえす@@ 704
ほうそ 704
ゼーション 704
ＳＴＭ 704
かたい 703
ぶた 703
ＥＳ 703
λ 702
しょうえね 702
はんすう 702
ふかつ 702
wm@@ 701
しし 701
しゅく 701
すいさつ 701
びんかん 701
ゆび 701
トー@@ 701
しんぱく 700
じゃっかん 700
じゅうじ 700
ふんりゅう 700
タイミング 700
ｓｉｓ 700
おや 699
こうう 699
ないか 699
ゆえき 699
トル 699
ミリ 699
８８ 699
ＣＭ@@ 699
ａｎｇ@@ 699
sooe 698
エンジニアリング 698
オール 698
マルチ@@ 698
おき@@ 697
ぽ@@ 697
kiz 696
ma@@ 696
こうろ 696
つくり 696
シール 696
ｐ‐ 696
りく 695
アクティブ 695
スラ@@ 695
プ 695
モニター 695
ｉｄ 695
あやまり 694
のうやく 694
ロジ@@ 694
Ｔａ 694
たんすい 693
どりょく 693
ろうじん 693
or 692
かんげき 692
じいえ@@ 692
ちょりゅう 692
もり 692
ホス@@ 692
ボード 692
ャ 692
いびつ 691
ヘリウム 691
ちしつ 690
てぃいぴい 690
プレ 690
zm@@ 689
きいろ 689
だっちゃく 689
つづく 689
ほじょう 689
Ｌａ@@ 689
じじつ 688
とりひき 688
バッ@@ 688
あつめ 687
うんえい 687
きゅうじょう 687
しあげ 687
にくしゅ 687
ふくつう 687
ゆき 687
イネ 687
クロム 687
テン 687
いり 686
かんがん 686
ぴいぶい 686
ふかく 686
カルボ@@ 686
ＭｇＯ 686
なつ 685
ふんむ 685
ヒステリシス 685
うめこみ 684
しかん 684
ちゅうすい 684
ふうりえ 684
りょ@@ 684
h@@ 683
いいえ@@ 683
きゅうこう 683
たかまっ 683
つづけ 683
uanl 682
クロロ@@ 682
９３ 682
ＤＭ@@ 682
チャー 681
ｔｉｃ@@ 681
ふくせい 680
ＳＨ 680
せつりつ 679
パイプ 679
けんてい 678
ごうけい 678
ぜんめん 678
アク@@ 678
トラン@@ 678
１９９３ 678
ＤＳ 678
しも 677
はじまっ 677
ほんしょう 677
xdce 676
けんしゅう 676
じち 676
トラヒック 676
じょうちゅう 675
てっこう 675
イメージング 675
グルタミン 675
フレ@@ 675
はさい 674
ろしん 674
ハウス 674
８６ 674
ＴＮＦ 674
ぴいぜっとてぃい 673
キシン 673
マイクロ@@ 673
pvor 672
おこなえる 672
くぶん 672
ふえ 672
ビリティ 672
マス 672
Ｃｒ@@ 672
はな@@ 671
ＰＢ@@ 671
あき@@ 670
うん 670
えんちょく 670
きはつ 670
しゅうし 670
しょうすう 670
じゅしょう 670
とぼ@@ 670
エン 670
フォト@@ 670
しょうにん 669
ぼうすい 669
むね 669
ゆあつ 669
テープ 669
たいせつ 668
むこう 668
りゅうこう 668
わっ 668
テク@@ 668
ＴＰ 668
ねったい 667
ビニル 667
こくりつ 666
じけん 666
ほんやく 666
ｙｎ@@ 666
でぃいえす@@ 665
でぃいでぃい 665
ふんさい 665
るい@@ 665
vebo 664
かお 664
すいそう 664
もたらし 664
ビジョン 664
さいどう 663
しゃめん 663
だんじ 663
にん@@ 663
アス@@ 663
ＥＳＲ 663
pfyy 662
くろ@@ 662
しみん 662
とふ 662
バリア 662
ヒドロキシ 662
ＡＭ@@ 662
あんか 661
エア 661
ａｒｄ 661
ふのう 660
エチル 660
テクノロジー 660
デン@@ 660
プロテアーゼ 660
メンテナンス 660
ＥＣ@@ 660
ａｓ 660
jdfb 659
きょくぶ 659
しゅつ@@ 659
じぇえ@@ 659
そすい 659
にんてい 659
レーダ 659
あき 658
しんぶ 658
にせ 658
ちんでん 657
のうか 657
あみ 656
くさり 656
そん@@ 656
ウエ@@ 656
トレー@@ 656
あつい 655
いご 655
うわ@@ 655
したがい 655
ゼオライト 655
ディーゼル 655
えんい 654
かざん 654
こな 654
しょかい 654
てぃいえいち 654
ぼく 654
ダイナミック 654
プット 654
ＣＨ@@ 654
ねじ 653
はつが 653
シラン 653
ロー 653
ＰＤ@@ 653
hmlr 652
こんにゅう 652
はいじょ 652
yaps 651
じむ 651
とうおん 651
プロト@@ 651
ポジ@@ 651
ｈｅ@@ 651
kiwl 650
ええてぃい 650
びょうせい 650
グリーン 650
マニュアル 650
もち@@ 649
りゅうか 649
ナノ@@ 649
えいち 648
おと 648
りゅうど 648
カイ@@ 648
sulm 647
えいちえふ 647
きた 647
じゅんじょ 647
びょうけい 647
falo 646
hrd 646
yzyi 646
しだい 646
じょうげ 646
とうにゅう 646
Ａｎ@@ 646
ｔｏ@@ 646
きろへるつ 645
そうどう 645
でんねつ 645
はんぶん 645
ほうふ 645
コンテンツ 645
qya 644
えいちじい 644
のこり 644
ふくすい 644
まど 644
グラフィ 644
ソリトン 644
リハビリテーション 644
Ｍｎ@@ 644
いいえむ 643
えるぴい 643
くっきょく 643
しょうほう 643
せいてい 643
りゅうち 643
ワイ@@ 643
Ｐｈ@@ 643
ｑｕ@@ 643
pwd 642
えるいいでぃい 642
おうと 642
かんりょう 642
だんじょ 642
ぼうけん 642
キン 642
ゾーン 642
ミクロン 642
リード 642
８３ 642
ＳＥ@@ 642
ｓｃ@@ 642
ああるあい 641
かさい 641
しんせん 641
アーゼ 641
そうぎょう 640
ついかん 640
どくそ 640
ろうか 640
スライ@@ 640
パッチ 640
かっぱつ 638
けっこう 638
じねつ 638
スカ@@ 638
ハイ 638
じっしつ 637
だんぼう 637
ていしゅつ 637
ストリ@@ 637
セグメント 637
Ｚｎ@@ 637
ank 636
cirs 636
かちく 636
しゅっか 636
そうせい 636
ちゅうかく 636
サーボ 636
スタチン 636
Ｍｏ@@ 636
rd 635
≦ 635
くさ@@ 635
しるし 635
ちゅうとう 635
ほゆう 635
もうさい 635
ようし 635
ろっ@@ 635
イレウス 635
おこ@@ 634
こっ@@ 634
さつぞう 634
じる 634
ほうる 634
りゃく 634
ジング 634
フタ@@ 634
きょうりょう 633
だく 633
ちょく 633
ＨＤ 633
こうせん 632
シュ@@ 632
プログラミング 632
８４ 632
ｙｓ@@ 632
keok 631
lk@@ 631
rs 631
いっか 631
めざす 631
ようご 631
ウサギ 631
ＧＡ 631
erms 630
Ω 630
しんがた 630
たんとう 630
ちゃ@@ 630
にっすう 630
テレ@@ 630
xmoq 629
こうふく 629
しんしゅつ 629
てっきん 629
みんかん 629
カット 629
えすでぃい 628
きょうと 628
スポーツ 628
ｓｐ 628
dxwl 627
oa 627
くそう 627
しゅりゅう 627
しょとう 627
すみやか 627
クロ 627
くも 626
さだめ 626
りゅうき 626
れいじ 626
スギ 626
タンパク 626
ッ 626
メトリー 626
ucgd 625
zsya 625
しざい 625
づける 625
はいでん 625
アミロイド 625
カリ@@ 625
ドリフト 625
フル 625
レイ@@ 625
Ｃｏｕｌｏｍｂ 625
yzzz 624
っかん 624
とっ@@ 624
シド 624
スケ@@ 624
トランス@@ 624
krrr 623
うし@@ 623
けいき 623
ようざい 623
かさ@@ 622
こうぶつ 622
ＥＮ@@ 622
ＦＡ@@ 622
fej 621
vxoq 621
かあつ 621
かぜ 620
かど 620
こんちゅう 620
さんぷ 620
ぞく@@ 620
はぐるま 620
ほにゅう 620
ポー@@ 620
メラ@@ 620
０２ 620
えすえむ 619
きゅうめい 619
こうがん 619
トラブル 619
うったえ 618
かいごう 618
ちひょう 618
ふよ 618
グルコ@@ 618
１８０ 618
ooj 617
srh 617
きざい 617
すぎ 617
ひきおこさ 617
もと@@ 617
ストロ@@ 617
バイパス 617
マグネシウム 617
８２ 617
Ｇｌ@@ 617
ＴＣ@@ 617
jiyn 616
ちず 616
ＢＰ 616
おそい 615
きんりょく 615
つながる 615
はがね 615
ふくそ 615
みじかく 615
アルデヒド 615
スキーム 615
ぜんてき 614
はな 614
wt@@ 613
えすいい 613
しょうよう 613
シリ@@ 613
ｅｎｓｉｓ 613
きょうぎ 612
しゅびょう 612
じいぴいえす 612
みっ@@ 612
おんしつ 611
しず@@ 611
たほう 611
てぃいえ@@ 611
カロ@@ 611
lolb 610
いけい 610
にょうそ 610
ぱん 610
クローニング 610
おもみ 609
みかけ 609
ようてん 609
センス 609
テロ@@ 609
プレドニゾロン 609
えらいざ 608
えるでぃい 608
クロス 608
ｔｏｎ 608
ええええ 607
じぜん 607
めがわっと 607
りゅういき 607
Ｎａ@@ 607
ｏｐｈ@@ 607
おきなわ 606
ちょうかく 606
むす@@ 606
りれき 606
ユー@@ 606
ータ@@ 606
４５０ 606
ＭＩ@@ 606
あら@@ 605
じょじ 605
ちょっ@@ 605
どうちょう 605
jmeb 604
きけい 604
サイクロトロン 604
シナプス 604
トップ 604
ナイト 604
ネル 604
レジ@@ 604
ＢＡ@@ 604
kic 603
えむええ 603
しいええ@@ 603
たいすう 603
でぃいあある 603
ぷんかん 603
アレルゲン 603
アンモニウム 603
クォーク 603
サー 603
ールド 603
ＢＴ 603
bimo 602
みとおし 602
カバー 602
あいええ 601
きたす 601
せいちゅう 601
ぽ 601
スケーリング 601
トラック 601
ドラ@@ 601
９４ 601
li@@ 600
odbj 600
sbwz 600
いな 600
うす 600
ちゃ 600
アセト@@ 600
vxs 599
えむえる 599
ぎょぎょう 599
じゅきゅう 599
ばくはつ 599
ｅｂ@@ 599
ytys 598
いぶつ 598
かかわり 598
ｕｇ@@ 598
とつ 597
サブユニット 597
ＴＯ@@ 597
たいりょく 596
ロック 596
ｉｚ@@ 596
pncq 595
いえる 595
ええてぃいえむ 595
しょうせい 595
エッチ 595
オイル 595
ロード 595
ｅｌｌａ 595
os 594
zfds 594
いちじ 594
きびしい 594
すいでん 594
たんし 594
ａｎｃ@@ 594
egjw 593
fk 593
sjjq 593
zmj 593
がいこく 593
しょん 593
せっぺん 593
たいか 593
Ｔｉ@@ 593
vpo 592
いき@@ 592
だえき 592
てぃ@@ 592
コロニー 592
シンクロ 592
マグ@@ 592
Ｓｒ@@ 592
cu@@ 591
vxbd 591
ああるえいち 590
かけい 590
ちょうふく 590
にくい 590
センシング 590
ダイ 590
トマト 590
iaya 589
κ 589
びょうしゅつ 589
びょうとう 589
ぶんかく 589
エポキシ 589
リティ 589
ＲＡ 589
きゃっかん 588
くるま 588
とうしょ 588
ぴ@@ 588
コロナ 588
８７ 588
サル 587
えいちえるええ 586
だて 586
しいああるぴい 585
まくちゅう 585
アリング 585
ｅｔ 585
いけん 584
いんとう 584
びいしい 584
ようやく 584
ＢＥ@@ 584
dbbi 583
ッタ 583
ＸＰＳ 583
えるえす 582
とうじ 582
のうどう 582
ひゃく 582
ほく@@ 582
ＰＰ@@ 582
けいゆ 581
じつれい 581
ていけい 581
はだん 581
むすび@@ 581
インターフェロン 581
ペン@@ 581
かるい 580
がんきゅう 580
なわ 580
ようしつ 580
わりあて 580
ドウ 580
ブレーキ 580
fdrj 579
しんしゅ 579
ウィ@@ 579
グラフト 579
１９９２ 579
いか@@ 578
えむあい 578
きりゅう 578
しゅだい 578
とりくん 578
ひと@@ 578
サブ@@ 578
ドレイン 578
ufw 577
qm@@ 576
ubk 576
きぼう 576
しんそう 576
じゃっき 576
ぞうせい 576
ちたい 576
ばっ@@ 576
リニア 576
じゅうし 575
ちり 575
ぶいえ@@ 575
fbsm 574
loaa 574
たもつ 574
べく 574
フェン 574
ＣＣ@@ 574
かみなり 573
くす 573
ふき@@ 573
むら 573
メー@@ 573
ＤＨ 573
ｍｓ 573
bix 572
あんごう 572
じゅうでん 572
せんゆう 572
たいべつ 572
ほじゅう 572
みや@@ 572
キサン 572
かくらん 571
きゅうぞう 571
げき 571
どり 571
ふうどう 571
ほそせん 571
ようけん 571
れいばい 571
ガンマ 571
ソフトウエア 571
パン 571
えるびい 570
くみこん 570
ちょくれつ 570
どうしゅ 570
アリ@@ 570
ミング 570
Ｓｈ@@ 570
いまだ 569
おぶ 569
かいしょう 569
かえん 569
こうはい 569
ストリング 569
ポート 569
ｉｎｇ@@ 569
kg 568
symr 568
いす 568
えるええ 568
はんべつ 568
ほそう 568
ゲナーゼ 568
マッピング 568
pynk 567
じんえん 567
じんしょう 567
すいぞう 567
ふんしゃ 567
クラスター 567
サージ 567
ヒスタミン 567
ｙｃ@@ 567
まさ@@ 566
るいせき 566
９７ 566
Ｐｒｏ@@ 566
すいあつ 565
たいわ 565
ひら@@ 565
ぴいじい 565
ーブ 565
１９８@@ 565
８１ 565
うつ@@ 564
かそ 564
がる 563
たまかず 563
どく@@ 563
ふっか 563
ふるまい 563
ろしゅつ 563
チル 563
ドル 563
ｅｒｍ@@ 563
rk 562
smhd 562
いえん 562
しんすい 562
はんたい 562
らっか 562
りつ@@ 562
コネ@@ 562
ノックアウト 562
ＬＤ@@ 562
ｏｍａ 562
dek 561
xm@@ 561
あわ 561
いちに 561
ええいい 561
かいざい 561
ぐう@@ 561
こうご 561
しょうきょ 561
クタ@@ 561
フィラメント 561
ＶＰ 561
ob 560
えむでぃい 560
しすてむ 560
じゅうだい 560
ただしい 560
ちゅうぶ 560
みん@@ 560
ダーゼ 560
pvwr 559
vynd 559
きゅうしん 559
きゅうすい 559
こうすい 559
センサー 559
ドレナージ 559
０４ 559
pdel 558
かいかく 558
けいれん 558
こつざい 558
そうほう 558
はんきゅう 558
もしくは 558
シア@@ 558
１９８０ 558
Ｃｅ 558
xsim 557
いしゅ 557
ちん@@ 557
アイソ@@ 557
ゾ 557
majl 556
つよ@@ 556
とりまとめ 556
にち@@ 556
みちびく 556
ようほう 556
ヨーロッパ 556
ＰＲ@@ 556
ｙｐ@@ 556
qa 555
どうし 555
もっ@@ 555
ケー@@ 555
スコ@@ 555
ve@@ 554
おさえる 554
おもい 554
がいりゃく 554
しょうこ 554
はたらき 554
むじゅん 554
エレ@@ 554
おと@@ 553
こうけい 553
そうしょう 553
はいねつ 553
dzs 552
がめん 552
けっしつ 552
でぃいあい 552
へきめん 552
ほうもん 552
りょうさん 552
シェル 552
zmux 551
ちゃっか 551
ぶいしい 551
アミ@@ 551
９２ 551
すいせい 550
すな 550
はなれ 550
プロモーター 550
ヘリ@@ 550
えむああるえすええ 549
すいどう 549
そち 549
ははおや 549
れんさい 549
１９９１ 549
coag 548
そくばく 548
オプ@@ 548
スラブ 548
ｉｉ 548
ｏｎｄ@@ 548
bkai 547
くうりょく 547
だいず 547
ちちゅう 547
にし 547
テ 547
プロトタイプ 547
リガンド 547
ＦＥＴ 547
ＶＩ 547
かいじょう 546
こうない 546
ぜんぱん 546
でんぷん 546
とうじょう 546
ユ@@ 546
ＴＩ@@ 546
ma 545
きょうせん 545
だんたい 545
てきかく 545
どめ 545
わか@@ 545
アレ@@ 545
ブタ 545
モン 545
ｅｌｌ 545
ee@@ 544
ciy 543
dkrr 543
ek@@ 543
えええるえす 543
ぴ 543
へんあつ 543
めんない 543
テトラ@@ 543
ＣＦ@@ 543
えんぶん 542
ださ 542
メト@@ 542
ＦＥＭ 542
くり@@ 541
しゃしゅつ 541
のり 541
ゆうてん 541
ウム 541
モノクローナル 541
だっきゅう 540
ふじょう 540
りにょう 540
グローバル 540
シナリオ 540
ハロゲン 540
ビス@@ 540
ポスト 540
ｎｇ 540
grs 539
vaed 539
かいきょう 539
がそ 539
じょうし 539
ｌａ@@ 539
げんあつ 538
はいほう 538
ぺん 538
ＴｉＮ 538
jnxm 537
φ 537
あお 537
そうだん 537
とうさ 537
のうは 537
ほうし 537
ミド 537
１９８９ 537
Ｈｅ@@ 537
ＳＬＥ 537
edeq 536
トール 536
プラットフォーム 536
sz@@ 535
けっしゅ 535
じっ@@ 535
ぜんとう 535
ふり@@ 535
チル@@ 535
９１ 535
ＰＯ 535
ＳＯ@@ 535
ｉｔｉ@@ 535
しんさ 534
ぜっ@@ 534
ねつでん 534
らい@@ 534
キシル 534
えぬ 533
きめる 533
げんきょく 533
ていちゃく 533
ひだりがわ 533
グレード 533
リス 533
ルート 533
しいいい 532
すすみ 532
ぞ@@ 532
はばひろい 532
メタ 532
かりょく 531
けいそう 531
たいわん 531
はるか 531
フリ@@ 531
ＰＧ@@ 531
ｍａｎ 531
sszo 530
かいか 530
ぶどう 530
ホン 530
リスト 530
みぎがわ 529
ゆういん 529
りょうめん 529
エーテル 529
キシ 529
３５０ 529
うまく 528
がっかい 528
たつ 528
でんせん 528
ほうけい 528
ページ 528
ボンド 528
fozs 527
ねつりょう 527
ふぞく 527
アッセイ 527
カテ@@ 527
Ｃｕ@@ 527
ＤＡ@@ 527
ＧＰａ 527
gqw 526
いいぴい 526
とういん 526
いんない 525
きょくりつ 525
ばく 525
アモルファス 525
エレクトロニクス 525
ダクト 525
チョ@@ 525
ドン 525
ＡｌＮ 525
あた@@ 524
のぞ@@ 524
プロピ@@ 524
yza 523
あおいろ 523
ぎじ 523
せんかい 523
にくがん 523
ひろがっ 523
みぞ 523
りゅうじょう 523
ホスト 523
いたっ 522
うめ@@ 522
しゃぞう 522
とうほく 522
なんこう 522
ねんちゃく 522
メン 522
ＴＧ 522
d 521
kf 521
ていそく 521
ほうかつ 521
ファ 521
many 520
えええふ 520
えだ 520
なり@@ 520
ふくげん 520
クル 520
ダスト 520
ＳＰ 520
n 519
nejc 519
あご 519
さいかん 519
ざっ@@ 519
しさん 519
そうぞう 519
Ｇａｕｓｓ 519
ＵＳ 519
ｋＤａ 519
ox@@ 518
ばね 518
ひねつ 518
パイロット 518
パーソナル 518
ｏｗ@@ 518
あたま 517
いがた 517
コート 517
ピー 517
ポリイミド 517
ええあい 516
こと@@ 516
つくり@@ 516
dhx 515
えぬいい 515
しょうりょく 515
つける 515
ゆえ 515
マッチング 515
ルス 515
ＥＭ@@ 515
ＭＢＥ 515
ＶＡ 515
ａｔａ 515
ｆｆ@@ 515
nll 514
ちつ 514
にゅうじ 514
イベント 514
スイ@@ 514
ハ 514
いりぐち 513
うみ 513
こか 513
ざいしつ 513
しっちょう 513
たしゅ 513
にゅうしゅ 513
ロース 513
cs 512
いわゆる 512
かせき 512
きゅうめん 512
くみあわせる 512
でぃ@@ 512
ステロン 512
aj 511
bhv 511
ささえる 511
でぐち 511
ふたたび 511
ゆうりょく 511
e 510
xmkq 510
かね 510
がいらん 510
くわ@@ 510
たる 510
びまん 510
ぶつりゅう 510
まき@@ 510
ッシング 510
トポ@@ 510
ＯＨ 510
ａｕ@@ 510
xd@@ 509
かみ@@ 509
かんぽう 509
じゅじょう 509
のり@@ 509
ダン@@ 509
ボックス 509
マルテンサイト 509
ユビキ@@ 509
ーフ 509
９００ 509
ＥＢ 509
あや@@ 508
みなみ 508
インタ@@ 508
ω 507
あいてぃいえす 507
きまる 507
きゅうよ 507
しゅっぱつ 507
わい 507
スカラー 507
メタル 507
８９ 507
ＰＮ 507
えんすい 506
けいしょう 506
こけい 506
こりつ 506
さいか 506
にょうさん 506
キャパシタ 506
ＭＴ@@ 506
あらわさ 505
たんぞう 505
はっきん 505
リモート 505
せきちゅう 504
そっちゅう 504
ほうそく 504
ゆちゃく 504
ようぼう 504
シリンダ 504
ボルト 504
ＨＢＶ 504
ＬＤＬ 504
ｒｆ 504
ｙｍ@@ 504
じすう 503
せんばつ 503
なめらか 503
れいぼう 503
キャスト 503
プランクトン 503
かぶ@@ 502
ぎゃく@@ 502
さき@@ 502
ほくぶ 502
めんじょう 502
わだい 502
スラリー 502
モン@@ 502
Ｄｉ@@ 502
えんせい 501
かいがん 501
かわっ 501
けいつい 501
しょうどん 501
プロット 501
ラチン 501
ｕｄ@@ 501
しょくりょう 500
ひてい 500
ぴいしいびい 500
キット 500
ペー@@ 500
x 499
ぎゃ@@ 499
ねんとう 499
りょうよう 499
ステント 499
ボル@@ 499
ポーラ 499
０３ 499
Ｔｒ@@ 499
fzvv 498
えすおうあい 498
かつまく 498
はつびょう 498
ようりょく 498
ウラン 498
ベータ 498
この@@ 497
たんきゅう 497
ちくじ 497
のこ@@ 497
アルミ 497
カウン@@ 497
ピリ@@ 497
フレー@@ 497
Ｒｕ 497
やね 496
コロイド 496
ッシ@@ 496
eekq 495
あんど 495
いっしゅ 495
かえ@@ 495
じゃく@@ 495
じょうよう 495
てぃいえふてぃい 495
はすう 495
やき 495
レール 495
ＥＣＲ 495
ｐｙｌｏｒｉ 495
qd 494
ぎんが 494
こんじ 494
ちし 494
ちゅうくう 494
つり@@ 494
はじまり 494
もの@@ 494
えきか 493
じくさく 493
ぞくせい 493
まく@@ 493
ＶＴ 493
ｌａｓ@@ 493
あま@@ 492
こうにゅう 492
しんぱい 492
じゅく 492
fdkm 491
fk@@ 491
こうのう 491
じゅうすい 491
なんか 491
ようつう 491
ＢＳ 491
いえ 490
こうしゅう 490
ちゃくしょく 490
とうえい 490
インタフェース 490
ハード 490
バースト 490
ａｔｅ 490
ｃｃ 490
vnru 489
きょくだい 489
しかも 489
でぃいぶいでぃい 489
わり@@ 489
アスペクト 489
コンバータ 489
１０５ 489
mahx 488
xmka 488
りっぽうめえとる 488
ガソリン 488
Ｔｏｒｒ 488
ｍＭ 488
ｏｂａｃ@@ 488
ji@@ 487
zsoa 487
ああるぴい 487
ええしいいい 487
おとこ 487
かくぶん 487
くけい 487
でぃいてぃい 487
へんりょう 487
スキャン 487
mvnk 486
うけいれ 486
えつ 486
じゅうかく 486
たいがい 486
のうしゅ 486
ライブラリー 486
ＩｎＡｓ 486
Ｌｅ@@ 486
bd@@ 485
eacy 485
こうげき 485
すこし 485
せっけつ 485
てぃいしいぴい 485
とむ 485
ウォ@@ 485
ナイ@@ 485
リソ@@ 485
Ｐｒ@@ 485
lohi 484
かいじょ 484
こうよう 484
しょうぎょう 484
せいいん 484
はこ@@ 484
アセスメント 484
wmlw 483
おしだし 483
ぎる 483
ばかり 483
グラファイト 483
チュ@@ 483
きゅうし 482
じぶん 482
ちん 482
ぺ@@ 482
みりあんぺあ 482
フロン 482
ワー@@ 482
Ｐａｒ@@ 482
ｏｘ@@ 482
gdbk 481
きょじゅう 481
アーム 481
uc 480
さら@@ 480
じいあいえす 480
スケジューリング 480
マンガン 480
ＰＫ@@ 480
kogd 479
けつまく 479
はかり 479
ぼうがい 479
ヘモグロビン 479
ＴＲ@@ 479
ｆｏｒ@@ 479
od@@ 478
はり@@ 478
クレーン 478
ＬＨ 478
ae@@ 477
ええでぃいえる 477
ぐみ 477
たえる 477
みだれ 477
ジル 477
ティー 477
ロータ 477
ＩｇＡ 477
ＮＰ 477
かれ 476
ちょうしょ 476
がいちゅう 475
きょくしょう 475
はんぱつ 475
よら 475
レセプター 475
あらかじめ 474
えるてぃい 474
よみ@@ 474
ｓｉｏｎ 474
いつ 473
しょこく 473
しれい 473
すず 473
ちく@@ 473
よち 473
よみとり 473
るく 473
スクリーン 473
１３０ 473
bwz 472
じゅんちょう 472
シル@@ 472
ホモ 472
ミス 472
ＣＮ 472
たち@@ 471
とりまく 471
なく@@ 471
オフセット 471
ＩＣＰ 471
ｔｅ@@ 471
きょてん 470
そら 470
たさい 470
ねんだい 470
のこっ 470
エコ 470
エラー 470
シリコーン 470
あっと 469
えむおうえす 469
きょし 469
はいぶ 469
ますます 469
ゆしゅつ 469
アン 469
ストラ@@ 469
トル@@ 469
Ｇｙ 469
みっちゃく 468
ミュ@@ 468
Ｐｏ@@ 468
かきこみ 467
したがう 467
せんぱく 467
のぞき 467
まね@@ 467
サファイア 467
チオ 467
ディ 467
ＦＩ@@ 467
ＨＲ@@ 467
biqw 466
ug 466
じゅどう 466
ながれば 466
ぷろ@@ 466
オン@@ 466
トキシン 466
ピット 466
ワ 466
おうはん 465
きんこう 465
げる 465
ねじれ 465
ウレタン 465
カスケード 465
トランスジェニック 465
フロー@@ 465
Ｓｐ@@ 465
pdao 464
あう 464
のうえん 464
アンプ 464
ウェーブ 464
グラン@@ 464
グレ@@ 464
ルビン 464
きんき 463
しぼ@@ 463
せんはば 463
ンプ 463
tg@@ 462
いったん 462
てんじ 462
とん 462
なう 462
ねつりゅう 462
はいにょう 462
ジル@@ 462
Ｍａｒ@@ 462
えきじょう 461
けんぜん 461
フラッシュ 461
ラル 461
ＶＡ@@ 461
かんつう 460
こんきょ 460
さけ 460
そくへき 460
ぶんべつ 460
ガラ@@ 460
ジョン 460
フラクタル 460
プラ 460
cuc 459
かんじ@@ 459
がみ 459
きょうこう 459
オーステナイト 459
ＰＨ@@ 459
nya 458
xss 458
ちゅうき 458
のうない 458
エキ@@ 458
エミッタ 458
ニュー 458
パイ@@ 458
１０４ 458
ＦＥ@@ 458
ＭＤ@@ 458
kb 457
かこく 457
じんざい 457
ひきおこし 457
１９８８ 457
ｅｘ@@ 457
mfwm 456
あじ 456
かざぐるま 456
じょきん 456
ぜんきん 456
テトラ 456
θ 455
えっくす 455
きはく 455
くわしく 455
しゅうさ 455
じいえむ 455
はつばい 455
ＮＩ@@ 455
うら@@ 454
さんいつ 454
ちそう 454
にょうろ 454
キノ@@ 454
タングステン 454
ＡｌＧａＡｓ 454
Ｔｈ@@ 454
かんのう 453
きゅうけい 453
くつ 453
ざんさ 453
そうじ 453
ちんこう 453
とじょう 453
ふゆ 453
ほうじん 453
アウト 453
スロ@@ 453
ボン 453
リド 453
ＶＤ 453
｝ 453
jr 452
kd 452
あんせい 452
えふあある 452
きょくたん 452
せいりゅう 452
たいけん 452
とけい 452
ひらい 452
ほんかく 452
スマ@@ 452
ボイド 452
ej 451
えんかつ 451
しんぎ 451
てつづき 451
にさん 451
へいはつ 451
ピン@@ 451
１９８７ 451
rj 450
かくか 450
しゅどう 450
わら 450
キン@@ 450
システ@@ 450
プレー@@ 450
ボソン 450
ｂｅｒｇ 450
えいちえす 449
えふえむ 449
じょうらん 449
せいふく 449
でぃく 449
ぬれ 449
はいっ 449
もん@@ 449
カム 449
ステーション 449
フルオロ@@ 449
ポリープ 449
ＭＨＤ 449
ＳＡ 449
ｉｃｈ@@ 449
ds@@ 448
ud@@ 448
いいえむえす 448
いれる 448
かわら 448
くみこみ 448
そうび 448
たいおん 448
とど@@ 448
ひたち 448
イヌ 448
｛ 448
しゃたい 447
しゅん@@ 447
でんけん 447
なのせかんど 447
ろうえい 447
アド@@ 447
グリッド 447
シロ@@ 447
ＴＴ@@ 447
じぇ@@ 446
はや@@ 446
アセチル 446
ビリ@@ 446
ブラック 446
ペル@@ 446
えら@@ 445
しゃく 445
すいこう 445
ぜんちょう 445
ほどこし 445
まいめえとる 445
りゅうろ 445
グリコール 445
ミオ@@ 445
メッセージ 445
モルヒネ 445
ヤー 445
yyn 444
こくみん 444
さげ 444
はる 444
ばし 444
シアニン 444
スケジュール 444
ソリューション 444
プール 444
nbzd 443
noal 443
いいええ 443
えぬけえ 443
ぜつ 443
にっしゃ 443
はし@@ 443
ひとしい 443
メラ 443
１４０ 443
jni 442
おし@@ 442
けいこつ 442
さび 442
しょくえん 442
するどい 442
ちのう 442
てぃいでぃい 442
ないそう 442
チャ 442
ＲＴ@@ 442
lc 441
rhyw 441
せってん 441
とまく 441
はそん 441
ふくしゃ 441
ゆうそう 441
バイ 441
Ｓｔｒ@@ 441
ｏｍｐ@@ 441
loij 440
yzps 440
がいそう 440
たんらく 440
ガー 440
フィン@@ 440
ＭＤ 440
ただしく 439
つかれ 439
もど@@ 439
りんり 439
セン 439
タスク 439
ＧＦ 439
ＸＲＤ 439
vkzm 438
ていり 438
てんじょう 438
へんでん 438
りえき 438
エキシマ 438
カップリング 438
kmid 437
きろばいと 437
たもた 437
てってい 437
なんちょう 437
ひとり 437
ほそ@@ 437
インテ@@ 437
オフィス 437
サン 437
ヘリカル 437
ＬＡ 437
Ｔａ@@ 437
ｐｓ 437
あけ 436
じょうわん 436
ゆいいつ 436
インパルス 436
ウン@@ 436
トロン@@ 436
Ｎｂ@@ 436
ｙｄ@@ 436
bz 435
qmlc 435
おび 435
がんばん 435
こうかく 435
こま@@ 435
しいでぃいえむええ 435
しょうし 435
インフラ 435
エビデンス 435
オリゴ 435
ホスファ@@ 435
モル@@ 435
００ 435
ＴＥ 435
ａｂ 435
かす 434
せんもう 434
だつり 434
もんしん 434
キャビテーション 434
ヘル@@ 434
リアク@@ 434
ロケット 434
vrd 433
うけ@@ 433
かくし 433
きんちょう 433
くうかく 433
くろいろ 433
しいええいい 433
しゅうやく 433
じょし 433
はっさん 433
むかっ 433
カッ@@ 433
ターボ 433
バル@@ 433
リジン 433
Ａｃ@@ 433
けいやく 432
さかん 432
しんけつ 432
そうせつ 432
どうけい 432
カラ@@ 432
タイト 432
テキスト 432
マグネトロン 432
１６０ 432
ＡＢ@@ 432
Ｚｒ@@ 432
nr 431
ぞうせつ 431
たいりつ 431
どちら 431
ふうにゅう 431
めが@@ 431
ようけつ 431
りょうきん 431
ストリップ 431
ペレット 431
bsqd 430
うんこう 430
えぬえす 430
てぃいえふ 430
ながれる 430
ねっすい 430
はいけつ 430
ゆる@@ 430
れんらく 430
わるい 430
ポール 430
リバ@@ 430
リポ 430
sond 429
こうしょう 429
こうひょう 429
さいりょう 429
めえとるまいびょう 429
りき 429
フォーム 429
かんれい 428
ほんらい 428
ゆごう 428
アブレーション 428
Ｃｅ@@ 428
ＴＧＦ 428
sj@@ 427
いいいい 427
がり 427
しいおうぴいでぃい 427
ビーズ 427
ベンチ 427
モバイル 427
リパーゼ 427
ｒｅｓ@@ 427
すいしゃ 426
そうかつ 426
まん@@ 426
やき@@ 426
チュー@@ 426
ホ 426
ーニング 426
ＣＢ@@ 426
ＯＮ 426
ＲＦ@@ 426
そうしゅつ 425
はっぽう 425
キレート 425
プライマー 425
ポリエステル 425
メディ@@ 425
リポソーム 425
こうねつ 424
しいえすえふ 424
せいどう 424
コンポーネント 424
トランスフェ@@ 424
ペプ@@ 424
ルド 424
ＤＰ@@ 424
ＫＡ 424
mc 423
あんない 423
いくしゅ 423
がんか 423
ねらい 423
ぴいえいち 423
コンタクト 423
ｔｏｒ 423
ewz 422
あつかい 422
いちょう 422
つく@@ 422
どん@@ 422
はこ 422
コバルト 422
フィルター 422
１９８６ 422
ＳＬ@@ 422
あつかっ 421
まち@@ 421
わかり 421
ファイバー 421
マル@@ 421
ＸＡＦＳ 421
sjkg 420
きょうまく 420
しゅうたん 420
チック 420
ハミルトニアン 420
１２@@ 420
およぼし 419
がしつ 419
きせき 419
こつりょう 419
しいえ@@ 419
しょくよく 419
ただちに 419
ふぁ@@ 419
まくじょう 419
スタイル 419
ュ 419
リボ@@ 419
ＲＭ 419
dg@@ 418
あさい 418
えすゆう 418
がきゅう 418
こうりょく 418
しゅうけい 418
せんべつ 418
なんびょう 418
ひっ@@ 418
らいいん 418
グロー 418
サンゴ 418
ジャー 418
テンソル 418
ＡＡ@@ 418
ｈｏ@@ 418
ｓｅ 418
cbb 417
mfkw 417
nrlo 417
quym 417
ぎょうかい 417
さんざい 417
ししゅん 417
しょよう 417
だいしょう 417
ほうりつ 417
カソード 417
スク@@ 417
ミル 417
Ｅｎ@@ 417
ＩｎＧａＡｓ 417
えいちでぃい 416
きでん 416
ぎょるい 416
げんびょう 416
じこく 416
たく@@ 416
ぶいえる@@ 416
もく 416
ポリスチレン 416
ード@@ 416
ｅｎｄ@@ 416
ｍａｎｎ 416
いいじい 415
かいたい 415
アンギオテンシン 415
１５@@ 415
ＣＮＴ 415
ikz 414
― 414
そけい 414
ちょうじょう 414
ちんか 414
スティ@@ 414
ターン 414
チング 414
トープ 414
ホロ@@ 414
ｗｔ 414
uelo 413
あさ 413
ぃ@@ 413
えむえむ 413
きた@@ 413
ぎし 413
エナ@@ 413
エラ@@ 413
エル@@ 413
ＦＬ@@ 413
ＧＡ@@ 413
ａｎａ 413
いんしゅ 412
しいいいええ 412
ぶいいいじいえふ 412
ぼうご 412
サイト@@ 412
セロトニン 412
ティック 412
プラン 412
o@@ 411
yds 411
けんざい 411
しんげん 411
としょ 411
ばらつき 411
シリン 411
テル@@ 411
フランス 411
ブロット 411
idke 410
klzw 410
だち 410
びこう 410
ぷく 410
やし 410
コンピュー@@ 410
ジルコ@@ 410
スチン 410
スティック 410
ッグ 410
Ｃｌ@@ 410
ＨＯ@@ 410
かながわ 409
じゅもく 409
たんかく 409
でんとう 409
ほっそく 409
アセチル@@ 409
デス 409
ベンゾ@@ 409
ボリ@@ 409
ＨＤＬ 409
Ｓｅ@@ 409
ghj 408
w 408
いいびいえむ 408
こたえる 408
みちび@@ 408
ようすい 408
れいかん 408
アミラーゼ 408
エレクトロ@@ 408
フレキシブル 408
ラベル 408
０６ 408
とらえる 407
はち 407
ばいかい 407
ほね@@ 407
オキシ 407
クリニカル 407
コピー 407
ソル@@ 407
ｄｉ@@ 407
ｊ 407
ca 406
しょうじゅつ 406
じゅうど 406
ずいえき 406
ずけい 406
ぶいえす 406
ほんしゅ 406
れっ@@ 406
オーダ 406
グラス 406
バクテ@@ 406
ユニ@@ 406
ＡＩ@@ 406
ＤＥ@@ 406
dawr 405
おさ@@ 405
ぎがばいと 405
じいあい 405
ずいまく 405
ちみつ 405
ひつ@@ 405
スクリュー 405
ベルト 405
ｉｎｇｅｒ 405
mfni 404
えんじょ 404
はて 404
アパタイト 404
ドライブ 404
ＭＢ@@ 404
えいこく 403
げきしょう 403
つち 403
ぼうじゅん 403
ダイア@@ 403
トポロジー 403
ビア 403
フルオ@@ 403
ベル@@ 403
zsjl 402
あらい 402
きょうよう 402
しば 402
じょうこう 402
たざい 402
たっ 402
ほし 402
ぼし 402
マル 402
ＤＧ 402
ＹＢ@@ 402
ｙｓ 402
えさ 401
こうふん 401
ていさん 401
とうがい 401
にほん 401
ほうさん 401
プロピレン 401
ｅｓｓ@@ 401
gdnk 400
うみ@@ 400
かんさん 400
くき 400
しんこく 400
じぇえあある 400
たんせき 400
ちくさん 400
みたし 400
よわく 400
アルギ@@ 400
フェムト 400
ＳＰ@@ 400
ＶＣ@@ 400
おきる 399
かさね 399
しいえふでぃい 399
せいべつ 399
たとう 399
だつりゅう 399
としおとこ 399
ともなわ 399
ばく@@ 399
ふくみ 399
みどりいろ 399
ジェネレーション 399
チア@@ 399
フラグメント 399
ロッド 399
３０００ 399
Ｉｓ@@ 399
Ｒｅ@@ 399
ａｙ 399
ｄｅ@@ 399
ｔｉｃ 399
fa@@ 398
sukb 398
wmmj 398
たんちょう 398
でぃいおう 398
どうが 398
ぬき 398
へんえん 398
シャル 398
チロシン 398
バッチ 398
ｋｉｎ@@ 398
になう 397
アセ@@ 397
デン 397
ニド 397
ｉｔ 397
ｖｅｒ@@ 397
ebor 396
mfjr 396
syot 396
おんすい 396
がんすい 396
けいねん 396
たいふう 396
ちょうてん 396
ぬの 396
ほっ@@ 396
ランク 396
ｓｉｔｕ 396
おんねつ 395
きず 395
くりこみ 395
だれ 395
はめん 395
ナス 395
ＧＳ 395
ｓｔｒ@@ 395
ρ 394
がう 394
じょうい 394
ぜいじゃく 394
っせい 394
っちゅう 394
でしりっとる 394
めんしん 394
もり@@ 394
ジー 394
ＳＭ@@ 394
ｉｔｙ 394
er@@ 393
えいちあある 393
かかっ 393
かりょう 393
アンチ 393
テーブル 393
トカマク 393
トルエン 393
ペースト 393
１９８５ 393
Ｐｂ@@ 393
qym 392
あな@@ 392
いんりょう 392
えすい@@ 392
かほう 392
がんせき 392
たいかん 392
どうせい 392
どぼく 392
シーケンス 392
プス 392
ンバ 392
ｃｏｎ@@ 392
さげる 391
じょうげん 391
すみ@@ 391
たんしん 391
カプ@@ 391
タール 391
トータル 391
ミニ 391
ワー 391
ＳＭ 391
うっ@@ 390
けいび 390
さいねん 390
さかな 390
じぇええ@@ 390
たんじ 390
やがい 390
スリ@@ 390
チェーン 390
ホルムアルデヒド 390
おおわ 389
しんしん 389
ただし 389
ねんぴ 389
エル 389
ケミカル 389
ション@@ 389
ミセル 389
レージ 389
Ｂｏ@@ 389
ｉｃａ 389
txa 388
けいちょう 388
たえ 388
ないいん 388
にゅうせん 388
ふき 388
やくひん 388
りっち 388
ボトル 388
ポルフィリン 388
ＣＴ 388
ＨＭ@@ 388
ａｌｌ@@ 388
ｕｒｅ 388
vklx 387
さあ@@ 387
しゃない 387
りき@@ 387
トナー 387
メール 387
ＮＮ 387
td@@ 386
かかわっ 386
かき@@ 386
ぐんかん 386
じょうじ 386
せきしょく 386
てぃいえすえいち 386
ひろしま 386
まっぷ 386
アルカ@@ 386
uoki 385
veo 385
ymjl 385
えぬてぃい 385
がき 385
ていたい 385
はね 385
スモン 385
ホイ@@ 385
ライド 385
いちらん 384
えるえぬじい 384
かんち 384
ねっと 384
ひさん 384
へんしゅう 384
みつもっ 384
ゆうえす 384
ゲーム 384
チャート 384
ハード@@ 384
Ｃｕｒｉｅ 384
ＨＶ 384
Ｒｈ@@ 384
vqx 383
wzd 383
がんしん 383
ざいらい 383
たき 383
ふっ@@ 383
Ｇｄ 383
およぶ 382
きょうしょう 382
ぎむ 382
さくい 382
びいえむあい 382
ほそ 382
みゃくらく 382
バチ 382
Ｍａ@@ 382
Ｏｘ 382
ＷＤＭ 382
nhsr 381
えらん 381
しゅうまつ 381
じしゅ 381
たいぷ 381
フェニ@@ 381
モノ 381
１２５ 381
ypxw 380
けんすう 380
げきてき 380
じょうそう 380
とめる 380
スロット 380
ネラ 380
ブドウ 380
１９７０ 380
ＥＢ@@ 380
bj@@ 379
しつてき 379
そこ@@ 379
ついじゅう 379
ぴいおう 379
ぼたい 379
ようす 379
ゲイン 379
フェニル@@ 379
ａｕ 379
いわ@@ 378
すいいき 378
はま 378
ようぞん 378
インテリジェント 378
コース 378
ショット 378
ッパ 378
Ｄｏｐｐｌｅｒ 378
Ｍｅ@@ 378
ＰＭ 378
nxma 377
から@@ 377
さんち 377
エネルギ 377
スピー@@ 377
スー@@ 377
タンス 377
バナ@@ 377
フェロ@@ 377
ＥＲ@@ 377
かんすい 376
くもまく 376
こうざい 376
ごろ 376
ふっき 376
ふるい 376
りょうりつ 376
こころ@@ 375
すぺくと 375
そくさ 375
どしゃ 375
どん 375
むしろ 375
アルドステロン 375
アー 375
コドン 375
ＣｕＯ 375
ＤＣ 375
ec@@ 374
hmja 374
τ 374
いえき 374
じっき 374
ぜんねん 374
そうない 374
たんぶ 374
っく 374
キャビ@@ 374
スリット 374
レイアウト 374
１０６ 374
１３@@ 374
Ａｄ@@ 374
hmaw 373
pd 373
おんがく 373
せいぶ 373
ちば 373
でぃいえいち 373
コンセント 373
ザイム 373
タグ 373
ニン@@ 373
josx 372
いく@@ 372
さいど 372
しいん 372
ちょうたつ 372
はじまる 372
はら@@ 372
びいえる 372
ブルー 372
マネー@@ 372
ミー 372
Ｔｇ 372
ｅｎｃ@@ 372
かる 371
こうぶ 371
じいぴい 371
はこつ 371
ウン 371
カタ@@ 371
ヒ 371
プロテオ@@ 371
ＤＳ@@ 371
ｓｈ@@ 371
qucu 370
s 370
wvrd 370
くず 370
こうざつ 370
こうでん 370
しいぴいゆう 370
ずい@@ 370
スタッフ 370
タバコ 370
ｅｎｎ@@ 370
ｌｕ@@ 370
でんしゃ 369
∞ 368
あいいいしい 368
おそ@@ 368
せいれつ 368
せっきん 368
みり@@ 368
イモ 368
コンプライアンス 368
ニトリル 368
nu@@ 367
pmeb 367
おくがい 367
おんげん 367
さまた@@ 367
ぴいけえ 367
キシド 367
タス 367
ブチル 367
レプチン 367
ＲＳ@@ 367
nkkv 366
げっけい 366
ねんだん 366
みらい 366
わかい 366
インデ@@ 366
スキャ@@ 366
ＡＴ@@ 366
ｉｎｄ@@ 366
lklo 365
njbk 365
viv 365
ぎゃくてん 365
しっしき 365
しゅんじ 365
たいかく 365
たしか 365
のうそん 365
ぼうえき 365
アクチン 365
エリア 365
キラル 365
フライ 365
プリオン 365
メーション 365
レオ@@ 365
じくう 364
ぜんかい 364
のぼ@@ 364
ばな 364
ひょうご 364
めがばいと 364
りんかく 364
ＤＩ@@ 364
ａｃ 364
ｏｃｈ@@ 364
dyj 363
vx@@ 363
かいへい 363
せいせん 363
てる 363
まつ@@ 363
シース 363
テー@@ 363
プロテ@@ 363
ＫＴ 363
ＶＥ 363
yz@@ 362
がらす 362
こうずい 362
じぇえおうええ 362
たいはん 362
とつ@@ 362
びっと 362
みこみ 362
ゃ@@ 362
カルバ@@ 362
wr 361
おうぴい 361
きゅうれい 361
しゅっさん 361
はいえき 361
みじゅく 361
めまい 361
ウス 361
Ｏｅ 361
Ｒｅｙｎｏｌｄｓ 361
ｃａｒ@@ 361
vbi 360
かいへん 360
ずる 360
たんそう 360
ちんせい 360
セレン 360
バージョン 360
レー 360
ＳＳ 360
ＴＮ 360
ｙｒ@@ 360
しゅくたい 359
はいぶん 359
カテゴリー 359
ーラ 359
ＤＳＣ 359
ｍＷ 359
mfxw 358
うら 358
えいぎょう 358
ちゅうじょう 358
とうど 358
とん@@ 358
にゅうしゅつりょく 358
ねんねん 358
ぴいえいち@@ 358
ゆうしい 358
パーキンソン 358
ベル 358
ＰＬＬ 358
Ｓｂ 358
ｐｒｏ@@ 358
ｕｎｇ 358
jivr 357
あいてぃいおう 357
えいちてぃいえ@@ 357
ぎんみ 357
げんぞう 357
しんせつ 357
とうやく 357
ぴいいいじい 357
へんぱ 357
まじ@@ 357
まっくす 357
エアコン 357
オク@@ 357
トウ@@ 357
ピラ@@ 357
Ｂｒａｇｇ 357
ｎｅｒ 357
おお 356
かくしゃ 356
さえ 356
じゅこう 356
たいえき 356
ぶいおうしい 356
みりょく 356
やぶれ 356
わかれ 356
スプレー 356
ダル 356
ティア 356
Ｗｅ@@ 356
km 355
qds 355
wg 355
がんてい 355
こたえ 355
しょうおん 355
じゅんじ 355
だっしゅう 355
だんれつ 355
のうじょう 355
ふさ 355
ダイズ 355
トンネリング 355
fgaj 354
tgel 354
こうち 354
しいびい 354
すきま 354
はげしい 354
ぺい 354
ぽう@@ 354
りだつ 354
れんどう 354
スクラ@@ 354
ハンド 354
ＥＬ@@ 354
ＳＷ@@ 354
fvrd 353
zj 353
うつびょう 353
ついたい 353
でぃいえるしい 353
ぼうだい 353
もた@@ 353
アクチ@@ 353
インドネシア 353
ザー@@ 353
ビオ@@ 353
ＲＮＡ 353
pv 352
uaxk 352
えいちえむ 352
かいば 352
だんし 352
にんぷ 352
オキシド 352
コヒーレンス 352
フォロー 352
マラ@@ 352
ワン 352
ＣＭＰ 352
Ｃｏｎ@@ 352
ＩｇＭ 352
ＳＮＰ 352
ym@@ 351
yywz 351
おか@@ 351
しっぱい 351
しょうけい 351
じょうおん 351
たあ 351
にちれい 351
ひとびと 351
ぴいあい 351
オピオイド 351
グロ@@ 351
０８ 351
ａｔｈ@@ 351
ｓｅ@@ 351
krjr 350
shzm 350
うえ@@ 350
うんぱん 350
こうてき 350
じく@@ 350
ぜんぶ 350
なづけ 350
やわ@@ 350
エーロゾル 350
コーダ 350
マニ@@ 350
レプ@@ 350
１０３ 350
ggkg 349
jli 349
nhm 349
かいだん 349
ざくつ 349
とりだし 349
ねつかん 349
ひびわれ 349
びいえむ 349
カドミウム 349
フェージング 349
フォーマット 349
Ｒｕ@@ 349
ａｗ@@ 349
ｍａ@@ 349
oixi 348
えすでぃいえす 348
きょうきゃく 348
しいえすぴい 348
じっしゅう 348
はいしん 348
はなし 348
ふる@@ 348
ほうち 348
もどし 348
ゲーション 348
パル@@ 348
ファイ@@ 348
ｅａ 348
do@@ 347
えむえむぴい 347
えむおう 347
しょくぎょう 347
すいろ 347
せいてつ 347
ていぶ 347
でぃいえる 347
なす 347
ゆか@@ 347
らむ 347
ウンド 347
ＣＹＰ 347
ai@@ 346
j 346
うなが@@ 346
おうてぃい 346
かずおおく 346
かせ 346
けつじょ 346
じいえす 346
でる 346
とおる 346
ないあつ 346
やさしい 346
クロマチン 346
コークス 346
ニワトリ 346
ｔｈ 346
きゅうじ 345
きゅうとう 345
しゅん 345
つり 345
のうしつ 345
ひやく 345
りい 345
ろうしゅつ 345
ェ 345
カス 345
グルタ@@ 345
フェルミオン 345
bwmq 344
eh@@ 344
kucx 344
【 344
】 344
うた@@ 344
こうしつ 344
ていしょく 344
てっこつ 344
てんき 344
どこ 344
セリン 344
ペルオキシダーゼ 344
ＩＤ@@ 344
Ｘｅ 344
sbja 343
しゅうそ 343
ずいはん 343
ひってき 343
エンド@@ 343
ケトン 343
スペクトロ@@ 343
バエ 343
パイプライン 343
ＣＤ 343
Ｓｃｈｏｔｔｋｙ 343
ｍｏｎ@@ 343
うで 342
うわま@@ 342
えいちてぃい 342
かな@@ 342
そうるい 342
ひじゅう 342
めいじ 342
ようじょう 342
エンタルピー 342
クレ@@ 342
ドライバ 342
ログ 342
ＲＯ@@ 342
ｐｏｒ@@ 342
hod 341
oibo 341
えむいい 341
えむでぃいえす 341
およそ 341
ふぃ@@ 341
みつけ 341
よくじつ 341
アセトン 341
ＨＧＦ 341
Ｓｎ@@ 341
ｕｃｈ@@ 341
likl 340
vsxo 340
くうげき 340
ちょうせん 340
はね@@ 340
ダブル 340
ノウハウ 340
パラメーター 340
ビニ@@ 340
ＣＤ@@ 340
ka@@ 339
いたく 339
うご@@ 339
うたがっ 339
おこら 339
おそく 339
かにゅう 339
しゅうこう 339
とりあつかう 339
ぱく 339
びょうれき 339
ふくおか 339
ようじ 339
ビング 339
フェン@@ 339
プロスタ@@ 339
ＧＬ 339
se 338
だぶりゅうえいちおう 338
ちょうりゅう 338
びいでぃい 338
びれ 338
へらし 338
ろむ 338
コンテナ 338
スパイク 338
ユニーク 338
ＭＲ 338
minw 337
しんしょく 337
だつ@@ 337
ふしん 337
まっき 337
エレクト@@ 337
クロロフィル 337
シュート 337
ジメント 337
スメク@@ 337
ナビ@@ 337
２００５ 337
ＡＮ 337
ＤＭ 337
ＭＦ@@ 337
ＳＵＳ 337
Ｓｍ 337
ａｔｅｄ 337
bb 336
mlgq 336
あらゆる 336
きゅうすう 336
こうはつ 336
どくとく 336
ねつりょく 336
ばり 336
ふか@@ 336
ガン@@ 336
グリコ@@ 336
デヒドロ@@ 336
ファン@@ 336
ロープ 336
ンジ 336
ＭＳ 336
ＲＩ 336
Ｓｍ@@ 336
うまれ 335
しんさつ 335
つなが@@ 335
のこる 335
はいざ 335
ばあ 335
アスコルビン 335
スタン 335
パルプ 335
ブレンド 335
モグラフィー 335
Ｋｒ@@ 335
ＰＤＰ 335
Ｓｔｏｋｅｓ 335
ｃｏ@@ 335
ｉｌｌｕｓ 335
prs 334
かくこう 334
のこさ 334
ふっきゅう 334
らき 334
シップ 334
プリンタ 334
ＳＥ 334
￣ 334
けねん 333
といし 333
ぼうしょく 333
もし 333
グレーション 333
シック 333
マシニング 333
Ｂｉ@@ 333
ＤＮＡ 333
ＩＧ@@ 333
bds 332
ekkw 332
かくない 332
こうぎ 332
ぞうしん 332
できれ 332
ないくう 332
ぶんたん 332
りっそく 332
クロマト@@ 332
ニトロ@@ 332
ヒューマン 332
ＨＤ@@ 332
Ｈａｒ@@ 332
Ｍａｃ@@ 332
ＺｎＳｅ 332
ｏｍｙｃ@@ 332
edjh 331
jial 331
vyj 331
くりかえす 331
こくないがい 331
ちょっか 331
にいがた 331
ほうぼく 331
ドロ 331
ＥＤ 331
ＦＧＦ 331
ａｔｕｓ 331
ｂａｃ@@ 331
ｆｅｒ@@ 331
ｏｎｅ 331
fb 330
がんあつ 330
ぐりいん 330
そうしつ 330
たいい 330
てんがん 330
てんすう 330
むずか@@ 330
もろ 330
ようしゃ 330
ナイロン 330
ピック 330
マニピュ@@ 330
Ｇｅ@@ 330
ｉｕｓ 330
pd@@ 329
ざつ 329
しかっ 329
そくとう 329
ちゅうけい 329
とっしゅつ 329
インフォームド 329
エマルション 329
カルボン 329
サイクリン 329
チオン 329
チレン 329
ッカー 329
デル@@ 329
ＭＯＣＶＤ 329
ｅｔｒ@@ 329
ｉｃｒｏ@@ 329
じょがい 328
なまし 328
ぶいあある 328
りょうてき 328
インメント 328
ニコ@@ 328
ＦＣ@@ 328
ＨＰ@@ 328
Ｐｃ 328
dx@@ 327
えすおうでぃい 327
かんしき 327
かんとう 327
きない 327
くち@@ 327
しきん 327
ちょうない 327
とうりょう 327
どうじく 327
エビ 327
バルーン 327
ピリジン 327
フェーズ 327
ＮＥ@@ 327
Ｐｕ 327
ｆｆ 327
ch 326
zzzl 326
おくり 326
くし 326
さむ 326
なんねん 326
みせ 326
ゆうもん 326
ップ@@ 326
マネ@@ 326
ｉｃａｌ 326
せきせつ 325
ちい@@ 325
てぃいえる 325
でぃいらむ 325
とうかい 325
とうすい 325
のうし 325
オル@@ 325
カナダ 325
シティ 325
スライス 325
テル 325
ドーパント 325
プラグ 325
ペア 325
レシ@@ 325
１５７ 325
Ｂａｒ@@ 325
えらび 324
かくり 324
きょぜつ 324
こすう 324
へいけい 324
へく@@ 324
へんぶん 324
ぼざい 324
やきいれ 324
カルボニル 324
グラフィ@@ 324
バック@@ 324
フィリン 324
プラスミド 324
プロテイン 324
ラク@@ 324
リド@@ 324
Ｓｃ@@ 324
gs 323
あては@@ 323
えだ@@ 323
えっくすえむえる 323
げんだい 323
こむぎ 323
ごうたい 323
ししゅう 323
しんたつ 323
ちゅうだん 323
つまり 323
びいあい 323
びぶ 323
ぺぐ 323
やっ@@ 323
コミュニティ 323
シクロスポリン 323
６５０ 323
ＥＭＣ 323
ｂｒ@@ 323
ｓｋｉ 323
maez 322
ああるびい 322
さだ@@ 322
しょうぼね 322
ずめん 322
るしい 322
オーストラリア 322
グラフィック 322
ポーター 322
ｏｃｏｃｃｕｓ 322
uftb 321
あか@@ 321
ええす 321
えるしいええ 321
おし 321
がいけい 321
すいたい 321
そうりゅう 321
たんご 321
ぢ@@ 321
つうき 321
はしかけ 321
アクリ@@ 321
エキス 321
マトリ@@ 321
ＬＥ@@ 321
ｌｉ@@ 321
〈 320
きゅうおうえす 320
しれ 320
じゅうせき 320
そくほう 320
になっ 320
めぐる 320
エー@@ 320
シングル 320
バックグラウンド 320
ホログラム 320
モー@@ 320
rs@@ 319
yaj 319
〉 319
がかり 319
くうちゅう 319
けしょう 319
たかまり 319
ばんごう 319
ひきつづき 319
ふし 319
ふんべん 319
りょく@@ 319
りんぎょう 319
わた@@ 319
アドレナリン 319
ヒドロ 319
フィリ@@ 319
ブリッジ 319
ミネラル 319
Ｌａｎｇｍｕｉｒ 319
ＴＬ@@ 319
edfd 318
nulk 318
かんむり 318
きじ 318
くり 318
げた 318
じんい 318
とりく@@ 318
ぶどまり 318
みいだす 318
ようそう 318
ろめん 318
わかる 318
インチ 318
カレント 318
キセ@@ 318
ニー 318
ｈｎ 318
ｍａｘ 318
ｒｅｃ@@ 318
wdwx 317
ういんどうず 317
うす@@ 317
うすく 317
かいする 317
きょうひ 317
ちょうこつ 317
アデノウイルス 317
エイズ 317
コル@@ 317
プラズモン 317
ｏｋ@@ 317
ebzs 316
えすじい 316
えむえふ 316
じゅく@@ 316
せいとう 316
ぜんわん 316
ぞい 316
てきする 316
アクセプタ 316
イソ 316
トリチウム 316
ネス 316
ＭＨ@@ 316
ＳｉＨ 316
ｓｅｕｄ@@ 316
hxba 315
vfbk 315
きゅうき 315
しょくいん 315
せつり 315
つかえる 315
トム 315
パラメトリック 315
フロント 315
ボラン@@ 315
ボンディング 315
１２００ 315
Ｈｅｌ@@ 315
ＵＶ 315
≧ 314
えるぴいえす 314
かねん 314
こうきゅう 314
ささ@@ 314
そうぼう 314
ちょくぜん 314
つな@@ 314
クロック 314
ッキ 314
ブロード@@ 314
マーカ 314
レオ 314
ＢＤ@@ 314
ｄｃ 314
ｒｈ@@ 314
ν 313
あし@@ 313
ころ@@ 313
つき@@ 313
ぼうえん 313
むじん 313
らくのう 313
アフリ@@ 313
オキシダーゼ 313
ダイナミ@@ 313
トライ@@ 313
ラテックス 313
ＤＬ@@ 313
ＨＣＣ 313
Ｒａｙｌｅｉｇｈ 313
きりつ 312
こんせい 312
じさつ 312
じゅりつ 312
じょうざい 312
そうぐう 312
とじ 312
ひんもく 312
ふぉ@@ 312
むり 312
カルテ 312
ソウ 312
ッティング 312
ヘルペ@@ 312
Ｒａ@@ 312
ｍａｓｓ 312
chgx 311
けいさい 311
こうごう 311
しそう 311
しゅうえき 311
つめ 311
みみ 311
よくうつ 311
カルス 311
キャン@@ 311
クリン 311
ドミ@@ 311
パフォーマンス 311
ビュー 311
モルタル 311
ローラ 311
１９８４ 311
ＩＧＦ 311
ＭＩＣ 311
ＰＧ 311
ａｎｎ@@ 311
fv@@ 310
jiwl 310
vfjg 310
うめたて 310
えぬいいしい 310
くだ@@ 310
しゅんかん 310
びいえぬ 310
ましい 310
アシドーシス 310
アンドロ@@ 310
イル@@ 310
ジオ@@ 310
バンプ 310
Ａｕｇｅｒ 310
ＣＳ 310
ＤＯ@@ 310
ｉｓｔ@@ 310
ahii 309
zb@@ 309
zsjw 309
えふゆう 309
きょうざい 309
けいほう 309
こうねん 309
たいばん 309
たいん 309
ちかづく 309
つえん 309
つぎ@@ 309
ふっとう 309
アランス 309
エーション 309
スタート 309
モルモット 309
ＬＤＨ 309
Ｐａ@@ 309
ｕｐ@@ 309
いいえふ 308
さし 308
しいえいちふぉう 308
しょうど 308
だつらく 308
めつ 308
アセチレン 308
アーチ 308
エステ@@ 308
コルチコイド 308
シアン 308
トレーサ 308
プラス 308
ヘパリン 308
メンテーション 308
ワークステーション 308
Ｐｌ@@ 308
lkzn 307
えるいい 307
きれ 307
したじ 307
つづ@@ 307
びえん 307
ぶかい 307
まいせつ 307
わん@@ 307
インダ@@ 307
クセル 307
タイヤ 307
ピンチ 307
ペロブスカイト 307
ＡｌＡｓ 307
Ｌａｎｄ@@ 307
うぇる 306
ぐう 306
そうやく 306
ためん 306
ほんにん 306
アミノ@@ 306
イノ@@ 306
インキ 306
クライアント 306
スコープ 306
ブリ 306
fl 305
fqq 305
kojm 305
smiy 305
きょうめん 305
ざっそう 305
なれ 305
にゅうか 305
ふじん 305
ぼると 305
よごれ 305
れいすい 305
わける 305
ケモ@@ 305
ドレ@@ 305
ネマチック 305
ＥＧＦ 305
ａｌｉｓ 305
ｃｏｌ@@ 305
ｅｌｄ 305
wwqd 304
じょうちょう 304
はば@@ 304
ぴき 304
ゆるやか 304
イミ@@ 304
インジェ@@ 304
ミッション 304
χ 303
あいじい 303
いくびょう 303
えすしいしい 303
そうすう 303
でぃいえぬ 303
なんばあ 303
のうち 303
はんげん 303
エミッション 303
オブ 303
クロロ 303
ＪＤ 303
Ｐｓ 303
ｏｔ 303
ni 302
たす@@ 302
ちょうざい 302
ななめ 302
にゅうようじ 302
ひろがる 302
ぷう 302
べつ@@ 302
めがぼると 302
ようしょく 302
ようぶ 302
りっしょう 302
アデ@@ 302
インド@@ 302
ウリ 302
バン 302
ホモ@@ 302
メカニ@@ 302
レチ@@ 302
ＬＣ 302
ＬＯ@@ 302
ｋｏｖ 302
ci 301
rhyl 301
vprh 301
いんよう 301
がいいん 301
きごう 301
しいえむ@@ 301
たんじょう 301
ちょうがん 301
ふせつ 301
アノード 301
オーディ@@ 301
サーベイランス 301
ザル 301
セレ@@ 301
プロフィール 301
ベッド 301
ポリメラーゼ 301
モリブデン 301
Ｂｌ@@ 301
ＴＯ 301
おぎ@@ 300
かさね@@ 300
かしょう 300
くじょう 300
げんか 300
こんざい 300
のうりつ 300
はつじょう 300
ひんぱん 300
ほあん 300
まいにち 300
むら@@ 300
るま 300
アドレス 300
インダクタンス 300
グレー@@ 300
サルコイドーシス 300
スルホン 300
トリプ@@ 300
１４００１ 300
ＢＤ 300
ＬＣ@@ 300
ａｍ 300
kaii 299
あさ@@ 299
いしょ 299
こうてん 299
こす 299
じゅたい 299
たちあがり 299
ぴいだぶりゅうえむ 299
ほんざい 299
まる@@ 299
めいめい 299
アシ@@ 299
エキスパート 299
キソ@@ 299
トナ@@ 299
トロイダル 299
トロピン 299
ドーパミン 299
レーザ@@ 299
５５０ 299
ｅｖｉ@@ 299
m 298
rurm 298
えいい@@ 298
おおむね 298
おんあつ 298
そうか 298
たんりょう 298
てぃいびい 298
はいる 298
ばっきょ 298
ほうせん 298
りくじょう 298
りっぽう@@ 298
ウェイ 298
スタディ 298
ネズミ 298
フラット 298
ミック 298
ライザ 298
レギュ@@ 298
gdxs 297
vcyz 297
かさん 297
しょっ@@ 297
ぜい 297
のうさん 297
びょうが 297
わんきょく 297
バンク 297
ＮＯ@@ 297
ＳＱＵＩＤ 297
ＴＴ 297
ａｎｄ 297
c 296
vdgs 296
げんじゃく 296
すぐれる 296
たたみ 296
はっきり 296
みえる 296
らさ 296
らし 296
わくせい 296
イント 296
ゴル@@ 296
タミン 296
ニュ@@ 296
フィラ@@ 296
モチ@@ 296
リア@@ 296
リグ@@ 296
ＥＤ@@ 296
ｌｏｗ 296
ｓｃｈ@@ 296
dwmi 295
ぎのう 295
しいああるてぃい 295
じゅつ@@ 295
すと 295
そうあつ 295
どあい 295
ゆみ 295
オレフィン 295
ピエ@@ 295
ブリン 295
ｃＡ@@ 295
ｉｄｅ 295
pszr 294
skb 294
しいえす@@ 294
しょくち 294
すてえじ 294
ちか@@ 294
ちゃくしゅ 294
ちゅうわ 294
なごや 294
ひんぱく 294
まきせん 294
りょかく 294
ると 294
オート@@ 294
カイラル 294
クラック 294
セミ@@ 294
ソリ@@ 294
テマ@@ 294
ュー 294
リレー 294
えすえる 293
つづき 293
びょうてき 293
ふてい 293
ほきゅう 293
まがり 293
れっきょ 293
アー@@ 293
ジメチル 293
スタック 293
トリー 293
ハイブリダイ@@ 293
ピストン 293
ポリペプチド 293
Ａｇ@@ 293
Ｅｒ 293
さいけつ 292
しんしゅく 292
びらん 292
サテライト 292
シャント 292
ニュートリノ 292
ペラ 292
レンチ 292
ＧＲ 292
Ｊｏｓｅｐｈｓｏｎ 292
eb 291
いたあつ 291
かたむき 291
かゆみ 291
くだ 291
けんいん 291
げんゆ 291
しまう 291
たけ 291
ちくでん 291
なまごみ 291
はいらん 291
びき 291
みちびき 291
アスピ@@ 291
オーダー 291
オート 291
クレアチニン 291
Ｋｅｒｒ 291
ａｖ@@ 291
doxw 290
gnuo 290
kc@@ 290
wm 290
ぞうかん 290
ちょうしゅ 290
ぶいええ 290
れいだんぼう 290
コルチゾール 290
スム@@ 290
トリプシン 290
ドレーン 290
ニトロ 290
フィルタリング 290
フランジ 290
ホスファターゼ 290
ＢＬ@@ 290
ubyd 289
きゃく@@ 289
げんそん 289
こんせき 289
たわみ 289
どうかん 289
どれ 289
ゃく 289
コムギ 289
ダイナミクス 289
ダンパ 289
トレーニング 289
トロ 289
ドロン 289
ブラジ@@ 289
ラー@@ 289
ＲＣ 289
ｅｒｓ 289
ｇｅｎ@@ 289
ｕｓｈｉｎｇ 289
ag 288
wvv 288
ぇ@@ 288
せいすう 288
はじ@@ 288
びいぴいえす 288
ふみん 288
アゾ 288
キャリ@@ 288
クル@@ 288
スペン@@ 288
スペーサ 288
チトクローム 288
チン@@ 288
フォール 288
０７ 288
１５００ 288
ｏｍｏｎａｓ 288
yd 287
セッ@@ 287
mzy 286
zs@@ 285
η 284
アウ@@ 284
qk 283
ぐるま 283
てつ@@ 283
なめ 283
らか 283
イス 283
ビス 283
アミロ@@ 282
hi 281
ぎが@@ 281
ru 280
ある@@ 280
いいい@@ 280
ガン 280
kb@@ 278
ルト@@ 278
ｓｋ@@ 278
ザイ@@ 277
パクト 277
ないがい 276
ぱい 274
ez 273
sr 273
しいえええ@@ 273
んど 271
ジア 271
〔 270
klz 269
pc@@ 269
みょう 269
そし@@ 268
とりあつ@@ 268
クライ@@ 268
oj 267
buo 266
こめ 266
ほど@@ 266
ａｎｎ 266
てぃいえす@@ 264
ko@@ 263
ニクス 263
mj 262
ひが@@ 262
ゅう@@ 262
ライブラ@@ 262
ルミ@@ 262
×@@ 261
ジェネ@@ 261
｜ 261
シグ@@ 260
ドイ@@ 260
ys 259
〕 259
クロー@@ 259
al 258
nl@@ 258
sc 258
むええ 258
マグネ@@ 258
ミクロ@@ 258
aj@@ 257
びいえむ@@ 257
みた@@ 256
qu@@ 255
いいえむ@@ 255
ぶっ@@ 255
Γ 254
あいてぃい@@ 254
ばつ 254
oy@@ 253
pq@@ 253
ストン 253
ヒュー@@ 253
dv@@ 252
rh 252
オブ@@ 252
グル 252
スチレン 252
トニン 249
bu@@ 248
フィル 248
zi 247
えっくす@@ 247
タイル 247
os@@ 245
wl 245
ぶつ@@ 245
しちょう 244
ブル@@ 244
nc@@ 242
Λ 242
テーション 242
およぼ@@ 241
オレ@@ 241
kk 240
スパイ@@ 240
ズム 239
gr 237
zx@@ 237
ぐらむ 237
ョ 237
りっ@@ 236
イド@@ 236
コーン 236
qm 235
あて@@ 235
ぴょう 235
バル 235
ho 234
ns@@ 234
ウエア 234
レーン 234
ンテ@@ 234
ダイヤ@@ 233
リブ@@ 233
fj@@ 232
メラーゼ 232
エコ@@ 231
ドー@@ 231
el@@ 230
mo 230
Σ 230
エア@@ 230
ニア@@ 230
ＩＦ@@ 230
fg@@ 229
ぎん@@ 229
アブ@@ 229
およ@@ 228
めえとる@@ 228
mf 227
vr@@ 227
lr@@ 226
py@@ 226
チロ@@ 226
‘ 225
ウェア 225
ブレ@@ 225
px 224
vw@@ 224
とお@@ 224
らべる 224
イドーシス 224
ゲ 224
ld@@ 223
xma@@ 223
ぞん 223
（@@ 223
mi@@ 222
ぱあ@@ 220
へき@@ 220
テックス 220
ドライ@@ 220
ヒー@@ 220
２００@@ 220
maz 219
szn 219
がね 219
ＡＦ@@ 219
ムギ 218
gq 217
げき@@ 217
ゃ 217
ファージ 217
da@@ 216
gg@@ 216
えっ@@ 216
ぐる 215
みい@@ 215
ィ 215
セント 215
メイン 215
ワーク@@ 214
zo@@ 213
つか@@ 213
li 212
ws@@ 212
オテンシン 212
ｉｒ 212
hml 211
ｏｌｄ@@ 211
かう 210
h 209
むぎ 209
スクリ@@ 209
ヘテ@@ 209
ふぉう 207
あがり 206
げつ 206
へいほう@@ 206
やか 206
ピュ@@ 206
Ｌａｎｇ@@ 206
プリン@@ 205
Ｍｇ@@ 205
ちょ 204
jk 203
しば@@ 203
りっとる 203
トーシス 203
プリング 203
ＲＤ 203
おうしい 202
ｑ@@ 202
xb@@ 201
ひき 201
イズ 201
ボイ@@ 201
hd@@ 200
√ 200
めざ@@ 200
ゅ 200
by 199
ケーション 199
rh@@ 198
あわせる 198
しか@@ 198
モデ@@ 198
ージング 198
しま@@ 197
トマ@@ 197
メモ@@ 197
ｅｐｈ@@ 197
sk@@ 196
すく@@ 196
アポ@@ 196
クトン 196
ルギ@@ 196
p 195
yz 195
zg 195
しいあある@@ 194
なら@@ 194
ふせ@@ 194
ウレ@@ 194
ファジ@@ 193
ボン@@ 193
wo@@ 192
きゃ@@ 192
くっ@@ 191
とら@@ 191
べる 191
uj 190
ウイ@@ 190
プラス@@ 190
トリウム 189
ヌクレオ@@ 189
ャ@@ 189
my@@ 188
so@@ 188
プログラ@@ 188
sx 187
ピ 187
ロット 187
きし 186
くど 186
ベ 186
≒ 185
ｂｅｒ@@ 185
バイス 184
ランス 184
ＧＰ@@ 184
グロビン 183
gd@@ 182
きび@@ 181
ッチング 181
ヘ 181
メカ@@ 181
rm 180
ちかづ@@ 180
くと 179
そと@@ 179
フルエン@@ 178
aia 177
アスペ@@ 177
トラ 177
プラン@@ 177
ry@@ 176
やぶ@@ 176
＝@@ 176
au 175
ｓｉｔ@@ 175
bo@@ 174
dk@@ 174
yr@@ 174
あお@@ 174
ゃく@@ 174
アント 174
ステリ@@ 174
バータ 174
sy@@ 173
きわ@@ 173
ぺえ@@ 173
ュアル 173
きる 172
o 170
oi@@ 170
アデノ@@ 170
シウム 170
dr@@ 169
おな@@ 169
とし@@ 169
ぴいだぶりゅう@@ 169
ーツ 169
ζ 168
ねじ@@ 168
エンジ@@ 168
コロ@@ 168
スク 168
フィード@@ 168
メージ 168
モンド 168
ak@@ 167
kl@@ 167
キャパシ@@ 167
リハ@@ 167
かぎ@@ 166
sh@@ 165
べい@@ 165
nmb@@ 164
vg@@ 164
zf 164
すく 164
アルキ@@ 164
フィス 164
ih@@ 163
va@@ 163
はげ@@ 163
ユ 163
kq@@ 162
voz 161
zy@@ 161
けれ 161
コルチコ@@ 161
タル@@ 161
ベイ@@ 161
i 160
lo 160
よわ@@ 160
ョ@@ 160
チウム 159
px@@ 158
t 158
たた@@ 158
とも@@ 158
まっ@@ 158
bm@@ 157
する@@ 157
nia 156
ィ@@ 156
ex 155
yw 155
かざ@@ 155
セラミ@@ 155
かず@@ 154
イミド 154
インターフェ@@ 154
メーター 154
ぅ@@ 153
なえる 153
ゲノ@@ 153
qy@@ 152
モニ@@ 152
bi@@ 151
げっ@@ 151
つげん 151
gy 150
uaq@@ 150
ay 149
セ 149
ピー@@ 149
ｉｅ 149
co@@ 148
uw 147
サイクロ@@ 147
ジストロ@@ 147
ソード 147
タク@@ 147
チド 147
モーター 147
ek 146
ff@@ 146
はは@@ 146
pm@@ 145
セプ@@ 145
hd 144
mc@@ 144
me@@ 144
りょ 144
fl@@ 143
ha 143
zh@@ 143
くす@@ 143
らべ 143
エマル@@ 143
すべ@@ 142
インフ@@ 142
たま@@ 141
めて 141
エータ 141
ヨ 141
さか@@ 140
エピタキシ@@ 140
ii@@ 139
lo@@ 139
ゅ@@ 139
スペー@@ 139
ea@@ 137
xk 137
´ 137
ハロ@@ 137
ai 136
しいえふ@@ 136
でい 136
タリング 136
レンス 136
いいい 135
アス 135
ッケ@@ 135
たしか@@ 134
gk 133
ia 133
jd@@ 133
ふてぃい 133
ヌクレ@@ 133
ｒａｇ@@ 133
すな@@ 132
pk 131
xj 131
id@@ 130
えじ 130
シナ@@ 130
シリン@@ 129
ミッ@@ 129
vnk 128
ya@@ 128
メトリ@@ 128
あぶ@@ 127
かんが@@ 127
シミュ@@ 127
ペ 127
＃ 127
ｃｕｓ 127
fd 126
g 126
ki@@ 126
プレドニ@@ 126
ルミネ@@ 126
vf@@ 125
アト@@ 125
ステロール 125
ェ@@ 124
kq 123
すて@@ 123
ほく 123
むず@@ 123
アンス 123
ケミ@@ 123
jo 122
ne@@ 122
pxs 122
rr@@ 122
エポ@@ 122
ダンス 122
on 121
アンギ@@ 121
オス 121
カナ@@ 120
コルチ@@ 120
ポル@@ 120
eo@@ 119
er 119
nh@@ 119
nj@@ 119
yy@@ 119
ねつ@@ 119
はる@@ 119
ヨー@@ 119
go 118
mz 118
yi 118
あらわ@@ 118
ゅう 118
プラズ@@ 118
かいどう 117
しいえいち@@ 117
ばら@@ 117
ぃ 116
ながれ@@ 116
クレア@@ 116
フラン@@ 116
ＵＩ@@ 116
ψ 115
タノール 115
uzz 114
Φ 114
ぞ 114
ミネ@@ 114
リガ@@ 114
』 113
ぼね 113
mj@@ 112
oxm@@ 112
『 112
らす 112
トン@@ 112
リポ@@ 112
ナンス 111
uz 110
えぬじい 110
プライン 109
lka 108
vp@@ 108
tgf@@ 107
zu@@ 107
おうえっくす 107
ょく 107
ヌ 107
フト@@ 107
″ 106
みち@@ 106
クロマ@@ 106
ソル 106
tid@@ 105
uy 105
パッケ@@ 105
ju 104
suj@@ 104
xs@@ 104
さま@@ 104
ターゲ@@ 104
ペロ@@ 104
wa 103
dw@@ 102
fe@@ 102
うぇ@@ 102
でぃいえぬ@@ 102
エミッ@@ 102
コンド@@ 102
プン 102
ハイブリ@@ 101
とじ@@ 99
アルミ@@ 99
クトル 99
ケート 99
ジュール 99
セキュ@@ 99
ＳＱ@@ 99
bw@@ 97
da 97
klx 97
ビジ@@ 97
ｖｏ 97
jc 96
ux 96
zz 96
‖ 96
しる@@ 96
たと@@ 96
なま@@ 96
めえ@@ 96
ギュ@@ 96
rg 95
すす@@ 95
マチック 95
えむあある@@ 94
リモ@@ 94
ni@@ 93
bj 92
gl 92
ずか 92
クォ@@ 92
コンタ@@ 92
ゼ 92
ミュニ@@ 92
gx 91
my 91
ぴいゆう 91
プラット@@ 91
ベント 91
rn 90
テクノ@@ 90
ニカル 90
ネリング 90
ｕｓｈ@@ 90
wdc@@ 89
zw 89
いちじる@@ 89
いり@@ 89
スプレイ 89
アパ@@ 88
ci@@ 87
eaj 87
インス@@ 87
デザ@@ 87
uoe@@ 86
どい 86
エキシ@@ 86
エピタ@@ 86
カテゴ@@ 86
ダイナ@@ 86
bh@@ 85
cir@@ 85
rj@@ 85
yj 85
… 85
プロー@@ 85
くりか@@ 84
すぺ@@ 84
Ｉｇ@@ 84
ar@@ 83
js 83
rlg 83
ti@@ 83
ピオ@@ 83
ku 82
vh@@ 82
えば 82
わく@@ 82
カマ@@ 82
クローナル 82
ビデ@@ 82
フィル@@ 82
ｏｒｉ 82
sl@@ 81
ww@@ 81
ステン@@ 81
￣@@ 81
sjk 80
てぃいてぃい 80
やさ@@ 80
ギャ@@ 80
ューション 80
ml 79
ジェント 79
たっ@@ 78
インシュ@@ 78
mx@@ 77
バックグラ@@ 77
ロバ@@ 77
ky@@ 76
tx@@ 76
yn 76
あいぶい 76
セロ@@ 76
ポテン@@ 76
リオ 76
ルギ 76
ルギー 76
xw 75
zho 75
フラク@@ 74
？ 73
フィ 72
フレキシ@@ 72
メリ@@ 72
iy 71
シーケ@@ 71
スケジュー@@ 71
テキ@@ 71
バコ 71
ＣＹ@@ 71
oo@@ 70
ow 70
vn@@ 70
メトリック 70
r 69
ぉ@@ 69
おの@@ 69
プレド@@ 69
oaj 68
ser 68
サルコ@@ 68
Ｄａ 68
∝ 67
ぺ 67
われ@@ 67
ｏｔｔ@@ 67
クローム 66
セプター 66
トランジ@@ 66
ヘモ@@ 66
nj 65
fu@@ 64
vm@@ 64
セプタ 64
ファイト 64
フィー 64
リウ@@ 64
＿ 64
ゥ@@ 63
スプレ@@ 63
パーキン@@ 63
ａｓｓ 63
ｔｒｏ 63
eb@@ 62
ξ 62
だぶ@@ 62
でぃいえむええ 62
ぶいいい@@ 62
データ@@ 62
うけい@@ 61
ｋｙ 61
ひく@@ 60
ォ 60
セス 60
oy 59
se@@ 59
しく@@ 59
アンモニ@@ 59
チト@@ 59
fx@@ 58
ij 58
つば@@ 58
まいびょう 58
イメー@@ 58
clo 57
ua@@ 57
セプト 57
ロボ@@ 57
ＳＦＥＴ 57
ub@@ 56
ひだ@@ 56
ok 55
zme@@ 55
コミュニ@@ 55
ゼン 55
パシ@@ 55
Ｇａｕｓ@@ 55
jy@@ 54
△ 54
ぶいでぃい 54
アルド@@ 54
リウマ@@ 54
レント 54
dp@@ 53
jm@@ 53
らぎ 53
コントロ@@ 53
ステロ@@ 53
マシ@@ 53
jl 52
ッセ@@ 52
ｏｍｏｎ@@ 52
さか 51
じる@@ 51
クタンス 51
ファイア 51
Ｋｅｒ@@ 51
gkk 50
rz@@ 50
メク@@ 50
aa 49
hm@@ 49
いび@@ 49
ひび@@ 49
フォーマ@@ 49
）@@ 49
＠ 49
ae 48
ed@@ 48
ny 48
くも@@ 48
ァ@@ 48
スポリン 48
チニン 48
ノック@@ 48
ejq 47
せかんど 47
ぴつ 47
グロー@@ 47
プラスチ@@ 47
↓ 46
えすおう@@ 46
ごや 46
ホルム@@ 46
fok 45
lj 45
wz@@ 45
くん@@ 45
ぜい@@ 45
アーキテク@@ 45
ネット@@ 45
パーソ@@ 45
edj@@ 44
id 44
おおき@@ 44
クリート 44
ｋｅｓ 44
ao 43
Ｔｏｒ@@ 43
かかわ@@ 42
さつ@@ 42
カイト 42
ガイド@@ 42
ヅ@@ 42
！ 42
⊥ 41
ｏｃｃｕｓ 41
br 40
ex@@ 40
あんぺ@@ 40
りえ 40
ファミ@@ 40
eq 39
ev@@ 39
pe@@ 39
Θ 39
Ψ 39
↑ 39
オフ@@ 39
アメリ@@ 38
イレ@@ 38
ヘパ@@ 38
dj@@ 37
kro 37
つよう 37
へる@@ 37
アプリ@@ 37
Ｃｕｒ@@ 37
wx@@ 36
□ 36
ｍｕ@@ 36
hx@@ 35
jz@@ 35
kw 35
pyq@@ 35
Ξ 35
μ@@ 35
なめ@@ 35
ょう@@ 35
ジュー@@ 35
el 34
wy 34
Π 34
インテリ@@ 34
サギ 34
ソフト@@ 34
ーゼ@@ 34
ども 33
エネ@@ 33
カテー@@ 33
マクロ@@ 33
bg 32
kk@@ 32
si@@ 32
xsi@@ 32
あたら@@ 32
んかん 32
エストロ@@ 32
スパッ@@ 32
≠ 31
ひっぱ@@ 31
フェース 31
ke 30
xb 30
← 30
≡ 30
コンデン@@ 30
コンピ@@ 30
スタッ@@ 30
モンテ@@ 30
be@@ 29
ただ@@ 29
イダル 29
ネシア 29
hr 28
おの 28
ハミ@@ 28
フォーマンス 28
かじ@@ 27
アクチュ@@ 27
エキスパ@@ 27
スメント 27
oo 26
zw@@ 26
オキシン 26
ルミオン 26
＄ 26
ぐり@@ 25
ぜっと@@ 25
クテ@@ 25
ゼオ@@ 25
テライト 25
ネズ@@ 25
sc@@ 24
vi@@ 24
‰ 24
すき@@ 24
つおん 24
ヂ@@ 24
ol 23
ちいさ@@ 23
ズル 23
デヒ@@ 23
ｙｌｅ@@ 23
hm 22
≪ 22
トロピー 22
ニアン 22
ャル 22
ＡＦＳ 22
Ｄｏｐ@@ 22
jj@@ 21
ざま 21
オテン@@ 21
コヒー@@ 21
＾ 21
ｏｍｂ 21
nli 20
nx@@ 20
vq@@ 20
ぇ 20
すん@@ 20
ぜっとてぃい 20
もとづ@@ 20
トラスト 20
モンテカル@@ 20
ーゼル 20
sum@@ 19
‐@@ 19
≫ 19
ここ@@ 19
ちつ@@ 19
ァ 19
トラヒ@@ 19
ミト@@ 19
メッセ@@ 19
Ａｕｇ@@ 19
rjr 18
vd@@ 18
えいい 18
ます@@ 18
コンテン@@ 18
ゾロン 18
ドーシス 18
モリブ@@ 18
有@@ 18
ej@@ 17
em@@ 17
gp 17
nf@@ 17
nr@@ 17
te 17
tex 17
ぅ 17
せんと 17
なの@@ 17
みどり@@ 17
エンタル@@ 17
オード 17
ピュータ 17
ロッパ 17
cw 16
db@@ 16
fm@@ 16
nz@@ 16
qmb@@ 16
∇ 16
いざ 16
えね 16
どり@@ 16
びと 16
ほと@@ 16
ゥ 16
ニトリ@@ 16
バルト 16
ーシス 16
ｉｇｈ 16
ｙｌｏｒｉ 16
sym@@ 15
uz@@ 15
∂ 15
∈ 15
どまり 15
ォ@@ 15
スタミン 15
ヂ 15
Ｓｔｏ@@ 15
al@@ 14
cl@@ 14
fo@@ 14
je@@ 14
no@@ 14
ske 14
sm@@ 14
tb 14
yia 14
コル 14
ニッケ@@ 14
ンネル 14
Ｃｏｕｌ@@ 14
fc@@ 13
pv@@ 13
rl@@ 13
vc@@ 13
せんち@@ 13
ゐ@@ 13
エーロ@@ 13
コラー@@ 13
ジェクト 13
フォーム@@ 13
ペロブス@@ 13
１９９@@ 13
Ｆｅｒｍ@@ 13
dm@@ 12
gh 12
hma@@ 12
il 12
Χ 12
υ 12
すぐ@@ 12
っそ 12
アルブ@@ 12
オピオ@@ 12
ハウ 12
バイル 12
ブス@@ 12
プライアンス 12
ι 11
―@@ 11
たわ@@ 11
ゆる 11
アルゴ@@ 11
アルデヒ@@ 11
グメント 11
ジタル 11
ネント 11
med 10
ux@@ 10
》 10
アレル@@ 10
アーキ@@ 10
ジェニック 10
プロセッ@@ 10
ch@@ 9
jb@@ 9
ss@@ 9
zl 9
⇔ 9
−@@ 9
☆ 9
♯ 9
めえとる 9
もす 9
タング@@ 9
bq 8
exs 8
ga@@ 8
∪ 8
ょ@@ 8
よご@@ 8
カスケ@@ 8
プロフィ@@ 8
cy 7
ho@@ 7
jo@@ 7
ps 7
qx 7
vk@@ 7
÷ 7
⊆ 7
♂ 7
《 7
ちら 7
インピー@@ 7
コンポー@@ 7
ッセイ 7
ニワ@@ 7
ノウ@@ 7
モット 7
Ｊｏｓ@@ 7
￥ 7
fp 6
jm 6
ml@@ 6
wld 6
ze@@ 6
⇒ 6
∫ 6
ぁ@@ 6
あんぺあ 6
いは 6
ぉ 6
ぢ 6
アモル@@ 6
インフルエン@@ 6
テナ 6
トリノ 6
ビキ@@ 6
＋@@ 6
Ｒｅｙｎ@@ 6
ＵＩＤ 6
bs@@ 5
ng 5
nm@@ 5
rb 5
soo 5
yu 5
±@@ 5
∩ 5
⊂ 5
▽ 5
♀ 5
エンジニア@@ 5
ヅ 5
メンテ@@ 5
ヴ@@ 5
ｏｌｄｓ 5
ｐｌｅｒ 5
cel@@ 4
eo 4
gi@@ 4
gn@@ 4
jw 4
kkz 4
mw 4
nk@@ 4
Δ@@ 4
Υ 4
ο 4
それ@@ 4
わっと 4
ガソ@@ 4
クトロ@@ 4
リパ@@ 4
，@@ 4
／@@ 4
ｙｌｅｉｇｈ 4
ah@@ 3
bob 3
fh@@ 3
gj@@ 3
kai@@ 3
lx 3
lz@@ 3
nb@@ 3
pf@@ 3
rg@@ 3
rrr 3
skr 3
syo@@ 3
ul 3
xo 3
yd@@ 3
yw@@ 3
zn 3
¨ 3
Β 3
Η 3
δ@@ 3
θ@@ 3
б 3
‡ 3
√@@ 3
〉@@ 3
じゅうに@@ 3
すかる 3
とる@@ 3
はあ 3
を@@ 3
ゝ 3
アスコル@@ 3
サーベイ@@ 3
ステン 3
パク 3
パソ@@ 3
Ｂｒａｇ@@ 3
Ｊｏｓｅｐｈ@@ 3
［@@ 3
］@@ 3
ｍｕｉｒ 3
cl 2
ea 2
fel@@ 2
gw@@ 2
ky 2
ll 2
md@@ 2
no 2
vb@@ 2
vs@@ 2
¬ 2
κ@@ 2
ρ@@ 2
Г 2
”@@ 2
∧ 2
∫@@ 2
〃 2
〈@@ 2
〔@@ 2
〕@@ 2
すみや@@ 2
ひきおこ@@ 2
エビデ@@ 2
オーストラ@@ 2
ヒステリ@@ 2
ファス 2
フォームド 2
ミトコンド@@ 2
ヲ 2
＊@@ 2
｀ 2
ｏｔｔｋｙ 2
￥@@ 2
cm 1
cvv 1
dc@@ 1
fs@@ 1
gh@@ 1
qr@@ 1
sjl 1
skw 1
sul 1
ujr 1
wsl@@ 1
xi@@ 1
yt@@ 1
÷@@ 1
Ε@@ 1
Σ@@ 1
Τ 1
Χ@@ 1
Ψ@@ 1
ε@@ 1
η@@ 1
ι@@ 1
π@@ 1
τ@@ 1
Н 1
П 1
’@@ 1
℃@@ 1
∞@@ 1
∽ 1
⊃ 1
○ 1
」@@ 1
ぁ 1
がいしゃ 1
でし@@ 1
ばいと 1
オーステ@@ 1
カドミ@@ 1
ドレナ@@ 1
ハミルト@@ 1
ヒネ 1
マルテン@@ 1
ムト 1
リハビリ@@ 1
ヲ@@ 1
；@@ 1
＞@@ 1
＼ 1
