. 1600311
, 964258
the 713782
you 702153
i 681263
? 528998
to 504746
a 433062
&apos;s 398462
it 394397
that 338665
and 327697
of 296893
! 271923
is 268787
in 229085
&apos;t 216893
we 211884
this 198257
what 196266
... 190756
me 142863
for 140963
was 137945
he 130227
are 128865
have 127846
do 125726
on 125671
my 121693
not 116494
your 114896
so 111992
be 111988
can 109731
&apos;re 107917
&apos;m 106109
with 105999
but 105326
there 92389
they 90597
don 88822
all 88347
know 86890
no 86458
just 86233
like 80684
about 80124
if 79696
here 73611
at 72467
one 67555
get 67541
out 63976
as 63923
now 63126
she 62983
go 62388
right 62266
up 60449
from 59203
&apos;ll 58997
how 57182
will 56156
an 53843
him 52019
well 51150
who 50717
want 49474
her 49153
think 48579
did 47783
why 46143
when 45733
got 45438
&apos;ve 45236
see 44963
time 44615
going 44411
let 43366
us 41572
or 41500
his 40556
our 40494
were 40058
come 39494
then 38250
them 38189
by 38027
good 37434
would 37406
oh 36855
where 36669
back 36471
really 35617
people 34966
been 34862
had 33445
something 33440
more 32834
because 32659
need 31977
way 31773
take 31724
some 30825
look 30542
has 30379
yeah 29757
could 29263
say 28584
okay 28168
too 26886
make 26635
tell 26428
gonna 26393
very 26162
these 26136
man 26081
hey 25926
didn 25862
please 25671
even 25320
only 25040
said 24347
down 24114
doing 23571
over 23297
&apos;d 23257
yes 23222
am 22774
re@@ 22648
should 22103
two 21635
little 21413
their 21310
into 21002
first 20915
thing 20580
sorry 20271
any 19892
&apos; 19755
other 19662
never 19651
much 19538
work 19195
still 18980
mean 18704
after 18494
things 18171
years 18059
find 18030
than 18007
give 17908
world 17887
off 17520
those 17374
help 17264
thank 17094
life 17086
which 16858
day 16776
before 16669
anything 16028
new 15835
thought 15530
again 15319
sure 15107
stop 15056
last 15037
in@@ 14899
wait 14685
talk 14660
love 14577
o 14511
put 14509
call 14267
away 13916
o@@ 13896
un@@ 13823
around 13733
kind 13704
told 13553
place 13506
maybe 13473
actually 13380
home 13325
es 13251
being 13167
k@@ 13158
made 13150
today 13137
also 13113
long 13103
nothing 13078
t@@ 13078
name 13008
same 12965
p@@ 12906
s 12739
someone 12728
: 12710
lot 12599
won 12535
does 12531
d@@ 12359
g@@ 12350
ing 12311
isn 12286
always 12202
keep 12095
guy 12084
uh 11978
every 11967
found 11930
through 11927
came 11872
everything 11847
better 11798
er 11531
i@@ 11530
a@@ 11522
doesn 11514
e@@ 11493
wanted 11475
many 11440
next 11333
s@@ 11237
mr. 11166
three 11150
able 11119
ed 11110
ted 11097
might 11088
father 11061
use 11042
ever 10991
night 10972
understand 10923
believe 10812
ah 10782
must 10711
guys 10705
kill 10650
happened 10597
leave 10568
looking 10547
huh 10466
y 10457
e 10433
coming 10418
son 10381
done 10359
left 10327
u@@ 10294
y@@ 10272
great 10255
ago 10252
feel 10236
most 10220
big 10019
own 9995
wrong 9976
already 9970
its 9928
another 9917
ation 9862
t 9857
al@@ 9844
bad 9788
talking 9782
money 9748
c@@ 9639
person 9595
school 9541
old 9539
everyone 9521
may 9504
n@@ 9455
l@@ 9449
went 9412
ri@@ 9405
called 9386
end 9353
r@@ 9331
together 9316
ar@@ 9232
god 9182
ask 9126
course 9084
remember 9079
trying 8974
try 8960
house 8958
st@@ 8948
ha@@ 8939
en@@ 8882
getting 8875
used 8860
b@@ 8761
family 8678
girl 8635
stay 8627
saw 8623
enough 8610
room 8565
f@@ 8559
ate 8554
real 8544
killed 8541
show 8516
best 8511
mother 8509
s. 8469
heard 8455
dead 8445
care 8439
m@@ 8383
such 8374
hell 8286
hear 8264
year 8257
ts 8253
different 8252
wasn 8176
al 8172
&#91; 8145
&#93; 8120
else 7966
di@@ 7939
start 7937
an@@ 7932
case 7927
while 7875
v@@ 7869
live 7838
u 7837
move 7805
since 7801
ated 7795
nice 7767
saying 7760
took 7742
without 7705
die 7692
ers 7646
bit 7586
listen 7582
dad 7565
until 7545
power 7518
co@@ 7481
once 7479
um 7466
head 7462
on@@ 7427
idea 7413
e. 7403
friend 7380
thanks 7365
k 7340
fine 7318
ro@@ 7270
yet 7265
looks 7226
z@@ 7222
h@@ 7219
it. 7207
pretty 7200
job 7186
car 7180
change 7161
working 7127
me@@ 7120
to@@ 7106
problem 7102
hard 7070
yourself 7054
sir 7038
true 7000
matter 6987
woman 6977
morning 6956
mind 6943
as@@ 6936
ma@@ 6864
run 6858
knew 6809
or@@ 6776
men 6755
few 6752
king 6747
guess 6739
no. 6715
de@@ 6695
thinking 6686
seen 6667
er@@ 6658
su@@ 6636
each 6608
am@@ 6592
ti@@ 6592
li@@ 6567
hand 6543
fucking 6522
turn 6522
part 6518
body 6511
both 6484
important 6480
days 6479
p 6451
friends 6440
human 6440
.. 6433
bring 6432
hold 6406
lo@@ 6403
sa@@ 6374
red 6370
face 6365
m 6339
phone 6332
it@@ 6288
you. 6284
brother 6274
open 6272
become 6264
probably 6253
wouldn 6245
mar@@ 6244
meet 6204
w@@ 6195
ting 6191
at@@ 6185
started 6184
means 6143
ad@@ 6121
es@@ 6104
point 6099
second 6094
anyone 6087
el@@ 6080
whole 6080
sp@@ 6038
lost 6006
alone 5971
boy 5901
mi@@ 5898
d 5879
g 5876
police 5869
happy 5866
water 5866
soon 5858
t. 5850
eat 5823
city 5790
th@@ 5764
happen 5750
myself 5735
story 5718
number 5712
inside 5685
j@@ 5684
yeah. 5676
y. 5675
side 5639
wife 5619
play 5616
far 5573
con@@ 5569
hope 5566
couldn 5561
si@@ 5558
ok 5555
seems 5530
times 5510
b 5505
mom 5496
having 5465
le@@ 5464
child 5462
c 5460
me. 5435
haven 5409
fight 5408
dis@@ 5407
though 5407
late 5392
l 5387
reason 5378
no@@ 5372
high 5351
making 5347
death 5340
fuck 5303
five 5301
company 5243
asked 5242
says 5242
under 5228
ating 5225
n 5225
set 5225
gone 5222
ready 5216
taking 5210
ly 5203
between 5184
age 5166
hi@@ 5138
heart 5133
se@@ 5108
question 5064
ch@@ 5055
fact 5037
four 5031
mo@@ 5031
baby 5024
do@@ 4991
quite 4951
bu@@ 4937
children 4920
right. 4918
car@@ 4905
whatever 4903
eyes 4900
business 4898
blood 4886
shit 4865
light 4863
gave 4862
tomorrow 4853
ab@@ 4842
moment 4824
th 4822
comes 4820
os@@ 4806
wanna 4799
im@@ 4794
watch 4763
using 4747
; 4744
close 4743
exactly 4734
wa@@ 4732
sh@@ 4724
ine 4719
makes 4712
later 4703
ac@@ 4700
on. 4681
ations 4678
hands 4675
&apos;@@ 4671
so@@ 4671
minutes 4668
young 4667
gotta 4643
is@@ 4638
president 4636
aren 4632
system 4623
wants 4606
less 4585
excuse 4568
la@@ 4566
line 4551
died 4550
against 4483
ds 4480
door 4457
om@@ 4455
okay. 4453
kid 4452
pre@@ 4452
met 4448
behind 4418
he@@ 4418
stuff 4414
kids 4406
ho@@ 4395
be@@ 4377
pe@@ 4375
en 4372
.... 4368
answer 4366
order 4357
least 4328
waiting 4324
d. 4318
knows 4317
trust 4312
future 4311
sister 4275
sc@@ 4274
information 4264
million 4261
hello 4255
front 4252
safe 4249
rest 4234
possible 4232
anyway 4229
read 4224
chance 4215
team 4214
worry 4213
beautiful 4209
check 4208
save 4200
shi@@ 4198
bar@@ 4188
hit 4187
supposed 4180
les 4176
hurt 4174
bo@@ 4157
fire 4134
10 4127
pro@@ 4114
half 4110
alive 4105
special 4103
truth 4101
ding 4099
deal 4096
cut 4095
women 4092
damn 4089
somebody 4086
living 4085
war 4072
shot 4066
x 4061
em@@ 4055
ous 4053
easy 4051
finally 4044
almost 4039
ap@@ 4030
attack 4024
tried 4015
yes. 4015
food 4003
word 3996
anymore 3993
hours 3987
min@@ 3983
il@@ 3977
led 3976
us@@ 3961
plan 3949
ship 3944
doctor 3939
lives 3935
po@@ 3925
ag@@ 3924
ec@@ 3920
gu@@ 3919
daughter 3912
gets 3910
dr. 3908
ter 3901
ir@@ 3894
ne@@ 3892
ex@@ 3883
vi@@ 3882
ain 3876
game 3875
miss 3863
man@@ 3859
black 3856
protect 3854
country 3831
john 3831
wonder 3825
book 3819
break 3812
telling 3792
outside 3791
cu@@ 3787
sort 3782
ta@@ 3775
small 3770
2 3749
office 3746
wish 3745
goes 3740
control 3737
.@@ 3736
tonight 3724
everybody 3715
town 3709
ru@@ 3706
pay 3692
har@@ 3682
happens 3677
um@@ 3672
shut 3670
forget 3668
ent 3665
fi@@ 3665
brought 3660
earth 3647
hi 3642
fun 3640
ks 3635
mon@@ 3632
ra@@ 3629
hospital 3623
1 3620
ak@@ 3619
gun 3619
months 3612
3 3600
go@@ 3595
past 3590
ance 3589
du@@ 3580
free 3575
week 3571
ing. 3566
either 3564
six 3564
ic@@ 3563
building 3562
x@@ 3554
ity 3520
da 3514
ling 3512
couple 3509
da@@ 3507
z 3500
feeling 3489
ch 3484
for@@ 3484
le 3477
ya 3477
top 3473
cause 3463
sent 3463
20 3461
est 3459
here. 3458
bi@@ 3457
brain 3457
ca@@ 3454
op@@ 3450
se 3443
welcome 3441
husband 3432
dy 3431
clear 3426
par@@ 3424
stand 3424
ded 3423
card 3415
cannot 3409
per@@ 3398
cr@@ 3396
mine 3393
words 3393
) 3390
running 3389
taken 3385
de 3384
tri@@ 3380
lose 3379
percent 3375
der 3373
ic 3373
lie 3371
gi@@ 3370
agent 3362
data 3358
( 3357
sense 3351
ob@@ 3348
land 3341
captain 3335
re 3334
parents 3331
ha 3327
sit 3317
drink 3316
mis@@ 3310
speak 3309
trouble 3308
crazy 3303
ur@@ 3302
el 3296
murder 3294
security 3278
sometimes 3275
walk 3271
mu@@ 3267
over@@ 3267
needs 3262
ter@@ 3259
full 3256
ons 3256
dream 3247
ant 3238
decided 3236
white 3233
ass 3219
changed 3213
id 3211
r 3203
send 3203
afraid 3201
level 3201
promise 3199
mor@@ 3197
minute 3196
es. 3195
girls 3180
em 3177
sorry. 3177
buy 3165
sleep 3165
ma 3163
news 3151
yo@@ 3145
sound 3142
eh 3136
ls 3134
stupid 3133
along 3126
com@@ 3121
tion 3120
qu@@ 3109
detective 3108
tr@@ 3104
3@@ 3101
ni@@ 3100
ten 3100
5 3092
looked 3090
hurry 3087
na@@ 3081
han@@ 3069
h 3063
sing 3063
ver@@ 3060
worked 3054
amazing 3052
ve 3051
als 3048
return 3036
nobody 3034
win 3029
ones 3028
te 3028
field 3014
ally 3012
2@@ 3005
ko 2992
asking 2977
during 2975
perhaps 2968
party 2964
bed 2959
born 2955
alright 2949
ke 2948
ki 2945
moving 2945
jack 2943
lord 2942
wow 2940
others 2937
ps 2934
act 2932
tu@@ 2927
ge 2915
ou@@ 2909
ble 2907
picture 2905
group 2901
et 2897
ses 2897
strong 2897
yu@@ 2897
ki@@ 2882
br@@ 2880
tak@@ 2880
interesting 2879
30 2870
bl@@ 2864
somewhere 2860
questions 2856
monster 2854
longer 2852
cool 2843
4 2840
ist 2840
know. 2840
machine 2835
meeting 2834
test 2833
ty 2830
serious 2829
sounds 2826
hate 2823
master 2823
fu@@ 2813
yours 2810
happening 2804
imagine 2804
seem 2804
asan 2795
space 2787
ia 2782
completely 2780
key 2769
pl@@ 2768
technology 2766
chi@@ 2764
per 2763
ed@@ 2760
lady 2760
sho@@ 2760
state 2757
ler 2753
ge@@ 2750
married 2750
evidence 2743
cold 2737
inter@@ 2728
secret 2728
ka 2725
air 2722
class 2720
himself 2716
ko@@ 2714
ates 2712
piece 2707
learn 2706
yesterday 2693
pick 2688
works 2687
boss 2683
cell 2682
figure 2680
ins 2678
seeing 2668
ans 2662
5@@ 2660
war@@ 2659
w 2655
cor@@ 2650
lu@@ 2649
ies 2646
ed. 2641
the@@ 2640
rather 2636
shouldn 2630
strange 2629
ability 2626
hot 2626
playing 2624
example 2621
ba@@ 2617
energy 2614
ol@@ 2614
au@@ 2610
choice 2609
4@@ 2602
follow 2601
turned 2600
shall 2594
single 2589
dog 2585
vo@@ 2585
chief 2583
ka@@ 2579
known 2578
san 2577
ck@@ 2576
given 2575
worried 2567
government 2564
ary 2553
sha@@ 2551
within 2550
f 2549
early 2538
that. 2538
giving 2533
felt 2531
leaving 2531
middle 2521
ck 2511
touch 2506
needed 2505
report 2501
cl@@ 2500
ahead 2497
video 2495
simple 2492
became 2491
ten@@ 2491
dark 2484
history 2481
force 2479
sen@@ 2477
gr@@ 2475
ev@@ 2471
can@@ 2467
trans@@ 2467
calling 2464
forward 2463
step 2456
pa@@ 2455
pi@@ 2454
eye 2452
computer 2451
public 2450
perfect 2448
dangerous 2444
hour 2443
ph@@ 2441
weeks 2438
instead 2435
et@@ 2427
shoot 2419
whether 2419
across 2414
mas@@ 2414
anybody 2413
crime 2413
ves 2409
fast 2408
ways 2408
takes 2407
ep@@ 2406
victim 2403
ton 2402
50 2401
missing 2398
boys 2392
scared 2387
impossible 2379
mer@@ 2375
ii 2374
club 2373
drive 2369
catch 2364
ber@@ 2363
explain 2361
7@@ 2360
killer 2359
6 2353
voice 2353
chan 2342
calm 2338
tor@@ 2336
situation 2326
definitely 2325
a. 2324
fall 2323
area 2321
date 2321
seven 2321
weren 2320
8@@ 2316
up@@ 2316
wh@@ 2313
bur@@ 2312
and@@ 2310
street 2310
100 2300
worth 2299
art 2298
ju@@ 2298
ze 2295
dna 2294
v 2291
ff@@ 2287
pri@@ 2285
kun 2281
music 2278
create 2273
go. 2273
seriously 2273
clean 2272
dinner 2271
fa@@ 2270
however 2265
position 2260
normal 2258
general 2256
pain 2251
ker 2249
ws 2245
pull 2241
ent@@ 2238
station 2233
message 2232
third 2225
ents 2216
certain 2214
ator 2213
fish 2212
glad 2207
cal@@ 2200
student 2193
write 2188
contact 2186
entire 2182
experience 2178
patient 2178
under@@ 2176
sick 2169
ment 2167
ings 2166
research 2162
tan@@ 2161
ful 2159
lin@@ 2157
month 2157
planet 2157
ran 2148
sign 2148
fbi 2147
il 2144
difficult 2142
watching 2137
9@@ 2133
ji 2133
fly 2132
out@@ 2125
form 2122
teacher 2119
ring 2118
ran@@ 2117
7 2116
ea@@ 2114
ors 2112
fault 2111
hair 2111
ice 2104
ite 2104
15 2103
blue 2102
kept 2101
cute 2100
ing@@ 2099
science 2097
6@@ 2096
ground 2095
ga@@ 2091
0@@ 2089
saved 2089
ta 2087
build 2085
mission 2083
hu@@ 2081
dragon 2080
ked 2080
caught 2076
absolutely 2075
ster 2075
often 2069
problems 2069
bri@@ 2067
lying 2065
york 2062
box 2060
dollars 2060
ami 2059
ness 2058
suddenly 2055
board 2054
sub@@ 2053
dec@@ 2052
tic 2051
$ 2050
luck 2050
lea@@ 2049
drop 2047
careful 2044
loved 2042
lead 2038
battle 2037
starting 2037
8 2035
list 2033
fighting 2028
sts 2028
gar@@ 2027
wall 2023
k. 2021
ters 2011
law 2010
ey 2007
ci@@ 2002
dar@@ 2002
jo@@ 2001
id@@ 1996
quickly 1996
ok@@ 1994
talked 1994
effect 1993
low 1990
killing 1983
ce 1981
lucky 1980
students 1980
charge 1979
pass 1978
fl@@ 1974
ban@@ 1971
share 1970
ative 1969
mistake 1964
project 1963
stopped 1963
built 1958
pen@@ 1958
kan@@ 1954
ner 1954
sel@@ 1954
cho@@ 1953
wonderful 1953
learned 1949
funny 1948
col@@ 1947
ches 1946
ics 1946
bitch 1941
ig@@ 1937
personal 1936
social 1936
weird 1936
up. 1934
ty@@ 1931
wake 1931
poor 1928
table 1928
interested 1916
eight 1910
mat@@ 1906
type 1906
study 1904
places 1903
ven@@ 1897
mil@@ 1896
road 1894
short 1892
design 1889
ess 1889
floor 1889
involved 1889
good. 1887
whoa 1887
ar 1885
director 1885
ms 1885
west 1885
hang 1884
ina 1882
ian 1881
ul@@ 1880
er. 1879
island 1878
san@@ 1878
fin@@ 1874
ving 1872
continue 1870
sell 1870
scene 1868
tal@@ 1868
20@@ 1865
beginning 1862
gen@@ 1862
sea 1862
del@@ 1861
gs 1859
pu@@ 1859
rec@@ 1857
magic 1856
support 1854
wi@@ 1853
medical 1851
enemy 1847
park 1847
humans 1845
code 1844
ence 1840
miles 1840
ut@@ 1840
fear 1839
store 1839
worse 1834
lots 1833
laughter 1832
shin@@ 1831
star 1829
tions 1825
somehow 1824
feet 1823
sky 1823
res 1822
accident 1821
none 1820
target 1819
her@@ 1818
fre@@ 1817
den@@ 1816
him. 1815
american 1814
cap@@ 1814
sion 1813
tru@@ 1812
states 1808
health 1803
fr@@ 1802
feelings 1801
ball 1800
mark 1800
ms. 1799
fo@@ 1793
ard 1790
train 1787
ying 1787
bank 1783
gh@@ 1783
busy 1782
beat 1777
huge 1777
shop 1777
des 1776
9 1775
ade 1774
est@@ 1773
there. 1771
hey. 1769
meant 1769
osan 1767
ren@@ 1764
ments 1761
unless 1759
anywhere 1758
fe@@ 1757
green 1757
turns 1756
certainly 1755
super@@ 1755
speed 1751
fell 1750
officer 1750
terrible 1750
wor@@ 1748
ry 1747
12 1746
throw 1745
feels 1744
spent 1744
straight 1744
tre@@ 1742
ill 1740
isan 1740
standing 1740
hide 1739
cas@@ 1733
deep 1733
totally 1733
access 1732
hasn 1732
this. 1731
sun 1728
bal@@ 1727
te@@ 1727
near 1726
lab 1724
quiet 1724
tro@@ 1722
ny 1721
process 1720
cover 1718
relationship 1717
hand@@ 1716
bet 1715
queen 1714
der@@ 1713
spend 1713
ve@@ 1706
now. 1703
pan@@ 1703
ku@@ 1699
paper 1699
ended 1696
attention 1695
cur@@ 1695
song 1695
large 1694
united 1694
camera 1692
difference 1689
ill@@ 1689
investigation 1688
numbers 1685
present 1684
sur@@ 1684
os 1683
st 1682
bag 1679
str@@ 1679
weapon 1679
moved 1678
forgive 1677
ken@@ 1677
don@@ 1674
natural 1674
wal@@ 1674
north 1673
soul 1673
dr@@ 1671
por@@ 1671
ourselves 1668
books 1667
fully 1667
tur@@ 1667
department 1666
peace 1666
che@@ 1665
join 1664
pos@@ 1662
seconds 1661
dra@@ 1660
training 1660
wearing 1660
ke@@ 1656
america 1655
itself 1655
service 1655
search 1654
bought 1653
private 1652
sitting 1647
finish 1645
sensei 1642
ely 1641
ends 1641
realize 1640
south 1639
cat 1637
hel@@ 1634
ura 1633
ley 1632
named 1631
prison 1630
begin 1629
wing 1629
helped 1628
je@@ 1628
risk 1627
char@@ 1626
tv 1626
lived 1625
program 1625
des@@ 1624
cha@@ 1621
cy@@ 1621
based 1620
passed 1619
points 1615
sun@@ 1615
yo 1615
ride 1614
forever 1613
match 1613
bro@@ 1612
ens 1609
quick 1608
east 1607
village 1607
suit 1606
recently 1604
themselves 1604
fer@@ 1603
hotel 1602
expect 1600
star@@ 1598
idiot 1597
ber 1595
paid 1595
created 1592
professor 1589
nature 1588
choose 1587
summer 1585
cancer 1584
center 1584
kin@@ 1583
earlier 1577
mal@@ 1573
surprised 1573
allow 1572
honey 1570
complete 1569
ders 1568
action 1566
ie 1564
tw@@ 1564
gre@@ 1563
app@@ 1562
basically 1562
daddy 1562
broke 1560
la 1560
moon 1559
im 1557
eating 1556
society 1556
stories 1556
coffee 1552
handle 1548
sal@@ 1548
thinks 1546
ser@@ 1544
wind 1544
bul@@ 1542
reach 1541
finished 1538
ned 1535
peter 1535
countries 1534
fine. 1534
walking 1534
sweet 1531
mouth 1529
clothes 1527
00 1526
tor 1526
boat 1525
acc@@ 1524
except 1524
iz@@ 1520
army 1517
billion 1517
rules 1517
grow 1515
holding 1515
man. 1514
med 1512
partner 1512
dance 1511
common 1510
record 1510
quit 1509
ys 1509
tar@@ 1507
ali@@ 1506
listening 1506
stage 1505
address 1504
my@@ 1503
criminal 1502
lar 1502
bar 1501
suspect 1501
teach 1501
yen 1497
cat@@ 1496
cre@@ 1496
oh. 1496
sword 1494
high@@ 1492
memory 1492
nor@@ 1491
tough 1491
hmm 1490
speaking 1490
destroy 1488
out. 1486
stri@@ 1485
draw 1484
immediately 1484
local 1484
powerful 1483
realized 1483
mr 1482
wear 1480
movie 1479
putting 1479
notice 1477
ved 1477
accept 1476
tea 1475
tra@@ 1474
wrote 1472
jesus 1471
tom@@ 1471
till 1469
gri@@ 1468
smart 1468
uncle 1468
far@@ 1464
ning 1463
stick 1463
tt@@ 1463
especially 1462
ve. 1461
ger 1460
drug 1459
lunch 1459
final 1458
sed 1457
press 1453
view 1453
ical 1452
cking 1451
obviously 1450
favorite 1449
cells 1448
arm 1447
gl@@ 1447
1@@ 1445
damage 1445
sam 1441
angry 1440
non@@ 1440
decide 1439
smell 1439
van 1438
internet 1437
mama 1437
bs 1435
bre@@ 1434
national 1433
eli@@ 1430
community 1427
nu@@ 1427
visit 1424
zed 1424
suppose 1422
walter 1420
simply 1417
dear 1416
forgot 1416
trip 1414
truly 1413
helping 1411
model 1409
showed 1408
hundred 1407
reality 1407
birthday 1405
due 1405
fix 1403
size 1403
tired 1403
you@@ 1402
sk@@ 1401
broken 1400
planning 1398
ideas 1396
dying 1395
global 1394
names 1393
escape 1392
ore 1392
ja@@ 1390
bel@@ 1389
guard 1389
ines 1389
count 1387
device 1386
dri@@ 1385
ama 1384
lock 1384
hiding 1383
off@@ 1383
usually 1383
missed 1382
chan@@ 1381
ne 1380
sake 1380
ged 1379
sex 1379
calls 1377
gate 1377
lies 1377
although 1375
ger@@ 1374
according 1373
nine 1367
africa 1366
ata 1364
major 1362
justice 1361
offer 1359
tree 1359
acting 1358
animals 1358
market 1357
mad 1356
wed 1356
men@@ 1355
ee@@ 1354
waste 1353
iti@@ 1352
surgery 1352
apologize 1349
consider 1349
gives 1349
thousands 1349
track 1348
hor@@ 1347
following 1346
ear@@ 1343
operation 1343
patients 1343
meaning 1342
enjoy 1341
0s 1340
letter 1337
prove 1337
ff 1336
college 1335
frank 1335
beyond 1333
destroyed 1333
ichan 1333
older 1333
slow 1332
pictures 1331
dly 1330
apartment 1329
bomb 1329
h. 1329
locked 1329
ther@@ 1329
opportunity 1328
amount 1327
ging 1327
honest 1327
son@@ 1327
arrest 1326
bye 1326
figured 1326
40 1324
universe 1324
boyfriend 1323
hole 1322
language 1320
scar@@ 1320
summon 1320
cost 1319
bigger 1318
main 1318
an. 1317
pur@@ 1315
keeping 1314
writing 1314
besides 1312
cer@@ 1312
source 1312
university 1311
ver 1309
19@@ 1308
ly@@ 1308
ho 1307
bat@@ 1306
win@@ 1305
bodies 1304
hin@@ 1304
ect 1303
manager 1301
ent. 1300
hal@@ 1300
respect 1299
sad 1299
decision 1298
def@@ 1298
mel@@ 1298
plane 1298
blow 1297
likely 1297
tive 1297
evening 1296
wedding 1296
ants 1294
cop 1294
gun@@ 1294
lied 1293
window 1293
goodbye 1290
parts 1290
wat@@ 1288
dude 1287
hero 1287
na 1287
cops 1285
lar@@ 1285
mit@@ 1285
disease 1280
drugs 1280
fil@@ 1280
marriage 1280
mm@@ 1279
honor 1278
leader 1278
ray 1278
weapons 1278
&apos;t. 1277
suicide 1276
ming 1275
in. 1274
doubt 1273
mrs. 1272
raise 1272
evil 1271
flo@@ 1271
particular 1270
ichi 1269
sions 1269
memories 1265
round 1265
agree 1264
carry 1261
10@@ 1260
gra@@ 1260
trial 1260
several 1258
self@@ 1257
att@@ 1256
emergency 1255
thousand 1255
kidding 1254
kinds 1254
kes 1253
bra@@ 1252
bridge 1252
kar@@ 1252
bear 1251
ladies 1251
comp@@ 1250
jane 1247
ched 1246
responsible 1245
sto@@ 1245
copy 1244
upon 1244
lawyer 1243
dreams 1242
gentlemen 1241
200@@ 1240
games 1239
species 1239
activate 1238
ping 1238
wan@@ 1238
aki 1237
worst 1236
began 1235
gas 1234
rich 1234
image 1233
ities 1233
ized 1233
cro@@ 1232
military 1232
bastard 1231
bottom 1231
yama 1231
cards 1230
finding 1230
skin 1230
strength 1230
ay 1229
seat 1229
ition 1228
ously 1228
fun@@ 1227
tim@@ 1227
yu 1227
anti@@ 1226
hungry 1226
responsibility 1225
dic@@ 1219
ati@@ 1218
sin@@ 1218
swear 1216
aware 1213
rate 1213
indeed 1212
cri@@ 1211
understood 1211
animal 1210
members 1210
bill 1209
connected 1209
hon@@ 1209
incident 1209
ot@@ 1209
% 1206
cia 1205
fair 1205
sleeping 1205
hol@@ 1204
written 1204
ad 1201
focus 1201
ile 1200
surprise 1200
trap 1200
seemed 1199
push 1197
sil@@ 1197
treat 1196
liked 1194
prepare 1193
pressure 1193
13 1192
onto 1192
sli@@ 1191
color 1190
princess 1190
condition 1189
girlfriend 1189
inv@@ 1189
murdered 1189
ana 1187
danger 1187
systems 1187
zing 1187
truck 1186
english 1185
foot 1185
taught 1185
burn 1184
delicious 1183
roll 1183
bus 1182
site 1180
clearly 1178
court 1177
bas@@ 1176
further 1176
&apos;cause 1175
education 1175
sl@@ 1175
results 1174
end@@ 1173
expected 1172
ben@@ 1171
japan 1171
shows 1171
ching 1170
appreciate 1169
bon@@ 1168
mess 1167
ns 1167
bil@@ 1166
q@@ 1166
apparently 1165
whose 1165
issue 1164
changes 1163
changing 1163
christmas 1161
ky 1161
promised 1161
purpose 1161
ack 1160
conversation 1160
held 1160
st. 1160
interest 1159
comm@@ 1158
gold 1158
mountain 1156
sold 1156
willing 1156
all@@ 1155
nar@@ 1155
reading 1154
sting 1153
picked 1152
price 1152
radio 1152
witness 1151
proud 1150
location 1149
nat@@ 1149
tel@@ 1149
ash 1148
noticed 1148
practice 1148
pas@@ 1147
allowed 1146
bor@@ 1146
one@@ 1146
ess@@ 1145
wait. 1145
closer 1144
likes 1144
sw@@ 1143
gotten 1142
michael 1142
achan 1141
blo@@ 1141
china 1141
growing 1141
knowing 1141
cam@@ 1140
driving 1140
exp@@ 1140
lights 1140
online 1140
orders 1140
flight 1138
kiss 1138
air@@ 1137
losing 1137
received 1137
ll 1136
us. 1135
value 1135
cars 1134
spirit 1134
time. 1134
ish 1133
pr@@ 1133
ently 1132
century 1131
please. 1131
dou@@ 1130
favor 1129
hidden 1129
rain 1129
cher 1128
serve 1128
defense 1127
sn@@ 1127
lines 1126
necessary 1126
towards 1126
tsu@@ 1126
clo@@ 1125
gro@@ 1125
closed 1124
ery 1124
result 1123
stone 1123
everywhere 1122
hom@@ 1121
mate 1121
ory 1121
zu@@ 1120
11 1119
mom@@ 1119
ste@@ 1118
wondering 1118
aff@@ 1117
discovered 1117
ited 1116
mid@@ 1115
stic 1115
grab 1114
survive 1112
ats 1110
fy 1110
starts 1110
we@@ 1110
tokyo 1109
els 1107
base 1106
innocent 1106
oned 1106
prince 1106
taste 1106
dont 1104
member 1104
network 1104
bunch 1103
sudden 1100
oil 1099
mos@@ 1098
river 1098
stuck 1098
fool 1097
gift 1097
path 1097
rock 1097
signal 1097
above 1096
whoever 1096
jump 1095
se. 1095
ically 1094
ure 1093
zo@@ 1093
cla@@ 1092
u.s. 1092
virus 1092
among 1091
goddamn 1091
smile 1091
birth 1090
cases 1090
see. 1090
victims 1090
crying 1085
henry 1085
back@@ 1084
val@@ 1084
holy 1083
map 1083
neither 1083
theory 1083
ei@@ 1082
mc@@ 1082
ocean 1082
ita 1081
companies 1080
terms 1080
buddy 1078
bit@@ 1077
famous 1077
zero 1077
learning 1076
weak 1076
ft 1075
25 1073
caused 1073
glass 1073
arrived 1072
rob@@ 1072
ang@@ 1071
yer 1071
ca 1070
pil@@ 1069
al. 1068
atic 1067
ba 1066
media 1065
mike 1065
release 1063
ach@@ 1062
environment 1062
hurts 1062
sor@@ 1062
mag@@ 1060
ya@@ 1060
cross 1059
fore@@ 1058
prepared 1058
restaurant 1056
tom 1056
ement 1055
ji@@ 1055
bing 1054
ion 1054
unit 1054
gener@@ 1053
kur@@ 1052
nic@@ 1052
cont@@ 1050
heavy 1050
chi 1049
correct 1049
faster 1049
uses 1048
ages 1047
squ@@ 1047
down. 1045
ster@@ 1045
super 1045
gg@@ 1044
ined 1044
physical 1044
sh 1044
&apos;am 1041
cos@@ 1041
den 1041
david 1040
forest 1040
shooting 1039
ality 1038
incredible 1038
wood 1037
including 1036
original 1036
reasons 1036
sco@@ 1036
dro@@ 1034
fit 1033
ligh@@ 1033
medicine 1033
solve 1033
knife 1032
0,000 1031
ken 1031
development 1030
disappeared 1028
proof 1028
properly 1028
ros@@ 1028
current 1027
dies 1027
hy@@ 1027
inf@@ 1027
possibly 1026
ram@@ 1026
do. 1025
file 1025
marry 1025
tly 1025
unfortunately 1025
bun@@ 1024
head@@ 1024
duty 1023
ours 1023
minister 1022
naruto 1022
exist 1021
played 1021
way. 1021
corner 1020
w. 1020
stole 1019
awesome 1018
challenge 1018
rule 1018
200 1017
fied 1017
former 1017
iled 1017
pulled 1016
tells 1016
usual 1016
apart 1015
inst@@ 1015
cry 1014
joke 1014
pped 1014
sy 1014
dor@@ 1013
failed 1013
stor@@ 1013
500 1012
appears 1012
rel@@ 1012
van@@ 1012
attacked 1011
believed 1011
dirty 1010
robot 1010
becomes 1009
dd@@ 1009
judge 1008
pic@@ 1008
warm 1008
ir 1007
staying 1006
blame 1005
bringing 1005
grace 1005
hadn 1004
coun@@ 1003
kin 1003
back. 1002
grand@@ 1001
ony 1001
bird 1000
central 1000
directly 999
grew 999
happiness 999
n. 998
heading 997
hearing 996
grand 995
too. 995
twice 995
ra 994
sec@@ 994
spot 994
arms 993
joe 993
brothers 992
eg@@ 990
nt 990
plans 990
church 987
knowledge 987
p. 987
ai 986
din@@ 986
headed 986
yed 986
james 984
rice 984
mp@@ 983
ine@@ 982
records 981
photo 980
black@@ 979
cash 979
chinese 979
walked 979
plant 978
snow 978
inc@@ 977
sending 977
dge 976
zz@@ 976
row 975
pieces 974
similar 974
easily 973
rid 973
wn 973
account 972
fake 972
recognize 972
showing 971
hoping 970
hum@@ 970
tiny 970
charlie 969
drinking 969
her. 969
spring 969
cra@@ 968
section 968
intelligence 967
net 966
18 965
is. 965
stra@@ 965
guns 964
powers 964
prime 964
m. 963
hundreds 962
sive 962
kil@@ 961
steal 961
sted 961
fle@@ 960
cks 959
ku 959
travel 959
treatment 959
japanese 957
oning 957
dropped 956
extremely 956
event 955
connection 954
sm@@ 953
18@@ 952
familiar 952
uni@@ 952
wel@@ 952
,000 951
60 951
bru@@ 951
new@@ 951
pat@@ 951
safety 951
film 950
ial 949
behavior 948
pin@@ 948
becoming 947
eventually 946
mention 945
nak@@ 945
driver 943
ences 943
papa 943
scary 943
vel@@ 943
yearold 943
ators 942
empty 942
excited 942
stan@@ 942
cup 940
staff 939
demon 938
equ@@ 938
jim 938
millions 938
political 937
cities 936
ties 936
plan@@ 935
ack@@ 934
rin@@ 934
fired 933
drunk 931
nervous 931
pleasure 931
speci@@ 931
weight 930
feed 929
regi@@ 929
them. 929
trick 929
dre@@ 928
flying 928
client 927
g. 927
lower 927
ashi 926
easier 926
goku 926
identity 926
kat@@ 926
lat@@ 926
mic 925
add 924
extra 924
jobs 924
l. 924
london 923
loss 923
opened 923
angel 922
kers 922
movement 922
actions 921
commander 920
plus 920
scale 920
tea@@ 920
tit@@ 920
crew 919
lieutenant 919
monsters 919
relax 919
india 918
ably 917
herself 917
o. 917
success 917
threat 917
kid@@ 916
balls 915
enter 915
sight 915
soldiers 915
lit@@ 914
tation 914
iling 911
double 910
lets 910
ize 909
one. 909
organization 909
surface 909
ever@@ 908
designed 906
pros@@ 906
violence 906
ism 905
owe 905
popular 905
sir. 904
surely 904
understanding 904
spo@@ 903
freedom 902
pregnant 902
shape 902
stars 902
any@@ 901
command 901
lovely 901
mus@@ 901
za 901
dev@@ 900
shoes 900
self 899
audience 898
kick 898
legs 898
arrested 897
han 897
ths 897
forced 896
ori 896
ered 895
heads 895
keeps 895
culture 894
developed 893
festival 892
i. 892
mur@@ 892
ot 892
thats 892
ise 891
dress 889
greatest 889
spread 889
th. 889
disappear 888
un 888
checked 887
duel 887
ture 887
ghost 886
higher 886
opponent 886
page 886
pal@@ 886
turning 885
vision 885
300 884
available 883
ga 883
kou@@ 883
ly. 883
otherwise 883
population 883
tle 882
loves 881
tie 881
cake 880
material 880
ward 880
bell 879
cel@@ 879
beach 878
ben 878
pot@@ 878
scre@@ 878
ani@@ 877
hun@@ 877
pping 877
biggest 876
horse 876
oc@@ 876
stronger 876
fate 875
tam@@ 875
camp 874
cli@@ 874
gh 874
request 874
families 873
om 873
hit@@ 872
ances 870
council 869
race 869
admit 868
complicated 868
ears 868
generation 868
irs 868
rights 868
saving 868
breaking 867
chris 867
ther 867
bother 866
gal@@ 865
grade 865
female 863
fire@@ 863
mi 863
anna 862
beauty 862
block 862
ford 862
wil@@ 862
blu@@ 861
credit 861
returned 861
doctors 860
followed 859
fri@@ 859
lon@@ 858
answers 857
smoke 857
bea@@ 856
de. 856
ners 856
raised 856
ter. 856
ashi@@ 855
darkness 855
email 855
meat 853
enti@@ 852
period 852
rac@@ 852
concerned 851
crap 851
flowers 851
val 851
nick 850
pe 850
tors 850
details 848
progress 848
total 848
finch 847
hall 847
leg 847
nearly 847
afternoon 846
ane 846
laugh 846
lo 846
run@@ 846
shu@@ 846
exchange 845
interview 845
ships 845
character 843
spar@@ 843
16 842
ichi@@ 842
ids 842
international 842
nose 842
secure 842
beer 841
faith 841
opening 841
cul@@ 840
ils 840
bloody 838
spoke 838
bo 837
en. 837
ending 837
ner@@ 837
ges 836
len@@ 836
bones 835
files 835
possibility 835
17 834
issues 833
disc@@ 832
related 832
skills 832
esan 831
tat@@ 831
dol@@ 830
engine 830
mary 830
appear 829
may@@ 829
neck 829
paying 829
ant@@ 828
tered 828
oliver 827
positive 827
slo@@ 827
transfer 827
cameras 826
kam@@ 826
leaves 826
letting 826
domin@@ 825
stolen 825
matters 824
quality 824
cour@@ 823
eve 823
fresh 823
giant 823
load 823
nor 823
remain 822
congratulations 821
eu@@ 821
honestly 821
obvious 821
version 821
wine 821
24 820
mon 820
awa 819
chest 819
law@@ 818
sy@@ 818
aka 817
ose 817
role 817
work@@ 817
goal 816
oun@@ 816
dogs 815
mental 815
sta@@ 815
growth 814
switch 814
tion@@ 813
ton@@ 813
tou@@ 813
direct 812
direction 812
gan@@ 812
jail 812
rise 812
bullet 811
hur@@ 811
oper@@ 811
ped 811
product 811
ris@@ 811
bling 810
career 810
kim 810
murderer 810
reg@@ 810
complex 809
fac@@ 809
itting 809
covered 808
vic@@ 808
but@@ 807
doors 807
experiment 807
vol@@ 807
castle 806
ation. 805
forms 805
hunt 805
potential 805
tab@@ 805
ac 804
individual 804
invited 804
nan@@ 804
eng@@ 803
od@@ 803
literally 801
active 800
god. 800
roof 800
cop@@ 799
itive 799
wea@@ 799
average 798
journey 798
bone 797
fan 797
14 796
contract 796
economic 796
lonely 796
upset 796
ational 795
meters 795
ok. 795
cal 794
chose 794
heat 794
hm 794
ish@@ 794
selling 794
sure. 794
ection 792
gor@@ 792
guilty 792
capable 791
note 791
sarah 791
storm 790
ingly 788
iting 788
kitchen 788
dan@@ 787
healthy 787
paul 787
solution 787
kai 786
kon@@ 785
george 784
great. 784
ue 784
plenty 783
filled 782
lic@@ 782
rap@@ 782
consul@@ 781
currently 781
gged 781
response 781
useless 781
introduce 780
keys 780
ency 779
wer@@ 779
scientists 778
trac@@ 778
anger 777
gam@@ 777
kosan 777
pho@@ 777
deserve 776
le. 776
mm 776
pun@@ 776
rose 776
served 776
phones 775
advice 774
blind 774
expensive 774
thin@@ 774
bab@@ 773
pack 773
trees 773
lay 772
remains 772
gy 771
impact 771
christ 770
fat 770
pp@@ 770
structure 770
tape 770
ute 769
dea@@ 768
defeat 768
ist@@ 768
managed 768
que 768
text 768
faces 767
shadow 767
french 766
acy 765
approach 765
co 765
thor@@ 765
break@@ 764
conf@@ 764
dum@@ 764
80 763
ro 763
subject 762
jun@@ 761
pop@@ 761
yama@@ 761
fel@@ 760
mer 760
tail 760
walker 760
what@@ 760
lif@@ 759
anc@@ 758
dun@@ 758
thoughts 758
tun@@ 758
all. 757
images 757
tal 757
breakfast 756
lan@@ 756
los@@ 756
tics 756
aging 755
younger 755
tin@@ 754
ell 753
pattern 753
soldier 753
thr@@ 752
useful 752
ear 751
band 750
barry 750
assume 749
wild 749
cru@@ 748
digital 747
bos@@ 746
chair 746
mask 746
normally 746
ooh 746
teeth 746
arti@@ 745
cook 745
fuckin 745
property 744
bullshit 743
exc@@ 743
owner 743
yam@@ 743
player 742
proc@@ 742
0 741
mass 741
sar@@ 741
solved 741
tower 741
ell@@ 740
lee 740
shed 740
forces 739
hard@@ 739
perfectly 739
resources 739
breathe 738
hood 738
ye 738
dare 737
areas 736
micro@@ 736
trade 736
ch. 735
clear@@ 735
discuss 735
falling 735
regret 734
ace 733
dealing 733
dent 733
fur@@ 733
kis@@ 733
therefore 733
activity 732
flu@@ 732
lately 732
square 732
tight 732
agi 731
boring 731
breath 731
carefully 731
kim@@ 731
avoid 730
emer@@ 730
rare 730
cooking 729
ili@@ 729
prof@@ 729
suffering 729
ale 728
kno@@ 728
male 728
alex 727
heaven 727
protecting 727
sla@@ 727
devil 726
ious 726
opinion 726
land@@ 725
legal 725
produce 725
suggest 725
yak@@ 725
ements 724
fill 724
whenever 724
actual 723
brings 723
desk 723
gin@@ 723
hear@@ 723
jin 723
oms 723
professional 723
199@@ 722
analy@@ 722
gi 722
mommy 722
neighborhood 722
slowly 722
walls 722
attacks 721
exciting 721
hara 721
ily 721
jan@@ 721
max 721
not. 721
ach 720
agreed 720
insurance 720
pel@@ 720
serv@@ 720
well@@ 720
acked 719
hima 719
ome@@ 719
excellent 718
economy 717
nowhere 717
thi@@ 717
wound 717
sym@@ 716
tools 716
wave 716
glasses 715
reese 715
who@@ 715
basic 714
cou@@ 714
nation 714
nam@@ 713
secrets 713
division 711
ous. 711
successful 711
impro@@ 710
list@@ 710
provide 710
shaw 710
streets 710
flower 709
mic@@ 709
print 709
screen 709
sees 709
surveillance 709
agency 708
aw@@ 708
bec@@ 708
dry 708
gods 708
laughing 708
photos 708
poli@@ 708
conference 707
europe 707
hanging 707
traffic 707
mostly 706
vice 706
fought 705
searching 705
weather 705
web 705
connect 704
ol 704
pul@@ 704
fla@@ 703
hat@@ 703
hi. 703
our@@ 703
pit@@ 703
&apos;clock 702
performance 702
thin 702
acks 701
cha 701
winter 701
spell 700
mo 699
silver 699
syn@@ 699
distance 698
ental 698
lion 698
ow 698
poison 698
signed 698
swee@@ 698
task 698
mit 697
series 697
az@@ 696
ena 696
kag@@ 696
kir@@ 696
nag@@ 696
ron 696
strike 696
afford 695
ah. 695
ay@@ 694
increase 694
int@@ 694
nit@@ 694
ys@@ 694
hired 693
kit@@ 693
or. 693
specific 693
su 693
nes@@ 692
nuclear 692
ries 692
committed 691
ama@@ 690
christ@@ 690
factory 690
folks 690
pocket 690
ering 689
hat 689
range 689
adult 688
bite 688
computers 688
mentioned 688
pants 688
released 688
vote 688
alized 687
initi@@ 687
planned 687
bol@@ 685
booth 685
hunting 685
nie 685
permission 685
revenge 685
thy 685
asshole 684
object 684
barely 683
cy 683
ects 683
industry 683
lam@@ 683
ordered 683
ust 683
cin@@ 682
regular 682
zone 682
gue 681
pool 681
enemies 680
measure 680
sa 680
shar@@ 680
watched 680
asleep 679
chicken 679
cho 679
exact 679
wer 679
am. 678
forgotten 678
ori@@ 678
suspicious 678
vis@@ 678
af@@ 677
bath 677
boun@@ 677
bus@@ 677
creating 677
ght@@ 677
shame 677
tter 677
witch 677
core 676
qui@@ 676
rescue 676
sat@@ 676
grandpa 675
carrying 674
hil@@ 674
bio@@ 672
chairman 672
cure 672
particularly 672
teachers 672
whom 672
woods 672
dist@@ 671
ghts 670
harder 670
mun@@ 670
op 670
vehicle 670
belong 669
effects 669
ple 669
reached 669
stu@@ 669
ash@@ 668
danny 668
doc 668
effort 667
ets 667
ancient 666
warrior 666
construction 665
dating 665
deliver 665
software 665
treated 665
fifth 664
gas@@ 664
insi@@ 664
services 664
shirt 664
brains 663
carrie 663
ce. 663
ee 663
failure 663
lab@@ 663
awful 662
google 662
gur@@ 662
hen@@ 662
highly 662
rooms 661
bits 660
ble@@ 660
climate 660
publi@@ 660
ye@@ 660
attorney 659
bottle 659
genius 659
ician 659
termin@@ 659
thre@@ 659
curious 658
edge 658
fail 658
fortune 658
kinda 658
liar 658
supply 658
aged 657
esses 657
leads 656
personally 656
polit@@ 656
sooner 656
stayed 656
tting 656
12@@ 655
fol@@ 655
assistant 654
incredibly 654
protection 654
yard 654
agents 653
imag@@ 653
mes@@ 653
mystery 653
onal 653
armed 652
facility 652
bla@@ 651
comfortable 651
financial 651
horrible 651
noise 651
ades 650
birds 650
loud 650
miracle 650
sea@@ 650
stark 650
tech 650
threw 650
circumstances 649
trace 649
,@@ 648
itu@@ 648
j 648
nothing. 648
day. 647
recent 647
sat 647
solar 647
til@@ 647
americans 646
burning 646
crash 646
lor@@ 646
studying 646
various 646
ici@@ 645
leading 645
ney 645
dressed 644
eless 644
fourth 644
ron@@ 644
course. 643
dish 643
term 643
aps 642
deck 642
grown 642
letters 642
tex@@ 642
dam@@ 641
equipment 641
junior 641
post 641
45 640
ately 640
guest 640
illegal 640
manage 640
ordinary 640
post@@ 640
proper 640
style 640
amed 639
massive 639
of@@ 639
sters 639
cky 638
harold 638
jo 638
pres@@ 638
yellow 638
district 637
meal 637
mum 637
remove 637
ive 636
nurse 636
ou 636
stress 636
teaching 636
acceler@@ 635
ada 635
gen 635
15@@ 634
ast@@ 634
cir@@ 634
ge. 634
dia 633
down@@ 633
episode 633
mail 633
milk 633
route 633
humanity 632
kawa 632
accoun@@ 631
below 631
despite 631
groups 631
official 631
ought 631
scientific 631
speech 631
developing 630
gan 630
runs 630
shopping 630
stomach 630
ari@@ 629
ass@@ 629
chocolate 629
paris 629
prefer 629
quar@@ 629
split 629
brave 628
goodness 628
schools 628
bled 627
sky@@ 627
strategy 627
california 626
form@@ 626
ful@@ 626
robots 626
tional 626
investig@@ 625
s.@@ 625
wise 625
achi@@ 624
bauer 624
investigate 624
iron 624
precious 624
refl@@ 624
wa 624
wo@@ 624
capital 623
federal 623
ticket 623
wash 623
employees 622
fellow 622
finger 622
launch 622
clos@@ 621
consciousness 621
mik@@ 621
modern 621
plants 621
spl@@ 621
va 621
ai@@ 620
een 620
memor@@ 620
secretary 620
sty 620
vie@@ 620
well. 620
bathroom 619
coll@@ 619
eth@@ 619
pers 619
plate 619
remind 619
visual 619
hh 618
loose 618
machines 618
monkey 618
pretend 618
fantastic 617
aunt 616
chase 616
darling 616
gather 616
metal 616
vit@@ 616
marks 615
oss 615
sweetheart 615
ck. 614
respec@@ 614
va@@ 614
cies 613
cleaning 613
fuel 613
operating 613
autom@@ 612
chain 612
crimes 612
ong 612
shift 612
zes 612
brilliant 611
dy@@ 611
ino 611
nos@@ 611
tracking 611
treasure 611
advantage 610
critical 610
events 610
stal@@ 610
umi 610
upstairs 610
youre 610
chil@@ 609
courage 609
let@@ 609
policy 609
by@@ 608
farm 608
func@@ 608
odd 608
di 607
grandmother 607
invol@@ 607
someday 607
wings 607
angle 606
ano 606
conditions 606
explo@@ 606
gie 606
kiri@@ 606
mobile 606
carter 605
citizens 605
counting 605
crisis 605
effective 605
license 605
than@@ 605
competition 604
ick@@ 604
enc@@ 603
glo@@ 603
bound 602
brown 602
grandfather 602
trained 602
again. 601
knock 601
vers 601
wide 601
work. 601
bread 600
protected 600
with@@ 600
colonel 599
fuck@@ 599
greater 599
ker@@ 599
tain 599
babies 598
breathing 598
foreign 598
ham 598
hello. 598
lisbon 598
loc@@ 598
reali@@ 598
trusted 598
ams 597
collect 597
dan 597
grateful 597
mad@@ 597
pet 597
predic@@ 597
charges 596
customers 596
debt 596
nis 596
pra@@ 596
re. 596
spec@@ 596
tan 596
yan@@ 596
expecting 595
mes 595
ology 595
pt 595
shown 595
talks 595
warning 595
adam 594
confirmed 594
considered 594
lun@@ 594
sch@@ 594
setting 594
sherlock 594
tool 594
ished 593
tax 593
zombie 593
airport 592
burned 592
fron@@ 592
ide@@ 592
pen 592
pop 592
steps 592
culprit 591
home. 591
pride 591
appeared 590
clu@@ 590
washington 590
costs 589
kos@@ 589
mari@@ 589
med@@ 589
respon@@ 589
awa@@ 588
bom@@ 588
entered 588
olivia 588
satellite 588
thanks. 588
entrance 587
passing 587
separate 587
technologies 587
baseball 586
blin@@ 586
cles 586
conc@@ 586
pig 586
ples 586
ridiculous 586
vacation 586
var@@ 586
anda 585
concern 585
ected 585
ential 585
units 585
vely 585
ces 584
covering 584
distr@@ 584
fication 584
gene 584
invest@@ 584
laws 584
abandoned 583
hank 583
hardly 583
read@@ 583
ani 582
plastic 582
russian 582
thir@@ 582
ceremony 581
dem@@ 581
good@@ 581
lad@@ 581
lesson 581
parking 581
receive 581
touched 581
at. 580
claire 580
exam@@ 580
fli@@ 580
flow 580
gain 580
investigating 580
materials 580
moves 580
sol@@ 580
sup@@ 580
union 580
fingers 579
low@@ 579
opposite 579
tran@@ 579
develop 578
phil 578
revolution 578
brea@@ 577
dig 577
era 577
ishing 577
lake 577
lim@@ 577
some@@ 577
tony 577
ining 576
jima 576
nick@@ 576
bright 575
paint 575
ound@@ 574
sons 574
false 573
forth 573
gps 573
mister 573
season 573
aining 572
article 572
bob 572
dig@@ 572
drawing 572
reaction 572
sing@@ 572
statement 572
wolf 572
daniel 571
garden 571
oka 571
saul 571
unique 571
workers 571
ak 570
clock 570
explosion 570
signs 570
standard 570
succ@@ 570
terrorist 570
wers 570
abilities 569
buried 569
book@@ 568
duc@@ 568
evol@@ 568
magazine 568
woke 568
buying 567
reports 567
blade 566
bleeding 566
confirm 566
largest 566
mir@@ 566
movies 566
remembered 566
shock 566
confidence 565
direc@@ 565
flash 565
heck 565
mac@@ 565
ref@@ 565
ven 565
facts 564
port@@ 564
richard 564
sus@@ 564
unusual 564
indi@@ 563
indic@@ 563
lack 563
link 563
loo@@ 563
curse 562
finds 562
levels 562
library 562
temperature 562
apped 561
ire 561
mayor 561
pay@@ 561
70 560
alan 560
cheap 560
checking 560
circle 560
class@@ 560
crow@@ 560
disp@@ 560
oi 560
painting 560
pm 560
reas@@ 560
rough 560
sergeant 560
wr@@ 560
charles 559
choices 559
righ@@ 559
sacrifice 559
appro@@ 558
bes 558
childhood 558
just@@ 558
hill 557
math 557
natsume 557
pon@@ 557
shine 557
sul@@ 557
function 556
much. 556
swa@@ 556
usan 556
violent 556
artist 555
contain@@ 555
cs 555
mood 555
nah 555
pleased 555
program@@ 555
robert 555
rub@@ 555
tures 555
ze@@ 555
balance 554
brody 554
cream 554
german 554
ites 554
port 554
aside 553
degrees 553
mother@@ 553
repeat 553
tch 553
extraordinary 552
green@@ 552
hes 552
phase 552
she@@ 552
stock 552
ained 551
cen@@ 551
fishing 551
hos@@ 551
multiple 551
painful 551
tical 551
compet@@ 550
desire 550
detail 550
insane 550
ists 550
joined 550
minds 550
murders 550
negative 550
picking 550
settle 550
spending 550
types 550
worry. 550
arthur 549
beast 549
colleagues 549
eption 549
formed 549
martin 549
museum 549
respond 549
spi@@ 549
apple 548
compared 548
limited 548
stood 548
aches 547
gang 547
grad@@ 547
harm 547
jen@@ 547
oo@@ 547
pla@@ 547
prize 547
puts 547
aid 546
communication 546
entirely 546
mountains 546
placed 546
production 546
understand. 546
cing 545
night@@ 545
unknown 545
ah@@ 544
bay 544
boo@@ 544
chosen 544
convinced 544
customer 544
equal 544
leaders 544
pal 544
ris 544
electricity 542
ented 542
everyday 542
foot@@ 542
jos@@ 542
pper 542
refuse 542
sasuke 542
senior 542
throughout 542
alien 541
bles 541
chip 541
kingdom 541
shots 541
achi 540
ari 540
d.@@ 540
ffs 540
motion 540
que@@ 540
ser 540
shoulder 540
acts 539
depends 539
fleet 539
&apos;all 538
hay@@ 538
waited 538
cker 537
zy 537
ath@@ 536
coat 536
custody 536
parent 536
path@@ 536
questi@@ 536
sexual 536
tommy 536
applause 535
borrow 535
cab@@ 535
eggs 535
mirror 535
papers 535
rat 535
watson 535
bro 534
buildings 534
emotional 534
ri 534
weekend 534
carbon 533
compu@@ 533
ham@@ 533
jesse 533
protec@@ 533
tain@@ 533
ts. 533
awake 532
ext@@ 532
fucked 532
ona 532
ryan 532
defin@@ 531
divorce 531
evolution 531
fer 531
ity. 531
ren 531
riko 531
shit. 531
tied 531
footage 530
identify 530
itation 530
murphy 530
sas@@ 530
sorts 530
status 530
allows 529
celebr@@ 529
medi@@ 529
sisters 529
teen@@ 529
tel 529
tip 529
tos@@ 529
leg@@ 528
mistakes 528
cow 527
cultural 527
grandma 527
half@@ 527
pulling 527
screw 527
six@@ 527
suffer 527
bag@@ 526
dancing 526
hmm. 526
punch 526
smells 526
toward 526
desig@@ 525
echan 525
educ@@ 525
ere 525
score 525
decisions 524
fixed 524
hes@@ 524
pounds 524
travis 524
wire 524
loaded 523
mates 523
previous 523
riding 523
begins 522
coast 522
house@@ 522
inher@@ 522
secon@@ 522
soci@@ 522
to. 522
winning 522
grave 521
kisan 521
moments 521
pilot 521
santa 521
ugly 521
cares 520
imagination 520
infected 520
landing 520
les@@ 520
sports 520
stable 520
beings 519
dollar 519
ful. 519
ick 519
ions 519
jum@@ 519
mal 519
shel@@ 519
stre@@ 519
funeral 518
lift 518
moto 518
produc@@ 518
singing 518
a.@@ 517
helps 517
holmes 517
rent 517
sama 517
talent 517
ur 517
yuu@@ 517
1,000 516
bin@@ 516
ce@@ 516
option 516
region 516
sheriff 516
squad 516
ston 516
technique 516
closing 515
craw@@ 515
invite 515
pec@@ 515
presence 515
shark 515
tests 515
yuki 515
deputy 514
eal 514
ip@@ 514
thing. 514
belongs 513
chemical 513
hou@@ 513
prints 513
sent@@ 513
silly 513
198@@ 512
backup 512
carol 512
deli@@ 512
inger 512
jack@@ 512
survived 512
vor 512
beg 511
con 511
eye@@ 511
ium 511
acking 510
acted 510
background 510
golden 510
pray 510
rude 510
timing 510
boy@@ 509
commit 509
cousin 509
existence 509
bike 508
laptop 508
spy 508
sunday 508
website 508
00@@ 507
90 507
ambulance 507
ath 507
cock@@ 507
march 507
sample 507
senator 507
slide 507
tag@@ 507
wow. 507
ced 506
convince 506
exten@@ 506
lot@@ 506
mul@@ 506
phys@@ 506
prob@@ 506
sakur@@ 506
schedule 506
tend 506
two@@ 506
vin 506
dru@@ 505
pet@@ 505
shared 505
uma 505
ales 504
correc@@ 504
moral 504
roger 504
serving 504
shower 504
tank 504
tem@@ 504
western 504
claim 503
intervie@@ 503
officers 503
temple 503
via 503
hated 502
innovation 502
warrant 502
yers 502
aki@@ 501
bac@@ 501
collection 501
removed 501
sai@@ 501
sand@@ 501
thank@@ 501
wards 501
chu@@ 500
coincidence 500
crystal 500
ess. 500
hearts 500
inten@@ 500
larger 500
smaller 500
apping 499
campaign 499
facebook 499
joy 499
luc@@ 499
wait@@ 499
zaki 499
cover@@ 498
delivery 498
dick 498
firm 498
jealous 498
mode 498
pair 498
wanting 498
aim 497
ato 497
carried 497
did. 497
engineering 497
guards 497
lou@@ 497
onom@@ 497
pol@@ 497
shake 497
uniform 497
ero@@ 496
escaped 496
jason 496
pot 496
seal 496
alarm 495
divi@@ 495
doc@@ 495
fro@@ 495
neur@@ 495
unlike 495
victory 495
academy 494
assu@@ 494
scan@@ 494
spare 494
trigger 494
water@@ 494
celebrate 493
conduc@@ 493
fit@@ 493
limit 493
rela@@ 493
stopping 493
aah 492
are. 492
ation@@ 492
citizen 492
civil 492
contrac@@ 492
fuji@@ 492
jones 492
look. 492
nuts 492
offered 492
shh 492
badly 491
fallen 491
politics 491
sand 491
scott 491
slightly 491
soup 491
tant 491
bers 490
degree 490
products 490
tall 490
ut 490
17@@ 489
billy 489
button 489
counter@@ 489
management 489
models 489
u.@@ 489
whist@@ 489
chasing 488
describe 488
intend 488
messages 488
pret@@ 488
reported 488
studies 488
tissue 488
vampire 488
wre@@ 488
e.@@ 487
gay 487
nam 487
ry@@ 487
silent 487
soft 487
cheese 486
hr 486
individuals 486
lan 486
objects 486
pardon 486
q 486
steel 486
suits 486
yel@@ 486
aming 485
battery 485
lin 485
radi@@ 485
ung 485
yn 485
calcul@@ 484
dean 484
fal@@ 484
genetic 484
notes 484
ski@@ 484
cle@@ 483
dozen 483
id. 483
jac@@ 483
naturally 483
oul@@ 483
play@@ 483
sharp 483
test@@ 483
throat 483
aa 482
dumb 482
ecting 482
exists 482
insul@@ 482
senpai 482
stealing 482
thro@@ 482
bags 481
bie 481
bureau 481
itions 481
nur@@ 481
oxygen 481
yoshi@@ 481
alize 480
cutting 480
repe@@ 480
toilet 480
trapped 480
usion 480
multi@@ 479
nights 479
ops 479
regre@@ 479
sle@@ 479
border 478
brand 478
care@@ 478
chem@@ 478
cope 478
democracy 478
histor@@ 478
ira 478
occu@@ 478
prevent 478
confused 477
fir@@ 477
freak 477
home@@ 477
lock@@ 477
pushed 477
red@@ 477
rings 477
robbery 477
sara 477
stat@@ 477
wheel 477
falls 476
illed 476
atives 475
destruction 475
perspective 475
spac@@ 475
30@@ 474
authority 474
eddie 474
four@@ 474
fra@@ 474
fran@@ 474
mysterious 474
poin@@ 474
significant 474
sugar 474
thief 474
ast 473
clinic 473
invented 473
lish 473
los 473
negoti@@ 473
projects 473
swim 473
911 472
amp 472
bir@@ 472
british 472
detec@@ 472
liber@@ 472
power@@ 472
real@@ 472
spon@@ 472
swe@@ 472
10,000 471
causing 471
hob@@ 471
jacket 471
mexico 471
ow@@ 471
sailor 471
amaz@@ 470
atmosphere 470
bow 470
destiny 470
ener@@ 470
gall@@ 470
houses 470
jacob 470
rick 470
scientist 470
ado@@ 469
basement 469
concept 469
integr@@ 469
phil@@ 469
pure 469
rit@@ 469
samurai 469
suck 469
advance 468
capture 468
deeply 468
elevator 468
embarrassing 468
school@@ 468
teams 468
angel@@ 467
quinn 467
son. 467
tears 467
clean@@ 466
demand 466
jon@@ 466
maria 466
mou@@ 466
tery 466
berg 465
cycle 465
mile 465
ole 465
package 465
tic@@ 465
wherever 465
believes 464
gol@@ 464
magical 464
outta 464
summ@@ 464
wells 464
arrive 463
ax@@ 463
ease 463
emperor 463
mand@@ 463
pain@@ 463
principal 463
separ@@ 463
simul@@ 463
title 463
unt 463
broad@@ 462
gging 462
kawa@@ 462
mercy 462
method 462
random 462
reck@@ 462
rol@@ 462
shor@@ 462
so. 462
vari@@ 462
annoying 461
appearance 461
bak@@ 461
bility 461
ignore 461
pa 461
patrick 461
sharing 461
steve 461
valuable 461
bucks 460
television 460
continu@@ 459
desert 459
downstairs 459
explanation 459
fav@@ 459
patterns 459
sin 459
whis@@ 459
apply 458
employee 458
facing 458
hiv 458
hypo@@ 458
stairs 458
trad@@ 458
drag@@ 457
influence 457
kak@@ 457
sentence 457
waves 457
000 456
alright. 456
emp@@ 456
occurred 456
afghanistan 455
amy 455
blocks 455
drove 455
dur@@ 455
emotions 455
expert 455
lau@@ 455
psy@@ 455
tap@@ 455
yp@@ 455
advis@@ 454
dave 454
decades 454
free@@ 454
hero@@ 454
relevant 454
stea@@ 454
19 453
affair 453
collabor@@ 453
analysis 452
apologi@@ 452
judgment 452
ous@@ 452
prot@@ 452
ras@@ 452
thomas 452
tt 452
clever 451
construc@@ 451
fashion 451
injured 451
pulse 451
rely 451
band@@ 450
ensei 450
grid 450
kuro@@ 450
matsu@@ 450
scare 450
sou@@ 450
ss 450
ures 450
rush 449
16@@ 448
clue 448
creatures 448
flat 448
greg@@ 448
host@@ 448
meter 448
off. 448
prepar@@ 448
provi@@ 448
stands 448
threatened 448
zer@@ 448
cher@@ 447
clients 447
crowd 447
day@@ 447
labor 447
prosecutor 447
rain@@ 447
sales 447
survival 447
ain@@ 446
away. 446
content 446
ese 446
flash@@ 446
ink 446
jimmy 446
mars 446
ough 446
photograph 446
plat@@ 446
sni@@ 446
tes 446
author@@ 445
duction 445
ith 445
mea@@ 445
nsa 445
roy 445
sec 445
akun 444
ancy 444
ate@@ 444
attempt 444
dil@@ 444
genes 444
income 444
ip 444
lover 444
ninja 444
recall 444
smo@@ 444
tear 444
trash 444
accompli@@ 443
appropriate 443
april 443
essentially 443
ichigo 443
ides 443
newspaper 443
sage 443
sig@@ 443
betrayed 442
ds. 442
impressive 442
jam@@ 442
loan 442
perform 442
personality 442
pes 442
skill 442
stop. 442
therapy 442
thetic 442
ution 442
400 441
julia 441
testing 441
three@@ 441
5,000 440
bert 440
hire 440
illness 440
main@@ 440
pizza 440
prisoner 440
sensitive 440
.&apos; 439
ank 439
bishop 439
contribu@@ 439
electric 439
graduate 439
naked 439
suppor@@ 439
viol@@ 439
vir@@ 439
whit@@ 439
zuki 439
after@@ 438
cbi 438
charged 438
climb 438
contr@@ 438
elementary 438
experienced 438
finger@@ 438
ised 438
kins 438
las 438
ym@@ 438
yup 438
zer 438
b. 437
ey@@ 437
gates 437
headquarters 437
heh 437
importantly 437
manga 437
ment@@ 437
prin@@ 437
silence 437
sweetie 437
throwing 437
box@@ 436
compassion 436
ella 436
fed 436
lend 436
lev@@ 436
profile 436
recru@@ 436
regu@@ 436
session 436
survi@@ 436
sweets 436
friendly 435
gran@@ 435
gul@@ 435
lt 435
py@@ 435
rever@@ 435
tically 435
urban 435
assault 434
avo@@ 434
cloud 434
daily 434
ik@@ 434
invisible 434
kni@@ 434
lef@@ 434
lum 434
motherfucker 434
murder@@ 434
selfish 434
studied 434
suspects 434
ted@@ 434
13@@ 433
alibi 433
aling 433
bury 433
friday 433
him@@ 433
mond 433
nov@@ 433
passion 433
regarding 433
rupt 433
strang@@ 433
synchro 433
budd@@ 432
confess 432
fat@@ 432
pathetic 432
recei@@ 432
absor@@ 431
ame 431
bacteria 431
compl@@ 431
creative 431
examples 431
fresh@@ 431
traditional 431
unable 431
xi@@ 431
yourselves 431
bran@@ 430
causes 430
considering 430
fis@@ 430
ght. 430
hospit@@ 430
jec@@ 430
kicked 430
lands 430
sens@@ 430
stream 430
surrounded 430
vac@@ 430
1.@@ 429
extreme 429
partners 429
yamato 429
1,@@ 428
23 428
aur@@ 428
aw 428
communities 428
devices 428
engaged 428
exec@@ 428
own@@ 428
pier@@ 428
ski 428
sleep@@ 428
tyler 428
woo@@ 428
arts 427
candy 427
cats 427
confident 427
deci@@ 427
doub@@ 427
emily 427
engage 427
homicide 427
iness 427
nightmare 427
youth 427
adap@@ 426
anim@@ 426
attitude 426
ek 426
hea@@ 426
inlaw 426
jer@@ 426
kills 426
unk 426
worker 426
ann@@ 425
ban 425
bug 425
buil@@ 425
chances 425
discover 425
explos@@ 425
follo@@ 425
full@@ 425
germany 425
madam 425
master@@ 425
phi@@ 425
punishment 425
pupp@@ 425
toy 425
dres@@ 424
inner 424
marine 424
morning. 424
slept 424
walt 424
conscious 423
focused 423
gers 423
mmm 423
reward 423
temp@@ 423
antly 422
dome 422
engineer 422
essing 422
guarantee 422
highest 422
identified 422
jud@@ 422
liver 422
shield 422
stics 422
windows 422
basis 421
continued 421
exam 421
fields 421
fruit 421
maid 421
ods 421
writer 421
abe 420
arri@@ 420
chaos 420
communicate 420
crown 420
dom@@ 420
egg 420
stab@@ 420
tering 420
tongue 420
bott@@ 419
connec@@ 419
izing 419
jedi 419
northern 419
onic 419
pin 419
py 419
tour 419
ako 418
consider@@ 418
ening 418
fundamental 418
hair@@ 418
heal 418
heroes 418
internal 418
remo@@ 418
traveling 418
xing 418
year@@ 418
yl@@ 418
ans@@ 417
comb@@ 417
corpor@@ 417
crack 417
fying 417
handsome 417
hits 417
icians 417
instruc@@ 417
mark@@ 417
night. 417
simon 417
wit@@ 417
wounds 417
captured 416
cked 416
coach 416
conflict 416
dest 416
intention 416
previously 416
psycho@@ 416
sign@@ 416
desperate 415
ison 415
physics 415
relationships 415
sakura 415
yep 415
adults 414
eaten 414
elli@@ 414
flesh 414
haru@@ 414
hide@@ 414
inde@@ 414
resi@@ 414
rolling 414
sav@@ 414
solid 414
underground 414
archi@@ 413
exposed 413
gohan 413
kevin 413
spider 413
true. 413
yas@@ 413
yos@@ 413
14@@ 412
50@@ 412
acti@@ 412
admir@@ 412
aga 412
are@@ 412
graph 412
hook 412
juice 412
linda 412
pum@@ 412
requ@@ 412
ruined 412
safely 412
sides 412
visitors 412
wet 412
assi@@ 411
be. 411
bee 411
guests 411
kidnapped 411
kyle 411
lisa 411
set@@ 411
short@@ 411
sport 411
stranger 411
theater 411
advanced 410
argument 410
foundation 410
parti@@ 410
sal 410
screaming 410
smoking 410
tickets 410
ble. 409
cast 409
dated 409
dish@@ 409
drinks 409
exercise 409
exit 409
illa 409
medic@@ 409
remaining 409
romantic 409
scan 409
tacti@@ 409
voices 409
compli@@ 408
decade 408
econom@@ 408
kie 408
rows 408
rum@@ 408
tens 408
top@@ 408
wealth 408
achieve 407
bli@@ 407
connor 407
hurting 407
nes 407
person@@ 407
poverty 407
souls 407
stand@@ 407
ap 406
behavi@@ 406
experiments 406
fingerprints 406
itude 406
jumped 406
morgan 406
perc@@ 406
recorded 406
saturday 406
seek 406
serial 406
stabbed 406
summoned 406
activ@@ 405
batt@@ 405
beating 405
blew 405
cemetery 405
doll 405
frame 405
fund 405
laid 405
returning 405
revol@@ 405
usive 405
addic@@ 404
association 404
ination 404
pea@@ 404
pie 404
promo@@ 404
required 404
tons 404
wid@@ 404
alert 403
anytime 403
channel 403
continues 403
expression 403
guar@@ 403
hus@@ 403
ided 403
king@@ 403
nelson 403
rus@@ 403
sab@@ 403
smith 403
unexpected 403
absolute 402
bedroom 402
bullets 402
discus@@ 402
distur@@ 402
hopefully 402
kel@@ 402
kok@@ 402
legend 402
maker 402
turing 402
ugh@@ 402
alice 401
ara 401
archit@@ 401
bang 401
confi@@ 401
danc@@ 401
drag 401
fancy 401
instance 401
ora 401
rein@@ 401
biology 400
capacity 400
champion 400
column 400
crit@@ 400
differently 400
heal@@ 400
ket 400
necessarily 400
pushing 400
radiation 400
recording 400
skull 400
zu 400
dness 399
flag 399
harry 399
haru 399
joking 399
kom@@ 399
soil 399
valley 399
wind@@ 399
22 398
budget 398
geor@@ 398
graphy 398
holds 398
royal 398
today. 398
21 397
adv@@ 397
ase 397
av@@ 397
bear@@ 397
boo 397
chee@@ 397
gee 397
haha 397
mp 397
over. 397
songs 397
wishes 397
197@@ 396
artificial 396
asks 396
carl 396
chicago 396
drone 396
encing 396
expl@@ 396
motive 396
oul 396
rup@@ 396
servant 396
spoken 396
ted. 396
accepted 395
alex@@ 395
alty 395
atically 395
crow 395
guessing 395
nasty 395
priority 395
profit 395
r. 395
sel 395
sites 395
wee@@ 395
appointment 394
benefit 394
ette 394
fairly 394
grac@@ 394
indian 394
inspector 394
operations 394
piano 394
pink 394
reasonable 394
rocket 394
root 394
upper 394
whats 394
delivered 393
disaster 393
nest 393
oli@@ 393
sale 393
bi 392
blast 392
defend 392
fic@@ 392
guys. 392
homework 392
inj@@ 392
iya 392
larry 392
plays 392
programs 392
remarkable 392
requires 392
revi@@ 392
shell 392
dust 391
galaxy 391
holes 391
ignor@@ 391
nearby 391
planted 391
reputation 391
warn 391
beth 390
happen@@ 390
ization 390
jim@@ 390
johnny 390
ption 390
reli@@ 390
remote 390
resistance 390
suffered 390
vation 390
yan 390
carri@@ 389
human@@ 389
kate 389
marie 389
michi@@ 389
published 389
then. 389
values 389
argue 388
assassin@@ 388
cant 388
dawn 388
documents 388
enormous 388
investment 388
rene@@ 388
ses@@ 388
specifically 388
north@@ 387
od 387
stops 387
trou@@ 387
worthy 387
35 386
accid@@ 386
comfort 386
express 386
fon@@ 386
fractu@@ 386
gic 386
golgo 386
lic 386
ouch 386
something. 386
wayne 386
1st 385
bon 385
boxes 385
cell@@ 385
garage 385
gn@@ 385
homes 385
ishi@@ 385
mothers 385
open@@ 385
privacy 385
refu@@ 385
sick@@ 385
surprising 385
approaching 384
boston 384
cand@@ 384
crossed 384
essed 384
ests 384
flies 384
need@@ 384
nin@@ 384
ruin 384
sher@@ 384
stration 384
appe@@ 383
brief 383
determined 383
electro@@ 383
guide 383
hong 383
ica 383
monitor 383
staring 383
struck 383
struggle 383
ultimate 383
addition 382
autopsy 382
brief@@ 382
chloe 382
deal@@ 382
eric 382
gear 382
ility 382
players 382
rumors 382
surgeon 382
affect 381
bad@@ 381
burst 381
cruel 381
derek 381
entering 381
gordon 381
require 381
ry. 381
smar@@ 381
swal@@ 381
ahh 380
amanda 380
anything. 380
bees 380
begun 380
completed 380
discovery 380
experim@@ 380
hitting 380
host 380
ila 380
latest 380
ld 380
replace 380
servation 380
sume 380
angels 379
branch 379
casu@@ 379
colors 379
friendship 379
governments 379
improve 379
religion 379
tournament 379
transport 379
alpha 378
essa 378
ikun 378
lers 378
symptoms 378
wom@@ 378
determine 377
fairy 377
introduced 377
pick@@ 377
warehouse 377
wheel@@ 377
agreement 376
creature 376
diagnos@@ 376
pois@@ 376
quick@@ 376
sented 376
attached 375
belt 375
england 375
pete 375
smiling 375
tumor 375
visu@@ 375
cleared 374
frankly 374
iraq 374
ke. 374
luke 374
maintain 374
nasa 374
photo@@ 374
tality 374
tin 374
witnesses 374
ceo 373
consequences 373
estate 373
itate 373
king. 373
knight 373
kyo@@ 373
muscle 373
neuro@@ 373
pressed 373
worrying 373
ads 372
amb@@ 372
aries 372
convic@@ 372
diet 372
edly 372
kas@@ 372
mix 372
oto 372
storage 372
thum@@ 372
twenty 372
anded 371
dimen@@ 371
graph@@ 371
ign@@ 371
jutsu 371
majesty 371
panic 371
persu@@ 371
say@@ 371
server 371
bey 370
ep 370
fold 370
heart@@ 370
mathemat@@ 370
nations 370
neighbors 370
reporter 370
spiritual 370
tes@@ 370
800 369
asia 369
ater 369
bang@@ 369
blood@@ 369
boar@@ 369
efficient 369
graham 369
lec@@ 369
plea@@ 369
produced 369
rumor 369
solutions 369
thrown 369
yusei 369
beli@@ 368
colleague 368
cross@@ 368
gawa 368
helicopter 368
i.@@ 368
lifetime 368
magnetic 368
misa@@ 368
refer@@ 368
sis 368
treating 368
tress 368
x. 368
abo@@ 367
accounts 367
african 367
anne 367
atlan@@ 367
blan@@ 367
burden 367
bush 367
commercial 367
confir@@ 367
dai 367
discipl@@ 367
enting 367
gel@@ 367
joint 367
junk 367
lion@@ 367
oring 367
sie 367
stan 367
tries 367
vul@@ 367
a.m. 366
drawn 366
drew 366
elle 366
hip 366
hiro 366
kai@@ 366
reduce 366
sector 366
transferred 366
unbelievable 366
24@@ 365
alcohol 365
dead. 365
election 365
marty 365
nee@@ 365
pissed 365
sof@@ 365
somewhat 365
sors 365
swimming 365
tails 365
alo@@ 364
criminals 364
deeper 364
drama 364
gary 364
injury 364
located 364
mechan@@ 364
micros@@ 364
mouse 364
preparing 364
stati@@ 364
zo 364
brush 363
compar@@ 363
controlled 363
ction 363
eda 363
hammer 363
innov@@ 363
int 363
manipul@@ 363
palace 363
shi 363
sometime 363
typical 363
weakness 363
ald 362
atten@@ 362
cket 362
concentr@@ 362
err@@ 362
fab@@ 362
gentleman 362
imp@@ 362
jordan 362
motiv@@ 362
screwed 362
ther. 362
bride 361
dar 361
diseases 361
eable 361
gus 361
habit 361
swit@@ 361
wed@@ 361
wn@@ 361
wrong. 361
27 360
activities 360
bel 360
cheers 360
combination 360
context 360
dropping 360
garbage 360
graphic 360
instructions 360
neg@@ 360
som@@ 360
strongest 360
tax@@ 360
tz 360
zar@@ 360
attrac@@ 359
bean 359
chat@@ 359
custom@@ 359
dest@@ 359
enced 359
haw@@ 359
intu@@ 359
itable 359
knees 359
rising 359
spirits 359
tag 359
todd 359
alec 358
algorith@@ 358
ared 358
handed 358
hunter 358
long@@ 358
neighbor 358
options 358
organized 358
vas@@ 358
bored 357
digging 357
hydro@@ 357
midnight 357
presid@@ 357
pressing 357
satisfied 357
sexy 357
t.@@ 357
tunnel 357
c. 356
cooperation 356
counsel@@ 356
frequ@@ 356
kit 356
sets 356
syl@@ 356
arrow 355
bow@@ 355
eri@@ 355
foun@@ 355
gical 355
rabbit 355
religious 355
samples 355
south@@ 355
troops 355
twitter 355
ago. 354
ament 354
drow@@ 354
fan@@ 354
hydr@@ 354
primary 354
stop@@ 354
weir@@ 354
wisdom 354
compare 353
great@@ 353
imagined 353
minute. 353
nonsense 353
originally 353
part@@ 353
rope 353
samaritan 353
susan 353
vement 353
zombies 353
classroom 352
dump 352
fast@@ 352
fraud 352
guy. 352
mem@@ 352
rome 352
sequ@@ 352
demonstr@@ 351
die@@ 351
fever 351
fried 351
ryo@@ 351
sen 351
surrender 351
yet. 351
assure 350
babe 350
counter 350
county 350
emails 350
enough. 350
explained 350
god@@ 350
guardian 350
house. 350
inspired 350
money. 350
narr@@ 350
raising 350
recomm@@ 350
sacred 350
settled 350
treat@@ 350
winter@@ 350
worlds 350
aria 349
arily 349
dealer 349
electrical 349
flat@@ 349
fox 349
frustr@@ 349
hostage 349
satis@@ 349
sean 349
step@@ 349
aru 348
authorities 348
connections 348
constantly 348
database 348
done. 348
fe 348
foster 348
hack 348
helpful 348
intelligent 348
ums 348
utionary 348
vigil@@ 348
2,000 347
acquain@@ 347
affairs 347
agre@@ 347
angeles 347
berry 347
chat 347
explor@@ 347
pages 347
participate 347
stres@@ 347
struc@@ 347
tested 347
actor 346
anniversary 346
ao@@ 346
defeated 346
disgusting 346
injuries 346
ts@@ 346
uh@@ 346
vaccine 346
deny 345
depen@@ 345
freeze 345
gathered 345
log 345
nail 345
rachel 345
ram 345
sum@@ 345
tai@@ 345
tane@@ 345
wallet 345
aaron 344
alities 344
attend 344
bia 344
busin@@ 344
butter@@ 344
convenience 344
demo@@ 344
faced 344
gathering 344
gies 344
kn@@ 344
liv@@ 344
pity 344
quote 344
shortly 344
snake 344
train@@ 344
wan 344
writ@@ 344
bastards 343
brian 343
challenges 343
clar@@ 343
consu@@ 343
dr 343
earn 343
ence. 343
foolish 343
gene@@ 343
ior 343
itors 343
ound 343
small@@ 343
terrorists 343
winner 343
afterwards 342
damaged 342
discussion 342
dor 342
ethan 342
practi@@ 342
recover 342
roads 342
shy 342
underneath 342
bb@@ 341
biological 341
characters 341
come@@ 341
corporate 341
lincoln 341
side@@ 341
succeed 341
swords 341
chri@@ 340
combat 340
come. 340
dings 340
empire 340
expec@@ 340
miz@@ 340
nypd 340
ost 340
tha 340
tracks 340
entry 339
flew 339
gym 339
limits 339
ultimately 339
vast 339
alist 338
answered 338
auto@@ 338
blon@@ 338
bruce 338
chips 338
committee 338
decent 338
declar@@ 338
dispos@@ 338
nec@@ 338
people. 338
scratch 338
threatening 338
toler@@ 338
v. 338
volunte@@ 338
zi@@ 338
&amp; 337
baby. 337
cool@@ 337
ece 337
ice. 337
industrial 337
lightning 337
loving 337
pretending 337
slave 337
studio 337
user 337
abuse 336
cheating 336
fence 336
genome 336
gos 336
grant 336
officially 336
relieved 336
rou@@ 336
snow@@ 336
therap@@ 336
added 335
architecture 335
bowl 335
cabin 335
cent 335
feeding 335
france 335
francisco 335
generations 335
kic@@ 335
lessons 335
neurons 335
scho@@ 335
tragedy 335
umin@@ 335
una 335
acqui@@ 334
apar@@ 334
bum@@ 334
confession 334
driven 334
edo 334
frag@@ 334
ounding 334
popul@@ 334
reminds 334
sticks 334
william 334
belief 333
crush 333
diplom@@ 333
firing 333
gon@@ 333
gray 333
intro@@ 333
mm. 333
problem. 333
represent 333
yl 333
ashed 332
compon@@ 332
diversity 332
emotion 332
goods 332
ideal 332
interc@@ 332
knocked 332
late. 332
lation 332
parties 332
proceed 332
quarter 332
relative 332
rob 332
sequence 332
targets 332
taxi 332
tiger 332
usi@@ 332
wipe 332
alli@@ 331
ars 331
asp@@ 331
dead@@ 331
drill 331
omi 331
shrine 331
uno 331
accep@@ 330
blown 330
chased 330
concentrate 330
danger@@ 330
dence 330
extrac@@ 330
gar 330
gle 330
hid 330
horses 330
impressed 330
independent 330
laurel 330
lucy 330
oka@@ 330
operate 330
orange 330
particip@@ 330
reverse 330
sealed 330
thers 330
tual 330
wif@@ 330
ashamed 329
atory 329
dad. 329
disappointed 329
duced 329
eigh@@ 329
elizabeth 329
environmental 329
fascinating 329
gentle 329
granted 329
jok@@ 329
jury 329
messed 329
needle 329
offering 329
tained 329
will. 329
bad. 328
begging 328
clin@@ 328
ddy 328
deaths 328
explore 328
inn 328
jewel@@ 328
merely 328
protocol 328
rais@@ 328
sacrific@@ 328
stays 328
terri@@ 328
anonymous 327
eva 327
fu 327
leadership 327
life. 327
mini@@ 327
mixed 327
monday 327
mot@@ 327
pile 327
rie 327
safer 327
scylla 327
shou@@ 327
tradition 327
victor 327
3d 326
alization 326
ant. 326
barrier 326
bond 326
conclusion 326
curry 326
differences 326
dit@@ 326
door@@ 326
estimate 326
evolved 326
fear@@ 326
fee@@ 326
hates 326
iss 326
okun 326
take@@ 326
tless 326
vag@@ 326
coul@@ 325
devo@@ 325
gger 325
hei@@ 325
plac@@ 325
planets 325
saf@@ 325
scream 325
script 325
ys. 325
assuming 324
cancel@@ 324
efforts 324
embarrassed 324
fits 324
grass 324
isa@@ 324
majority 324
manu@@ 324
mum@@ 324
naz@@ 324
pose 324
ric 324
taka@@ 324
wasting 324
classes 323
daughters 323
disgu@@ 323
engagement 323
enjoying 323
idiots 323
institutions 323
m.@@ 323
reveal 323
rot 323
seed 323
sett@@ 323
shelter 323
tum@@ 323
wood@@ 323
billions 322
cleaned 322
complain@@ 322
cooperate 322
eastern 322
eleph@@ 322
ja 322
mach@@ 322
opens 322
precisely 322
sket@@ 322
stin@@ 322
affected 321
cans 321
chr@@ 321
definition 321
faul@@ 321
frozen 321
gos@@ 321
kochan 321
misunderstanding 321
ph 321
replac@@ 321
supplies 321
whore 321
dinos@@ 320
listen. 320
obsessed 320
refused 320
trail 320
actu@@ 319
aper 319
assem@@ 319
car. 319
chakra 319
comr@@ 319
conver@@ 319
goo@@ 319
hiro@@ 319
intended 319
ired 319
marcus 319
num@@ 319
old@@ 319
organs 319
piss 319
repair 319
signals 319
technically 319
32 318
adventure 318
banks 318
breaks 318
bud@@ 318
catching 318
deb@@ 318
dumped 318
gab@@ 318
governor 318
i.d. 318
infrastructure 318
ols 318
ply 318
seats 318
traitor 318
walks 318
week@@ 318
wondered 318
ashima 317
collecting 317
impression 317
movements 317
patty 317
pills 317
rep@@ 317
swing 317
verse 317
vy 317
bitter 316
det@@ 316
downtown 316
editor 316
experiences 316
football 316
intel 316
matches 316
noti@@ 316
pear@@ 316
pole 316
ray@@ 316
russia 316
ville 316
andre@@ 315
belly 315
closely 315
conqu@@ 315
coward 315
distribu@@ 315
doug 315
eman 315
encour@@ 315
ier 315
jet 315
nikita 315
overlay 315
pir@@ 315
tance 315
ugh 315
uti@@ 315
ab 314
classic 314
differ@@ 314
dreaming 314
fred 314
increased 314
ine. 314
string 314
suff@@ 314
tate 314
tone 314
26 313
acker 313
aded 313
age. 313
cardi@@ 313
closest 313
corpse 313
dirt 313
efs 313
gap 313
geo@@ 313
hyper@@ 313
liter@@ 313
photograph@@ 313
retri@@ 313
separated 313
supreme 313
victor@@ 313
visiting 313
zard 313
elements 312
fru@@ 312
help. 312
hopes 312
huh. 312
igh@@ 312
measu@@ 312
novel 312
orable 312
puzzle 312
rebel@@ 312
remember@@ 312
representative 312
stored 312
vers@@ 312
visited 312
bat 311
corporation 311
creepy 311
graveyard 311
gy@@ 311
hiko 311
okie 311
shing 311
thesis 311
youn@@ 311
archer 310
argu@@ 310
ashes 310
broadcast 310
debate 310
diamond 310
happ@@ 310
hikari 310
interrup@@ 310
jin@@ 310
mind@@ 310
nings 310
ots 310
peaceful 310
raw 310
ready. 310
severe 310
shit@@ 310
someplace 310
stake 310
travel@@ 310
collapse 309
divorced 309
ept 309
gin 309
height 309
lik@@ 309
ounds 309
ox@@ 309
rence 309
thless 309
too@@ 309
uto 309
contacted 308
creates 308
dered 308
lars 308
lis@@ 308
para@@ 308
recommend 308
recovery 308
sources 308
tele@@ 308
usa 308
aliens 307
answering 307
beauti@@ 307
coordinates 307
deserves 307
fare 307
flu 307
harvard 307
launched 307
lawyers 307
makeup 307
pointed 307
salt 307
spee@@ 307
warming 307
will@@ 307
150 306
andy 306
ession 306
fus@@ 306
guitar 306
issu@@ 306
oko 306
ories 306
permanent 306
pit 306
planes 306
sakuragi 306
slip 306
sno@@ 306
terribly 306
annie 305
artists 305
believing 305
circu@@ 305
clan 305
gins 305
idi@@ 305
ington 305
item 305
june 305
ochan 305
recognized 305
tion. 305
torture 305
trunk 305
urgent 305
20th 304
alternative 304
bin 304
carol@@ 304
ding. 304
discre@@ 304
maggie 304
organizations 304
quietly 304
technical 304
transform 304
treas@@ 304
100,000 303
abandon 303
bly 303
cage 303
cap 303
cent@@ 303
decor@@ 303
drives 303
eting 303
ex 303
grief 303
jerk 303
perimeter 303
procedure 303
reporting 303
stair@@ 303
swor@@ 303
theme 303
tremendous 303
bars 302
behalf 302
chim@@ 302
classified 302
institute 302
rand@@ 302
spin@@ 302
suggests 302
symbol 302
yor@@ 302
agawa 301
creation 301
dison 301
entrepre@@ 301
icked 301
include 301
milli@@ 301
networks 301
pd 301
piccolo 301
pig@@ 301
plu@@ 301
provided 301
rab@@ 301
slipped 301
stron@@ 301
tis 301
48 300
99 300
anthro@@ 300
bum 300
cab 300
coordin@@ 300
frequency 300
fted 300
healing 300
hung 300
paral@@ 300
predict 300
slu@@ 300
toast 300
tricks 300
unnecessary 300
ured 300
ves@@ 300
ala 299
brigh@@ 299
cali@@ 299
chester 299
demon@@ 299
denti@@ 299
embassy 299
error 299
even@@ 299
homeland 299
kilometers 299
lings 299
meantime 299
musli@@ 299
principle 299
sever@@ 299
teen 299
uke 299
whoa. 299
wins 299
activated 298
ander 298
benefits 298
elled 298
fights 298
golf 298
ians 298
jel@@ 298
joining 298
journ@@ 298
listened 298
messing 298
miserable 298
odds 298
suggesting 298
cliff 297
coff@@ 297
described 297
destro@@ 297
ib@@ 297
jay 297
markets 297
missi@@ 297
miy@@ 297
owned 297
platform 297
sna@@ 297
tale 297
worries 297
appreci@@ 296
cameron 296
develop@@ 296
docum@@ 296
floating 296
hannibal 296
highness 296
lester 296
locate 296
meetings 296
miya 296
ome 296
partner@@ 296
shore 296
snea@@ 296
sucks 296
testimony 296
ains 295
asset 295
cancel 295
convenient 295
face@@ 295
invitation 295
karen 295
motor 295
questioning 295
rel 295
rescu@@ 295
rocks 295
room@@ 295
sia 295
sustainable 295
sweat 295
telephone 295
ushing 295
warned 295
wns 295
badge 294
beside 294
blog 294
boom 294
bothering 294
colon@@ 294
comman@@ 294
dear@@ 294
feather 294
habit@@ 294
immediate 294
inform@@ 294
jes@@ 294
korea 294
mankind 294
mas 294
noisy 294
opportunities 294
otic 294
pack@@ 294
packed 294
radar 294
steady 294
temporary 294
together. 294
ump 294
uncomfortable 294
valve 294
videos 294
apology 293
aye 293
beans 293
consum@@ 293
controls 293
d.c. 293
encryp@@ 293
inno@@ 293
interests 293
key@@ 293
nerve 293
organ@@ 293
poss@@ 293
suc@@ 293
youtube 293
atures 292
bank@@ 292
cast@@ 292
dom 292
et. 292
heav@@ 292
mitted 292
narrow 292
reha@@ 292
rian 292
trials 292
uk@@ 292
ul 292
wars 292
zawa 292
bra 291
cable 291
congress 291
ensive 291
gist 291
gravity 291
hobby 291
ishi 291
ject 291
landed 291
mmhmm 291
mount 291
near@@ 291
ono 291
overcome 291
plain 291
sam@@ 291
seri@@ 291
shir@@ 291
shoe 291
touching 291
600 290
aboard 290
accused 290
cakes 290
carto@@ 290
categ@@ 290
chad 290
collected 290
ddle 290
flame 290
fos@@ 290
gard@@ 290
hacked 290
ju 290
mistaken 290
p.@@ 290
patent 290
peri@@ 290
ring@@ 290
signature 290
southern 290
arre@@ 289
body. 289
charity 289
chy 289
cock 289
dale 289
factor 289
hour@@ 289
identally 289
kidnapping 289
logical 289
magn@@ 289
relations 289
tattoo 289
ty. 289
75 288
age@@ 288
agers 288
alists 288
applied 288
co2 288
constitu@@ 288
ems 288
eton 288
fighter 288
friend. 288
gang@@ 288
gau@@ 288
iris 288
kong 288
locker 288
ological 288
organic 288
prisoners 288
smel@@ 288
sugi@@ 288
suspected 288
symbo@@ 288
tac@@ 288
virtual 288
wild@@ 288
wy@@ 288
zzy 288
arch@@ 287
awkward 287
boy. 287
gest 287
identi@@ 287
isa 287
kle 287
lance 287
lane 287
laser 287
legendary 287
mrs 287
nels 287
og@@ 287
prescri@@ 287
rag@@ 287
republic 287
toni@@ 287
tooth 287
twins 287
unfortunate 287
vegeta 287
veri@@ 287
arm@@ 286
ate. 286
butt 286
contest 286
corn 286
description 286
esa 286
european 286
friend@@ 286
ille 286
iran 286
loser 286
nia 286
onally 286
owen 286
realm 286
red. 286
ryu@@ 286
sak@@ 286
sandwich 286
sim@@ 286
takun 286
territory 286
versus 286
witches 286
brother@@ 285
c.@@ 285
cook@@ 285
esting 285
heshe 285
hoo@@ 285
ises 285
len 285
ment. 285
modi@@ 285
ough@@ 285
poly@@ 285
possible. 285
really. 285
risks 285
self. 285
shining 285
squee@@ 285
tural 285
ush 285
wrapped 285
196@@ 284
alia 284
brazil 284
creativity 284
dering 284
dimensional 284
dragged 284
fiction 284
iri@@ 284
labs 284
lows 284
methods 284
neutr@@ 284
olo@@ 284
password 284
pervert 284
phili@@ 284
pref@@ 284
reaching 284
smooth 284
sounded 284
survivors 284
technolo@@ 284
terrorism 284
texas 284
topic 284
tor. 284
wasted 284
28 283
anticip@@ 283
arian 283
dana 283
deep@@ 283
dson 283
ef@@ 283
explains 283
fem@@ 283
idea. 283
inch 283
kings 283
mari 283
phenomenon 283
powered 283
protein 283
room. 283
shrin@@ 283
spir@@ 283
sti@@ 283
stimul@@ 283
terror 283
tsun@@ 283
vibr@@ 283
yon 283
accurate 282
aiz@@ 282
andrew 282
ased 282
assistance 282
cave 282
cried 282
eved 282
ich 282
influ@@ 282
lucas 282
melon 282
moti@@ 282
personnel 282
registered 282
stu 282
traces 282
trauma 282
curren@@ 281
cursed 281
disorder 281
executive 281
fathers 281
informed 281
liquid 281
locks 281
lux@@ 281
min 281
oner 281
philosoph@@ 281
psychic 281
requested 281
stem 281
sue 281
tastes 281
usions 281
wilson 281
won@@ 281
wrap 281
attacking 280
borrowed 280
chemistry 280
cus 280
despair 280
dvd 280
gree@@ 280
ind 280
kazu@@ 280
mitsu@@ 280
nathan 280
place. 280
politicians 280
possibilities 280
pro 280
recovered 280
sei@@ 280
sor 280
sum 280
ular 280
yoshi 280
appl@@ 279
awasan 279
bed@@ 279
brennan 279
clothing 279
dat@@ 279
dates 279
designer 279
emma 279
experts 279
gdp 279
happily 279
kenny 279
ousy 279
patience 279
pied 279
som 279
successfully 279
synchr@@ 279
thus 279
u. 279
abroad 278
accomp@@ 278
asa 278
beef 278
closet 278
dium 278
document 278
engineers 278
honey@@ 278
louis 278
loyalty 278
manufacturing 278
net@@ 278
particles 278
rape 278
relief 278
sanc@@ 278
structures 278
tful 278
chen 277
depending 277
fortun@@ 277
freaking 277
impl@@ 277
jung 277
linked 277
nope 277
reference 277
suggesti@@ 277
taylor 277
wis@@ 277
abigail 276
clinical 276
colum@@ 276
cooper 276
depend 276
der. 276
feds 276
fic 276
florida 276
heaven@@ 276
invest 276
nett 276
outsi@@ 276
quantum 276
rounds 276
serves 276
tempor@@ 276
whwhat 276
3rd 275
aids 275
alle@@ 275
asensei 275
atoes 275
demons 275
dive 275
farmers 275
intense 275
joon 275
rational 275
regards 275
september 275
vulnerable 275
add@@ 274
ashing 274
bal 274
cence 274
depression 274
embe@@ 274
essential 274
expan@@ 274
increasing 274
inspection 274
lang@@ 274
lap@@ 274
o.@@ 274
rider 274
sneak 274
stric@@ 274
surpri@@ 274
transpar@@ 274
yone. 274
breast 273
dam 273
eral 273
existed 273
fortunately 273
inct 273
ingredi@@ 273
navi@@ 273
patri@@ 273
positi@@ 273
purpos@@ 273
rats 273
socalled 273
superior 273
teddy 273
akin 272
backs 272
campus 272
check@@ 272
conspiracy 272
destroying 272
dynamic 272
ender 272
enterprise 272
ggle 272
hang@@ 272
harvest 272
lips 272
more. 272
mush@@ 272
pap@@ 272
roman@@ 272
umm 272
vill@@ 272
bull@@ 271
erm 271
ever. 271
invasion 271
laugh@@ 271
molecules 271
notion 271
october 271
owns 271
pitch 271
practically 271
scar 271
sci@@ 271
shocked 271
ster. 271
stones 271
stup@@ 271
tali@@ 271
thea 271
wounded 271
abled 270
blowing 270
chap@@ 270
chess 270
cyber@@ 270
domestic 270
ellen 270
enjoyed 270
kyoto 270
pace 270
photographs 270
speaker 270
teles@@ 270
vege@@ 270
xed 270
ae 269
allo@@ 269
beaten 269
chamber 269
dele@@ 269
difficul@@ 269
dney 269
el. 269
evalu@@ 269
fort 269
implic@@ 269
landscape 269
mill 269
proposal 269
r2 269
rhyth@@ 269
sauce 269
senses 269
societies 269
strangers 269
sumi 269
suz@@ 269
tap 269
tril@@ 269
warren 269
bid 268
claims 268
collapsed 268
corruption 268
ective 268
hoped 268
horiz@@ 268
humili@@ 268
interrupt 268
matt 268
painted 268
pis@@ 268
posted 268
subjects 268
thirty 268
ake 267
akes 267
arranged 267
astro@@ 267
betray 267
bills 267
bis@@ 267
civilization 267
clouds 267
deni@@ 267
embrace 267
essi@@ 267
estimated 267
expedition 267
funds 267
halfway 267
hospitals 267
kelly 267
nice. 267
ny. 267
plot 267
poisoned 267
pregn@@ 267
rainbow 267
replic@@ 267
sed. 267
sert 267
system@@ 267
vehicles 267
vessel 267
cheer 266
cigarette 266
determin@@ 266
earthquake 266
formal 266
generate 266
grounds 266
here@@ 266
il. 266
offense 266
progres@@ 266
skel@@ 266
spanish 266
subway 266
thly 266
vil@@ 266
2nd 265
50,000 265
ache 265
alism 265
ancestors 265
antarctica 265
apers 265
assment 265
aya 265
cros@@ 265
detectives 265
figures 265
ima@@ 265
laughs 265
mirac@@ 265
preven@@ 265
shira@@ 265
sins 265
twin 265
yamasan 265
aled 264
amine 264
delta 264
finance 264
gil@@ 264
hal 264
infection 264
insects 264
job. 264
lily 264
motor@@ 264
nap 264
sist@@ 264
tial 264
vel 264
zoe 264
2.@@ 263
akisan 263
bust 263
centuries 263
concrete 263
drank 263
faction 263
foo@@ 263
gram 263
gut 263
iding 263
inform 263
ints 263
items 263
lad 263
maj@@ 263
mighty 263
positions 263
teries 263
abel 262
assigned 262
atom@@ 262
australia 262
beg@@ 262
bombs 262
communications 262
escap@@ 262
escort 262
ey. 262
hers 262
iko 262
julian 262
missile 262
mly 262
smarter 262
suke 262
tim 262
try@@ 262
agger@@ 261
alley 261
anth@@ 261
chef 261
chro@@ 261
clone 261
esthe@@ 261
excit@@ 261
madoka 261
mia 261
mr@@ 261
oldest 261
pe. 261
possession 261
reiko 261
review 261
sour@@ 261
tedly 261
usu@@ 261
visi@@ 261
addres@@ 260
assassin 260
beneath 260
candidate 260
earned 260
escal@@ 260
excl@@ 260
expos@@ 260
fighters 260
fusco 260
glory 260
hollow 260
interest@@ 260
leaf 260
rehear@@ 260
solving 260
stam@@ 260
standards 260
tar 260
threats 260
tracked 260
ush@@ 260
variety 260
29 259
application 259
basketball 259
brain@@ 259
businesses 259
commo@@ 259
conclu@@ 259
delic@@ 259
deplo@@ 259
eling 259
fts 259
infer@@ 259
interven@@ 259
italian 259
killers 259
length 259
mance 259
meth@@ 259
payment 259
pher@@ 259
pursu@@ 259
sac@@ 259
sity 259
spreading 259
techniques 259
tta 259
tured 259
washed 259
weed 259
depressed 258
duke 258
ense 258
fisher@@ 258
gli@@ 258
grows 258
importance 258
ising 258
isol@@ 258
ket@@ 258
manag@@ 258
marked 258
ny@@ 258
ons. 258
rat@@ 258
returns 258
rin 258
rip 258
ripper 258
russians 258
stick@@ 258
sust@@ 258
tube 258
umo 258
adverti@@ 257
assumed 257
carlos 257
concert 257
display 257
dramatic 257
effici@@ 257
elias 257
ers. 257
frea@@ 257
glor@@ 257
ic. 257
logy 257
mud 257
objective 257
optimi@@ 257
phrase 257
physically 257
plug 257
preced@@ 257
shoo@@ 257
skir@@ 257
stab 257
theft 257
tren@@ 257
wei@@ 257
wives 257
40@@ 256
betty 256
certain@@ 256
com 256
dep@@ 256
institution 256
juli@@ 256
kuri@@ 256
laboratory 256
nails 256
noble 256
pan 256
practical 256
repre@@ 256
sheep 256
stores 256
tals 256
yuma 256
antibio@@ 255
boots 255
bot 255
cared 255
clubs 255
del 255
deton@@ 255
electronic 255
entially 255
essor 255
generous 255
ghosts 255
guilt 255
kurosaki 255
lator 255
mak@@ 255
minor 255
prosec@@ 255
reliable 255
roof@@ 255
scent 255
sniper 255
speaks 255
stations 255
thick 255
throne 255
ambassador 254
appearing 254
assets 254
attempted 254
buff@@ 254
cam 254
chuckles 254
dded 254
didnt 254
dynam@@ 254
epide@@ 254
gender 254
hec@@ 254
industries 254
kindness 254
leo 254
organisms 254
pound 254
replaced 254
shiro@@ 254
shooter 254
sm 254
sman 254
washing 254
woo 254
11@@ 253
astr@@ 253
centers 253
centi@@ 253
clim@@ 253
decreas@@ 253
dexter 253
drones 253
genu@@ 253
journalist 253
laun@@ 253
mart@@ 253
menu 253
moriyama 253
musical 253
nic 253
organ 253
pollu@@ 253
priest 253
residence 253
shun@@ 253
si 253
stepped 253
stubborn 253
theres 253
vampires 253
xray 253
arrange 252
beloved 252
clas@@ 252
deer 252
define 252
every@@ 252
f.b.i. 252
gorgeous 252
ital 252
mean@@ 252
miller 252
nut 252
rapidly 252
rock@@ 252
savings 252
scofield 252
secretly 252
shin 252
spea@@ 252
tier 252
tomo@@ 252
worldwide 252
amongst 251
associate 251
capit@@ 251
communic@@ 251
costume 251
deals 251
detect 251
ducing 251
forensics 251
has@@ 251
leak 251
miami 251
ochi@@ 251
operative 251
prototype 251
punish 251
relatives 251
repa@@ 251
sink 251
stardust 251
troubled 251
alone. 250
anie 250
bears 250
breach 250
collective 250
cuts 250
entary 250
etc 250
eternal 250
frigh@@ 250
inity 250
jake 250
outs 250
punished 250
regardless 250
rober@@ 250
sai 250
searched 250
sensors 250
sighs 250
stret@@ 250
wonder@@ 250
wore 250
years. 250
zom@@ 250
ady 249
approximately 249
armor 249
bam@@ 249
cents 249
controlling 249
cut@@ 249
dock 249
ector 249
eled 249
element 249
enforcement 249
enses 249
frog 249
hug 249
legacy 249
lem 249
life@@ 249
more@@ 249
pad@@ 249
resurrec@@ 249
sends 249
simp@@ 249
unconscious 249
anyways 248
appre@@ 248
ball@@ 248
bet@@ 248
conditi@@ 248
dian 248
fashi@@ 248
filling 248
ght 248
hig@@ 248
inqu@@ 248
odo@@ 248
ounded 248
passes 248
psychological 248
sheet 248
tas@@ 248
trigg@@ 248
tsuku@@ 248
tually 248
ante 247
associated 247
bait 247
circuit 247
dag@@ 247
distant 247
dunham 247
emi 247
erase 247
fires 247
frobisher 247
gically 247
glu@@ 247
homeless 247
iest 247
mere 247
orchest@@ 247
ple@@ 247
practicing 247
raid 247
receiving 247
routine 247
scenario 247
scrat@@ 247
tok@@ 247
tro 247
ultr@@ 247
achiev@@ 246
arrang@@ 246
ayak@@ 246
comment 246
concerns 246
ela 246
elimin@@ 246
erica 246
keeper 246
kick@@ 246
kne@@ 246
measures 246
occur@@ 246
particle 246
pics 246
shadows 246
thand 246
tough@@ 246
tune 246
understands 246
voc@@ 246
abby 245
aiming 245
behave 245
chemicals 245
conversations 245
dges 245
disa@@ 245
dow 245
ester 245
funding 245
grabbed 245
highway 245
how@@ 245
inci@@ 245
italy 245
katie 245
kiera 245
marcel 245
mel 245
nishi@@ 245
ousan 245
paintings 245
passenger 245
phone. 245
presents 245
propose 245
sem@@ 245
skin@@ 245
traff@@ 245
web@@ 245
yourself. 245
asses 244
bobby 244
bravo 244
claimed 244
constant 244
disor@@ 244
ference 244
gosh 244
grapher 244
gras@@ 244
jeez 244
kee@@ 244
kissed 244
knee 244
l.a. 244
loy@@ 244
lungs 244
magician 244
performing 244
pers@@ 244
recogni@@ 244
retreat 244
rigsby 244
scot@@ 244
seat@@ 244
spectac@@ 244
squir@@ 244
tains 244
transpor@@ 244
troublesome 244
warp 244
wwhat 244
anymore. 243
arab@@ 243
barri@@ 243
chapter 243
colli@@ 243
color@@ 243
complain 243
dant 243
fireworks 243
guid@@ 243
madame 243
roughly 243
saki 243
sixth 243
struggling 243
surprisingly 243
survey 243
toys 243
vert 243
volunteer 243
&apos;mon 242
ader 242
around. 242
distribution 242
expectations 242
fluid 242
fting 242
fumi@@ 242
graduation 242
gumi 242
hokage 242
iler 242
isolated 242
maya 242
nazir 242
occur 242
paperwork 242
paul@@ 242
pipe 242
qualified 242
raz@@ 242
turkey 242
twist@@ 242
visitor 242
wolves 242
yards 242
3,000 241
aircraft 241
allen 241
anderson 241
checks 241
confessed 241
corps 241
craz@@ 241
designers 241
dv@@ 241
embr@@ 241
emo@@ 241
fair@@ 241
flag@@ 241
foc@@ 241
franklin 241
hostages 241
ix 241
lecture 241
nel@@ 241
non 241
palm 241
persi@@ 241
pled 241
priv@@ 241
productive 241
recognition 241
rejected 241
remin@@ 241
salary 241
soccer 241
strip 241
xes 241
yi@@ 241
bour@@ 240
busted 240
can. 240
coal 240
connecting 240
defendant 240
die. 240
dose 240
easy. 240
eff@@ 240
employment 240
evacu@@ 240
fail@@ 240
favor@@ 240
formula 240
girl. 240
happier 240
inning 240
kid. 240
manhattan 240
ologist 240
ore@@ 240
overnight 240
patch 240
pharmac@@ 240
roots 240
scand@@ 240
strate@@ 240
stroke 240
things. 240
tops 240
traveled 240
tum 240
wont 240
yum@@ 240
abor@@ 239
bay@@ 239
bene@@ 239
blah 239
bloom 239
canada 239
crossing 239
destination 239
investigator 239
iring 239
league 239
pops 239
restric@@ 239
scenes 239
tile 239
vacc@@ 239
volume 239
additional 238
ahead. 238
arguing 238
bible 238
chill 238
clip 238
dispat@@ 238
dwar@@ 238
first@@ 238
forbidden 238
freely 238
hr@@ 238
immune 238
lear@@ 238
lined 238
listed 238
loyal 238
lung 238
perf@@ 238
processing 238
professi@@ 238
resist 238
reti@@ 238
revealed 238
shee@@ 238
steph@@ 238
stro@@ 238
targeted 238
transportation 238
untie 238
vault 238
2000 237
caleb 237
cred@@ 237
damned 237
entertainment 237
facial 237
fans 237
gee@@ 237
gest@@ 237
gil 237
ilities 237
meals 237
move. 237
posed 237
profound 237
promises 237
rage 237
rates 237
rays 237
road@@ 237
secre@@ 237
switched 237
temper@@ 237
thas 237
vegas 237
wired 237
ading 236
agenda 236
assist 236
attered 236
bby 236
bless 236
bron@@ 236
bubble 236
ckers 236
click 236
coma 236
compound 236
elite 236
excep@@ 236
experi@@ 236
fulfill 236
holiday 236
ign 236
li 236
mation 236
mexic@@ 236
ope 236
reactor 236
shaped 236
shima 236
tton 236
views 236
wn. 236
absur@@ 235
burg 235
burger 235
colo@@ 235
continent 235
eeded 235
elev@@ 235
explode 235
farewell 235
hei 235
infiltr@@ 235
january 235
kami@@ 235
lates 235
matthew 235
p.m. 235
preci@@ 235
principles 235
satan 235
scri@@ 235
servers 235
ury 235
violation 235
vital 235
yn@@ 235
..... 234
5th 234
airplane 234
appar@@ 234
descri@@ 234
dged 234
dream@@ 234
ecosyst@@ 234
eliminate 234
envel@@ 234
fundam@@ 234
hollywood 234
hot@@ 234
interact 234
jar@@ 234
jeremy 234
kaito 234
lew@@ 234
oked 234
patrol 234
polic@@ 234
public@@ 234
retired 234
tuning 234
users 234
virgin@@ 234
42 233
assignment 233
attractive 233
ceiling 233
cole 233
crashed 233
dos@@ 233
drops 233
eline 233
ensure 233
flowing 233
fusion 233
gel 233
gently 233
ha. 233
horn 233
ide 233
ky@@ 233
maps 233
mind. 233
pha@@ 233
phy@@ 233
s.h.i.e.l.d. 233
situations 233
skip 233
stretch 233
strict 233
supervis@@ 233
suring 233
weap@@ 233
whereabouts 233
actors 232
aspir@@ 232
attemp@@ 232
betra@@ 232
cannon 232
copy@@ 232
dolph@@ 232
ferred 232
filed 232
kiyo@@ 232
kus@@ 232
legally 232
limit@@ 232
marke@@ 232
mature 232
mov@@ 232
ner. 232
never@@ 232
oral 232
parano@@ 232
pigs 232
rifle 232
saint 232
sau@@ 232
tension 232
tivity 232
universal 232
vent@@ 232
wandering 232
berlin 231
bud 231
casey 231
dedicated 231
diamonds 231
diary 231
ections 231
encounter 231
engines 231
fee 231
hana 231
haz@@ 231
kasan 231
leon 231
logic 231
masters 231
mess@@ 231
nation@@ 231
parker 231
penny 231
performed 231
powder 231
proto@@ 231
shoulders 231
statue 231
toxic 231
trading 231
transmission 231
bee@@ 230
before. 230
burns 230
charm 230
charming 230
chuck 230
compens@@ 230
contro@@ 230
desperately 230
duck 230
emplo@@ 230
extent 230
famil@@ 230
father. 230
harsh 230
hook@@ 230
jungle 230
larg@@ 230
laundry 230
observe 230
oni 230
pockets 230
prior 230
reed 230
relea@@ 230
spin 230
starving 230
straw@@ 230
wes 230
approval 229
bold 229
cane 229
champagne 229
cheat 229
complexity 229
davis 229
demands 229
donald 229
dragons 229
ees 229
hatred 229
justi@@ 229
later. 229
mmhmm. 229
negotiate 229
onodera 229
pacific 229
pump 229
rarely 229
rema@@ 229
second. 229
sively 229
spots 229
stun@@ 229
vo 229
acr@@ 228
attr@@ 228
authenti@@ 228
bomber 228
chin@@ 228
concer@@ 228
continuing 228
cookies 228
deser@@ 228
eats 228
ely. 228
examination 228
generally 228
grap@@ 228
health@@ 228
interrogation 228
joh@@ 228
las@@ 228
manner 228
mar 228
molly 228
oniichan 228
paras@@ 228
proph@@ 228
psychology 228
retirement 228
spaces 228
spe@@ 228
stic@@ 228
tory 228
uta 228
ware 228
z. 228
ance. 227
ao 227
cling 227
dea 227
deceased 227
eld 227
euti@@ 227
goals 227
instant 227
jeff@@ 227
john@@ 227
lionel 227
maintenance 227
moun@@ 227
passengers 227
responding 227
robo@@ 227
sophi@@ 227
suggested 227
virtu@@ 227
whale 227
acid 226
afri@@ 226
announced 226
bicycle 226
cham@@ 226
chick@@ 226
choosing 226
complic@@ 226
deposit 226
detected 226
diction 226
evan 226
fia 226
holly 226
howard 226
illusion 226
inction 226
islands 226
lit 226
mans 226
mole 226
mom. 226
ov 226
portra@@ 226
represent@@ 226
swim@@ 226
alon@@ 225
alties 225
apologies 225
arr@@ 225
associ@@ 225
backwards 225
bout 225
cer 225
contain 225
fella 225
flip 225
insist 225
intellectual 225
invent@@ 225
july 225
knowle@@ 225
kore@@ 225
mistress 225
moon@@ 225
origin 225
regul@@ 225
represents 225
ringing 225
shaking 225
suppos@@ 225
taro 225
thirsty 225
thouse 225
threaten 225
transformation 225
transition 225
unlikely 225
admire 224
announcement 224
arrog@@ 224
deliver@@ 224
femin@@ 224
fewer 224
filthy 224
geez 224
goin 224
graduated 224
interpre@@ 224
islam@@ 224
ith@@ 224
melissa 224
missions 224
oming 224
outcome 224
peter@@ 224
phantom 224
riley 224
scheduled 224
sculp@@ 224
subordin@@ 224
suffici@@ 224
syndrome 224
tribu@@ 224
undercover 224
veter@@ 224
altern@@ 223
astral 223
atsu 223
bott 223
combined 223
conscience 223
directions 223
guts 223
helen 223
identical 223
immortal 223
incenti@@ 223
initial 223
judging 223
magnific@@ 223
marshall 223
merry 223
ministry 223
passionate 223
persons 223
rest@@ 223
robbed 223
seeking 223
silk 223
slaves 223
sta 223
tu 223
virgin 223
wiped 223
195@@ 222
aim@@ 222
bothered 222
dots 222
einstein 222
examine 222
glob@@ 222
ignored 222
jar 222
jisan 222
laughed 222
liberty 222
malaria 222
mam@@ 222
obi 222
phere 222
pol 222
presentation 222
proven 222
seo 222
vegetables 222
where. 222
bor 221
ckle 221
coke 221
deadly 221
diag@@ 221
dow@@ 221
feature 221
gia 221
gotham 221
gross 221
imperial 221
inging 221
interface 221
katsur@@ 221
koto 221
manif@@ 221
notebook 221
notic@@ 221
nowadays 221
philli@@ 221
rap 221
relatively 221
researchers 221
sophisticated 221
specul@@ 221
tiv@@ 221
trav@@ 221
was. 221
apol@@ 220
avenue 220
casting 220
certific@@ 220
climbing 220
contacts 220
doin 220
ema@@ 220
frankie 220
gren@@ 220
hiros@@ 220
housing 220
ida 220
iii 220
jir@@ 220
maiden 220
medium 220
mistak@@ 220
mother. 220
nicely 220
nity 220
november 220
ord 220
pepper 220
po 220
polar 220
reson@@ 220
rig@@ 220
rio 220
sebastian 220
starling 220
sticking 220
stit@@ 220
stuff@@ 220
tet@@ 220
voy@@ 220
2010 219
65 219
absence 219
acceptable 219
activates 219
amusement 219
chick 219
chit@@ 219
entation 219
environ@@ 219
equivalent 219
exor@@ 219
films 219
jessica 219
kidn@@ 219
literature 219
meo 219
moriarty 219
offic@@ 219
osis 219
phe@@ 219
pper@@ 219
reminded 219
resem@@ 219
ste 219
stein 219
tus 219
twelve 219
underwear 219
ally. 218
atri@@ 218
better. 218
clay 218
compromised 218
concep@@ 218
dc 218
dol 218
enthusi@@ 218
equally 218
expres@@ 218
fifty 218
forming 218
galax@@ 218
girl@@ 218
going. 218
gru@@ 218
household 218
inches 218
jumping 218
molecular 218
name. 218
necklace 218
paradise 218
pee 218
portion 218
psycholo@@ 218
recy@@ 218
ret@@ 218
seiz@@ 218
tomorrow. 218
umbrella 218
viet@@ 218
xious 218
able. 217
aer@@ 217
allowing 217
amounts 217
applic@@ 217
author 217
cool. 217
dasan 217
delay 217
ested 217
fellas 217
flood 217
guil@@ 217
hib@@ 217
kuririn 217
languages 217
lannister 217
outer 217
suspended 217
tortured 217
transplant 217
trun@@ 217
update 217
visible 217
47 216
anxiety 216
ape 216
autism 216
bass 216
chie 216
dozens 216
ene 216
envy 216
fies 216
handling 216
instrument 216
medication 216
minutes. 216
mmer 216
nancy 216
niger@@ 216
nurses 216
objec@@ 216
oh@@ 216
parttime 216
persist@@ 216
pets 216
quit@@ 216
stock@@ 216
tues@@ 216
1000 215
admitted 215
arrangement 215
bi. 215
blank 215
bloo@@ 215
challenging 215
compan@@ 215
conduct 215
congratul@@ 215
congressman 215
deco@@ 215
descen@@ 215
disappoin@@ 215
encourage 215
endure 215
gone. 215
grab@@ 215
gradu@@ 215
hallo@@ 215
hoo 215
instinc@@ 215
jerry 215
led. 215
liqu@@ 215
malcolm 215
mani@@ 215
mechanism 215
metaphor 215
mri 215
nood@@ 215
officials 215
opposed 215
opti@@ 215
producing 215
rang@@ 215
raped 215
reads 215
ria 215
sait@@ 215
sey 215
sty@@ 215
targeting 215
that@@ 215
abstr@@ 214
alike 214
balloon 214
bias 214
common@@ 214
december 214
dong 214
floo@@ 214
formation 214
fug@@ 214
hopeless 214
illustr@@ 214
immigr@@ 214
increases 214
kikun 214
lana 214
mathematics 214
observation 214
pak@@ 214
pays 214
phew 214
pr 214
prote@@ 214
resist@@ 214
rid@@ 214
seeds 214
simpl@@ 214
taxes 214
tide 214
whil@@ 214
acade@@ 213
blessed 213
cheer@@ 213
coin 213
commitment 213
democratic 213
dignity 213
employed 213
included 213
intri@@ 213
jersey 213
layer 213
liber8 213
neuros@@ 213
omed 213
pakistan 213
panel 213
precise 213
proved 213
rus 213
saber 213
sharks 213
soo 213
strai@@ 213
tent 213
theories 213
tragic 213
ver. 213
administration 212
appoin@@ 212
bian 212
cals 212
donor 212
fantasy 212
fears 212
felicity 212
glen@@ 212
govern@@ 212
harmon@@ 212
insp@@ 212
intentions 212
iors 212
itated 212
jam 212
moses 212
nab@@ 212
natsu@@ 212
number@@ 212
occasion 212
oshi 212
predictable 212
pursue 212
raft 212
sels 212
sex@@ 212
sit@@ 212
smugg@@ 212
talented 212
tox@@ 212
wrist 212
ynn 212
ater@@ 211
che 211
commun@@ 211
correctly 211
democr@@ 211
dou 211
feed@@ 211
forensic 211
honored 211
hua 211
journal 211
jun 211
kaz@@ 211
kenne@@ 211
loop 211
maximum 211
minus 211
monkeys 211
pred@@ 211
react 211
say. 211
senate 211
seventh 211
soon. 211
spotted 211
sync 211
trum 211
ushed 211
valent@@ 211
witnessed 211
zation 211
33 210
ager 210
aggressive 210
body@@ 210
chin 210
cooked 210
did@@ 210
does@@ 210
esti@@ 210
exhibition 210
first. 210
gratitude 210
iti 210
mura 210
ologists 210
orbit 210
oxide 210
prism 210
privilege 210
promising 210
properties 210
psychiatrist 210
restore 210
ripped 210
rotten 210
rying 210
signific@@ 210
skyler 210
tou 210
agriculture 209
announce 209
arc@@ 209
atter 209
bleed 209
bren@@ 209
consequ@@ 209
covers 209
excuses 209
expand 209
inspiration 209
jah 209
naive 209
oceans 209
peace@@ 209
percei@@ 209
phan@@ 209
pleasant 209
quali@@ 209
residents 209
shelf 209
sole 209
suki 209
suspicion 209
terr@@ 209
viral 209
36 208
ade@@ 208
beam 208
brad@@ 208
cisco 208
copies 208
dal@@ 208
diagnosed 208
elec@@ 208
furu@@ 208
gabri@@ 208
humor 208
hyun 208
inary 208
insight 208
iphone 208
itual 208
kl@@ 208
meanwhile 208
nd 208
premi@@ 208
proposed 208
sayaka 208
sphere 208
twenty@@ 208
un. 208
yep. 208
abducted 207
app 207
bands 207
battlefield 207
cart 207
clark 207
cord 207
curiosity 207
established 207
founded 207
fragile 207
haun@@ 207
hunger 207
icon 207
illi@@ 207
interaction 207
israel 207
jon 207
kan 207
kaoru 207
lyn 207
mau@@ 207
metri@@ 207
muscles 207
obstac@@ 207
penguin 207
radical 207
rebecca 207
restra@@ 207
sung 207
zan@@ 207
bonds 206
cabin@@ 206
cdc 206
characterist@@ 206
christine 206
codes 206
crucial 206
deceived 206
encoun@@ 206
existing 206
fined 206
greek 206
head. 206
heir 206
increasingly 206
indepen@@ 206
involves 206
kindergarten 206
meaningful 206
migr@@ 206
mob 206
neo 206
oki 206
organism 206
penetr@@ 206
rail@@ 206
rural 206
streng@@ 206
thal 206
they@@ 206
trains 206
yuri@@ 206
,00@@ 205
adopted 205
aster 205
aud@@ 205
barbara 205
bbs 205
brooklyn 205
bub@@ 205
daugh@@ 205
decline 205
deliber@@ 205
effectively 205
ents. 205
eren 205
finest 205
gifts 205
gon 205
harm@@ 205
hyp@@ 205
immun@@ 205
itis 205
j. 205
loading 205
magaz@@ 205
mai 205
manipu@@ 205
moder@@ 205
ni 205
opera 205
ouring 205
p.d. 205
precinct 205
prey 205
princ@@ 205
semin@@ 205
shops 205
strings 205
terrified 205
troubles 205
waters 205
yuk@@ 205
amateur 204
ancing 204
belonged 204
chart 204
conce@@ 204
couch 204
crushed 204
destruc@@ 204
earth@@ 204
edward 204
elderman 204
expose 204
forests 204
harrison 204
illing 204
legitimate 204
lifestyle 204
longterm 204
neighbor@@ 204
pursuit 204
quest 204
sunlight 204
swore 204
theore@@ 204
vincent 204
wealthy 204
camp@@ 203
champi@@ 203
coming. 203
consumption 203
corp@@ 203
depth 203
drivers 203
dug 203
gent@@ 203
horror 203
indicate 203
invention 203
kei@@ 203
makers 203
manual 203
matic 203
matrix 203
misaki 203
oon 203
organiz@@ 203
overseas 203
oy@@ 203
ppers 203
relation 203
rolled 203
scen@@ 203
smoo@@ 203
spel@@ 203
spit 203
swi@@ 203
testify 203
turtle 203
ups 203
ames 202
birth@@ 202
bye. 202
deserved 202
disturbing 202
erce 202
francis 202
freezing 202
haruka 202
harvey 202
itious 202
jazz 202
kitty 202
lessly 202
lovers 202
matched 202
navy 202
oblig@@ 202
paths 202
percent@@ 202
quitting 202
ramen 202
resolution 202
sessed 202
shade 202
shap@@ 202
shuttle 202
supporting 202
thunder 202
yuri 202
acknowledge 201
amisan 201
anime 201
assembly 201
athle@@ 201
beats 201
cheated 201
consistent 201
cortex 201
enpai 201
equipped 201
flames 201
kaor@@ 201
kill@@ 201
managing 201
mos 201
orig@@ 201
orph@@ 201
pati@@ 201
pointing 201
robotics 201
senting 201
slight 201
smil@@ 201
theon 201
tments 201
agen@@ 200
ands 200
aro 200
august 200
cherry 200
contains 200
eleg@@ 200
everything. 200
execu@@ 200
frightened 200
hallway 200
icia 200
minimum 200
motel 200
mour@@ 200
origin@@ 200
pac@@ 200
pirates 200
rebuild 200
sawa@@ 200
selection 200
show@@ 200
shrimp 200
similar@@ 200
slade 200
stin 200
strongly 200
tack@@ 200
typically 200
violet 200
wash@@ 200
2008 199
abu 199
aller@@ 199
aqu@@ 199
assaul@@ 199
aut@@ 199
brother. 199
cauti@@ 199
countless 199
diver@@ 199
ebr@@ 199
evacuate 199
farmer 199
hacker 199
hardware 199
insect 199
joan 199
kakashi 199
kout@@ 199
kov 199
mechanical 199
mme 199
peak 199
printing 199
promotion 199
raining 199
resolve 199
sang 199
see@@ 199
shapes 199
stak@@ 199
steam 199
unfair 199
vals 199
whereas 199
yato 199
37 198
anno@@ 198
benjamin 198
big@@ 198
blocked 198
boards 198
boats 198
cigarettes 198
civilian 198
contam@@ 198
dammit 198
depar@@ 198
ecti@@ 198
elected 198
electron@@ 198
elsewhere 198
exper@@ 198
fam@@ 198
gambling 198
ghtful 198
greg 198
grudge 198
handled 198
icious 198
icking 198
instal@@ 198
interfere 198
jackson 198
kman 198
mentally 198
mice 198
michel@@ 198
mn@@ 198
mustn 198
noon 198
old. 198
olic 198
orn 198
outfit 198
pean@@ 198
pour 198
providing 198
pussy 198
ress 198
rub 198
scal@@ 198
scrip@@ 198
shes 198
signing 198
text@@ 198
urasan 198
violin 198
accent 197
anal@@ 197
apocalypse 197
approached 197
ards 197
brat 197
chop 197
compete 197
conventi@@ 197
counts 197
dubaku 197
eing 197
empathy 197
exactly. 197
fuku@@ 197
gage 197
gat@@ 197
grams 197
infinite 197
invent 197
joffrey 197
josh 197
lecter 197
lobby 197
potato 197
radius 197
reven@@ 197
stero@@ 197
tment 197
towel 197
alie 196
athan 196
blows 196
butter 196
cath@@ 196
dall@@ 196
ead 196
economics 196
egg@@ 196
factors 196
forgiveness 196
ichika 196
ives 196
latin 196
ma. 196
mall 196
meaningless 196
monsieur 196
plag@@ 196
praying 196
roman 196
shane 196
start@@ 196
stuffed 196
subtle 196
tening 196
thursday 196
two. 196
vable 196
wireless 196
wires 196
ypt 196
95 195
ables 195
allies 195
assho@@ 195
audio 195
barrel 195
britain 195
calcu@@ 195
caring 195
clues 195
commissioner 195
decei@@ 195
disagre@@ 195
ef 195
estim@@ 195
exer@@ 195
exhausted 195
extract 195
fabulous 195
further@@ 195
glam@@ 195
grail 195
gret@@ 195
heimer 195
hooked 195
ilyn 195
inevitable 195
infl@@ 195
instruments 195
kle@@ 195
lap 195
lean 195
mmm. 195
nerves 195
perpetrator 195
recor@@ 195
refriger@@ 195
snu@@ 195
stepping 195
submit 195
terrifying 195
tted 195
ture. 195
unhappy 195
unpleasant 195
uru 195
villages 195
wheels 195
abra@@ 194
ations. 194
atsuki 194
award 194
civil@@ 194
cryst@@ 194
download 194
emissions 194
evel@@ 194
exhi@@ 194
face. 194
fooled 194
geons 194
godd@@ 194
icy 194
instinct 194
iser 194
jor@@ 194
leverage 194
midd@@ 194
molecule 194
monitoring 194
paraly@@ 194
pod 194
poetry 194
sail 194
sory 194
ud 194
vity 194
warriors 194
whispering 194
arrival 193
aven@@ 193
awareness 193
broad 193
bull 193
caine 193
celebration 193
cow@@ 193
cultures 193
dealt 193
detailed 193
disagree 193
dition 193
divine 193
earing 193
embarr@@ 193
fifteen 193
gloves 193
goat 193
gu 193
guaran@@ 193
hed 193
hod@@ 193
inflic@@ 193
ingu@@ 193
jokes 193
juliet 193
klaus 193
maru 193
offices 193
oured 193
recipe 193
savi@@ 193
settlement 193
sexu@@ 193
solo 193
surrounding 193
thieves 193
viruses 193
wol@@ 193
yyou 193
za@@ 193
bara 192
boot 192
brow@@ 192
chur@@ 192
cil@@ 192
civilians 192
exception 192
fai@@ 192
gradually 192
hop 192
litt@@ 192
mori 192
mort@@ 192
occasionally 192
overwhelming 192
secur@@ 192
skies 192
sleepy 192
soli@@ 192
thou@@ 192
though. 192
twilight 192
wears 192
weigh@@ 192
wished 192
withdraw 192
world. 192
know@@ 191
suspen@@ 191
zen 191
consci@@ 190
conv@@ 190
honest@@ 190
horri@@ 190
jas@@ 190
sev@@ 190
chec@@ 189
aching 188
anced 188
convinc@@ 188
diff@@ 188
rout@@ 188
etern@@ 187
gent 187
gover@@ 187
iff 187
vent 187
ckets 186
dram@@ 186
dy. 186
ight 186
intenti@@ 186
lier 186
newsp@@ 186
yea@@ 186
light@@ 185
responsi@@ 185
tations 185
your@@ 185
concl@@ 184
const@@ 184
elder@@ 184
equi@@ 184
less@@ 184
perfec@@ 184
tern@@ 184
admini@@ 183
repor@@ 183
reve@@ 183
satellit@@ 183
tis@@ 183
extr@@ 182
child@@ 181
comfor@@ 181
drin@@ 181
electr@@ 181
geon 181
hh@@ 181
there@@ 181
world@@ 181
amp@@ 180
belon@@ 180
esh 180
grou@@ 180
pengu@@ 180
valu@@ 180
accur@@ 179
chers 179
chic@@ 179
craft 179
lig@@ 179
seven@@ 179
feder@@ 178
fucker 178
mol@@ 178
oughly 178
cond@@ 177
ech 177
ree 177
resear@@ 177
restaur@@ 177
satur@@ 177
wher@@ 177
ele@@ 176
intern@@ 176
oph@@ 176
puzz@@ 176
dir@@ 175
gir@@ 175
sus 175
cum@@ 174
tables 174
willi@@ 174
conven@@ 173
assa@@ 172
estab@@ 172
figh@@ 172
lions 172
marri@@ 172
rey 172
tely 172
aa@@ 171
custo@@ 171
engine@@ 171
itor 171
roy@@ 171
thom@@ 171
appear@@ 170
fascin@@ 170
hall@@ 170
inclu@@ 170
understand@@ 170
ple. 169
vide@@ 169
vous 169
anni@@ 168
overwhel@@ 168
rant 168
deter@@ 167
enjo@@ 167
euro@@ 167
excell@@ 167
hic@@ 167
inspir@@ 167
nel 167
quarters 167
pathy 166
stac@@ 166
through@@ 166
wel 166
apo@@ 165
bid@@ 165
crimin@@ 165
infin@@ 165
privile@@ 165
creep@@ 164
interrog@@ 164
ordin@@ 164
ound. 164
chocol@@ 163
conflic@@ 163
ority 163
trage@@ 163
volun@@ 163
au 162
eas@@ 162
eland 162
ishes 162
mption 162
nan 162
peo@@ 162
tary 162
tened 162
use@@ 162
ened 161
eness 161
fea@@ 161
imper@@ 161
ince 161
myster@@ 161
pus@@ 161
sei 161
uri 161
brit@@ 160
supp@@ 160
clou@@ 159
enly 159
necess@@ 159
oxy@@ 159
vinc@@ 159
ital@@ 158
jeal@@ 158
resul@@ 158
wron@@ 158
xic@@ 158
aug@@ 157
consi@@ 157
rif@@ 157
bure@@ 156
gists 156
opin@@ 156
strugg@@ 156
chair@@ 155
cip@@ 155
dani@@ 155
ques 155
reci@@ 155
susp@@ 155
venture 155
easi@@ 154
immor@@ 154
inspec@@ 154
ort 154
quo@@ 154
bot@@ 153
establi@@ 153
hope@@ 153
quie@@ 153
shoul@@ 153
americ@@ 152
elds 152
fif@@ 152
isms 152
mers 152
nois@@ 152
smu@@ 152
wri@@ 152
adul@@ 151
control@@ 151
oni@@ 151
tec@@ 151
tives 151
aver@@ 150
insan@@ 150
prison@@ 150
propos@@ 150
tech@@ 150
div@@ 149
entertain@@ 149
judg@@ 149
neighb@@ 149
dad@@ 148
magne@@ 148
sustain@@ 148
acqu@@ 147
ano@@ 147
contin@@ 147
eding 147
ning. 147
onable 147
rich@@ 147
ached 146
isra@@ 146
licen@@ 146
ousness 145
pression 145
proble@@ 145
coinc@@ 144
member@@ 144
sche@@ 144
stom@@ 144
univer@@ 144
cement 143
oppos@@ 143
pment 143
requi@@ 143
sion@@ 143
bacter@@ 142
dang@@ 142
oce@@ 142
other@@ 142
borro@@ 141
braz@@ 141
ecture 141
ile@@ 141
libr@@ 141
harv@@ 140
proce@@ 140
promi@@ 140
push@@ 140
cil 139
depos@@ 139
sear@@ 139
wester@@ 139
bath@@ 138
duce 138
stry 138
collap@@ 137
feel@@ 137
shut@@ 137
sop@@ 137
.i.@@ 136
aggres@@ 136
claim@@ 136
ident@@ 136
psychiatri@@ 136
seem@@ 136
techn@@ 136
enter@@ 135
entr@@ 135
surve@@ 135
ancest@@ 134
asion 134
ause 134
childre@@ 134
ens@@ 134
impres@@ 134
mori@@ 134
ale@@ 133
bies 133
cous@@ 133
depart@@ 133
ander@@ 132
b.@@ 132
ballo@@ 132
brilli@@ 132
jected 132
philos@@ 132
zz 132
exhau@@ 131
franc@@ 131
ghtly 131
manufac@@ 131
obj@@ 131
onary 131
ont 131
religi@@ 131
surr@@ 131
testi@@ 131
atively 130
challeng@@ 130
extre@@ 130
model@@ 130
nex@@ 130
bes@@ 129
dary 129
dn 129
rement 129
accor@@ 128
exist@@ 128
safe@@ 128
camer@@ 127
defe@@ 127
escor@@ 127
holi@@ 127
resp@@ 127
sep@@ 127
yle 127
agri@@ 126
alian 126
bage 126
protoco@@ 126
yst@@ 126
announ@@ 125
ira@@ 125
kuros@@ 125
seas 125
ato@@ 124
cruci@@ 124
icial 124
indu@@ 124
resid@@ 124
ril 124
tour@@ 123
verti@@ 123
absolu@@ 122
spot@@ 122
ysis 122
ange 121
gues 121
institu@@ 121
ler@@ 121
phy 121
admi@@ 120
audi@@ 120
brook@@ 120
commerci@@ 120
matthe@@ 120
ored 120
osity 120
sigh@@ 120
toil@@ 120
tray 120
veness 120
import@@ 119
legen@@ 119
particu@@ 119
bilities 118
consist@@ 118
corrup@@ 118
lanni@@ 118
summon@@ 118
abduc@@ 117
enterpri@@ 117
goddam@@ 117
larly 117
damag@@ 116
grow@@ 116
pai 116
sandw@@ 116
stru@@ 116
stud@@ 116
yester@@ 116
rev@@ 115
ridicul@@ 115
timate 115
vey 115
deman@@ 114
gs. 114
l.@@ 114
oppon@@ 114
perman@@ 114
petr@@ 114
sail@@ 114
way@@ 114
choos@@ 113
end. 113
found@@ 113
fren@@ 113
inev@@ 113
surger@@ 113
answer@@ 111
antage 111
esome 111
iso@@ 111
vam@@ 111
constan@@ 110
hyu@@ 110
aband@@ 109
abe@@ 109
cryp@@ 109
employ@@ 109
etings 109
fantas@@ 109
intel@@ 109
mec@@ 109
extra@@ 108
surren@@ 108
ninj@@ 107
individu@@ 106
menti@@ 106
milit@@ 106
ckles 105
hau@@ 105
leng@@ 105
bic@@ 104
circum@@ 104
circumst@@ 104
civi@@ 104
dav@@ 104
embar@@ 104
issa 104
materi@@ 104
citi@@ 103
electri@@ 103
eves 103
forgi@@ 103
gentle@@ 103
itional 103
messa@@ 103
remark@@ 103
tast@@ 103
ules 103
whe@@ 103
anci@@ 102
antarc@@ 102
beha@@ 102
jour@@ 102
phen@@ 102
congres@@ 101
coo@@ 101
ett@@ 101
ety 101
expe@@ 101
financi@@ 101
frank@@ 101
gni@@ 101
infra@@ 101
ius 101
scienti@@ 101
austr@@ 100
chest@@ 100
fas@@ 100
insur@@ 100
suspic@@ 100
alcoho@@ 99
bau@@ 99
campa@@ 99
certi@@ 99
chos@@ 99
dd 99
paper@@ 99
transp@@ 99
capac@@ 98
ices 98
festi@@ 97
hikar@@ 97
oper 97
evi@@ 96
norm@@ 96
ouls 96
situ@@ 96
tee@@ 96
aler@@ 95
comple@@ 95
dden 95
dedic@@ 95
grat@@ 95
mater@@ 95
servic@@ 95
beau@@ 94
hop@@ 94
pharm@@ 94
resc@@ 94
rine 94
sweethe@@ 94
unch 94
xim@@ 94
ature 93
beh@@ 93
costu@@ 93
unbeliev@@ 93
conveni@@ 92
ectively 92
labor@@ 92
kilome@@ 91
tot@@ 91
classi@@ 90
maid@@ 90
patter@@ 89
appropri@@ 88
famili@@ 88
flor@@ 88
ono@@ 88
senti@@ 88
anonym@@ 87
before@@ 87
emergen@@ 87
ghos@@ 87
monit@@ 87
radic@@ 87
eur 86
explan@@ 86
helicop@@ 86
mage 86
ne. 86
rad@@ 86
solu@@ 86
awar@@ 85
challen@@ 85
commissi@@ 85
rog@@ 85
shri@@ 85
gly 84
juni@@ 84
lie@@ 84
micha@@ 84
rar@@ 84
rhy@@ 84
attor@@ 83
earthqu@@ 83
fanta@@ 83
perfor@@ 83
phenomen@@ 83
prosecut@@ 83
sant 83
terror@@ 83
thous@@ 83
afgh@@ 82
atmos@@ 82
kage 82
lieuten@@ 82
must@@ 82
character@@ 81
eb 81
lement 81
sayak@@ 81
tism 81
whisper@@ 81
alu@@ 80
cally 80
cle 80
hatt@@ 80
lever@@ 80
occasi@@ 80
stered 80
amat@@ 79
ea. 79
ester@@ 79
harri@@ 79
landsc@@ 79
nei@@ 79
occas@@ 79
perpetr@@ 79
phenom@@ 79
piec@@ 79
span@@ 79
utsu 79
mayo@@ 78
natur@@ 78
territ@@ 78
conspir@@ 77
deta@@ 77
present@@ 77
vulner@@ 76
ativity 75
complex@@ 75
datab@@ 75
hundre@@ 75
miss@@ 75
neu@@ 75
quan@@ 75
schedu@@ 75
sional 75
ateful 74
disea@@ 74
make@@ 74
movi@@ 74
serge@@ 74
assign@@ 73
assist@@ 73
cerem@@ 73
curi@@ 73
f.@@ 73
kev@@ 73
oken 73
robber@@ 73
selves 73
colle@@ 72
episo@@ 72
ficial 72
gaz@@ 72
victim@@ 72
auth@@ 71
desper@@ 71
exhib@@ 71
hel 71
incre@@ 71
twit@@ 71
ail 70
battle@@ 70
figu@@ 70
illu@@ 70
industri@@ 70
obvi@@ 70
complet@@ 69
dise 69
dome@@ 69
insec@@ 69
relev@@ 69
studi@@ 69
trag@@ 69
apos@@ 68
bicy@@ 68
commit@@ 68
disci@@ 68
gd@@ 68
repu@@ 68
targe@@ 68
wire@@ 68
muse@@ 67
reco@@ 67
slow@@ 67
tex 67
tham 67
threat@@ 67
divor@@ 66
endant 66
inju@@ 66
poe@@ 66
dous 65
ident 65
symp@@ 65
immedi@@ 64
ried 64
ril@@ 64
scenari@@ 64
believ@@ 63
ene@@ 63
majest@@ 63
ould 63
thes 63
aar@@ 62
conn@@ 62
dex@@ 62
adop@@ 61
leader@@ 61
maxim@@ 61
pow@@ 61
sday 61
stern 61
them@@ 61
ult 61
vors 61
europe@@ 60
fooli@@ 60
itely 60
enorm@@ 59
paci@@ 59
enfor@@ 58
help@@ 58
pire 58
ridi@@ 58
agement 57
approxim@@ 57
bastar@@ 57
eties 57
exac@@ 57
mob@@ 57
paint@@ 57
patro@@ 57
pizz@@ 57
specif@@ 57
sudd@@ 57
yone 57
dows 56
ught 56
weal@@ 56
witn@@ 56
bigg@@ 55
bt 55
gres@@ 55
metap@@ 55
metaph@@ 55
opportun@@ 55
peror 55
ein 54
oud 54
perspec@@ 54
contex@@ 53
gott@@ 53
pires 53
spired 53
tee 53
testim@@ 53
ural 53
instrum@@ 52
proper@@ 52
versity 52
bother@@ 51
emis@@ 51
lear 51
regar@@ 51
centr@@ 50
dera 50
erci@@ 50
matri@@ 49
tremen@@ 49
ambul@@ 48
amer@@ 48
convers@@ 48
possi@@ 48
gather@@ 47
stub@@ 47
tly. 47
vehic@@ 47
anxi@@ 46
avail@@ 46
ume 46
unti@@ 46
cigar@@ 45
destin@@ 45
eel 45
ep. 45
gans 45
mado@@ 45
rd 45
ruc@@ 45
ware@@ 45
ava@@ 44
depu@@ 44
extrem@@ 44
jap@@ 44
autop@@ 43
bast@@ 43
icide 43
ishment 43
miser@@ 43
sophistic@@ 43
enem@@ 42
langu@@ 42
legitim@@ 42
prec@@ 42
tica 42
# 41
alph@@ 41
awk@@ 41
dred 41
enty@@ 41
gnition 41
minim@@ 41
eased 40
intellec@@ 40
note@@ 40
psychi@@ 40
relation@@ 40
cel 39
culpr@@ 39
incredi@@ 39
kati@@ 39
passion@@ 39
presi@@ 39
tten 39
ambassa@@ 38
apolo@@ 38
dign@@ 38
elem@@ 38
gress 38
idly 38
piccol@@ 38
progr@@ 38
thur@@ 38
asle@@ 37
guit@@ 37
igno@@ 37
lywood 37
ob 37
alco@@ 36
cipal 36
hosp@@ 36
japan@@ 36
ople 36
stol@@ 36
worl@@ 36
abeth 35
estyle 35
migh@@ 35
sn 35
fore 34
soldi@@ 34
supre@@ 34
gorge@@ 33
resur@@ 33
ylor 33
chlo@@ 32
ember 32
valent 32
scul@@ 31
eas 30
edi 30
enth@@ 30
nibal 30
nyp@@ 30
pover@@ 30
russi@@ 30
twel@@ 30
lo. 29
perh@@ 29
ror 29
tomor@@ 29
versary 29
apocalyp@@ 28
base@@ 28
degre@@ 28
formu@@ 28
hung@@ 28
onym@@ 28
promis@@ 28
sby 28
becca 27
ceme@@ 27
heim@@ 27
kita 27
mare 27
staf@@ 27
essenti@@ 26
fabul@@ 26
jects 26
timat@@ 26
warri@@ 26
airs 25
baku 25
beyo@@ 25
embarras@@ 25
ettes 25
filtr@@ 25
kindergar@@ 25
row. 25
timately 25
acu@@ 24
diamon@@ 24
orts 24
champ@@ 23
felic@@ 23
icals 23
idence 23
kla@@ 23
offici@@ 23
califor@@ 22
phr@@ 22
symptom@@ 22
televi@@ 22
umbrel@@ 22
aten 21
ecos@@ 21
nament 21
nolo@@ 21
olet 21
uten@@ 21
amon@@ 20
antas@@ 20
eliz@@ 20
mathe@@ 20
minut@@ 20
murai 20
neckl@@ 20
amus@@ 19
arth@@ 19
crete 19
ention 19
jess@@ 19
princi@@ 19
singly 19
stren@@ 19
einst@@ 18
eler@@ 18
embas@@ 18
ially 18
lincol@@ 18
meaning@@ 18
when@@ 18
amoun@@ 17
candi@@ 17
centu@@ 17
charac@@ 17
hamed 17
ough. 17
istan 16
techni@@ 16
chak@@ 15
civ@@ 15
disco@@ 15
inte@@ 15
itan 15
precis@@ 15
ule 15
again@@ 14
calyp@@ 14
centur@@ 14
collea@@ 14
ffrey 14
graphi@@ 14
grave@@ 14
sic 14
toge@@ 14
troubl@@ 14
unfortun@@ 14
usei 14
basket@@ 13
belo@@ 13
compas@@ 13
forens@@ 13
goti@@ 13
sacrif@@ 13
softw@@ 13
subor@@ 13
whel@@ 13
benjam@@ 12
betw@@ 12
civili@@ 12
distri@@ 12
eab@@ 12
espec@@ 12
forbid@@ 12
intellig@@ 12
kness 12
mainten@@ 12
octo@@ 12
afghan@@ 11
dless 11
exerci@@ 11
l.d. 11
soc@@ 11
success@@ 11
syndro@@ 11
{ 11
abig@@ 10
fare@@ 10
stim@@ 10
ticle 10
b.i. 9
champag@@ 9
eabouts 9
else@@ 9
gratul@@ 9
helic@@ 9
orm@@ 9
etr@@ 8
previ@@ 8
samar@@ 8
sebast@@ 8
simil@@ 8
uary 8
wro@@ 8
zens 8
frobis@@ 7
increas@@ 7
molec@@ 7
opport@@ 7
surveill@@ 7
abs@@ 6
antar@@ 6
desp@@ 6
dure 6
h.i.@@ 6
ird 6
neigh@@ 6
nowa@@ 6
passen@@ 6
prep@@ 6
s.h.i.e.@@ 6
sacri@@ 6
aban@@ 5
ambas@@ 5
indivi@@ 5
malcol@@ 5
moriar@@ 5
scyl@@ 5
septem@@ 5
sugg@@ 5
ull 5
viron@@ 5
chall@@ 4
devel@@ 4
eez 4
isco 4
manhatt@@ 4
monsi@@ 4
strum@@ 4
becom@@ 3
enty 3
itim@@ 3
kinder@@ 3
satel@@ 3
typic@@ 3
} 3
assas@@ 2
assin 2
ceed 2
chea@@ 2
nific@@ 2
pota@@ 2
brel@@ 1
diffic@@ 1
emy 1
ingre@@ 1
plom@@ 1
refri@@ 1
underne@@ 1
madeupword0000 0
madeupword0001 0
madeupword0002 0
madeupword0003 0
madeupword0004 0
madeupword0005 0
madeupword0006 0
