< 6992547
> 6992430
# 6990078
の 1082157
は 808791
に 799464
て 726383
た 674211
を 627441
が 592244
し 547449
. 483578
だ 446054
か 429224
? 418606
で 416319
い 406035
。 384209
と 359631
っ 326367
ん 298097
な 295111
も 290970
ない 285159
です 224087
よ 216240
! 200053
る 195372
き 180537
こと 170408
れ 167953
え 153019
mfzs 149133
わたくし 148501
から 147523
od 146052
ます 144807
、 138181
なん 134604
naj 133787
お 132996
り 131103
わ 126959
さ 117756
ね 117140
・ 111492
く 108852
てる 108677
ら 108434
う 102783
oixi 101086
け 100066
する 100031
lra 98136
それ 93372
djxb 93274
いる 93056
sa 87329
oyd 85049
め 84736
uaqk 84502
み 81807
まし 81612
a 81568
そう 80529
oi 79767
この 76304
どう 76091
gd 74545
zizi 73945
って 73392
さん 72885
これ 71984
いい 70058
ある 69614
かれ 69565
せ 68575
よう 66513
たち 65845
xdk 65500
じゃ 65083
wzmc 63638
ば 62944
bdkv 62455
kiwz 62453
あなた 61841
odsx 61693
つ 61307
おれ 59768
smia 59502
ngkz 58511
その 57960
zm 57959
いっ 57597
ya 57018
xmaj 56882
kbds 56325
じ 56029
す 55452
いう 54683
myos 53848
ませ 51686
maj 51093
md 50880
や 49838
ka 49310
こ 49177
もの 49027
" 48734
bm 48708
jivv 47756
きみ 47603
ひと 47186
nl 46942
ま 45709
たい 44803
「 44613
nkrs 44418
」 44102
ここ 43221
てき 43216
ち 42943
おまえ 42645
sy 42359
odbz 42122
ida 41032
あり 40681
favv 40394
たら 40035
くれ 39924
なら 39835
mamb 39799
odc 39689
もう 39265
だっ 39156
あっ 38770
mbro 37844
しゃ 37044
だれ 36591
だけ 36399
oda 36097
fjzm 35581
いま 35490
snia 35433
々 35409
はなし 35356
kcxs 35053
maeu 34419
vdwy 33261
ckb 33247
ため 33137
ぼく 32829
wdgq 32642
la 32559
koxb 32477
xdce 32404
wbuc 32304
でき 32241
osfq 32004
けど 31924
なっ 31914
なかっ 31729
meby 31551
sujy 31492
かのじょ 31479
dbds 31431
ぞ 31340
oizr 31095
ー 31039
なく 30910
あの 30876
nkuc 30796
とき 30600
arrr 30480
なる 30417
ご 30337
まで 30273
bkro 29391
pdxp 29146
odaj 28530
ねん 28516
mdhm 28368
wdco 28368
ym 28118
やっ 28090
まえ 27979
げ 27635
ろ 27558
nfa 27478
wz 26578
nmid 26503
cexs 26338
skrs 26216
aid 26214
せい 26076
ld 25988
wxjm 25971
いく 25806
cha 25692
oibd 25455
byi 25126
wzm 25098
へ 24462
わかっ 24449
umc 24413
どこ 24267
bmaz 24256
1 24174
~ 24171
eaz 24125
mbrd 24089
でしょう 24004
wxld 23728
sukw 23724
xdj 23327
kqvv 23184
じぶん 23116
nsvv 22946
できる 22945
かい 22769
む 22653
gi 22590
xsbr 22495
tgex 22434
hmjw 22373
- 22313
najo 21917
pa 21861
そして 21826
つい 21808
rsj 21737
jdcs 21645
そんな 21548
いえ 21525
nmb 21516
fukv 21511
べ 21301
ldbi 21267
ひつよう 21233
2 21221
こう 21202
られ 21046
ど 20904
rlym 20783
ください 20748
bdkw 20677
nbvv 20647
ず 20354
れる 20279
しっ 20191
おもっ 20100
ox 19880
はい 19854
いや 19786
kion 19679
だろ 19666
kiym 19647
oos 19547
ああ 19488
だろう 19477
bdod 19474
しん 19449
ねえ 19444
fkw 19407
でし 19334
bmym 19326
sxo 19181
ほんと 19126
より 18977
boyy 18887
xdug 18768
び 18753
いち 18668
かん 18601
kom 18520
fvkz 18487
だい 18462
いき 18422
ほう 18337
なり 18230
su 18224
ちょっと 18142
じかん 18135
きょう 17956
zbja 17932
edlo 17809
jdj 17779
やつ 17715
かんがえ 17674
zmya 17666
clr 17642
vbzs 17581
wmgd 17533
sods 17522
われわれ 17367
すべて 17311
rsid 17271
zqrr 17250
wwfk 17169
まだ 17148
vdeh 17128
なか 17122
➡ 16953
いつ 16923
おい 16888
3 16861
そこ 16831
kaig 16794
もっ 16792
jbko 16743
sufp 16691
にん 16674
sjld 16663
きい 16450
ひ 16429
nyi 16415
あ 16390
fzho 16307
gwni 16245
sufl 16221
zsod 16204
あと 16162
み@@ 16147
き@@ 16131
また 16123
せかい 16009
し@@ 16006
なぜ 16004
vxgd 15994
hdyd 15971
よく 15916
ちゃん 15891
ところ 15873
ufzm 15850
aos 15706
さい 15588
おもう 15412
aii 15378
だいじょうぶ 15373
ucl 15371
ぶ 15354
くる 15291
ko 15284
wsb 15165
nhs 15019
erms 14885
rsrs 14856
なんて 14850
nrr 14846
lcym 14831
こんな 14751
か@@ 14726
おとこ 14699
しごと 14684
じょう 14624
wtyd 14586
zy 14584
ぜ 14578
zmzj 14518
fka 14459
ii 14458
てん 14442
nds 14421
neo 14415
fkqm 14393
wski 14383
zbma 14335
あれ 14233
まっ 14206
yzi 14135
odjy 14108
もんだい 14071
い@@ 14054
みな 14017
nlj 14011
xbk 13959
slbj 13943
いっしょ 13874
jykd 13873
buyx 13863
― 13857
こども 13850
zmxs 13825
おなじ 13792
ucq 13752
《 13744
hmy 13720
aij 13713
さま 13704
mbod 13697
kdwl 13635
しょう 13632
xdae 13598
nc 13585
arhm 13541
ありがとう 13533
ちゅう 13458
gjkd 13435
zrtd 13402
ぎ 13351
nbzs 13341
pdw 13226
ゆう 13097
wd 13086
》 12989
kuuc 12963
rrrn 12952
くん 12944
mekb 12936
でしょ 12903
ちょう 12876
しょ 12811
jlo 12795
とう 12754
ま@@ 12742
pvwr 12741
bd 12710
よい 12681
q 12676
pvwx 12667
こ@@ 12665
gdxs 12659
わけ 12651
しら 12617
fdyy 12616
jmua 12599
ア@@ 12590
ちち 12561
かた 12548
yzzi 12531
みたい 12526
pfki 12476
vdwl 12421
ljw 12406
ッ 12274
すぐ 12239
ス@@ 12194
tdro 12191
odaw 12163
ふ 12146
edlc 12089
ldod 12039
zbwr 12021
ほか 12010
vnf 12008
じん 11970
みんな 11899
rssu 11865
akzi 11839
ciz 11727
ked 11710
やる 11706
wdzm 11700
とっ 11674
scvv 11661
ましょう 11661
xmhb 11648
gdq 11641
もし 11641
あんた 11624
fjgo 11617
qmyy 11615
いけ 11596
gdib 11585
flc 11583
evrj 11524
kojl 11520
あい 11507
リ@@ 11475
けん 11474
flvv 11417
たく 11409
( 11387
uanw 11377
snrs 11358
おもい 11356
) 11331
マ@@ 11299
tdrl 11296
でんわ 11293
うん 11267
なさい 11267
にんげん 11262
ggkg 11237
しかし 11123
oiad 11119
せる 11105
kia 11068
baa 11051
lkel 11046
ばしょ 10973
べき 10943
じゅう 10935
しよう 10916
mbbd 10898
ちがう 10852
せん 10848
tigs 10843
た@@ 10829
uagw 10828
ta 10802
kv 10796
oifs 10756
wvrd 10684
dwof 10605
ただ 10531
しれ 10519
じゃあ 10510
zxb 10498
bdrd 10431
wobi 10330
わかる 10308
すき 10291
kfvv 10271
kbxi 10257
つけ 10235
わから 10233
ふ@@ 10170
ja 10148
saii 10111
sujr 10071
ラ@@ 10020
カ@@ 10006
pdpl 9977
xmej 9976
ほど 9973
seda 9944
wdy 9915
たり 9912
すこし 9911
zrsa 9904
symm 9876
しろ 9848
y 9839
や@@ 9761
いわ 9757
ひ@@ 9741
かね 9734
みつけ 9726
じ@@ 9718
zlc 9711
せんせい 9703
とおり 9692
ル@@ 9674
njf 9673
オ@@ 9663
neml 9652
はは 9646
ucgd 9638
まん 9612
nif 9610
aym 9577
syy 9561
うち 9550
イ@@ 9514
ほしい 9507
はず 9506
oojr 9467
さ@@ 9459
は@@ 9447
wyeo 9412
ねがい 9401
ええ 9379
nmz 9348
fsoo 9333
shqc 9318
nk 9316
mfkd 9298
niw 9258
そ 9236
5 9222
rxwz 9163
wdrb 9160
wdds 9158
sysw 9155
vmi 9078
4 9064
sozn 9064
idju 9060
quym 9049
ajug 9038
drk 9023
yzch 9013
もっと 8997
おく 8940
えっ 8939
エ@@ 8912
flwz 8885
gds 8856
よる 8850
pdxw 8833
gdiy 8830
ロ@@ 8774
かみ 8769
でる 8765
symo 8764
られる 8762
xsry 8752
mfea 8750
myw 8710
なまえ 8708
どんな 8663
sbxj 8629
いれ 8625
くれる 8619
vkq 8538
かけ 8534
こう@@ 8503
hma 8491
かんけい 8477
boll 8471
いか 8455
nlwz 8453
いじょう 8449
もん 8448
つぎ 8443
suk 8424
みる 8413
tgfn 8407
しんじ 8391
レ@@ 8383
dkxs 8380
なけれ 8373
ydan 8328
な@@ 8321
ト@@ 8317
わるい 8313
あ@@ 8299
おき 8283
ji 8268
く@@ 8264
udyu 8259
so 8241
うえ 8236
だし 8229
ラ 8229
wdcj 8227
しか 8221
senx 8214
かのう 8214
とても 8213
dfb 8212
バ@@ 8173
vdke 8171
ころし 8153
しつ 8126
ごめん 8123
ぬ 8121
10 8112
cujo 8097
はやく 8052
べつ 8025
bzs 8015
つ@@ 7998
て@@ 7996
くるま 7993
ク@@ 7989
さき 7984
のう 7974
サ@@ 7964
ミ@@ 7956
mlka 7951
すう 7947
たすけ 7933
yrbk 7927
しん@@ 7923
zmrk 7917
jjj 7910
vmzy 7901
シ@@ 7899
コ@@ 7861
ぶん 7860
はじめ 7859
とも 7854
mbj 7821
やめ 7816
みせ 7807
: 7793
zryi 7790
ecq 7789
ひとり 7773
おう 7772
はいっ 7768
pdxs 7761
つき 7754
ed 7746
rgyy 7739
おんな 7739
つもり 7734
ymj 7726
supg 7714
いみ 7712
よかっ 7691
♪ 7680
り@@ 7680
わかり 7671
おしえ 7660
aua 7638
かっ 7635
[ 7630
ばん 7623
cirh 7616
jjjj 7571
vzj 7569
ca 7568
む@@ 7528
] 7523
ki 7505
お@@ 7502
eaon 7480
やく 7453
jial 7442
ド@@ 7410
がく 7390
う@@ 7389
zmux 7353
タ 7349
じょせい 7342
かぞく 7326
sli 7312
さいご 7311
eao 7301
じょうほう 7299
ywbr 7275
と@@ 7273
lklo 7231
xsxi 7231
しんぱい 7229
lkkc 7213
かんじ 7197
wwza 7191
nmro 7189
ナ@@ 7187
eezf 7158
sumh 7157
oxro 7128
ちから 7127
デ@@ 7127
ryia 7111
ufzd 7110
おおく 7110
bwrd 7109
オレ 7106
agd 7103
ubkd 7084
ufte 7060
jrd 7059
dvsm 7056
いん 7056
りょう 7046
shwz 7039
nsc 7027
あいだ 7024
ハ@@ 7012
もと 6990
あげ 6960
ス 6957
tgwz 6925
あたらしい 6914
n 6902
づ 6901
ッ@@ 6898
ggnk 6888
wdbr 6888
aimo 6878
mfte 6864
nrjg 6858
gae 6854
りょく 6837
こい 6820
zsrw 6807
moaj 6805
wslr 6803
ひとびと 6800
ypxw 6798
aekd 6774
くらい 6768
よっ 6751
gxi 6746
れい 6740
oiqx 6729
ダメ 6728
がい 6727
ほうほう 6717
woqy 6707
vszn 6704
こっち 6703
aza 6701
kmc 6694
ucmh 6691
iikm 6682
しゅう 6682
じつ 6680
きゅう 6679
wdhb 6657
よし 6652
りゆう 6649
もどっ 6646
nji 6639
タ@@ 6614
わが 6613
けいさつ 6610
ldjw 6609
yxo 6601
じけん 6596
nmby 6594
nark 6591
さいしょ 6587
ozs 6574
つれ 6572
yybh 6563
kaii 6534
すぎ 6520
かい@@ 6513
edxs 6507
フ@@ 6479
えん 6476
elwr 6471
ち@@ 6464
biqw 6452
evnf 6427
fa 6417
みえ 6409
besr 6405
jaza 6393
6 6392
すれ 6391
さあ 6385
パ@@ 6380
myz 6369
ちゃっ 6364
おぼえ 6363
まち 6353
rsqd 6343
そうさ 6337
かお 6333
fojo 6331
yojo 6330
じんせい 6325
まあ 6314
kogr 6312
こころ 6296
yugq 6293
つかっ 6292
しゅ 6291
vned 6280
しゃしん 6277
ン@@ 6259
felb 6252
bub 6251
よん 6251
ル 6244
fkbz 6240
ちゃ 6230
よ@@ 6227
odxw 6215
なきゃ 6204
edjm 6199
soal 6198
かく 6198
ナ 6192
ござい 6184
smed 6181
kc 6174
wogs 6174
けんきゅう 6167
おわり 6151
ガ@@ 6149
カ 6147
summ 6131
ugli 6120
さがし 6110
bxm 6107
nawr 6106
とう@@ 6104
ぜんぶ 6093
klgd 6088
ドル 6073
けい 6055
bk 6049
ほ@@ 6048
など 6034
aepd 6032
edeq 6031
zmsx 6022
リー 6020
dexs 6019
sbwr 6014
かん@@ 6014
ぷん 6010
tgob 6007
ウ@@ 5994
むすめ 5989
リ 5984
もちろん 5971
txld 5966
kcq 5963
ub 5962
すい 5954
つまり 5946
qia 5943
こん 5940
ざい 5940
メ@@ 5934
どの 5932
mmgd 5920
fjvv 5915
sulm 5906
2人 5903
むすこ 5901
あたま 5894
まま 5894
けっこん 5890
きき 5888
sooy 5879
なし 5874
やろう 5868
mblk 5859
alb 5852
ともだち 5851
モ@@ 5842
ufsg 5828
せん@@ 5822
pyqj 5812
ン 5808
はん 5802
へや 5801
vtex 5791
bno 5783
kskp 5782
bdko 5780
ぐ 5774
znkv 5771
へん 5764
vwof 5763
ブ 5754
キ@@ 5749
いこう 5744
そう@@ 5740
ママ 5734
あいつ 5715
こそ 5715
, 5711
uo 5709
mfkb 5707
sskh 5670
かえる 5653
tisr 5627
じゅうよう 5626
shbi 5618
iiak 5615
だ@@ 5603
ク 5603
cdvs 5599
soos 5599
りかい 5597
なんか 5590
wxuc 5584
wsz 5583
やり 5577
とり@@ 5565
pszr 5548
≪ 5536
たべ 5532
cd 5531
みち 5527
わすれ 5523
rloa 5520
ブ@@ 5518
じっさい 5513
め@@ 5512
rrxi 5509
テ@@ 5507
snds 5502
tgkk 5498
こちら 5498
パパ 5494
vsnd 5485
szq 5481
bjrw 5480
つくっ 5474
zrj 5471
めい 5471
セ@@ 5461
myal 5460
すばらしい 5456
がっこう 5436
ネ@@ 5421
ことば 5420
bimo 5416
kmid 5415
きん 5413
eej 5410
バカ 5404
こえ 5403
イ 5399
ご@@ 5389
・@@ 5388
に@@ 5386
wdml 5385
いったい 5384
ビ@@ 5373
たい@@ 5364
かいしゃ 5356
せい@@ 5345
tgij 5339
sqxa 5299
からだ 5292
も@@ 5289
とめ 5264
wdwx 5263
ニ@@ 5232
の@@ 5221
がわ 5218
しょう@@ 5210
たしか 5210
しり 5194
ffbk 5187
ベ@@ 5187
かがく 5169
が@@ 5168
e@@ 5147
まったく 5141
ダ@@ 5131
ね@@ 5128
vsc 5127
むり 5126
じしん 5125
コ 5122
zszr 5115
かえっ 5113
njej 5110
アメリカ 5110
aks 5106
wooj 5094
かえ 5094
nfj 5092
nblo 5090
zki 5088
ろう 5062
fjw 5047
れんらく 5047
sxy 5045
うけ 5038
mfrr 5037
dgxs 5036
こく 5032
mazy 5022
こたえ 5019
ほん 5019
じゅんび 5014
bi 4998
おおきな 4993
f@@ 4987
うまく 4985
bmy 4979
おり 4971
ふく 4971
jiku 4970
ボ@@ 4969
わたし 4962
ほら 4960
じょう@@ 4957
fman 4951
sxs 4947
dzs 4946
ア 4941
ころさ 4936
t@@ 4935
きけん 4925
なに 4924
す@@ 4915
alll 4907
8 4904
hsbi 4899
だす 4897
ぜん 4887
rxb 4882
ソ@@ 4882
ディ@@ 4879
うそ 4875
きのう 4874
uook 4867
しまっ 4867
ゆめ 4867
ジ@@ 4858
だめ 4857
ecb 4853
ころ 4852
ック 4851
mbjw 4844
ぶ@@ 4841
すごい 4836
ぜったい 4824
i@@ 4814
した 4809
グ@@ 4807
wtxi 4806
frj 4804
え@@ 4803
いちばん 4801
とり 4797
きょう@@ 4794
dszm 4785
しぬ 4785
qvoz 4772
bo 4768
せき 4768
nsu 4765
1人 4764
dqx 4763
rzll 4750
たくさん 4743
マ 4732
mfj 4730
yzke 4719
やくそく 4716
7 4709
jilw 4706
はんにん 4706
ール 4693
そ@@ 4689
nelz 4688
ズ 4660
ncqx 4659
あいて 4659
たっ 4657
nfvv 4648
manl 4637
yrmb 4637
rrgo 4636
きょく 4636
だん 4633
くに 4622
nd 4609
さつじん 4605
sh 4604
cua 4602
ほう@@ 4602
せつめい 4601
あす 4591
wdrj 4590
syyw 4589
ねぇ 4585
そと 4579
まい 4579
まず 4570
チ@@ 4557
うっ 4554
しき 4554
vjrd 4549
zixs 4549
tgzs 4543
あんぜん 4541
ぼう 4533
おお@@ 4531
kieo 4529
けっか 4519
そんざい 4513
スト 4487
なかま 4484
nhkd 4480
ながら 4478
ちょう@@ 4475
こうげき 4473
kakb 4455
わ@@ 4455
ゆう@@ 4447
eawl 4442
ひき@@ 4438
ermc 4436
える 4432
xmyj 4431
pxkv 4430
enrr 4426
drqd 4423
ート 4419
たかっ 4418
nlkd 4415
mfwm 4414
20 4411
しゅう@@ 4408
ぎ@@ 4404
げん 4402
mxk 4394
pdao 4394
jjiw 4392
ら@@ 4386
kic 4382
じょうきょう 4379
どれ 4379
ufcq 4377
qyxs 4375
udyz 4375
odw 4363
ころす 4356
はじめて 4353
かし 4350
じこ 4347
ga 4346
bdol 4340
ぜん@@ 4331
wdjk 4326
しつもん 4324
けいかく 4320
ピ@@ 4319
いのち 4314
odnd 4313
xbby 4312
odwg 4309
dai 4306
キ 4305
ム@@ 4302
ぎじゅつ 4296
ゆうじん 4291
チ 4291
こいつ 4288
oikr 4282
ちがい 4282
ふたり 4281
ごう 4276
すみ 4270
jino 4269
みず 4251
uakk 4238
さいこう 4238
egj 4232
ホント 4228
cilo 4225
やま 4225
n@@ 4217
かくにん 4207
マン 4202
ケ@@ 4200
kbuo 4195
jdds 4194
yomf 4185
ム 4183
しらべ 4182
ヒ@@ 4178
もっとも 4174
び@@ 4172
cugs 4170
かんたん 4166
あう 4160
おっ 4160
かげつ 4160
びょういん 4151
すん 4144
dkai 4139
9 4138
ば@@ 4134
ロ 4134
け@@ 4123
リン 4115
yrrn 4110
らい 4098
wxo 4095
みえる 4093
てい 4092
やら 4088
edyy 4083
ラー 4083
nzod 4079
おこっ 4076
ba 4072
いろ 4071
にげ 4070
skbr 4058
oibb 4057
zse 4055
wdya 4051
rli 4049
suuo 4035
かしら 4035
ノ@@ 4033
つづけ 4025
ホ@@ 4024
ゆ@@ 4019
ット 4018
くち 4017
zmxw 4014
edj 4010
ワ@@ 4010
あに 4009
mwy 4004
フ 4004
jd 4003
zsgp 3997
lw 3983
きっと 3981
しゅうかん 3968
びょう 3964
jdot 3960
cekh 3958
きもち 3954
はなす 3950
おもわ 3945
dbbi 3943
みろ 3941
ゴ@@ 3941
bdrg 3933
wdaj 3932
axzm 3926
っと 3923
ずっと 3910
mbds 3907
はい@@ 3904
まて 3903
ちきゅう 3901
さく 3898
けん@@ 3897
hmlk 3891
ディ 3889
しゃかい 3888
あいし 3881
めん 3874
あぁ 3868
c@@ 3860
xddm 3859
たいへん 3858
ひじょう 3857
ばあい 3854
ジョン 3852
zmal 3848
そうぞう 3841
% 3839
せいかつ 3839
ソン 3824
ぐん 3819
どうぞ 3809
じゅうぶん 3801
プ@@ 3801
こうどう 3800
とし 3798
bskr 3788
ahii 3787
あし 3786
ぜんいん 3784
しま 3779
ペ@@ 3772
cirx 3769
kbsu 3763
はん@@ 3758
ヘ@@ 3753
a@@ 3749
jdf 3742
zsj 3741
かんじゃ 3730
pxoa 3723
すま 3717
xd 3716
システム 3713
ポ@@ 3713
いし 3712
きょうみ 3704
つま 3704
しょく 3695
ど@@ 3695
vell 3694
きょうりょく 3694
boqu 3693
ytyn 3690
いいえ 3686
さい@@ 3682
イン@@ 3672
fkvv 3670
jirj 3663
たのむ 3663
domi 3662
さいきん 3661
カード 3657
uanl 3650
edfd 3649
かり 3647
けい@@ 3646
しょうこ 3644
とる 3637
なれ 3637
mfjc 3632
かわり 3632
eak 3631
かんし 3630
wdzf 3619
とく 3614
もらっ 3612
かいけつ 3611
qmi 3610
ヤ@@ 3604
ちゃんと 3600
dkcx 3598
はっけん 3596
いたい 3592
まちがい 3590
zzsk 3589
skwz 3586
dpgx 3583
ツ@@ 3582
あたえ 3581
dry 3580
wdad 3574
こうか 3571
keok 3567
さらに 3565
さえ 3562
むかし 3556
dnym 3547
vhaj 3547
bukk 3545
tird 3545
フィ@@ 3544
bhja 3542
てん@@ 3541
ばい 3541
ldbj 3539
nlug 3531
しゃ@@ 3530
チーム 3529
lyhd 3525
かく@@ 3520
ksk 3516
fyxa 3512
ヤツ 3511
wdki 3510
もつ 3510
bohz 3499
30 3497
ード 3491
zskh 3490
データ 3483
ふつう 3482
dkib 3481
ぼ 3474
ysy 3464
oiui 3463
vqf 3462
えん@@ 3453
kcwz 3452
じゆう 3449
しまう 3444
こんど 3430
ゲーム 3427
ツ 3416
lco 3415
で@@ 3415
バー@@ 3413
コン@@ 3412
うちゅう 3407
b@@ 3403
− 3403
aijr 3402
uazw 3398
いろいろ 3396
boyj 3394
かち 3378
symr 3377
かわっ 3375
どう@@ 3371
ちちおや 3359
っ@@ 3359
バ 3359
vwko 3358
ダ 3356
jyms 3344
しゅ@@ 3344
じょうたい 3343
われ 3343
つく 3341
ニー 3340
zrha 3339
ニ 3336
おわっ 3335
zflk 3334
oiiy 3326
こん@@ 3320
ばかり 3318
つくる 3316
fds 3315
tgnd 3314
v@@ 3311
きゃく 3309
きゅう@@ 3304
me 3303
きく 3301
p@@ 3297
ー@@ 3297
j@@ 3290
だいじ 3287
hmaw 3281
つたえ 3278
smym 3277
いがい 3276
だいがく 3273
けいじ 3269
はな 3269
よう@@ 3267
odxj 3265
がん 3254
げん@@ 3254
まもる 3253
けいたい 3252
らしい 3248
e 3247
yby 3246
ucbi 3245
ーン 3245
きかい 3244
たいし 3237
あげる 3236
ひどい 3236
hbkd 3235
tirr 3232
dgh 3231
しあわせ 3228
つかう 3228
ジャ@@ 3228
しつれい 3226
uskw 3220
しい 3219
mbsr 3217
のっ 3215
vlkd 3214
かんしゃ 3209
nskw 3208
かんがえる 3208
ント 3207
ちいさな 3205
さて 3204
あんな 3195
げんざい 3195
オ 3195
あけ 3192
ふう 3186
cizy 3185
きん@@ 3184
バー 3183
せきにん 3176
fxo 3172
ティ 3172
ncds 3164
えいが 3161
せんたく 3161
nx 3155
jdjr 3154
lomo 3154
ははおや 3150
ゃ 3149
hiy 3148
みらい 3148
sulw 3138
あさ 3137
ほとんど 3136
ちょうさ 3134
フェ@@ 3133
きか 3130
ぶつ 3122
ミ 3116
ldoo 3114
せいふ 3114
uxb 3112
げんき 3110
うた 3109
tdow 3108
ねんかん 3101
fj 3098
うまれ 3098
あまり 3096
bdzm 3093
なぁ 3093
ファ@@ 3090
じだい 3076
vxs 3072
1@@ 3067
やっぱり 3065
yaj 3064
kiai 3062
かえり 3061
すい@@ 3061
おと 3055
nirp 3050
svze 3048
ティ@@ 3043
rjgq 3041
ザ@@ 3032
オー@@ 3027
oibo 3024
gdj 3019
ズ@@ 3018
しる 3009
rh 3008
けつ 3007
スト@@ 3007
ほん@@ 3003
ぼう@@ 3003
qyfn 2997
edld 2992
dpwx 2988
はかせ 2986
tdrz 2985
s 2984
uawd 2983
かた@@ 2982
qmkr 2981
yznl 2981
そく 2980
ggfi 2977
りよう 2975
nrs 2972
すぎる 2969
biym 2968
せいこう 2954
r@@ 2953
ライ@@ 2952
けいけん 2950
100 2946
こんや 2942
ひがい 2941
ノ 2937
gdaj 2935
えいきょう 2935
スター 2935
たび 2931
aekb 2926
よば 2923
ubxj 2921
ちゃう 2918
qehh 2913
もどる 2905
qujr 2900
じゅう@@ 2899
『 2898
ジェ@@ 2897
ーク 2897
むら 2896
マー@@ 2895
ひみつ 2894
あん 2889
dmvv 2888
そしき 2888
yzyt 2887
gdbi 2886
キャ@@ 2886
』 2881
ドア 2880
ほうこく 2879
かかっ 2878
おい@@ 2877
ース 2877
ぞう 2876
ざんねん 2868
いっ@@ 2864
taii 2862
ちりょう 2862
うみ 2860
かこ 2859
さん@@ 2858
かつ 2856
しく 2855
akos 2854
かんぜん 2854
ひん 2853
ぎょう 2852
C@@ 2851
50 2850
たとえば 2849
ギ@@ 2841
きろく 2837
とい 2835
nek 2834
いち@@ 2832
xmsb 2828
ロー@@ 2825
すでに 2823
かなり 2822
きめ 2819
q@@ 2818
dxs 2817
vhau 2817
ちゅう@@ 2815
ジ 2815
yske 2811
やれ 2806
bjuj 2802
ぬ@@ 2802
u@@ 2797
チャ@@ 2797
てい@@ 2796
celw 2794
ce 2791
rs 2791
wxkv 2789
おっと 2789
たいほ 2788
” 2786
せんそう 2785
はかい 2785
tirq 2781
のうりょく 2779
ehsr 2778
まる 2778
ヶ 2777
co 2776
はんざい 2773
cljr 2766
おん 2763
fekg 2761
せ@@ 2761
トン 2761
ふね 2760
もらう 2759
いぬ 2754
ウ 2754
flkd 2753
ゲ@@ 2753
elgd 2751
ひと@@ 2751
クソ 2751
まわり 2749
ごと 2747
とこ 2747
xmki 2746
たち@@ 2746
t 2743
ける 2742
める 2742
ラン@@ 2741
ぞく 2734
はなれ 2731
' 2730
krjr 2730
カメラ 2728
グ 2728
ekgk 2725
おかげ 2725
おけ 2725
ちかく 2725
sjkg 2722
しまい 2716
かつどう 2714
miz 2713
jos 2710
qmlc 2706
zmbk 2705
odii 2702
すがた 2695
へ@@ 2694
べんご 2692
15 2686
もくてき 2683
しんじつ 2682
せいぶつ 2681
kkd 2680
シ 2679
S@@ 2674
ようい 2674
wtkr 2672
anrs 2670
アン@@ 2670
odmf 2669
nxby 2668
かならず 2666
いしゃ 2662
らく 2658
さんか 2656
fff 2652
ろ@@ 2648
しょ@@ 2642
vprh 2640
きおく 2639
A@@ 2636
aigo 2636
gdnd 2636
drlg 2635
りつ 2635
サ 2635
ざ 2633
もち@@ 2633
zobz 2627
はつ 2627
M@@ 2625
たて 2625
めい@@ 2624
szok 2619
ぐ@@ 2617
skf 2615
ながい 2614
げ@@ 2611
へい 2609
ぐらい 2608
ank 2607
げんじつ 2607
たいせつ 2607
vkrr 2606
ひかり 2606
つみ 2604
わら 2604
むかっ 2603
レ 2602
とくべつ 2601
りょう@@ 2600
いらい 2599
さっき 2596
むし 2595
おんなのこ 2594
きこえ 2594
はたらい 2591
qwry 2589
たかい 2588
とにかく 2588
だいとうりょう 2585
uf 2584
rhyk 2583
eof 2582
おう@@ 2581
ぜんぜん 2581
りゅう 2581
シャ@@ 2581
akds 2580
nhlo 2578
zoaj 2577
へんか 2577
m@@ 2576
wxjs 2576
ymyq 2570
うれしい 2569
ciq 2568
のみ 2568
いっぱい 2566
osgl 2565
アル@@ 2563
vsu 2559
ひこう 2558
ぶき 2558
afvv 2556
たたかい 2556
おくっ 2554
ufw 2552
おもしろい 2551
txa 2550
〈 2549
カー 2549
おそらく 2548
jdbn 2545
かぎり 2545
びょうき 2545
レベル 2545
たん 2543
ucuj 2542
どうぶつ 2537
まちがっ 2535
たがい 2533
きえ 2527
シー 2524
oijm 2522
vbza 2518
ジャック 2516
dka 2513
せいしん 2510
あら 2503
やめろ 2503
えき 2500
イン 2500
lprm 2494
qry 2494
すごく 2494
ykro 2492
かぎ 2492
ぶん@@ 2492
txi 2490
xdud 2486
げんば 2486
ぼ@@ 2486
xmeh 2482
れ@@ 2481
あたり 2480
wyd 2479
あそこ 2479
じじつ 2479
しぜん 2476
vdnd 2472
だんせい 2472
こんかい 2470
がた 2465
かわいい 2458
o@@ 2457
ド 2456
つかわ 2454
いぜん 2452
きかん 2452
ブラ@@ 2452
boqy 2450
yi 2450
つかい 2450
はいる 2450
tgff 2447
jni 2442
odjk 2439
〉 2438
g@@ 2437
しょうかい 2436
fdm 2435
vxi 2435
きり@@ 2433
rrrr 2431
クリ@@ 2431
mfld 2430
sisr 2430
oiqm 2425
vgnk 2423
じん@@ 2423
そうち 2421
s@@ 2420
vklk 2418
かべ 2417
fgi 2413
12 2412
yy 2411
ビー 2411
ッド 2410
たん@@ 2406
おはよう 2403
とくに 2403
じゃん 2401
じょ 2400
きれい 2399
mzvv 2396
eaqm 2392
せつ 2384
ふく@@ 2384
rhyw 2381
ト 2377
ざ@@ 2376
テレビ 2375
けいかん 2370
カー@@ 2370
d@@ 2368
uoeg 2366
さけ 2366
すわっ 2366
yymo 2365
かえし 2363
odmw 2362
ックス 2361
dpd 2359
dsqd 2359
hos 2359
かんきょう 2356
ただしい 2354
m 2353
ヤ 2352
ggb 2350
めいれい 2350
みつける 2348
エネルギー 2348
おや 2346
ーム 2345
oxwy 2344
いどう 2344
tgel 2343
づ@@ 2343
ビ 2343
zozw 2340
つかれ 2340
だん@@ 2339
deki 2337
xi 2336
キミ 2336
vnsm 2335
ず@@ 2334
tgfk 2332
zyja 2332
むずかしい 2332
zmwl 2328
uosu 2324
vpya 2323
させ 2323
b 2321
しっぱい 2321
じっけん 2321
だい@@ 2321
せいと 2318
mle 2317
kyyn 2312
とりひき 2312
xsju 2311
つき@@ 2311
はなせ 2310
ほし 2309
かくし 2307
まいにち 2307
ウィ@@ 2305
iaa 2299
けいざい 2297
もち 2294
ハー@@ 2294
ちゃ@@ 2292
qmc 2289
oxpx 2287
pxby 2287
ubyy 2284
vmrd 2283
くすり 2283
りょうしん 2283
ro 2282
zmkm 2282
きょ 2282
あい@@ 2281
ッチ 2281
djjf 2280
l@@ 2278
fpd 2277
vfd 2276
むこう 2275
odok 2273
おもい@@ 2272
づけ 2272
かいはつ 2271
はら 2268
うで 2267
よろしく 2266
mbqf 2264
のこっ 2264
メール 2264
リア 2264
sk 2263
rsvv 2262
kcfk 2261
きたい 2260
じゃま 2260
さいぼう 2259
zmuj 2258
D@@ 2256
equk 2254
ガ 2253
ゴ 2253
A 2249
ジョ@@ 2249
おち 2248
きづい 2246
ちゅうい 2246
きらい 2245
wtfb 2244
たつ 2244
chgx 2242
つける 2242
へいき 2240
ダー 2240
wwqd 2238
rsf 2237
bdok 2233
ほ 2233
あえ 2232
hbmo 2229
うごき 2229
こじん 2229
ぁ 2227
じょうだん 2227
もらい 2227
sulg 2225
しょうめい 2224
あわせ 2223
まるで 2223
きょ@@ 2222
アイ@@ 2219
こわい 2216
ぶぶん 2216
ぶり 2215
きぶん 2212
ふかい 2212
のん 2211
しゃちょう 2210
ngbi 2207
うち@@ 2204
mfkm 2203
チャンス 2201
nixm 2197
あん@@ 2197
marm 2195
cejc 2193
wdbk 2187
なあ 2187
bdnd 2186
ゆいいつ 2183
つよい 2181
rz 2179
おし@@ 2179
mise 2177
いしき 2177
プロ@@ 2176
いもうと 2169
ee 2168
r 2168
いただき 2167
つか 2167
fmo 2166
ばか 2163
うんてん 2161
fvbk 2159
bmrr 2158
ヴィ@@ 2157
きり 2155
なくなっ 2152
おん@@ 2150
ださ 2149
さつ 2148
げき 2147
こうかい 2146
ldia 2145
にっぽん 2145
しゅじゅつ 2141
saua 2139
ほご 2138
edwz 2137
きっ 2136
とら 2135
まつ 2131
はな@@ 2129
xsly 2127
とめる 2127
ップ 2127
5@@ 2126
dyms 2125
にち 2124
こうこう 2123
しゅぎ 2123
わかい 2118
hxz 2115
せいじ 2115
ゆ 2114
ビル 2114
すて 2111
アー@@ 2111
コー@@ 2111
つくり 2110
へん@@ 2110
ばんごう 2109
メ 2109
けいむ 2108
けっこう 2107
むけ 2107
nswa 2102
かわ 2102
がい@@ 2101
ネット 2101
lk 2100
きず 2100
felc 2093
おんがく 2092
トラ@@ 2091
もり 2090
キー 2090
おとうと 2089
じんぶつ 2087
ーズ 2087
suc 2086
きぎょう 2086
そいつ 2085
かかる 2084
rld 2082
feko 2081
かんじょう 2081
モンスター 2080
ラン 2080
リスト 2080
みん 2079
♫ 2077
せいちょう 2077
らし 2077
いちぶ 2076
fcbi 2074
きょうだい 2074
ぽん 2074
わるく 2073
rhay 2072
kbvv 2071
qya 2070
たぶん 2067
すてき 2064
オン 2064
mh 2063
まけ 2063
ナー 2063
じんるい 2058
ネ 2058
ちょうど 2057
がんばっ 2053
wmni 2051
nxwx 2050
じき 2049
マジ 2049
じたい 2048
せんぱい 2048
はいり 2047
4@@ 2046
さいばん 2044
nsrh 2042
おお 2042
ぞんじ 2042
zhzi 2040
いら 2040
きぼう 2040
うしろ 2038
xmmh 2037
ydj 2037
ガン 2037
zuza 2035
sps 2034
あや@@ 2034
mfl 2032
のこり 2030
hxvv 2028
げんいん 2027
てろ 2027
symy 2026
なん@@ 2025
フォ@@ 2020
しんらい 2017
あきらか 2014
じゅつ 2014
とうぜん 2012
h@@ 2011
おもえ 2011
l 2010
mfcl 2009
そら 2009
dni 2007
つね 2007
ほんもの 2006
oixb 2005
vdjj 2004
zyy 2004
npxs 2003
いき@@ 2003
mdl 2002
tgby 2002
ぞ@@ 2002
もらえ 2002
ぶじ 2001
はんのう 2000
ッシュ 2000
かてい 1999
mbmc 1997
どく@@ 1997
ぎせい 1995
れきし 1995
mbmh 1994
しっかり 1994
ヨ@@ 1993
sjag 1992
ちいき 1992
みみ 1992
もうしわけ 1992
19@@ 1991
z 1991
ドラゴン 1991
-- 1990
しょうがい 1989
ケ 1982
ちゅうごく 1981
けっ@@ 1980
せいめい 1979
ちょ@@ 1979
ごらん 1978
xbjd 1977
fv 1976
wd@@ 1976
I@@ 1970
vdom 1969
そりゃ 1969
h 1966
wdjn 1965
かたち 1965
シェ@@ 1964
qmgs 1962
さぁ 1962
わし 1961
しんよう 1959
ンド 1958
まさか 1957
ター 1956
ybob 1955
ステ@@ 1955
sopd 1953
きれ 1951
mfk 1949
lkbm 1941
你@@ 1941
suld 1939
ひょう 1939
でん@@ 1938
wdmh 1937
テ 1936
tgxk 1935
raa 1934
うしなっ 1934
おかしい 1933
あたし 1932
あらわれ 1932
ビデオ 1931
くび 1930
啊 1929
アンタ 1928
こむ 1927
ぜんたい 1927
ルー@@ 1925
ンス 1925
かって 1924
らん 1921
ぎんこう 1920
しょうじき 1919
まぁ 1919
ロー 1917
vdcm 1916
ooj 1915
もとめ 1915
テスト 1915
りょうり 1912
わかれ 1912
fjai 1911
どっち 1911
こみ 1910
ush 1908
wslc 1908
ボス 1907
hmlr 1903
おじ 1901
チェ@@ 1901
リー@@ 1901
pyml 1900
いりょう 1899
T@@ 1898
nsj 1897
いれる 1896
ザー 1896
がら 1894
れつ 1894
しめ 1892
せいかく 1890
11 1889
あわ 1889
したい 1888
たって 1888
とん 1887
— 1883
たいする 1883
nuyu 1882
eb 1881
きょういく 1881
アン 1881
ザ 1881
いくら 1880
やすみ 1880
ジー 1880
どうよう 1879
にゅう 1879
ほんき 1878
うつくしい 1877
うら 1874
ざん 1871
ひっ@@ 1870
ndgo 1868
だまっ 1868
どちら 1866
ウォ@@ 1866
おこる 1865
おおきく 1863
しずか 1863
デザイン 1863
とれ 1862
fkqz 1861
しゅじん 1861
i 1859
lodm 1859
レン@@ 1859
つかえ 1858
arkd 1857
w@@ 1857
る@@ 1857
リング 1857
おおい 1856
enaj 1855
ヴァ@@ 1853
かんり 1852
かず 1851
だせ 1851
シュ@@ 1850
すむ 1849
まほう 1849
k 1848
とび@@ 1847
まん@@ 1847
d 1844
どく 1843
よてい 1842
tgrs 1839
ふめい 1839
クラ@@ 1839
ねこ 1838
3@@ 1835
uklx 1835
nako 1833
むだ 1833
るい 1833
umzy 1832
かける 1832
れんちゅう 1828
まかせ 1825
D 1823
ひょう@@ 1822
まさ 1822
けさ 1821
ikrd 1820
みとめ 1820
しじ 1819
しょうねん 1817
れん 1817
ランド 1814
レッド 1814
xmoq 1813
サー 1813
っけ 1812
モ 1811
つづける 1809
っす 1806
いでん 1804
かんぺき 1802
llaj 1801
qmek 1801
レイ@@ 1801
つよく 1800
ニュース 1800
E@@ 1799
vdwf 1799
けんさ 1799
じい 1798
6@@ 1797
snd 1797
かんじる 1797
あがっ 1796
うつ 1796
djlo 1793
ssya 1793
アイデア 1793
すくなく 1790
スタ@@ 1790
ゼ@@ 1788
ボール 1788
ベル 1782
dxhb 1781
maju 1781
─ 1781
たいよう 1780
ajkk 1779
みつ@@ 1778
jrz 1777
ろん 1776
やく@@ 1774
レス 1773
2@@ 1771
とけ 1769
モン 1769
とつぜん 1767
ボク 1767
cewz 1766
あらゆる 1765
だいすき 1765
アフリカ 1764
グループ 1764
ロボット 1764
wo 1763
uaku 1762
ジュ@@ 1762
まもっ 1760
S 1759
ちか 1755
yurm 1753
kkgh 1752
りゅう@@ 1751
おちつい 1749
げる 1749
ロン 1749
iiuz 1747
はし 1747
ちかい 1746
しんぞう 1745
vbok 1744
ホテル 1743
fdqe 1742
あかちゃん 1740
けっして 1740
りん 1740
bhv 1739
fdmj 1739
はやい 1739
ごう@@ 1737
メッセージ 1737
えいぞう 1736
こく@@ 1736
vqx 1735
もどり 1735
しょうたい 1734
ふた 1734
000 1733
はる 1731
sjko 1730
ん@@ 1730
“ 1728
のう@@ 1728
くっ 1727
さまざま 1727
のぞん 1726
はんぶん 1725
ものがたり 1724
ry 1723
しょうじょ 1723
ック@@ 1723
uxgd 1721
うら@@ 1721
おとな 1721
しつ@@ 1721
なか@@ 1720
におい 1720
ふくざつ 1720
cuxi 1717
hxlo 1717
サム 1717
ちがっ 1716
マイク 1716
wsjk 1715
lokd 1714
こうい 1714
ばん@@ 1714
jro 1712
おこし 1711
わっ 1711
vsnr 1710
かんせん 1710
nxjm 1708
あつめ 1708
ばくはつ 1708
ゆっくり 1708
けっきょく 1707
つかまえ 1707
そっち 1706
ihgk 1705
oylo 1705
コード 1702
smiy 1696
しゅんかん 1696
おやじ 1695
きょうかい 1694
せんもん 1694
ルト 1694
くつ 1693
xmst 1692
した@@ 1691
わり 1691
zmer 1690
こんにちは 1688
vcq 1687
hb 1685
xohr 1685
ふるい 1684
xmsc 1683
パー@@ 1683
サン 1682
bsy 1681
P@@ 1680
yd 1680
ていきょう 1680
gkm 1679
さいあく 1679
qroz 1677
vkia 1677
おそれ 1677
ふり@@ 1677
きけ 1676
sbja 1675
リス 1675
gij 1674
たのしみ 1674
rjry 1673
ぶたい 1673
ようぎ 1673
あら@@ 1672
けんこう 1672
ニューヨーク 1672
bwz 1671
jdej 1671
dyj 1669
じゅ@@ 1669
たんじょう 1669
ハン@@ 1669
FBI 1668
サイ@@ 1668
はっ 1666
じんこう 1664
へい@@ 1664
yms 1663
じゅん@@ 1663
とうじ 1663
fdor 1662
xmlk 1662
けいび 1661
なみ 1661
R@@ 1660
つう@@ 1659
zlod 1658
わる 1658
jrlg 1654
ひろ@@ 1654
プログラム 1653
じさつ 1652
N@@ 1651
c 1650
はんたい 1650
れい@@ 1650
40 1649
はんだん 1648
やあ 1648
あて 1647
つう 1647
zjjf 1644
たのしい 1644
bkb 1643
うごく 1643
よぶ 1643
―― 1641
とおし 1640
さがす 1639
みつかっ 1639
のり@@ 1638
マー 1637
さくひん 1635
O@@ 1634
ようす 1633
bdzn 1631
ucsx 1630
しばらく 1630
uzlo 1629
たえ 1628
こうじょう 1626
そん 1626
わかん 1626
いっぽう 1625
シン@@ 1625
ebzs 1624
プ 1624
いた@@ 1622
ねん@@ 1622
しんじる 1621
サン@@ 1621
7@@ 1614
I 1614
あく@@ 1612
klzw 1610
あな 1609
f 1608
ウソ 1608
にん@@ 1607
かんする 1606
こま 1606
pmod 1604
かくしん 1603
かげ 1603
がん@@ 1602
しんけい 1602
のこし 1602
りょうかい 1602
hoqx 1601
ydsw 1600
やっと 1600
しょうかん 1599
rsbk 1598
xmka 1596
mqym 1593
せわ 1590
しぼう 1589
lxo 1588
u 1587
zyms 1586
ハイ@@ 1586
にく 1584
ばくだん 1584
まり 1583
fkal 1582
えい 1582
しょくじ 1582
なつ 1581
にんむ 1580
さく@@ 1579
ガス 1579
mlgq 1578
マル@@ 1578
kyju 1577
wozw 1577
にゅう@@ 1577
gdli 1576
maed 1576
うる 1576
fhe 1575
みよう 1575
ーター 1573
プロジェクト 1572
kirj 1571
えらん 1571
さいだい 1571
8@@ 1569
あたえる 1567
ショー 1567
おか 1565
たのん 1563
ボ 1563
しに 1562
dps 1559
べんきょう 1559
ehfk 1556
fkxb 1556
たべる 1556
おくれ 1555
てっ 1555
ター@@ 1555
srh 1553
かわ@@ 1550
きる 1546
ai 1544
nkw 1544
かぜ 1544
りこん 1544
せろ 1543
はっきり 1543
tel 1542
さっ 1542
pskr 1541
wdjg 1541
ゆうき 1541
ライト 1538
ngs 1536
おも@@ 1535
こうえん 1534
ろう@@ 1534
ゆるし 1533
さる 1532
fbi 1531
scqa 1531
いける 1531
ウェ@@ 1531
vaj 1530
たてもの 1530
はじめる 1530
さくせん 1529
はなさ 1529
てき@@ 1527
ぶんか 1526
パーティー 1526
たたかう 1524
ソ 1524
いたし 1523
むね 1523
コーヒー 1523
skv 1522
xdsk 1521
マン@@ 1521
たんとう 1520
ちょ 1520
きょか 1518
zm@@ 1517
アル 1517
あらた 1514
のぞみ 1513
ロック 1513
かいほう 1512
きょうじゅ 1512
o 1510
ミス 1509
いそい 1508
さし@@ 1508
しじょう 1508
きほん 1507
しんにゅう 1507
ベッド 1506
ンズ 1506
まく 1505
びょう@@ 1504
ライン 1504
うんめい 1503
きまっ 1503
いだい 1502
ううん 1502
はっ@@ 1502
せいき 1501
キス 1500
pklo 1498
wdan 1497
うま 1497
かわら 1497
ほしょう 1494
くう@@ 1493
おち@@ 1492
きょうふ 1492
ごはん 1490
むかえ 1490
せよ 1489
fvxb 1488
ぬし 1488
ほうこう 1487
がっ 1485
C 1483
こうせい 1483
いけん 1482
しみん 1482
se 1479
ニック 1478
すすめ 1475
はこ 1475
パー 1475
ksjk 1473
かいぎ 1473
てつだっ 1473
デート 1473
sukz 1472
uaol 1472
いえる 1472
きこえる 1472
パン 1470
k@@ 1469
いじ 1468
9@@ 1467
glds 1467
ぐち 1467
しえん 1466
dpf 1465
vuc 1465
xmzz 1464
さいしゅう 1464
たましい 1464
くし 1461
バン 1461
xmil 1458
くらし 1458
せっ@@ 1457
jikk 1456
いたる 1456
しゅつ 1456
にげる 1456
ゆき 1454
akwz 1453
eazl 1453
れん@@ 1453
wspd 1452
おいしい 1452
ciyg 1450
dxwl 1450
ぽ 1450
mxy 1444
mb 1443
そっ 1443
まど 1443
レン 1443
たずね 1442
なにもの 1441
hmaz 1440
しはい 1440
エル 1439
やがっ 1438
しめし 1437
fmjl 1436
おどろく 1436
ぶっしつ 1436
チャ 1435
sonk 1434
ytyt 1434
はじまり 1434
ブラック 1434
つくら 1432
sswl 1431
しょうらい 1430
あくま 1429
ぬすん 1429
ふる@@ 1429
B@@ 1427
ダイ@@ 1427
きさま 1426
おもいだし 1425
がくせい 1424
デ 1424
モデル 1424
ひさし 1423
きち 1422
くら@@ 1422
しせつ 1421
ぼっ 1421
もじ 1421
から@@ 1420
じどう 1420
もくひょう 1420
レイ 1420
あきらめ 1419
のむ 1419
やすい 1418
zwld 1417
wdcs 1416
しかも 1416
mfwg 1415
あか@@ 1415
けんり 1415
じてん 1414
セル 1414
どうじ 1413
バス 1412
gdbk 1411
y@@ 1410
しょく@@ 1410
とうし 1410
なが@@ 1410
200@@ 1409
ふう@@ 1409
ぱ 1408
あるい 1407
ぇ 1406
くせ 1405
ちいさい 1405
吧 1404
クス 1403
ルール 1403
eenr 1400
しきん 1399
erjm 1397
けいやく 1397
ゆび 1397
z@@ 1396
かくれ 1396
サー@@ 1396
しな 1394
インド 1394
shya 1393
udfd 1393
くんれん 1393
ない@@ 1392
がく@@ 1391
たろ 1389
かいし 1388
きぼ 1388
eczy 1386
なれる 1386
wsjr 1384
マイ@@ 1384
60 1383
vv 1383
きず@@ 1383
つか@@ 1383
てがみ 1383
タイ@@ 1382
tgf 1381
せき@@ 1381
はつどう 1381
ぼうりょく 1381
ング 1381
たいちょう 1380
タン 1380
いっしょう 1378
はじまっ 1378
みず@@ 1377
nklz 1376
あね 1375
かえ@@ 1374
ついせき 1374
pyqx 1373
pysq 1372
うんどう 1372
ちょうだい 1372
oikb 1371
さくや 1371
でんき 1371
ミー 1371
いたみ 1368
うまい 1368
13 1366
エ 1366
ガー 1366
しんか 1364
うける 1363
しかっ 1363
しゅうちゅう 1363
ゆうめい 1363
あるいは 1362
x 1360
numh 1359
すくう 1358
かさ 1356
けってい 1356
もう@@ 1354
サラ 1354
xkcd 1353
あく 1353
りょうほう 1353
なおし 1352
あつ 1351
いん@@ 1351
くそ 1351
しゅっ@@ 1351
ション 1351
ジェーン 1351
djym 1350
ihkw 1350
。➡ 1350
モー@@ 1350
p 1349
やみ 1349
じむ 1348
でん 1348
ただし 1347
コンピュータ 1347
zmxy 1346
かな@@ 1346
bbds 1345
sooe 1345
さぎょう 1344
ぶっ@@ 1342
rjrd 1340
いきる 1340
たいしょう 1340
ちょうし 1340
wa 1339
しっ@@ 1339
veoy 1338
かわる 1337
ekgb 1334
くだ@@ 1334
グラ@@ 1333
へいわ 1332
的 1332
T 1331
とくてい 1331
ゆうかい 1331
DNA 1329
まさに 1329
wdpk 1328
ymii 1328
あそび 1328
たか@@ 1328
はらっ 1328
18 1327
fszo 1326
こし 1326
ためし 1326
ちょくせつ 1326
500 1323
kme 1323
koml 1323
sgbz 1323
おと@@ 1323
くち@@ 1321
ビジネス 1321
ぎゃく 1320
それぞれ 1320
そろそろ 1320
だいたい 1320
ぶか 1320
ポイント 1320
まわっ 1319
eacy 1318
zmmb 1317
ルス 1317
ぬけ 1316
mfym 1314
めんどう 1314
よび 1312
25 1311
yobz 1311
zzym 1311
あんしん 1311
しんごう 1310
0@@ 1309
っこう 1309
まっ@@ 1307
jzi 1306
せよう 1306
みずから 1306
kxxx 1305
きじ 1305
どっ 1305
ぽう 1305
ながく 1304
やま@@ 1304
たたかっ 1303
ざい@@ 1302
たすける 1302
レー@@ 1302
vdgs 1301
ねる 1299
ばあ 1299
L@@ 1298
ージ 1298
とおく 1294
F@@ 1293
jjrd 1293
よせ 1293
かんせい 1292
ユ@@ 1291
うけ@@ 1290
きずつけ 1290
ajli 1289
llae 1289
ひらい 1289
ターン 1289
nlgs 1288
うわさ 1287
おこなわ 1287
アイツ 1286
とまっ 1285
ひだり 1285
せいさく 1284
リーダー 1283
zmj 1280
おこなう 1280
みぎ 1280
わくせい 1280
ちゃく 1277
ティー 1276
ちゅうしゃ 1275
チェック 1275
フィールド 1275
すごし 1274
oa 1273
クター 1273
G@@ 1272
ehh 1272
おどろい 1272
じごく 1272
ぎもん 1271
びん 1271
ファイル 1271
jixl 1270
エン@@ 1270
bix 1268
dna 1268
おおきい 1268
armk 1267
おうじ 1267
しょり 1267
そうだん 1267
oicm 1266
はく@@ 1266
とも@@ 1265
キング 1264
ピーター 1264
pfxs 1263
しかく 1263
はく 1262
クラブ 1261
sbma 1260
りょこう 1260
さつがい 1259
ふり 1259
ジャー 1259
ひめ 1258
きづか 1257
20@@ 1256
たにん 1256
マーク 1256
nja 1255
xmau 1255
yamz 1255
コン 1254
おし 1253
cuho 1251
おくる 1250
きょだい 1250
R 1249
きんきゅう 1248
どおり 1248
けし 1245
ぎいん 1244
いっぱん 1243
ころ@@ 1243
さすが 1243
ひなん 1243
めでとう 1242
ロス 1242
とくしゅ 1241
あめ 1240
おなか 1240
ねつ 1240
アー 1240
llqq 1239
こつ 1239
へいし 1238
ふしぎ 1237
wmsy 1236
おわる 1236
axm 1235
nhsr 1235
たの@@ 1235
ット@@ 1235
eked 1234
きこう 1233
しゅだん 1233
まずい 1233
たんじゅん 1232
fzvv 1231
ようきゅう 1231
らしく 1231
cs 1230
wdkx 1230
やか 1230
しんこう 1228
スカ@@ 1228
しょくりょう 1227
すら 1227
れんしゅう 1227
クリス 1227
ダー@@ 1227
〜 1225
よび@@ 1223
おく@@ 1222
となり 1222
みれ 1222
ブル@@ 1222
とちゅう 1221
uvoz 1220
hlka 1218
jufd 1218
えい@@ 1218
かいわ 1217
とうちゃく 1215
かんしん 1213
はや@@ 1213
そば 1212
グレ@@ 1212
这@@ 1212
1日 1211
wdot 1211
きょうし 1211
ちまっ 1211
アップ 1211
タイプ 1211
おとし 1210
こと@@ 1209
てつ 1209
どりょく 1209
uo@@ 1208
くろう 1208
はっせい 1208
よめ 1208
yaps 1207
ちしき 1207
こわ 1206
ちく 1206
いい@@ 1205
シー@@ 1205
デン 1205
suwl 1204
ハ 1204
えっと 1203
かいちょう 1203
まい@@ 1203
ガキ 1201
たた@@ 1200
zmha 1199
バイ@@ 1199
パワー 1199
すくっ 1198
カン 1198
みな@@ 1196
さつえい 1195
もらえる 1195
エイ@@ 1195
のぞむ 1194
ろく 1194
すけ 1193
カン@@ 1193
いり 1192
えいえん 1192
swvv 1191
くみ 1191
ぐうぜん 1191
200 1190
かんかく 1190
ふかく 1190
zsoa 1189
つうしん 1189
ディー 1189
ラス 1189
ワイ@@ 1188
とく@@ 1187
njbk 1186
うごい 1186
yajl 1183
きどう 1183
こっか 1183
かけ@@ 1182
ルズ 1182
jihx 1181
とち 1181
パ 1181
レット 1181
dkc 1180
lczw 1180
ミスター 1180
ィ 1179
どうし 1177
かまわ 1176
トラック 1176
80 1175
じっ@@ 1175
ふえ 1175
まもり 1174
だら 1171
mfjr 1170
ルド 1169
znia 1168
gdzn 1167
ゆくえ 1166
プラ@@ 1166
わるかっ 1165
じょうけん 1163
ながれ 1162
かつて 1161
けいぶ 1161
しれい 1161
ひょうか 1161
ジョー 1161
nilo 1160
さかな 1160
ニア 1160
O 1159
ふん 1159
しゅるい 1158
カル@@ 1158
クラス 1158
のり 1157
dvrd 1156
ma@@ 1156
まち@@ 1156
もしもし 1156
いっち 1155
ずいぶん 1155
つかえる 1154
ときどき 1154
ngkk 1152
きた 1152
オフィス 1152
vikm 1151
まなん 1151
よそう 1151
きょり 1150
かいふく 1149
ワン 1149
buqs 1148
ていど 1148
まやく 1148
みなみ 1148
ギャ@@ 1148
B 1147
おば 1147
こんらん 1147
もくげき 1147
まら 1146
ハッ@@ 1146
idj 1145
ゾ@@ 1145
edmy 1144
いそがしい 1144
センター 1144
mfrk 1143
ざん@@ 1143
ドイツ 1143
ドン 1143
eare 1142
くるっ 1142
じゅん 1141
coag 1140
しけん 1140
せんとう 1140
ハイ 1140
H@@ 1139
ゆうしょく 1139
ダン 1139
jiwz 1138
mfzm 1138
xs 1138
かげん 1138
スピード 1138
ejmf 1136
かう 1136
けいこく 1136
げいじゅつ 1136
ぶんせき 1136
17 1135
おちつけ 1135
リック 1133
arsr 1132
けれ 1132
こううん 1132
しょうにん 1132
allt 1131
かかり 1131
こうぞう 1131
ffvv 1130
ふれ 1130
リン@@ 1130
M 1129
bpxs 1129
じゅぎょう 1129
tv 1128
つれ@@ 1128
ふたたび 1128
インターネット 1128
せいぎ 1127
はあ 1126
pvyz 1125
ロシア 1125
いと 1124
しょうげん 1124
ごろし 1123
ふあん 1123
ウチ 1123
ジム 1123
さし 1122
idxl 1121
くう 1121
くろ 1121
dtzs 1120
コンピューター 1118
ぬい 1117
ばつ 1117
ネットワーク 1117
xsig 1116
のせ 1116
fjbk 1115
fvzm 1115
ryrr 1115
きげん 1115
こうそく 1113
zzy 1112
ちゅうもく 1112
はたらく 1112
ゆるさ 1112
dnk 1111
qprh 1111
あた@@ 1111
せいぎょ 1111
サービス 1110
ぜ@@ 1109
fkqk 1108
kojb 1108
かき 1108
サイン 1107
dxzz 1106
llgu 1106
あじ 1106
しりあい 1106
つきあっ 1106
なんだ 1106
16 1105
しだい 1105
lobm 1104
≫ 1104
いろんな 1104
うつ@@ 1104
えいせい 1104
ぎろん 1104
はぁ 1104
みょう 1104
イド 1104
ちゅうしん 1103
べいこく 1103
iirr 1102
vxrr 1102
やす@@ 1102
jbvv 1101
gry 1100
せいさん 1099
fpxs 1098
さら@@ 1097
24 1096
じょ@@ 1096
ほけん 1096
ショ@@ 1096
テクノロジー 1096
zmgd 1095
しんぶん 1095
ほうりつ 1095
drs 1093
くうかん 1093
さと 1093
うけいれ 1092
あっち 1091
おそい 1091
リッ@@ 1091
そつぎょう 1090
おそく 1089
たろう 1089
わく 1089
W@@ 1087
sbwz 1087
じつげん 1087
nkic 1086
txo 1085
ども 1085
キュ@@ 1084
たのしん 1083
ついに 1082
てがかり 1082
wtoj 1081
あぶない 1081
べ@@ 1081
キロ 1081
トイレ 1081
hd 1079
かす 1079
かみ@@ 1079
かんりょう 1079
こうかん 1079
トップ 1078
ニス 1077
lksk 1076
tdxz 1076
vnk 1076
だんかい 1076
わらっ 1076
bds 1075
もた 1075
クリスマス 1075
しあい 1074
lkrw 1073
かえれ 1073
けれど 1073
そうさく 1073
そうじ 1072
eako 1071
あんてい 1071
たいりょう 1071
吗 1071
げんしょう 1070
じゅ 1070
にんしき 1070
dpez 1067
kavv 1066
ぞう@@ 1066
zzxy 1065
ファン 1065
mfyy 1063
おこない 1063
つらい 1062
りろん 1062
fbud 1061
wo@@ 1061
じゃ@@ 1061
せっけい 1061
フランス 1061
おさ@@ 1059
がき 1059
マイル 1059
じじょう 1058
やり@@ 1058
nlan 1057
がまん 1057
ジン 1057
メートル 1057
selb 1056
てんし 1056
なぞ 1056
バイ 1055
トリ@@ 1054
フラ@@ 1054
かんれん 1053
さか 1052
むい 1052
ごく 1051
はっぴょう 1051
チュ@@ 1051
j 1050
od@@ 1050
いない 1050
タイム 1050
rstd 1049
つながり 1049
ひい 1049
ウイルス 1049
えぇ 1048
みせる 1048
うしなう 1047
はいら 1047
たちば 1046
じる 1044
iiow 1043
pd 1042
ことし 1042
ほんの 1042
むかう 1042
なおす 1041
リスク 1041
wmq 1039
おら 1039
ひょうげん 1039
もどれ 1039
テロ 1039
デュ@@ 1039
くる@@ 1038
しば@@ 1038
ふじん 1038
プロ 1038
ていあん 1037
ないよう 1037
ひん@@ 1037
ゼロ 1037
くうき 1035
たいけん 1035
たかく 1035
たく@@ 1035
ようせい 1035
きみょう 1034
じっこう 1034
たいき 1034
ニング 1034
jiyw 1033
かか 1033
アラ@@ 1033
zswl 1032
ほね 1032
ましょ 1032
ケーキ 1032
ハハハ 1032
su@@ 1031
おくり 1031
おわら 1031
ほこり 1031
よろこん 1031
ナイフ 1031
nkc 1030
ぷ 1030
ggyy 1029
dwfk 1028
スパイ 1028
rhys 1026
ナルト 1026
いただけ 1025
こまっ 1024
epf 1023
qmwd 1023
マイケル 1023
えろ 1022
こわれ 1022
ベン 1022
しょゆう 1020
ちゃい 1020
qmnx 1019
あき 1019
あろう 1019
しゃく 1019
tgoo 1018
とうきょう 1018
チャー 1018
がり 1017
idkx 1016
おる 1016
たいした 1016
ni 1015
こめ 1015
しゅつ@@ 1015
いずれ 1014
しこう 1014
ろい 1013
さいのう 1012
そうとう 1012
キャン@@ 1012
リース 1011
りゃ 1010
ユー@@ 1010
kkju 1009
szef 1009
あかい 1009
かえす 1009
きょうい 1009
ぜい 1009
ki@@ 1008
けいさん 1008
bjvv 1007
くら 1007
べる 1007
パターン 1007
ビール 1007
おそろしい 1006
さいてい 1006
ゆうしゅう 1006
♬ 1005
どうりょう 1005
uofb 1004
えいご 1004
つけろ 1004
きんし 1003
しもん 1003
ちょうせん 1003
ギ 1003
qexs 1002
ぎり 1002
ごくう 1002
であっ 1002
タイ 1002
cuc 1001
っか 1001
めいわく 1001
你 1001
ce@@ 1000
krod 1000
みつ 1000
ia 999
あえる 999
いらっしゃい 999
ちず 999
はつ@@ 999
P 998
er@@ 998
しず@@ 998
やす 998
スク@@ 998
ビン 998
sdsa 997
swuf 997
つながっ 997
まわし 997
dhx 996
しゅうだん 996
ぜつ 996
つな@@ 996
ゾンビ 995
ファイ@@ 994
hrd 993
bzy 992
nrgo 992
ぶつり 992
wzd 990
しどう 990
esnd 989
fozs 989
くみ@@ 989
じっ 989
すうじ 989
クレ@@ 989
fvgh 988
vsk 988
しょうぐん 988
しらべる 988
ごうとう 987
dyia 986
uouo 986
おおき 986
おきる 986
すうがく 986
drj 985
qbzy 985
さっさと 985
ざき 985
たべもの 985
あつい 984
じもと 984
できれ 983
nxpx 982
ちん@@ 981
まじょ 981
マシン 981
brtd 980
ころせ 980
ぶんや 980
ldeo 978
トル 978
とけい 977
14 976
zmgh 976
かせい 976
ぎん 976
くりかえし 976
にんしん 976
チュー@@ 976
uulk 975
がぞう 975
よそく 975
りえき 975
スーツ 975
こきゅう 974
スペ@@ 974
ko@@ 973
かつ@@ 973
げんご 973
とらえ 973
ばく 973
ノー 973
きゅうきゅう 971
qy 970
しゅっぱつ 970
zxkv 968
こうしょう 968
つづき 968
できごと 968
ポール 968
kojr 966
peda 966
せだい 966
しんり 965
エンジン 965
cuwl 964
ほしく 964
むせん 964
ガー@@ 964
スパ@@ 964
セット 964
もく 963
もどし 963
よこ@@ 963
イヤ 963
g 962
いで 962
そだて 962
たね 962
かんさつ 961
こんご 961
ちょっ 961
こいびと 960
とどけ 960
アクセス 960
vwrd 959
いかり 959
サイト 959
szrd 958
こくさい 958
なま 958
ヌ 958
かき@@ 957
けんとう 957
どうぐ 957
パートナー 957
やさしい 956
わずか 956
じゅうしょ 955
とくい 955
はや 955
ロンドン 955
おとこのこ 954
きょく@@ 954
したがっ 954
にもつ 954
わか@@ 954
プレゼント 954
kpgx 953
あそん 953
こっ@@ 953
かくご 952
まんぞく 952
いそげ 951
はんこう 951
みかた 951
マシ 951
gdnk 950
うるさい 950
きた@@ 950
300 949
あいする 948
おこら 948
さっ@@ 947
にし 947
よこ 947
ゲ 947
sovv 946
えがい 946
どり 946
トム 946
きょうゆう 945
なかなか 945
llg 944
しゅちょう 944
とど@@ 944
kowf 943
あがり 943
ずみ 943
たま 943
· 942
クト 942
ささ@@ 941
つめ 941
わたす 941
70 940
ihh 940
かかえ 940
イメージ 940
ダンス 940
こおり 939
やめる 939
アパート 939
キン 939
メント 939
あつかい 938
くわえ 938
はたらき 938
あか 937
ずつ 937
aed 936
tgbr 936
いただい 936
すすん 936
トロ@@ 936
ea@@ 935
ryj 935
ていし 935
ウォルター 935
にく@@ 934
のる 934
jyvv 933
lolk 933
くろ@@ 933
せんちょう 933
どころ 933
フランク 933
プリ@@ 933
klvv 932
みりょく 932
らく@@ 932
ホ 932
xmqy 930
およ@@ 930
どうせ 930
ばい@@ 930
ソー@@ 930
テン@@ 929
おこり 928
jezf 927
ュ 927
べん 926
もく@@ 926
oszi 925
せんしゅ 925
ビア 925
zxgq 924
なくし 924
ウィン 924
あさ@@ 923
こんなん 923
ハァ 923
90 922
きょうつう 921
ぎょう@@ 920
もどら 920
シャ 920
テン 919
ボー@@ 919
ji@@ 918
suke 918
おかし 918
ノー@@ 918
ebm 917
しょくぶつ 917
たか 917
ldul 916
スコ@@ 916
セックス 916
L 915
zld 914
おしえる 914
eaeb 913
くわ@@ 913
ぐあい 913
ドリ@@ 913
ヌ@@ 913
nkjl 912
てく 912
まご 912
いいん 911
かり@@ 911
タル 911
かだい 910
けが 910
わすれる 910
vfjg 909
あたっ 909
けつえき 909
じょし 909
つかまっ 909
りっぱ 909
しめ@@ 908
たいしょ 908
なんびゃく 908
はじまる 908
vooj 907
ほしかっ 906
さがっ 905
だっしゅつ 905
どうい 905
うごか 904
かくほ 904
しら@@ 904
はり 904
ティング 904
マッ@@ 904
ar@@ 903
アレ@@ 903
みごと 901
めん@@ 901
fsw 900
jdwz 900
さぎ 900
しょうり 900
フレ@@ 899
ボート 899
/ 898
ぴき 898
0 897
げんかい 897
ごかい 897
さら 897
あにき 896
へっ 896
かくじつ 895
クロ@@ 895
zclo 894
ほっ 894
ょ 893
vjal 892
おき@@ 892
かっこう 892
やはり 892
メンバー 892
あおい 891
きしゃ 891
シア 891
イー@@ 890
falo 889
あいさつ 889
はらう 889
ろうどう 889
td@@ 888
x@@ 888
きづき 888
コイツ 888
ページ 887
ma 886
しゅよう 886
じつ@@ 886
てつだい 886
oi@@ 885
qaed 885
こころ@@ 885
だまれ 885
ワイン 885
デュエル 884
E 883
づくり 883
sj@@ 882
しめい 882
せっとく 882
フォード 881
クション 880
こわく 879
jovv 878
きせき 878
けんじ 878
ほんぶ 878
みんしゅ 878
スキー 878
ニュー@@ 878
jiuz 877
かかわら 877
しんゆう 877
すっ 877
そく@@ 877
バン@@ 877
ガン@@ 876
ワ 876
うつっ 875
きめる 875
はずし 875
イギリス 875
呢 875
ようし 874
tdfk 873
えよう 873
がかり 873
ころそう 873
なっとく 873
OK 872
cusc 872
しゅっしん 872
しらせ 872
ダム 872
あんない 871
ちかづい 871
シュ 871
たいおう 870
vbi 869
くり@@ 869
ケース 869
フト 869
fmko 868
ことなる 868
ブリ@@ 868
ekkw 867
かかん 867
とお@@ 867
のこさ 867
むき 867
よみ 867
デイ@@ 867
xmbd 866
だんな 866
どうき 866
copd 865
koqk 865
ふん@@ 865
lich 864
おこなっ 864
さか@@ 864
djcs 863
レストラン 863
了 862
ピー 861
ミン 861
ブル 859
モノ 859
zmwg 858
かれし 858
ふき@@ 858
むす@@ 858
がる 857
メディア 857
doaj 856
oilw 856
ありがと 856
メン@@ 856
おどろき 855
ホール 855
ufsu 854
コントロール 854
fxhr 853
ldgd 853
かし@@ 853
けんちく 853
ぜひ 853
にわ 853
はら@@ 853
しゅうきょう 852
やし 852
ファー 852
bbxk 851
がし 851
たた 851
あおう 850
かる 850
きょうどう 850
あり@@ 849
フロ@@ 849
sef 848
つた@@ 848
けよ 846
ふくしゅう 846
まさ@@ 846
つたえる 845
わり@@ 845
zduo 844
いかが 844
おり@@ 844
げんし 844
すぐれ 844
けんめい 843
たいせい 843
どうろ 843
ちか@@ 842
ウム 842
ajua 841
しんちょう 841
っこ 841
ufoy 840
えらぶ 840
テル 840
ekgl 839
かねもち 839
にんき 839
めろ 839
ーカー 839
しょるい 838
とめろ 838
みどり 838
ヒーロー 838
ヤー 838
bocx 837
zwan 837
おえ 837
ないぶ 837
oxaj 836
ほあん 836
グリ@@ 836
xoy 835
せんきょ 835
トラン@@ 835
フィンチ 835
ナム 834
yrrb 833
つつ 833
のこる 833
チョ@@ 833
ッキー 833
うか@@ 832
へいか 832
よく@@ 832
いかに 831
かいだん 831
ごご 831
どれい 831
アス 831
かせ 829
バッグ 829
km 828
あき@@ 828
かんがえ@@ 828
でかけ 828
なぐ@@ 828
こうふん 827
とりあえず 827
スピ@@ 827
ッツ 827
vyi 826
じょおう 826
めつ 826
よけい 826
zgaj 824
へんこう 824
ecro 823
きき@@ 823
らす 823
スケ@@ 823
qgq 822
いまだ 822
かしこい 822
やくわり 822
qm@@ 821
ェ 821
odi 820
けろ 820
ウィル 820
ュー@@ 820
uelo 819
ぶた 819
mi 818
かわいそう 818
しゅく 818
よろしい 818
qmkb 817
うむ 817
こりゃ 817
すば@@ 817
いす 816
うわ 816
うわ@@ 816
こうふく 816
さめ 816
せっかく 816
つうじょう 816
为@@ 816
きそ 815
けいえい 815
たのみ 815
ヘンリー 815
かかわっ 814
さよう 814
とうじょう 814
まいとし 814
けよう 813
たま@@ 813
はち 813
ねらっ 812
まれ 812
わかもの 812
gl 811
あいぼう 811
フォー@@ 810
みつから 809
イス 809
テメエ 809
ci@@ 808
しちょう 808
ふっ 808
くい 807
くさい 807
さわ@@ 807
だいひょう 807
ゃ@@ 807
ねんりょう 806
はつめい 805
ひま 805
れき 805
しょうぶ 804
まき 804
パス 803
xsxs 802
ひゃく 802
チャーリー 802
jugd 801
v 801
イト 801
hmjj 800
しゅく@@ 800
しょうひ 800
sbds 799
てんさい 799
なさ 799
odbj 798
てっ@@ 798
まつ@@ 798
アク@@ 798
oxml 797
rs@@ 797
ちゅうおう 797
はしっ 797
やっぱ 797
よわい 797
ケイ@@ 797
mfuo 796
prs 796
ばっ@@ 796
バック 796
ブロ@@ 796
せっしょく 794
ほぼ 794
TED 793
こわし 793
せんし 793
cuxs 792
nins 791
yz@@ 791
あたりまえ 791
ししゃ 791
まなぶ 791
めし 791
ウォーカー 791
ted 790
がみ 790
みつかる 790
れよう 790
わい 790
vdos 789
いきなり 789
えんそう 789
くつ@@ 789
へんしゅう 789
フン 789
おおぜい 788
かっ@@ 787
とっ@@ 787
xcmo 786
ざる 786
きんちょう 785
わざわざ 785
jdod 783
niuo 783
nry 783
すすむ 783
だつ 783
ばく@@ 783
もらおう 783
ゆか 783
しんけん 782
でんせつ 782
ぼうし 782
イル 782
キャンプ 782
ドクター 782
ok 781
がっ@@ 781
しゅうりょう 781
ちゃく@@ 781
なお@@ 781
们@@ 781
manr 780
vewl 780
zzho 780
ひかく 780
せいか 779
つづい 779
はってん 778
さげ 777
はず@@ 777
zfds 776
しんせい 776
しめす 775
sjrh 774
とっても 774
セン@@ 774
edgs 773
つよ 773
やすく 773
えがお 772
かくめい 772
つうじ 772
なり@@ 772
ばっかり 772
fvki 771
さいせい 771
たんに 771
どんどん 771
まじめ 771
fjkr 770
jnj 770
すくない 770
ばんぐみ 770
ほうそう 770
おさえ 769
させる 769
よみ@@ 769
マスター 769
まつり 768
グル 768
デス 768
ヴェ@@ 768
たがっ 767
テープ 767
あたい 766
やい 766
えらば 765
こうちょう 765
このよ 765
はずれ 765
ふよう 765
ハウス 765
はこ@@ 764
ラボ 764
19 763
bdjk 763
dzma 763
li@@ 763
zzzl 763
きょねん 763
せいひん 763
そん@@ 763
dzrs 762
lmeb 762
oo@@ 762
でんとう 762
fkoo 761
げんだい 761
どん 761
ダン@@ 761
fgaj 760
vdkf 759
りょういき 759
ヨーロッパ 759
かえら 757
にんぎょう 757
イズ 757
ゆうせん 756
nkkv 755
しろい 755
たまご 755
パン@@ 755
?" 754
dji 754
ruca 754
おど@@ 754
わたっ 754
ゴー@@ 754
ホワイト 754
マリ@@ 754
おくら 753
へいきん 753
フラン@@ 753
ブレ@@ 753
evfd 752
なげ@@ 752
ようそ 752
らん@@ 751
あつまっ 750
いがく 749
シャツ 749
チップ 749
千 749
テーブル 748
バイト 748
モン@@ 748
wmng 747
ひがし 747
りん@@ 747
コール 747
fvbz 746
w 746
yrik 746
かいぶつ 746
ていこう 746
れれ 746
アナ@@ 746
ドー@@ 746
guzz 745
xmkr 745
あがる 745
うっ@@ 745
きそく 745
たる 745
ぬけ@@ 745
fd@@ 744
がんばれ 744
けつ@@ 744
こくみん 743
しょうひん 743
だらけ 743
ひてい 743
もの@@ 743
ウス 743
lopx 742
おこす 742
たのま 742
ダウン 742
バリー 742
レッ@@ 742
さがし@@ 741
すぎ@@ 741
とびら 741
はんい 741
ひどく 741
びる 741
やっかい 741
シン 741
トー@@ 741
U@@ 740
vxbd 740
wmkc 739
zsoo 739
ぶんし 739
あらし 738
ciy 737
にげ@@ 737
はるか 737
ドゥ@@ 737
つごう 736
ケガ 736
スタン@@ 736
ぐんたい 735
よろこび 735
あける 734
V@@ 733
せいたい 733
たいくつ 733
mmi 732
うん@@ 732
すじ 732
はね 732
かかわる 731
じょうしょう 731
せなか 731
あま@@ 730
かんとく 730
ぱん 730
スティ@@ 730
ドラ@@ 730
きょうせい 729
しゅっけつ 729
まね@@ 729
ボン 729
ow 728
かなしい 728
やれる 728
me@@ 727
じぎょう 727
のぞ@@ 727
アリ@@ 727
ショック 727
vkm 726
おか@@ 726
たんなる 726
ながし 726
ひとり@@ 726
オープン 726
nka 725
たいど 725
もどす 725
什么 725
pyql 724
えいゆう 724
かいじょう 724
きびしい 724
さいしん 724
せめ 724
なき 724
みの@@ 724
もと@@ 724
phml 723
qmsx 723
しりょう 723
りそう 723
fbsm 722
くろい 722
けんか 722
こら 722
べい 722
エル@@ 722
还@@ 722
tjjl 721
けつだん 721
こうつう 721
さび@@ 721
へんじ 721
れんぽう 721
おこ@@ 720
こうほ 720
さわぎ 720
じょうし 720
せいぞん 720
たどり@@ 720
シティ 720
レーション 720
vomb 719
いはん 719
こうりつ 719
しゅうり 719
じげん 719
もり@@ 719
きら 718
しゅみ 718
なな 718
ようやく 718
ケンカ 718
けもの 717
セント 717
V 716
ikvv 716
ぎょ@@ 716
しょうさい 716
ふみ@@ 716
mfmw 715
vxfv 715
うけとっ 715
せいふく 715
つとめ 715
とんでも 715
ぼち 715
ダニー 715
mamz 714
あかんぼう 714
くらべ 714
しかけ 714
たんてい 714
スタ 714
qmjr 713
きんじょ 713
bo@@ 712
クビ 712
ペン 712
メキシコ 712
vwgd 711
yfk 711
ぐん@@ 711
みっ 711
エリ@@ 711
スカイ 711
かくさ 710
スーパー 710
ラム 710
45 709
fkpd 709
llqi 709
ussr 709
しんぽ 709
つづく 709
でんし 709
ひく 709
ほっ@@ 709
ステージ 709
wr 708
うばっ 708
げか 708
つかん 708
のみ@@ 708
わな 708
ァ 708
ダル 708
ネズミ 708
うし 707
ごろ 707
どい 707
rr 706
うご@@ 706
げつ 706
ゆびわ 706
きっ@@ 705
フッ 705
つかまえる 704
まちがえ 704
ne@@ 703
けんせつ 703
しんこく 703
とくちょう 703
ぱく 703
バレ 703
ブロック 703
ヴ@@ 703
21 702
likl 702
vrd 702
せつ@@ 702
だて 702
アッ@@ 702
mby 701
uzgp 701
あるく 701
しんだん 701
nxma 700
かじ 700
きし 700
ひょうてき 700
わたり 700
ダメージ 700
X 699
あらわれる 699
う~ん 699
えんじょ 699
くうこう 698
カス 698
ll@@ 697
nlni 697
かぎら 697
よし@@ 697
qbup 695
かんご 695
ぜんかい 695
つくし 695
lo@@ 694
ぬき 694
むら@@ 694
もとめる 694
ナル 694
edae 693
とまる 693
びじゅつ 693
ぶそく 693
ジョージ 693
ぉ 692
がつ 692
さんせい 692
しょうじょう 692
しり@@ 692
もんく 692
ペット 692
jikg 691
vld 691
vwoj 691
うわっ 691
くも 691
トラブル 691
ライ 691
xm@@ 690
パリ 690
ひとこと 689
まね 689
まる@@ 689
みち@@ 689
ものごと 689
kib 688
vlw 688
zaaa 688
ベン@@ 688
ルート 688
smid 687
あつ@@ 687
ひょうじ 687
よのなか 687
アリ 687
kb 686
おかしく 686
かど 686
ぎむ 686
しかたない 686
せいど 686
とおい 686
わる@@ 686
デジタル 686
ボーイ 686
ufxj 685
うて 685
スポ@@ 685
uxo 684
あんごう 684
こうざ 684
てえ 684
ふざけ 684
わだい 684
nub 683
がくしゅう 683
きちんと 683
こうえい 683
むしろ 683
おろし 682
つり 682
ビー@@ 682
00 681
fvrj 681
げき@@ 681
もえ 681
fa@@ 680
ha 680
あし@@ 680
ごえ 680
だせる 680
ちじょう 680
よむ 680
pwd 679
きょうき 679
たおれ 679
てきせつ 679
まき@@ 679
ゆうかん 679
qali 678
おもいで 678
こうちく 678
しけい 678
しげき 678
たまに 678
ひっし 678
ふこう 678
daci 677
kk 677
lo 677
つくり@@ 677
ヴ 677
ちゅうし 676
てつ@@ 675
どろぼう 675
なみだ 675
りく 675
マス 675
duqk 674
あやまっ 674
あんまり 674
かくりつ 674
くだら 674
にげろ 674
もともと 674
パーティ 674
リア@@ 674
dsqm 673
ふだん 673
ほうかい 673
ペン@@ 673
rj 672
ひとじち 672
リル 672
1000 671
うめ 671
じま 671
なが 671
ひらく 671
みかけ 671
アホ 671
かくだい 670
そだっ 670
てはい 670
びき 670
ぺい 670
ゆたか 670
れよ 670
スター@@ 670
hme 669
うそつき 669
とし@@ 669
シーン 669
bmjl 668
nulk 668
たいかい 668
ちゅうもん 668
はくしゅ 668
uoai 667
ぃ 667
かいぜん 667
きねん 667
わん 667
レー 667
ygqw 666
zoyd 666
さんぎょう 666
なに@@ 666
ねむっ 666
ねんれい 666
ァ@@ 666
アンナ 666
すご@@ 665
なんぜん 665
カリフォルニア 665
ディング 665
ドレス 665
リオ 665
うまれる 664
くり 664
じゃく 664
de@@ 663
er 663
jwbk 663
こうてい 663
そくど 663
たすかっ 663
ちょくめん 663
わらい 663
CIA 662
K 662
そうこ 662
はじ 662
ふせい 662
まとめ 662
れんぞく 662
ケツ 662
バンド 662
ihku 661
ve@@ 661
うしなわ 661
くわ 661
ぐっ 661
みっ@@ 661
snfr 660
いのり 660
ため@@ 660
ひだり@@ 660
ぅ 659
とじこめ 659
ュー 659
おそわ 658
ちくしょう 658
のぞい 658
lkyh 657
はり@@ 657
ほんじつ 657
もたらす 657
ざわ 656
じょうず 656
やすん 656
らっ 656
あらわし 655
しめる 655
ッド@@ 655
いほう 654
こえる 654
しゃいん 654
ぜんしん 654
ワシントン 654
说@@ 654
うしない 653
かぶ@@ 653
ほうてい 653
コピー 653
テロリスト 653
ハハ 653
mami 652
おろか 652
こどく 652
しね 652
たのしかっ 652
とうひょう 652
はこん 652
びっくり 652
ぼし 652
gg@@ 651
tgai 651
ほんにん 651
ナイ@@ 651
パソコン 651
cia 650
たけ@@ 650
んな 650
アウト 650
っぱ@@ 649
ケット 649
せいとう 648
ただいま 648
だっ@@ 648
ちょうかん 648
みゃく 648
ギー 648
fqd 647
zmsy 647
せんりゃく 647
やき 647
ゆうれい 647
パーセント 647
ベルト 647
マリア 647
おそっ 646
はか 646
グリーン 646
トラップ 646
vklx 645
いの@@ 645
きわめて 645
ぎんが 645
むすび@@ 645
イイ 645
しゅうまつ 644
jeeb 643
lowa 643
たしかめ 643
とぶ 643
とりくん 643
のま 643
サイズ 643
かくす 642
きょうきゅう 642
そもそも 642
たんそ 642
ヴァン 642
ni@@ 641
ブルー 641
プレ@@ 641
sser 640
そい 640
だまさ 640
はっしゃ 640
みせ@@ 640
ようじ 640
vcyz 639
てれ 639
はなれる 639
まなび 639
オーケー 639
ナンバー 639
しお 638
アダム 638
xd@@ 637
zz 637
かたづけ 637
しかた 637
じっと 637
つくえ 637
カッコ 637
スー@@ 637
"@@ 636
lohg 635
こまる 635
トゥ@@ 635
ds 634
いおう 634
つっ@@ 634
sukb 633
そなえ 633
まわる 633
ゴミ 633
ハッ 633
uc 632
うらぎり 632
ちかづ@@ 632
タクシー 632
cu@@ 631
こうくう 631
はなそう 631
めずらしい 631
もはや 631
りゅうし 631
ある@@ 630
および 630
かんげい 630
きょうそう 630
ウン@@ 630
シル@@ 630
ヘイ 630
リンク 630
mf@@ 629
ひび 629
ふっ@@ 629
ふゆ 629
ゆうこう 629
キム 629
クライ@@ 629
ルーム 629
おうとう 628
さばく 628
ぬすま 628
ひろい 628
G 627
kbm 627
さむい 627
トリック 627
ローズ 627
かしょ 626
ufeo 625
かんぱい 625
すげえ 625
ひら@@ 625
ぷく 625
むじつ 625
ごや 624
ストン 624
ネル 624
nrlo 623
あっ@@ 623
おうえん 623
なんに 623
ばこ 623
れっしゃ 623
サンプル 623
スターク 623
バラ 623
うわき 622
おくり@@ 622
かいもの 622
きんこ 622
けんりょく 622
ねむれ 622
はなっ 622
ばかげ 622
ほうしゃ 622
ジェイ@@ 622
ッカー 622
18@@ 621
さわっ 621
ちかづく 621
でろ 621
ねらい 621
のど 621
ばなし 621
vqj 620
あけろ 620
たいさく 620
マスク 620
是 620
ざっし 619
しか@@ 619
へえ 619
やとっ 619
あわ@@ 618
きまり 618
くわしく 618
こうき 618
だんたい 618
まな@@ 618
hm 617
けつろん 617
せきゆ 617
ぞうか 617
ひる 617
めいよ 617
id 616
jed 616
くっ@@ 616
こころみ 616
ずい 616
ばら 616
フィア 616
xdrj 615
ナイ 615
フル 614
じたく 613
せいぞう 613
いちご 612
かそく 612
たてる 612
キャロル 612
gduo 611
tgzz 611
いや@@ 611
かえせ 611
きょうしつ 611
こんばん 611
っぽ@@ 611
もたらし 611
やきゅう 611
チン 611
ホッ@@ 611
ュ@@ 611
あまい 610
しくみ 610
ゲート 610
フフフ 610
ポ 610
くせい 609
すてる 609
だいなし 609
なくなる 609
ふろ 609
トレ@@ 609
こだい 608
こっ 608
irci 607
おもいだす 607
きせい 607
しわざ 607
っぽい 607
てだすけ 607
にゅういん 607
bigo 606
せんしゅう 606
とばし 606
ラジオ 606
いか@@ 605
きのどく 605
vagu 604
あかり 604
うり@@ 604
しげん 604
ふっかつ 604
ゆうせい 604
ナス 604
ピー@@ 604
ホーム 604
H 603
vhm 603
ex@@ 602
しゃくほう 602
たす@@ 602
はずかしい 602
ストレス 602
メン 602
すみ@@ 601
せいり 601
つみ@@ 601
スポーツ 601
プリン@@ 601
ワード 601
おわ 600
ぐる@@ 600
ふうふ 600
めざめ 600
noal 599
かおり 599
げんきん 599
しんせつ 599
ふか 599
えんりょ 598
さわる 598
ばれ 598
まもら 598
ウッド 598
カット 598
プール 598
たいさ 597
まっすぐ 597
ハロルド 597
lijk 596
くい@@ 596
しょうとつ 596
せいかい 596
こくはく 595
とき@@ 595
とじ 595
みとめる 595
わざ 595
メス 595
zn 594
なろう 594
はんばい 594
ープ 594
きちょう 593
ぐれ 593
けんさく 593
こたえる 593
しょうち 593
とまれ 593
もしくは 593
よなか 593
かっこ 592
きゃく@@ 592
くさ 592
こうりゅう 592
たおし 592
であい 592
よれ 592
コミュニティ 592
いきもの 591
けいい 591
ただしかっ 591
ダーク 591
ポケット 591
SA 590
uc@@ 590
かいしゅう 590
こうしん 590
こんやく 590
ばり 590
カリ@@ 590
ガラス 590
F 589
jiyn 589
せつぞく 589
ルー 589
mi@@ 588
いんちょう 588
ていこく 588
ふくめ 588
スティー@@ 588
vekg 587
zoui 587
おいかけ 587
みぎ@@ 587
キン@@ 587
パラ@@ 587
ヘル@@ 587
ミー@@ 587
うごかし 586
さきほど 586
さびしい 586
してん 586
みもと 586
よやく 586
れんあい 586
アラン 586
デル 586
フリー 586
ポンド 586
ned 585
ubzs 585
せいし 585
そんけい 585
スク 585
szzk 584
ylc 584
じぜん 584
みや@@ 584
モンド 584
mfkf 583
nyaj 583
oixo 583
しゃっきん 583
せんじょう 583
ちほう 583
フィル 583
ベスト 583
tokw 582
しゃべり 582
たっせい 582
とおり@@ 582
やっ@@ 582
ろく@@ 582
リアル 582
ルフ 582
しょくん 581
じゅうだい 581
すごす 581
っち 581
てんかい 581
ひっこし 581
みや 581
199@@ 580
cids 580
ua@@ 580
zbia 580
おどし 580
たお@@ 580
つくれ 580
メイ@@ 580
el@@ 579
hi 579
os@@ 579
こうけい 579
さくら 579
たよう 579
だそう 579
つうほう 579
てつだ@@ 579
どけ 579
なかみ 579
アート 579
eszk 578
かんちがい 578
だいり 578
エク@@ 578
クール 578
beaj 577
しいん 577
せいじょう 577
どうじょう 577
ekk 576
fk@@ 576
よびだし 576
& 575
いまさら 575
きえる 575
ごぜん 575
つながる 575
なげ 575
カーター 575
トニー 575
ドーム 575
wm@@ 574
すいそく 574
はっしん 574
まこと 574
ピ 574
あお 573
くわしい 573
こきょう 573
さいかい 573
さんそ 573
アレックス 573
チャン 573
マックス 573
ヴォ@@ 573
mfjl 572
ああっ 572
きょうはく 572
たて@@ 572
なぐら 572
ヒ 572
ホー@@ 572
iwrr 571
きょうか 571
すく@@ 571
ふのう 571
イスラム 571
ケー@@ 571
ブス 571
プス 571
nb@@ 570
けいこう 570
さわ 570
じこく 570
ちゃくりく 570
つぶ@@ 570
やろ 570
スイッチ 570
ダニエル 570
ワクチン 570
tma 569
きゅうりょう 569
つまら 569
vrvv 568
きょひ 568
ぐう 568
こうがく 568
さけ@@ 568
すり@@ 568
クレア 568
サル 568
きたない 567
つきあい 567
イエス 567
ドライブ 567
oxce 566
ubmd 566
おちる 566
スタート 566
プル 566
きづく 565
ねがっ 565
もて 565
ワー@@ 565
mxbd 564
powa 564
qmbu 564
いっしゅん 564
おおかみ 564
とうろく 564
ビッグ 564
がけ 563
しの@@ 563
とりもどす 563
ぶち@@ 563
テーマ 563
many 562
くれれ 562
けんし 562
ささえ 562
しゃべっ 562
はたら@@ 562
キャリー 562
ハート 562
gd@@ 561
おぉ 561
おっ@@ 561
ちこく 561
はいち 561
ふくろ 561
アア 561
mb@@ 560
qfzm 560
かちょう 560
なぐっ 560
ノン 560
时@@ 560
がいねん 559
きんぞく 559
さま@@ 559
はつでん 559
まだまだ 559
むちゅう 559
マク@@ 559
vejq 558
かいてん 558
こよう 558
ばくは 558
よち 558
セ 558
ブース 558
zmlc 557
うたっ 557
けいし 557
たのしく 557
としょ 557
バッ@@ 557
ボブ 557
こうへい 556
にちよう 556
ぶひん 556
バーグ 556
dm@@ 555
くるしん 555
ちかっ 555
ぺん 555
ティブ 555
プロセス 555
きゅうけい 554
けっかん 554
さり 554
じゅうぎょう 554
だり 554
ていぎ 554
わたる 554
qqd 553
きゅうか 553
しょき 553
もうし 553
もうし@@ 553
やけ 553
ボタン 553
かず@@ 552
しまつ 552
はなせる 552
ウエ@@ 552
コスト 552
ショーン 552
ポー@@ 552
ewvv 551
fkqy 551
あたる 551
けす 551
しらべ@@ 551
ロイ 551
tkro 550
おくりもの 550
かんよ 550
しるし 550
ふれる 550
ほっさ 550
わざと 550
ウェイ 550
サスケ 550
ox@@ 549
pq@@ 549
sjqu 549
しき@@ 549
ちいさく 549
ちょく@@ 549
なくなり 549
nnk 548
さんぽ 548
ぜい@@ 548
にっ@@ 548
インタビュー 548
ec@@ 547
wtkf 547
さがせ 547
さよなら 547
ひき 547
らいしゅう 547
23 546
cuaj 546
かえろう 546
てんこう 546
めぐ@@ 546
やさしく 546
ピン 546
id@@ 545
えいこく 545
かがみ 545
shzm 544
いわい 544
ひんこん 544
アニ@@ 544
on 543
こうぎ 543
こくじん 543
ひよう 543
やくぶつ 543
ノート 543
あるき 542
おびえ 542
せけん 542
アイス 542
コート 542
チーズ 542
ベ 542
モア 542
リード 542
かわい 541
ちゅうどく 541
つめたい 541
ghds 540
きょじん 540
しょうせつ 540
じんもん 540
ただしく 540
はくじん 540
こうし 539
しゅうじん 539
スタッフ 539
ムズ 539
かんどう 538
のべ 538
ばっ 538
ひか 538
sxq 537
tg@@ 537
みじかい 537
at@@ 536
minw 536
oo 536
tgxi 536
ti@@ 536
‐ 536
うたがい 536
したがう 536
せいせき 536
だか 536
みんかん 536
アカ@@ 536
ヒト 536
cobi 535
いぎ 535
このみ 535
ざいりょう 535
しはらい 535
ただ@@ 535
へんどう 535
ウィルス 535
22 534
mbmo 534
いっさい 534
さいぜん 534
そちら 534
なかよく 534
まんなか 534
らい@@ 534
わた@@ 534
ドラ 534
ータ 534
jox 533
あげよう 533
かよっ 533
ぜつぼう 533
ちっ@@ 533
なす 533
ジー@@ 533
デー@@ 533
おかしな 532
おそ@@ 532
しゅうかい 532
すっ@@ 532
とりもどし 532
ひくい 532
カル 532
クイーン 532
ディア 532
fdvn 531
きょうかん 531
つうか 531
tgfg 530
ええと 530
がたい 530
しょくば 530
ひっぱ@@ 530
ee@@ 529
xsmf 529
こうたい 529
こっきょう 529
ちそう 529
つくれる 529
てんき 529
ほかん 529
ョ 529
400 528
na@@ 528
あやしい 528
おろ@@ 528
とれる 528
よゆう 528
スティン 528
ej 527
jm 527
syme 527
ws@@ 527
でぐち 527
にちじょう 527
のろい 527
はだ 527
みた@@ 527
エンド 527
おとずれ 526
とうこう 526
ましい 526
ハム 526
きみつ 525
イベント 525
カール 525
ジョン@@ 525
biaz 524
fvry 524
jnxm 524
うめ@@ 524
さっか 524
しきゅう 524
ちょうせい 524
やね 524
カイ 524
シンプル 524
hi@@ 523
あそ@@ 523
こうじ 523
じゅく 523
じゅんちょう 523
じょうねつ 523
なく@@ 523
にくい 523
ンク 523
35 522
by 522
けいせい 522
まめ 522
ihkq 521
あくむ 521
うたがっ 521
うったえ 521
かて 521
てんごく 521
ed@@ 520
かざ@@ 520
しほう 520
すう@@ 520
たった 520
ラク@@ 520
ワトソン 520
dbaz 519
iirb 519
きじゅん 519
きずつける 519
くま 519
ごうもん 519
しゅさつ 519
そぼ 519
ネス 519
かいがん 518
しま@@ 518
はあく 518
ほうしゅう 518
もうそう 518
ナイト 518
ラリー 518
lolb 517
なんじゅう 517
ひふ 517
ほんしつ 517
むかい 517
めいかく 517
ろうか 517
エレ@@ 517
ゴール 517
lvrd 516
nmbl 516
se@@ 516
あやまる 516
ほんらい 516
ろんぶん 516
ターゲット 516
チケット 516
ツール 516
bilo 515
yr@@ 515
あやまり 515
うばわ 515
ぎる 515
こうきょう 515
しょうき 515
たおす 515
ほうどう 515
ジェシー 515
ソウル 515
ッター 515
しゅうしゅう 514
ちゅうせい 514
もちい 514
ギャング 514
ジュ 514
ミニ@@ 514
リズム 514
lc 513
smhd 513
いりぐち 513
えれ 513
ちゅうがく 513
ひょうめん 513
へんたい 513
よき 513
よぼう 513
ソース 513
ブラ 513
arel 512
あげろ 512
じこう 512
ちなみ 512
にゅうしゅ 512
はつげん 512
ふまん 512
へいさ 512
dsul 511
あんさつ 511
かせ@@ 511
こうど 511
にが@@ 511
ぺ 511
ぼうえい 511
まんが 511
ゆそう 511
クル 511
tqx 510
きんゆう 510
そんしょう 510
でかい 510
むく 510
もん@@ 510
ggky 509
いしょく 509
うまれ@@ 509
かんたい 509
すくい 509
てつだう 509
..." 508
だまし 508
ちまう 508
やぶっ 508
スン 508
タイミング 508
トル@@ 508
ハンク 508
フリー@@ 508
nsws 507
おご@@ 507
だち 507
れいせい 507
オス 507
マジック 507
dpj 506
qka 506
zx@@ 506
いちじ 506
ぎみ 506
しんねん 506
すうひゃく 506
ふくま 506
シャワー 506
モリ 506
wdob 505
とまり 505
まてよ 505
もうしあげ 505
れいじょう 505
トミー 505
バル@@ 505
ヵ 505
いかし 504
おりる 504
こぞう 504
はじめよう 504
be@@ 503
いちおう 503
きじょ 503
こま@@ 503
しゅうい 503
すっかり 503
ゼ 503
kkk 502
uays 502
いとこ 502
うり 502
ぱい 502
リーン 502
el 501
━ 501
かぶ 501
がいこく 501
ぶそう 501
ゴン 501
...➡ 500
いただく 500
そうび 500
どうこう 500
ひげき 500
あじ@@ 499
にし@@ 499
ほろ@@ 499
まもれ 499
よべ 499
バトル 499
ブン 499
ロバート 499
ng 498
かぞえ 498
なにごと 498
ィ@@ 498
グラス 498
ジャ 498
デー 498
2000 497
mfek 497
vgbb 497
おそ 497
かいがい 497
かま 497
じめん 497
とみ 497
べん@@ 497
マグ@@ 497
J 496
K@@ 496
kg 496
くるしみ 496
ろうじん 496
co@@ 495
oxqd 495
pdel 495
かいめい 495
こうけん 495
じゃっ 495
そこ@@ 495
たいせん 495
てめえ 495
イタリア 495
ミング 495
くらす 494
せいげん 494
もど@@ 494
ボー 494
jkk 493
おいおい 493
かそう 493
きふ 493
アレ 493
ケン@@ 493
ジン@@ 493
ピザ 493
ワシ 493
= 492
dcbi 492
おぼ@@ 492
つめ@@ 492
のみもの 492
はなし@@ 492
むりょう 492
嗎 492
bb 491
pd@@ 491
うごけ 491
じかい 491
すな 491
ほれ 491
ホームズ 491
おせん 490
さそっ 490
つく@@ 490
よさん 490
イラク 490
ヒュー@@ 490
ヴァ 490
fl 489
pdaj 489
いつ@@ 489
いれ@@ 489
ぎかい 489
じひ 489
まずしい 489
フフ 489
うらぎっ 488
しゅん 488
せんじつ 488
よけれ 488
オリバー 488
トラ 488
N 487
ny 487
sujk 487
どめ 487
なき@@ 487
なんきょく 487
まいり 487
ロケット 487
ai@@ 486
とどい 486
るす 486
クー@@ 486
シャーロック 486
スキャン 486
ハン 486
说 486
うた@@ 485
かいぼう 485
こわかっ 485
すか 485
でんげん 485
とうごう 485
ふしょう 485
ベル@@ 485
vkro 484
ありがたい 484
うけいれる 484
しょうがく 484
しょぶん 484
せってい 484
てけ 484
ばいしゅん 484
ぼうけん 484
クリーム 484
ミルク 484
vi@@ 483
zmga 483
いいわけ 483
うごかす 483
かっか 483
こんしゅう 483
さようなら 483
じみ 483
みつかり 483
スコット 483
スピーカ 483
リチャード 483
ubyd 482
きゅうしゅう 482
たすう 482
ぶもん 482
シス 482
ローマ 482
aj 481
vkkg 481
vpo 481
あず@@ 481
ささ 481
そふ 481
そろっ 481
たいいん 481
つい@@ 481
つぶし 481
まとも 481
アム 481
シップ 481
チン@@ 481
パイロット 481
さいきょう 480
はた@@ 480
ぶし 480
やがる 480
グス 480
ソフト 480
hml 479
kq 479
lskb 479
いよう 479
しさん 479
しゅうせい 479
ちい 479
ふか@@ 479
まに@@ 479
むき@@ 479
アナ 479
オラ 479
はしる 478
まきこま 478
アーサー 478
シート 478
qyia 477
そうご 477
ほうか 477
やん 477
キレイ 477
ヘイ@@ 477
あお@@ 476
いんしょう 476
おもいだせ 476
かなしみ 476
さいふ 476
さくせい 476
はじ@@ 476
はんじ 476
U 475
jivr 475
vsyz 475
いちいん 475
ぐたい 475
ったく 475
ふじ@@ 475
まず@@ 475
やき@@ 475
ようかい 475
ゥ 475
or 474
あつかう 474
きんにく 474
しんじん 474
そし 474
たすかる 474
むじん 474
ゆうざい 474
よわ@@ 474
ガード 474
ゲイ 474
サンタ 474
ッサ 474
バス@@ 474
nwld 473
ptzs 473
saaa 473
あっか 473
あつまり 473
おとす 473
ころしや 473
ゆうし 473
我 473
うし@@ 472
おもいやり 472
ちゅ 472
ついか 472
ほうもん 472
みい@@ 472
マル 472
メル 472
yds 471
つち 471
とおる 471
はらわ 471
セン 471
ビス 471
ラー@@ 471
xbkk 470
かえさ 470
こんせき 470
ざいさん 470
せっち 470
ぜんりょく 470
でんりょく 470
ゆき@@ 470
アフガニスタン 470
オリ@@ 470
クソッ 470
ディーン 470
ボックス 470
ryod 469
yteo 469
かかく 469
しも 469
ゆるせ 469
こきゃく 468
そざい 468
ふくすう 468
ぶかい 468
めざし 468
やるき 468
タウン 468
edjr 467
すず@@ 467
ちょうしょく 467
とうけい 467
むずかしく 467
ヘリ 467
ンチ 467
qd 466
ymjl 466
かいじょ 466
かいろ 466
しゅうへん 466
じか 466
すべ@@ 466
せんこう 466
ふさわしい 466
ぼれ 466
われ@@ 466
グラフ 466
がくえん 465
がんばり 465
けいかい 465
こうりょ 465
とりだし 465
ふせ 465
へき 465
よこせ 465
わあ 465
アリバイ 465
fsc 464
けっしょう 464
こうさく 464
しょうげき 464
りょうし 464
コース 464
スキ@@ 464
ッシャー 464
リサ 464
dwbi 463
たのし 463
だんし 463
のめ 463
まかせろ 463
クロ 463
fexs 462
mfya 462
rd 462
zylo 462
きっかけ 462
たより 462
とうぼう 462
なる@@ 462
ゲン 462
スペイン 462
バイク 462
ブロディ 462
horo 461
こうこく 461
こうしき 461
しゅぎょう 461
しょくいん 461
そっくり 461
とっきょ 461
なえ 461
にぎっ 461
はれ 461
べつ@@ 461
ぼつ 461
まよっ 461
ベス 461
ラル 461
话 461
おもに 460
たえる 460
づき 460
はんとし 460
シュー@@ 460
ボード 460
dkia 459
jduy 459
uoki 459
きかく 459
こうにゅう 459
なら@@ 459
にがて 459
ke 458
mfxw 458
pujr 458
so@@ 458
wt@@ 458
じく 458
せっきん 458
ったい 458
わたせ 458
アナタ 458
么 458
ii@@ 457
jr 457
nejm 457
ufqe 457
いっか 457
かたな 457
ぼうがい 457
カリ 457
ナン 457
fe@@ 456
yugb 456
かまい 456
ぶんめい 456
kqlk 455
nll 455
あいじょう 455
あかし 455
あきらめる 455
かこく 455
かんきゃく 455
ざり 455
ひざ 455
ひらか 455
エージェント 455
シング 455
ハリ@@ 455
バランス 455
パイ 455
gqed 454
いじめ 454
しご 454
しゅざい 454
そしょう 454
つる 454
ぱつ 454
アス@@ 454
ライアン 454
ロード 454
dkro 453
gako 453
pv 453
ぁ@@ 453
いちぞく 453
かんしょう 453
きんよう 453
ねむり 453
まえ@@ 453
ウィン@@ 453
ピンク 453
がめん 452
きがえ 452
くらやみ 452
さわら 452
ぬく 452
ばか@@ 452
ひょうじょう 452
―@@ 451
あした 451
あわせる 451
せんにゅう 451
はこぶ 451
ぽ@@ 451
アジア 451
フラッシュ 451
たんけん 450
エラ 450
バウアー 450
⦅ 449
しゅっぱん 449
イツ 449
リンダ 449
dcv 448
rszw 448
sjwg 448
きざ@@ 448
ぎゃく@@ 448
はらい 448
びょうどう 448
ほうせき 448
ょく 448
ナン@@ 448
プレイ 448
ョ@@ 448
ランチ 448
さき@@ 447
しょうちょう 447
じゅうじ 447
じょしゅ 447
すわり 447
ちっ 447
のぼっ 447
ぺ@@ 447
ウン 447
ゴー 447
nzs 446
かんそく 446
こころあたり 446
ごうかく 446
びじん 446
よご@@ 446
デッキ 446
メモ 446
ルトン 446
syed 445
おもしろく 445
ぎれ 445
くりかえす 445
っつう 445
まいっ 445
めざ@@ 445
ブログ 445
マーフィー 445
27 444
ekgy 444
sozs 444
vaed 444
ytys 444
おうこく 444
がんば@@ 444
つかい@@ 444
はいしゅつ 444
ひとみ 444
わか 444
カラ@@ 444
ピッ@@ 444
ーリー 444
うみだし 443
きゅうしゅつ 443
ずか@@ 443
のうじょう 443
タン@@ 443
レオ 443
vsxo 442
いったん 442
いわ@@ 442
きゅうそく 442
シャン 442
デザイナー 442
dkrr 441
ebzl 441
fo@@ 441
えさ 441
かが@@ 441
さくねん 441
せれ 441
たに 441
つら@@ 441
とりくみ 441
りく@@ 441
テイ@@ 441
ラッキー 441
oxry 440
⦆ 440
いまごろ 440
おや@@ 440
かんべん 440
がち 440
ながねん 440
ひつじ 440
もとづい 440
やくめ 440
よごれ 440
アイディア 440
チャールズ 440
ドキ 440
プラン 440
fqq 439
kz 439
pda 439
pld 439
かあ 439
こい@@ 439
こっせつ 439
そうり 439
でんしゃ 439
ビーチ 439
fkki 438
くそっ 438
たまたま 438
にくたい 438
ほうそく 438
ゆえ 438
シャン@@ 438
ドン@@ 438
ミサイル 438
かこま 437
ぐみ 437
すなお 437
そうじゅう 437
たとえ 437
まかせる 437
やばい 437
らせ 437
りこ 437
りっ@@ 437
わが@@ 437
カップ 437
800 436
あつかっ 436
じぞく 436
じょういん 436
とりあげ 436
どうとく 436
ひらき 436
!" 435
ermf 435
つくろう 435
はなしあい 435
ジャンプ 435
ビジョン 435
600 434
ekf 434
jc 434
jf 434
いえ@@ 434
しょうしょう 434
のれ 434
ふさい 434
べっ@@ 434
トゥー 434
ピアノ 434
リアム 434
ルーク 434
1番 433
おそれる 433
くそったれ 433
てこっ 433
ひとごろし 433
もら@@ 433
ゆうしょう 433
れろ 433
イタ@@ 433
zuba 432
あぶ@@ 432
すくわ 432
そっ@@ 432
つげ 432
とおっ 432
なつめ 432
はる@@ 432
ぱ@@ 432
むける 432
アマ@@ 432
シンクロ 432
パトリック 432
rhxy 431
szzs 431
かたる 431
ちり 431
まわ@@ 431
バイオ@@ 431
ビリー 431
ローン 431
ri@@ 430
te 430
zf 430
うれ 430
かいせき 430
けんげん 430
はて 430
ぷんかん 430
ろくおん 430
ジョーンズ 430
メイン 430
ライフ 430
ID 429
せいしき 429
たしょう 429
つない 429
てってい 429
ふる 429
198@@ 428
32 428
fvrd 428
wwrd 428
ya@@ 428
zeku 428
おこさ 428
しゅにん 428
たき 428
とい@@ 428
ばけもの 428
ほのお 428
めいはく 428
ウェイン 428
いろ@@ 427
しせい 427
しっかん 427
しゅうふく 427
しんぷ 427
ついきゅう 427
ていしゅつ 427
てんじ 427
まける 427
ウォー@@ 427
コレ@@ 427
トーク 427
10@@ 426
maez 426
my@@ 426
oisc 426
きょうわ 426
じゅうみん 426
たいきん 426
ついたち 426
ひこく 426
ゆみ 426
エリック 426
チョウ 426
qekg 425
qfok 425
かさ@@ 425
きゅうじょ 425
しゅうにゅう 425
そうしん 425
とうたつ 425
ながめ 425
のこす 425
シュー 425
vyyt 424
おのれ 424
おんど 424
さとう 424
しゅほう 424
せめて 424
っかん 424
ぼん 424
ゆめ@@ 424
ウェブ 424
ジェームズ 424
バル 424
ワールド 424
bnom 423
uf@@ 423
☎ 423
かち@@ 423
ぴ@@ 423
セラ@@ 423
セー@@ 423
ユダヤ 423
hegj 422
tgxy 422
uek 422
uesn 422
ufkb 422
がえ 422
がえ@@ 422
しんたい 422
drrr 421
あふれ 421
きんむ 421
じんしゅ 421
ガイ 421
ミッション 421
ワン@@ 421
arzj 420
こうきゅう 420
さいちゅう 420
しろ@@ 420
たけ 420
なわ 420
ほし@@ 420
みちび@@ 420
めよう 420
ようする 420
セキュリティ 420
セス 420
kry 419
zkkz 419
zmtm 419
がっき 419
くみあわせ 419
しっと 419
すいみん 419
たいじ 419
はしれ 419
らさ 419
りょうて 419
ギュ@@ 419
クロス 419
ジュリア 419
マリー 419
メアリー 419
ec 418
fld 418
vrxb 418
きゃ@@ 418
ろん@@ 418
エン 418
シカゴ 418
ッグ 418
ニー@@ 418
zi 417
あやまち 417
いってい 417
うんえい 417
ちょっかん 417
ほぞん 417
みつめ 417
スペース 417
バート 417
かじょう 416
ぐんそう 416
しにがみ 416
せいせい 416
でんごん 416
どうが 416
へんしん 416
オフ 416
ガソリン 416
センサー 416
メガネ 416
过@@ 416
-@@ 415
vsjk 415
zrcw 415
あそぶ 415
うつし 415
うみだす 415
うんざり 415
かんちょう 415
さいわい 415
ししょう 415
しょうしん 415
じまん 415
ふういん 415
ぶくろ 415
ほめ 415
わら@@ 415
グローバル 415
ジミー 415
デン@@ 415
ナルド 415
ピング 415
フィン 415
いよいよ 414
えがく 414
げい 414
しゅくだい 414
しゅとく 414
そくてい 414
だんがん 414
はめ 414
みすて 414
むれ 414
バコ 414
プライ@@ 414
2,3 413
しゃざい 413
とわ 413
なお 413
イラン 413
ドラッグ 413
ユニット 413
; 412
ch@@ 412
nsbm 412
きょうぎ 412
さけび 412
しゅうかく 412
とっく 412
ほく@@ 412
やわら@@ 412
ソール 412
トンネル 412
フィー 412
ヨン 412
pelo 411
あらそい 411
ぜつめつ 411
たいじゅう 411
たつ@@ 411
はしら 411
みはっ 411
キャプテン 411
ジェダイ 411
ベー@@ 411
ムリ 411
うるせえ 410
しゅっさん 410
しょうじ 410
たいざい 410
ちてん 410
どくりつ 410
ならん 410
ぬすむ 410
もれ 410
エイリアン 410
ニュー 410
ブリッジ 410
ボット 410
レース 410
rr@@ 409
ぎん@@ 409
こうひょう 409
ておくれ 409
とどく 409
ぷ@@ 409
ハッピー 409
llw 408
vuol 408
vxwx 408
きずな 408
けいほう 408
そげき 408
たいりく 408
でかける 408
でんち 408
とうそう 408
ひる@@ 408
ひろっ 408
ぴ 408
めえ 408
ディー@@ 408
iirz 407
mcek 407
vf@@ 407
ぐんじ 407
しゅうげき 407
とうちょう 407
どよう 407
べく 407
エレベーター 407
ジャー@@ 407
J@@ 406
vyj 406
いぞん 406
かいとう 406
ぎっ 406
ずれ 406
せつりつ 406
つきとめ 406
eheo 405
さらさ 405
しゃべ@@ 405
ずる 405
だいじん 405
はたし 405
ぶんり 405
よういん 405
エリア 405
スタイル 405
qkro 404
くつう 404
じかく 404
とび 404
ふい 404
もよう 404
よげん 404
コロ@@ 404
ルマ 404
这 404
5千 403
njed 403
zsru 403
いたっ 403
かせつ 403
しょちょう 403
たいない 403
たんご 403
だま 403
ひろげ 403
ショット 403
チャクラ 403
gfxi 402
komy 402
tguw 402
txjs 402
xb 402
うばう 402
おいし 402
おくじょう 402
きづ@@ 402
こまり 402
たいてい 402
はいたつ 402
イラ 402
ッセ@@ 402
dhbi 401
ll 401
おもいださ 401
かめん 401
こんきょ 401
こんぽん 401
しば 401
ふしん 401
よわ 401
ジェイ 401
ナンバーズ 401
ニャ 401
ブラジル 401
ブリ 401
mj 400
おとなしく 400
かいどく 400
さけん 400
しっそう 400
ちょうほう 400
イライ@@ 400
おの@@ 399
ようご 399
bixj 398
jiwb 398
あげ@@ 398
げんかく 398
こわ@@ 398
すうせん 398
せいやく 398
たび@@ 398
だき@@ 398
ちょくぜん 398
つづ@@ 398
づかい 398
わらう 398
アドバイス 398
カップル 398
ジャン@@ 398
dxi 397
lka 397
nk@@ 397
いそ@@ 397
おどり 397
かいそう 397
ごうせい 397
にせもの 397
ほうき 397
りゃく 397
オリン@@ 397
キッチン 397
ケン 397
スコ 397
ムダ 397
ムーン 397
ロウ 397
he 396
jk 396
ps 396
sond 396
おふくろ 396
かいぞく 396
けんしょう 396
しほん 396
つくりだし 396
マネ 396
to@@ 395
あたらしく 395
かぶっ 395
しゅうよう 395
しょうばい 395
エレン 395
サラ@@ 395
トロン 395
ポン@@ 395
ryk 394
ぎしき 394
こうがい 394
さす 394
しょめい 394
せまっ 394
ムー@@ 394
リップ 394
不 394
bnj 393
いきのこる 393
うる@@ 393
しょうてん 393
じゅよう 393
せいねん 393
ふざ@@ 393
オリビア 393
キャリア 393
75 392
vyyn 392
いま@@ 392
ぞうき 392
なやん 392
はけん 392
やさい 392
スピーチ 392
ドロ@@ 392
pfyy 391
qskw 391
かんがえろ 391
しょうめん 391
ちてき 391
わたさ 391
ウント 391
ドロー 391
フード 391
ヨ 391
nr 390
あせ 390
いと@@ 390
かくとく 390
たあ 390
のりこえ 390
ばっか 390
エイミー 390
チョコレート 390
ドー 390
いしょう 389
けんしゅつ 389
さっそく 389
しんしつ 389
すすみ 389
はなしかけ 389
ぼり 389
わらわ 389
オペ 389
ケイト 389
レンス 389
いら@@ 388
がっしゅう 388
こじ 388
ことわり 388
して 388
しゅうごう 388
てんちょう 388
はいご 388
ひろがっ 388
もちぬし 388
アイ 388
ジェイソン 388
リズボン 388
ロット 388
py@@ 387
いっしゅ 387
かせぎ 387
せっしゅ 387
てんか 387
对@@ 387
aa 386
こうはん 386
ゆるす 386
サウ@@ 386
ネーム 386
ベリー 386
ju 385
qrk 385
あたたかい 385
のっ@@ 385
ほど@@ 385
みのがし 385
めちゃくちゃ 385
りょ@@ 385
セイ 385
パイ@@ 385
フフッ 385
sezf 384
うわぁ 384
えんぎ 384
さいげん 384
しんし 384
てぇ 384
よろこぶ 384
ジョニー 384
フリ 384
ポル@@ 384
あらい 383
かよう 383
がいこう 383
ぎゃくたい 383
のぼる 383
はしり 383
ガイ@@ 383
ニコ@@ 383
ハンター 383
Y@@ 382
fb 382
fk 382
mnds 382
pl@@ 382
rh@@ 382
vji 382
ymvv 382
あらっ 382
とばす 382
にょうぼう 382
ねらわ 382
ふたご 382
スライド 382
em@@ 381
あちこち 381
おどろか 381
おもえる 381
さいしゅ 381
たから@@ 381
づける 381
はんめい 381
びと 381
ステキ 381
ダイヤ 381
ドウ 381
ブランド 381
ヘ 381
ヨー@@ 381
28 380
mvfd 380
いけ@@ 380
おす 380
しゃりょう 380
つぐ@@ 380
つっ 380
ねだん 380
ひろ 380
みん@@ 380
ギリシャ 380
クイン 380
サイ 380
パンチ 380
loij 379
mfnx 379
ucyy 379
たいい 379
たけれ 379
にい 379
ねがう 379
ねむ@@ 379
インター@@ 379
カワイイ 379
キシ@@ 379
クルー@@ 379
トッド 379
ユニ@@ 379
bz 378
jngs 378
kd 378
rg 378
えんご 378
かぎ@@ 378
けむり 378
すなわち 378
てきとう 378
ふうん 378
めんきょ 378
ゆる@@ 378
コナー 378
スタン 378
ソフトウェア 378
パンツ 378
cm 377
uowm 377
vx@@ 377
えらび 377
かいしゃく 377
され 377
ただちに 377
はっこう 377
はめつ 377
センス 377
ホット 377
メイ 377
ランダ 377
an@@ 376
hr 376
hxba 376
syaj 376
たいこう 376
つかま@@ 376
なじみ 376
のび 376
ひょうばん 376
ゲノム 376
ゴメン 376
シスター 376
ジェット 376
プライズ 376
ボストン 376
いのっ 375
きわ@@ 375
くださっ 375
しつぼう 375
しんせん 375
すん@@ 375
のばし 375
ひにく 375
ぼうこう 375
コーン 375
ハリー 375
バード 375
ヘリ@@ 375
ffk 374
いやあ 374
かかわり 374
きゅうけつ 374
げんじょう 374
さぐ@@ 374
とくめい 374
はち@@ 374
めいじ 374
チョコ 374
ビックリ 374
リアン 374
150 373
26 373
am 373
bi@@ 373
fvgl 373
qmqb 373
wozz 373
いやいや 373
こうほう 373
せいてき 373
そうそう 373
どうさ 373
はいじょ 373
ま~す 373
ゾーイ 373
トレー@@ 373
ピッコロ 373
ラブ 373
レイチェル 373
レブ 373
at 372
いんさつ 372
うかがい 372
かさね 372
さそ@@ 372
さどう 372
しんてん 372
ぬける 372
のうぎょう 372
ぴん 372
ぶったい 372
スティーブ 372
ランス 372
fdnj 371
xmdw 371
おくれる 371
さける 371
さべつ 371
すり 371
ついやし 371
とつにゅう 371
キー@@ 371
ハード 371
ヒル 371
sm@@ 370
veeq 370
いきゃく 370
かたい 370
かつよう 370
なめ 370
はいき 370
エロ 370
ケビン 370
セクシー 370
ブー@@ 370
viv 369
おもいつい 369
きずつい 369
くにぐに 369
げんち 369
とうめい 369
はだか 369
はっぽう 369
イエ@@ 369
ドロイド 369
ベイビー 369
リュ@@ 369
fkro 368
あわれ 368
おろせ 368
がいしゅつ 368
きしょう 368
けんかい 368
すえ 368
つら 368
てったい 368
はこば 368
ハラ 368
ロープ 368
么@@ 368
dr@@ 367
nc@@ 367
いたく 367
げんかん 367
じゅうりょく 367
のが@@ 367
やくだ@@ 367
アンド@@ 367
ャ 367
くろさき 366
けんさつ 366
でき@@ 366
はば 366
オペ@@ 366
ゴードン 366
ハッキング 366
うず@@ 365
きらわ 365
ぎゅう@@ 365
こくれん 365
しょうさん 365
ぜんこく 365
そだち 365
ちせい 365
エディ 365
ケイ 365
チック 365
ビット 365
かてる 364
ざま 364
だいち 364
はなれろ 364
ひざ@@ 364
ひしょ 364
オイ 364
ショウ 364
ジェイコブ 364
ジュース 364
タス 364
ニュ@@ 364
ビショップ 364
ヘン 364
マネ@@ 364
レポート 364
vfgl 363
おも 363
かいぞう 363
てつづき 363
ぴつ 363
ほり@@ 363
めれ 363
もらわ 363
カム 363
キリスト 363
ジュール 363
セリフ 363
トーマス 363
ルイス 363
ルド@@ 363
ヴィス 363
NA@@ 362
ldjp 362
うちがわ 362
おうよう 362
おくびょう 362
さいよう 362
してき 362
せいしょ 362
はき 362
ふだ 362
ふっき 362
ぶちょう 362
へた 362
よそ@@ 362
エア 362
スマ@@ 362
ディス 362
メイド 362
kiq 361
ufij 361
てんかん 361
まいばん 361
アンディ 361
オーディ@@ 361
ライダー 361
リーナ 361
oiai 360
いただける 360
いわゆる 360
かんそう 360
こわす 360
でんせん 360
とくせい 360
とん@@ 360
やくだつ 360
ォ 360
カレン 360
コーチ 360
チャンピオン 360
フェリ@@ 360
uoqk 359
zmyy 359
おきろ 359
かお@@ 359
ぎゃくさつ 359
こくない 359
そうかん 359
そんちょう 359
はげしい 359
むざい 359
スラー 359
ゾン 359
ドラマ 359
ミラー 359
bsj 358
nj 358
nmzy 358
ysj 358
えいぎょう 358
げんそく 358
じゅしん 358
ともかく 358
べんとう 358
ウェル 358
ウォール 358
クロウ 358
サッカー 358
シェル 358
ホン 358
pk 357
ykkk 357
じゅうげき 357
すき@@ 357
せいきゅう 357
ちょうき 357
とめよう 357
にせ 357
のば@@ 357
リラックス 357
yklz 356
さがれ 356
じょうしき 356
たいはん 356
ちのう 356
つくりだす 356
とらえる 356
どくじ 356
むげん 356
ようけん 356
れいぞう 356
キラー 356
ハッカー 356
ボン@@ 356
マウス 356
ローレル 356
frmy 355
wdel 355
zpgx 355
あすま 355
あび 355
いきのこっ 355
うたう 355
えいよう 355
けつあつ 355
ぶんしょ 355
アド@@ 355
クモ 355
マジ@@ 355
29 354
mwvv 354
sump 354
あらわす 354
いずみ 354
こしょう 354
せんたん 354
はくぶつ 354
ウト 354
クマ 354
パスワード 354
ブライ@@ 354
プラスチック 354
iso 353
いそが 353
おうしゅう 353
こだ@@ 353
しゃべる 353
ちょうこう 353
つん 353
はたけ 353
はんえい 353
へんい 353
わしい 353
サイモン 353
リズ 353
ルター 353
ーツ 353
pek 352
いさん 352
うらみ 352
ぎし 352
どうみゃく 352
ひげ 352
ひょっと 352
コラ 352
スパー 352
ハニー 352
ペンギン 352
メー@@ 352
モンズ 352
oocy 351
pvxd 351
tdjb 351
えつ 351
おびや@@ 351
かね@@ 351
かんこく 351
しゅうこれ 351
じんぞう 351
たべ@@ 351
はた 351
もどせ 351
カイル 351
チキン 351
ポーズ 351
マイ 351
NY 350
urow 350
うたがわ 350
かいこ 350
ごい 350
しょち 350
じゅもん 350
ちえ 350
もうけ 350
ゆうごう 350
アリス 350
オル 350
カナダ 350
ゲイル 350
ドナー 350
ビング 350
bwgs 349
hmak 349
うわあ 349
えらい 349
かおる 349
かたっ 349
かるい 349
ここだ 349
すてろ 349
せんすい 349
そそ@@ 349
たすけよう 349
ったら 349
とじ@@ 349
ながす 349
へぇ 349
もったい 349
ゆうべ 349
れいがい 349
アマンダ 349
グラム 349
フィート 349
ブック 349
di@@ 348
iikg 348
pdgo 348
じゅんすい 348
せつだん 348
なう 348
ぼす 348
カレー 348
ココ 348
ティス 348
ミッ@@ 348
リバー 348
あつめる 347
いっき 347
いんも 347
しんせき 347
すすめる 347
とうきょく 347
みそ 347
ゆうり 347
りゅうこう 347
アント 347
クロエ 347
タリ 347
タリー 347
ピア 347
48 346
bs@@ 346
fjf 346
おきざり 346
おっしゃっ 346
おどっ 346
おの 346
がえし 346
がんばる 346
こうしゅう 346
しゅび 346
せいじん 346
でよう 346
とりくむ 346
ひきうけ 346
びこう 346
もてる 346
より@@ 346
サイド 346
スキル 346
ストーリー 346
ロール 346
arku 345
book 345
mko 345
qw 345
がれ 345
さがさ 345
せいしつ 345
ちかう 345
ちから@@ 345
もりやま 345
りんり 345
アーロン 345
クズ 345
ストリ@@ 345
タンパク 345
ヘヘ 345
ベイ 345
レーザー 345
gs 344
ihky 344
vfb 344
〟 344
かま@@ 344
かんしき 344
きゅうめい 344
ささげ 344
たから 344
つくりあげ 344
てつがく 344
ばいしん 344
ゆかい 344
ウル 344
カイ@@ 344
ゴルフ 344
シーズン 344
ゾーン 344
フェイス 344
フェンス 344
"? 343
exau 343
pncq 343
tidg 343
、@@ 343
かいてき 343
ぐんじん 343
しっこう 343
ひろう 343
みせろ 343
アタシ 343
シナ@@ 343
デルタ 343
ワー 343
r. 342
yy@@ 342
さくらぎ 342
でばん 342
でんぱ 342
ぬま 342
ふつ 342
めんせつ 342
シャー@@ 342
スカ 342
ニューロン 342
ワイ 342
jj@@ 341
jmhm 341
mld 341
いそがしく 341
こくおう 341
たっし 341
つけ@@ 341
ていか 341
とまら 341
どなた 341
イスラエル 341
エド 341
カウン@@ 341
怎么 341
GPS 340
kfj 340
いなか 340
ことわる 340
しゅうしょく 340
とろう 340
ますい 340
みだし 340
クソン 340
サメ 340
トリー 340
ベース 340
レイプ 340
レム 340
过 340
deaj 339
mazm 339
meeb 339
phma 339
うみ@@ 339
うれしかっ 339
かくり 339
なづけ 339
ひきおこし 339
ふうさ 339
りんしょう 339
オーストラリア 339
サーバー 339
チー 339
レスター 339
99 338
ez 338
nr@@ 338
vskz 338
ymjf 338
zkic 338
あいさ 338
いきさき 338
いのる 338
おもしろ 338
おもちゃ 338
こもり 338
ごうほう 338
じゃくてん 338
せえ 338
たき@@ 338
てらっしゃい 338
ないしょ 338
のろ@@ 338
ばいばい 338
ふせぐ 338
まぬけ 338
やせ 338
コミュニケーション 338
シャル 338
スプ@@ 338
ドリー 338
ラップ 338
evjf 337
くさり 337
くらえ 337
しょくぎょう 337
しんりん 337
じょうきゃく 337
なま@@ 337
のぞく 337
ぼうだい 337
ドライバー 337
ホン@@ 337
gps 336
vgs 336
wso 336
you 336
あつく 336
ありゃ 336
うれしく 336
くず@@ 336
こくはつ 336
てきおう 336
としより 336
どうくつ 336
にげだし 336
ねっ@@ 336
コフ 336
サンフランシスコ 336
シャー 336
バッテリー 336
モリー 336
agr 335
os 335
かたがた 335
がね 335
げんこう 335
ことわっ 335
しょうぼう 335
だく 335
てじょう 335
にげよう 335
にゅうがく 335
にんずう 335
ぴったり 335
よさ 335
オカ@@ 335
クッキー 335
コム 335
ネルソン 335
バラバラ 335
pvfp 334
ro@@ 334
vsul 334
およそ 334
きたく 334
しのび 334
じょげん 334
せんげん 334
てんけい 334
ひろし 334
ハル 334
バター 334
プライバシー 334
モニ@@ 334
qyyy 333
あいず 333
いた 333
げんり 333
こうち 333
だんじょ 333
つばさ 333
まじゅつ 333
クリア 333
ジェン@@ 333
ジョー@@ 333
タンク 333
al@@ 332
zs 332
おちつく 332
くるしい 332
しゅっせき 332
じんかく 332
せいそう 332
ぶっ 332
やがて 332
カギ 332
ヒット 332
ブルース 332
ホープ 332
ff@@ 331
hpd 331
phzi 331
ygqb 331
うろ@@ 331
えもの 331
おんせい 331
かなえ 331
かんきん 331
ごん 331
じっせん 331
だな 331
なおっ 331
デル@@ 331
ヒント 331
ビッド 331
kc@@ 330
wdlw 330
けんしゅう 330
しょうか 330
しょうこう 330
のこ@@ 330
はらえ 330
ひそ@@ 330
ようじん 330
アメ@@ 330
アルバ@@ 330
ウェブサイト 330
カバー 330
モル@@ 330
ロッ@@ 330
ロン@@ 330
gi@@ 329
mfmo 329
ubk 329
あと@@ 329
かいよう 329
きょうりゅう 329
この@@ 329
しょけい 329
すうじゅう 329
ちゅうしょく 329
にゅうりょく 329
のぼり 329
クラウ@@ 329
ザック 329
ゼル 329
デモ 329
パーク 329
リラ 329
リリー 329
ールド 329
pa@@ 328
あつりょく 328
あみ 328
しゅしょう 328
せいけい 328
どうにゅう 328
ほんのう 328
グレース 328
ルソン 328
レル 328
jcyg 327
jebo 327
llrc 327
いし@@ 327
けいぞく 327
じゃぁ 327
そだてる 327
ちょくご 327
てんじょう 327
ねらう 327
ウェー@@ 327
カネ 327
ピック 327
ユ 327
ログ 327
 327
5000 326
bwqq 326
egjw 326
oimw 326
wsgj 326
かない 326
とべ 326
みうしなっ 326
やせい 326
ゆく 326
んじ 326
カウンター 326
ドク 326
百 326
lwgq 325
おなじく 325
ごえい 325
たべよう 325
ちゅうこく 325
オリバ 325
グロー@@ 325
セル@@ 325
ディアン 325
HIV 324
ek@@ 324
kkgo 324
ng@@ 324
qa 324
rm 324
しょうしゃ 324
ちつじょ 324
づい 324
とうだい 324
とじょう 324
みなみ@@ 324
オレンジ 324
ボランティア 324
ロビー 324
ヴィン 324
开@@ 324
ag 323
ay 323
etzu 323
ne 323
tned 323
あっとう 323
きば 323
しさく 323
すわる 323
せいそく 323
っきり 323
どろ 323
もやし 323
ゆうじょう 323
らいねん 323
ツイ@@ 323
デレク 323
IT 322
いんたい 322
ごうり 322
さくげん 322
ずつう 322
ひきだし 322
やがれ 322
やぶ@@ 322
コウ@@ 322
スープ 322
ファー@@ 322
マギー 322
al 321
go 321
けしき 321
じへい 321
すりゃ 321
はんぎゃく 321
へんかく 321
ほくぶ 321
トリ 321
パニック 321
かいひ 320
かこう 320
きらっ 320
こうれい 320
しょっ@@ 320
だいしょう 320
ちら@@ 320
つま@@ 320
ふえる 320
ふと 320
ぶい 320
よら 320
グランド 320
ネタ 320
ヒョ@@ 320
ip@@ 319
さいてき 319
しかい 319
とげ 319
みき 319
めぇ 319
よい@@ 319
ろんり 319
コア 319
タワー 319
ヘッ 319
メーカー 319
edjh 318
うう 318
きゅうきょく 318
こてい 318
ばな 318
ふし 318
カッ@@ 318
クレイ@@ 318
テナ 318
ビュー 318
ピート 318
ベイ@@ 318
fvoy 317
shl 317
かんぞう 317
きび@@ 317
きれる 317
こうそう 317
さくばん 317
じゅうたく 317
せいけん 317
ふんいき 317
まみれ 317
わかく 317
シカ 317
ショップ 317
ス・@@ 317
トン@@ 317
ハハ@@ 317
マンション 317
得 317
cu 316
pvor 316
おさめ 316
かたまり 316
きいろ 316
ざんこく 316
しまえ 316
しゅうは 316
せつやく 316
たたかわ 316
ながわ 316
はったつ 316
ひこ 316
ひつ@@ 316
ぼうや 316
みぶん 316
みょう@@ 316
らみ 316
アプリ 316
エリザベス 316
ソー 316
ポリ@@ 316
あば@@ 315
いな 315
くれ@@ 315
じゃあく 315
そうぎ 315
だいぶ 315
どる 315
ひだりがわ 315
ぶんかい 315
ギター 315
グラ 315
ジュニア 315
ダース 315
チリ 315
tib 314
wm 314
xmkv 314
いそぎ 314
おおげさ 314
げつよう 314
しょほう 314
たずねる 314
はなび 314
みぎがわ 314
エンジニア 314
シロ 314
パート 314
メット 314
ヴァンパイア 314
qm 313
wl 313
えがき 313
きょうはん 313
くさっ 313
こたえろ 313
しにん 313
しょくひん 313
たな 313
ついらく 313
とうよ 313
とば 313
ぬすみ 313
ばめん 313
ひけん 313
ひろがり 313
もどろう 313
アドレス 313
エミリー 313
テー@@ 313
マンス 313
si 312
かんてい 312
すくえる 312
てんねん 312
ふほう 312
ほうしん 312
ゆえん 312
らか 312
わす@@ 312
ティー@@ 312
テッド 312
ライブ 312
bd@@ 311
hiv 311
がっかり 311
くらく 311
なぎ 311
はいけい 311
ひはん 311
やりとり 311
セーラー 311
ブルー@@ 311
ボロ 311
ミュ@@ 311
2千 310
いそぐ 310
くわえる 310
しんそう 310
そなた 310
たいしょく 310
ちん 310
っつっ 310
でいり 310
どうせい 310
ひょうじゅん 310
ふきん 310
みちびい 310
アタック 310
クレジット 310
クローン 310
タマ 310
データベース 310
パキスタン 310
ビン@@ 310
ラニスター 310
lzko 309
いかれ 309
うつくしく 309
さかの@@ 309
しゅくふく 309
たのしむ 309
ちく@@ 309
どき 309
アルゴリズム 309
ブリー 309
モニター 309
ルク 309
logq 308
こな 308
さんこう 308
ずがい 308
たくらん 308
とつ 308
クト@@ 308
ジーン 308
ストーン 308
tgfm 307
uskb 307
がいぶ 307
しみ 307
たくみ 307
たたく 307
つづけろ 307
ていさつ 307
まもろう 307
めんえき 307
ゃく@@ 307
エジプト 307
ケア 307
サイバー 307
シールド 307
デバイス 307
ekq 306
embu 306
いきのび 306
いただ@@ 306
くん@@ 306
しょとく 306
とりしらべ 306
ねむる 306
みさき 306
ウサギ 306
チッ 306
テキサス 306
プター 306
マット 306
ロング 306
这样 306
ao 305
fl@@ 305
keeg 305
mf 305
zor 305
うえ@@ 305
かみがみ 305
くび@@ 305
こうぎょう 305
しばい 305
せんざい 305
そうてい 305
ちょうしゅう 305
どうさん 305
はげ@@ 305
ふせろ 305
りか 305
イル@@ 305
サマリア 305
ジョーク 305
リンズ 305
ロイン 305
47 304
no 304
かいかく 304
かたほう 304
すいてい 304
でっ@@ 304
にんち 304
みちびく 304
アプローチ 304
コル@@ 304
ジャマ 304
トロール 304
バク 304
バック@@ 304
パズル 304
ミン@@ 304
lkzn 303
qmyl 303
いちれん 303
いらっしゃる 303
なやみ 303
へんかん 303
べんり 303
まかし 303
エリカ 303
シグ@@ 303
シュート 303
マスコミ 303
ミュージ@@ 303
ロマン@@ 303
emkd 302
mfni 302
vxzm 302
いんぼう 302
うさぎ 302
おかす 302
ねっしん 302
ひとめ 302
ふるえ 302
へび 302
みなと 302
ゴルゴ 302
ブラウン 302
ベジータ 302
ボル@@ 302
rg@@ 301
syxi 301
あしあと 301
いきの@@ 301
せいりつ 301
せんげつ 301
たすけ@@ 301
ゆうびん 301
コロン@@ 301
サポート 301
ドッグ 301
フェル 301
skrh 300
あけ@@ 300
かしこく 300
こてん 300
さまし 300
すわれ 300
そくめん 300
だぁ 300
まいしゅう 300
みょうじ 300
もうしで 300
よろ@@ 300
わび 300
バット 300
ブロー@@ 300
モード 300
jeel 299
jo@@ 299
さかい 299
さがら 299
じゅんさ 299
キサマ 299
ヒョン 299
ミット 299
65 298
fqed 298
lk@@ 298
うたがう 298
かんてん 298
きせつ 298
ぎわ 298
けっ 298
ごみ@@ 298
じらい 298
すばやく 298
ぶじょく 298
まぼろし 298
やめよう 298
イノベーション 298
ストリート 298
ブタ 298
マーカス 298
メイト 298
ヤン 298
sz@@ 297
ube 297
えいきゅう 297
たっぷり 297
どうめい 297
にがし 297
やむ 297
ゲイ@@ 297
サイクル 297
ノア 297
ライオン 297
udkk 296
zsjw 296
あわて 296
かの@@ 296
ちが@@ 296
ひろく 296
ぶんるい 296
めった 296
ジャン 296
ジュン 296
タグ 296
话@@ 296
あずけ 295
あせ@@ 295
ぎょ 295
しかん 295
しんどう 295
ぞく@@ 295
どくしん 295
はば@@ 295
アシ@@ 295
ウイ@@ 295
ハーバード 295
ルーシー 295
cund 294
sh@@ 294
おさない 294
こないだ 294
さゆう 294
なつかしい 294
のぼ@@ 294
はんしゃ 294
ようち 294
よめる 294
アニメ 294
アンド 294
キット 294
シュタイン 294
スマン 294
Z 293
うつる 293
おそかっ 293
かいきゅう 293
かみなり 293
があ 293
ささい 293
じれい 293
せんよう 293
ちょっ@@ 293
てじゅん 293
はいれつ 293
わき 293
カカシ 293
キッド 293
ステップ 293
ディスク 293
フレンド 293
觉@@ 293
fkcj 292
xml 292
xo 292
おんだん 292
かから 292
かご 292
しょうさ 292
せっかい 292
っぱなし 292
つぐ 292
なた 292
のん@@ 292
はんらん 292
ほうい 292
まひ 292
もた@@ 292
よかん 292
イライラ 292
タダ 292
ニャ@@ 292
PC 291
fkae 291
nclo 291
vry 291
あらい@@ 291
おやこ 291
かるく 291
きばん 291
ざひょう 291
せまい 291
とりしまり 291
なつやすみ 291
ひきがね 291
ぼうぎょ 291
ぼっ@@ 291
むよう 291
イヤ@@ 291
キャラ@@ 291
ソーシャル 291
バッジ 291
ベラ 291
ヤマト 291
レア 291
レクター 291
ーション 291
あこがれ 290
かいにん 290
かくれが 290
きゅうせい 290
ぐい 290
げきじょう 290
せめる 290
せんい 290
そっちょく 290
そんしつ 290
たしかめる 290
ていじ 290
オーナー 290
カタ@@ 290
メニュー 290
レナ 290
36 289
zkma 289
かえよう 289
かっせい 289
こっそり 289
ごみ 289
のこら 289
やぶる 289
れんこう 289
エド@@ 289
オーバーレイ 289
グマ 289
ケーブル 289
コイン 289
ジア 289
CBI 288
etb 288
fmrp 288
nbds 288
かせき 288
ぬれ 288
めんかい 288
ドリュー 288
プレー 288
レンジ 288
dbuo 287
yzrk 287
おいつめ 287
きょうぼう 287
こくふく 287
こくりつ 287
ざし 287
たんさく 287
とうぶ 287
なおり 287
ひく@@ 287
まあまあ 287
みんぞく 287
やしき 287
アンジェ@@ 287
クリン 287
スイ@@ 287
フィー@@ 287
ad@@ 286
xk 286
xw 286
うつくし 286
きぐ 286
こち 286
さが@@ 286
さむ 286
づく 286
どん@@ 286
なおる 286
にょう 286
べえ 286
よぉ 286
コレ 286
スタント 286
トランク 286
ベット 286
wohb 285
yza 285
えんじ 285
かいせん 285
かんち 285
きんがく 285
くじ 285
すっごく 285
ぜいきん 285
とらわれ 285
みつい 285
もて@@ 285
ジェリー 285
バリ@@ 285
モーガン 285
这个 285
es 284
sszo 284
あがれ 284
おっしゃる 284
かろう 284
けいろ 284
けっしん 284
ごうい 284
さがそう 284
すいしん 284
せんでん 284
たたい 284
たちあげ 284
だいたん 284
とら@@ 284
のがれ 284
のぶ@@ 284
ほりょ 284
まじ@@ 284
アニー 284
ケリー 284
コツ 284
コメント 284
ストーカー 284
ゾ 284
ブライアン 284
cc@@ 283
tdcw 283
かいけい 283
かいへい 283
かくど 283
すくえ 283
キュー@@ 283
ズム 283
ダグ 283
チェン 283
テレ@@ 283
 283
ev@@ 282
lwzo 282
st@@ 282
xsim 282
おおっ 282
けつごう 282
しんりょう 282
じゅみょう 282
ちたい 282
つかめ 282
つけよう 282
づか 282
にっき 282
ひがし@@ 282
ほんやく 282
ぼうえん 282
ぼくし 282
スイーツ 282
スミス 282
ニキータ 282
ノック 282
バリ 282
ミック 282
ラウ@@ 282
hm@@ 281
qda 281
あまみや 281
げきてき 281
さから@@ 281
しょこく 281
じっか 281
だいきらい 281
だんだん 281
つよう 281
めざす 281
りれき 281
アリア 281
イク 281
イーサン 281
エンター@@ 281
シミュ@@ 281
リンゴ 281
DC 280
bx@@ 280
cirs 280
あざ@@ 280
えきたい 280
けんじゅう 280
さいけん 280
さいりょう 280
しゅぞく 280
すうち 280
すず 280
たがる 280
たみ 280
だつごく 280
っぱり 280
とおざ@@ 280
めいし 280
りき@@ 280
ェ@@ 280
テア 280
プライド 280
们 280
いきおい 279
せいじつ 279
ならび 279
はたらか 279
むち 279
わらい@@ 279
キング@@ 279
グリー@@ 279
ジェリア 279
スケ 279
ハンナ 279
ピク@@ 279
マイクロ 279
マーティン 279
ミネ@@ 279
42 278
ff 278
rk 278
あくまで 278
くるしむ 278
さた 278
しっぽ 278
じりつ 278
せつび 278
せんじゅつ 278
とどか 278
はんけつ 278
ひで@@ 278
ひも 278
みやげ 278
ゆうわく 278
オッ@@ 278
ハエ 278
ファック 278
フロリダ 278
ブラン@@ 278
hone 277
mfkw 277
yj 277
yp@@ 277
あぶら 277
かわい@@ 277
かんこう 277
くだし 277
ていき 277
なくっ 277
なず@@ 277
にあっ 277
のうか 277
はかる 277
ひさん 277
ぼうはん 277
まう 277
クルー 277
サンキュー 277
スーザン 277
チビ 277
ユー 277
fj@@ 276
vxc 276
くや@@ 276
たら@@ 276
たんい 276
つぎつぎ 276
てくび 276
てんそう 276
ぬす@@ 276
ほんみょう 276
ぼく@@ 276
アウ@@ 276
トマト 276
ドール 276
バクテリア 276
jl 275
rjsw 275
あかるい 275
あたら 275
おとさ 275
きこみ 275
けつまつ 275
じゅうらい 275
じょうむ 275
そと@@ 275
たっ@@ 275
ととの@@ 275
なみ@@ 275
はしり@@ 275
ひけ 275
やまい 275
ガル 275
ディナー 275
マンガ 275
ロボ 275
fu@@ 274
pvzm 274
wdmb 274
あああ 274
うらやましい 274
かがやく 274
しょうごう 274
しょうすう 274
じゅうにん 274
じんたい 274
たし 274
たれ 274
まさと 274
りんじん 274
グレン 274
サイヤ 274
ストラ@@ 274
ッパー 274
パイプ 274
プライベート 274
プレーヤー 274
ボトル 274
@@ 274
えど 273
かえれる 273
かがやき 273
さいとう 273
しんじろ 273
じっし 273
せんしゃ 273
とっとと 273
のぞま 273
はで 273
ふりょう 273
まわす 273
インフルエンザ 273
ナー@@ 273
ハンニバル 273
ポン 273
メリー 273
udy@@ 272
vmj 272
うらない 272
えらべ 272
おおごえ 272
したぎ 272
しんわ 272
ちょうたつ 272
とうとう 272
なぎ@@ 272
はずす 272
みまい 272
よろこ@@ 272
ク・@@ 272
サンドイッチ 272
スタンド 272
タイトル 272
ダブル 272
チャイ@@ 272
ニン@@ 272
ニール 272
バイオ 272
有 272
bjex 271
cbi 271
ex 271
fv@@ 271
pc 271
xmay 271
いいき@@ 271
かいけん 271
かたり@@ 271
しぼ@@ 271
しょとう 271
のがし 271
ひきおこす 271
まする 271
もどれる 271
わけ@@ 271
ウィルソン 271
ヒッ@@ 271
ie@@ 270
jli 270
vfbk 270
yya 270
ziaa 270
あゆ@@ 270
あらそっ 270
いっそう 270
かくれる 270
こうとう 270
じんけん 270
そうしき 270
ちいり 270
ちんもく 270
どうぜん 270
ひょうし 270
ふら 270
もくし 270
よみが@@ 270
わぁ 270
わず@@ 270
アキ 270
オット 270
マラリア 270
ルム 270
ckbn 269
mjej 269
ra@@ 269
→ 269
かたく 269
かみのけ 269
からかっ 269
げい@@ 269
しんさつ 269
しんぴ 269
にて 269
めぐまれ 269
ようしゃ 269
キンス 269
スクリーン 269
ネコ 269
eklm 268
foxj 268
krrr 268
prj 268
uflc 268
zmkk 268
あいじん 268
おおもの 268
おさえる 268
せいしょく 268
ならべ 268
はじめまして 268
ふとっ 268
ウォリアー 268
ジャーナリスト 268
スル 268
ズボン 268
タイヤ 268
フェア 268
3000 267
700 267
daf 267
hy 267
mfik 267
om@@ 267
あくにん 267
うりあげ 267
さっぱり 267
しょくもつ 267
じしゅ 267
じゃう 267
たず@@ 267
つまん 267
はえ 267
クーパー 267
センチ 267
タレ 267
ダラ 267
トレーニング 267
为 267
fmzy 266
lde 266
llwb 266
nsmo 266
ot 266
witter 266
xmrr 266
あては@@ 266
えが@@ 266
かおう 266
きつ@@ 266
たいら 266
ついで 266
つくす 266
なおせ 266
なしとげ 266
ねつ@@ 266
ばし 266
ふはい 266
よま 266
イェ@@ 266
バーン 266
マイナス 266
うけとる 265
かなう 265
ぎそう 265
けっちゃく 265
ずら 265
ちけん 265
ちめい 265
つかまる 265
とどける 265
はっそう 265
ものすごく 265
んかん 265
アルファ 265
オタク 265
パスポート 265
ベンジャ@@ 265
31 264
llbb 264
sx 264
vkku 264
あるけ 264
いかなる 264
おだ@@ 264
きょうちょう 264
こうせん 264
しがい 264
しゅっちょう 264
じめ 264
ともなう 264
ぬっ 264
めがね 264
やさし 264
よくじつ 264
ウェン 264
コンビ@@ 264
スチ@@ 264
ファッション 264
ペル@@ 264
ボラ 264
ボル 264
メル@@ 264
レージ 264
37 263
bdzs 263
あれ@@ 263
がわり 263
しろうと 263
せいりょく 263
ふんそう 263
カラム 263
グル@@ 263
ジョーダン 263
タミン 263
ッツ@@ 263
ミラ@@ 263
li 262
いっぽ 262
えみ 262
かいりょう 262
けねん 262
しずる 262
じゅうでん 262
そうこう 262
そうごう 262
そせん 262
たもつ 262
よっぱらっ 262
らしかっ 262
アーティスト 262
キャラ 262
クソ@@ 262
スイス 262
ナッツ 262
ノル@@ 262
ビッチ 262
ラウンド 262
iP@@ 261
nxd 261
znli 261
さやか 261
たしゃ 261
ちゅうとう 261
つかむ 261
つり@@ 261
ほうり@@ 261
ゆり 261
エゴ 261
チェス 261
ツアー 261
ペース 261
ライバル 261
里 261
33 260
Google 260
Y 260
nu@@ 260
qs@@ 260
yda 260
かじ@@ 260
かたり 260
くどう 260
じゅしょう 260
じんざい 260
たんさ 260
ちゅうじつ 260
ふくむ 260
まど@@ 260
まどか 260
アミ 260
アンダーソン 260
ウェルズ 260
デイ 260
ドキ@@ 260
ファン@@ 260
ホイ@@ 260
ムス 260
bmya 259
gj 259
it 259
soca 259
uaxk 259
おおいに 259
けいか 259
さいしょう 259
してい 259
しゅつげん 259
せっきょう 259
つうわ 259
はし@@ 259
ばる 259
ようき 259
りょ 259
るく 259
カフェ 259
ゲル 259
コカイン 259
チャー@@ 259
ド・@@ 259
ネク@@ 259
バウ@@ 259
マズイ 259
レイク 259
样@@ 259
55 258
jihm 258
nixs 258
かぐ 258
かつやく 258
こくそ 258
しかた@@ 258
じゅけん 258
そせい 258
ゆうがた 258
よっぱ@@ 258
りき 258
オッケー 258
ズラ 258
チク@@ 258
197@@ 257
do@@ 257
うぅ 257
うけとり 257
おしえろ 257
きょうくん 257
くさ@@ 257
けつい 257
しに@@ 257
じゅんばん 257
そうしつ 257
そりゃあ 257
たいか 257
つる@@ 257
なんぶ 257
にゃ 257
はなしあっ 257
ほじ 257
まも@@ 257
アイリス 257
イルカ 257
ガム 257
ザン@@ 257
スリー 257
ダウンロード 257
ティン 257
ノコ 257
ビジター 257
マーシャル 257
ランプ 257
リグスビー 257
リッサ 257
给@@ 257
ved 256
あらためて 256
うかん 256
きこ@@ 256
けいれき 256
こもっ 256
すいり 256
せいよう 256
ふたん 256
ほこ@@ 256
みぢか 256
みにくい 256
ステー@@ 256
チーフ 256
トロ 256
ピース 256
ヘッド 256
マール 256
レーン 256
fh@@ 255
is 255
xi@@ 255
うま@@ 255
きら@@ 255
けっせい 255
しょうふ 255
すいせん 255
そろ@@ 255
たたき@@ 255
ばら@@ 255
まいあさ 255
ゆうどう 255
わかれる 255
わき@@ 255
オル@@ 255
ガールフレンド 255
クリン@@ 255
グッド 255
サクラ 255
チンパンジー 255
ナイス 255
プログラ@@ 255
ペ 255
ホルモン 255
レベッカ 255
38 254
dg@@ 254
dpqx 254
fr@@ 254
qzj 254
いやぁ 254
うい 254
うす@@ 254
したがえ 254
せっし 254
そっと 254
たいりつ 254
つまっ 254
なさっ 254
ぬか 254
はげしく 254
みちこ 254
ゼット 254
ハウ@@ 254
パティ 254
ihkh 253
oiom 253
rhk 253
tgnr 253
うれ@@ 253
えんき 253
おうじょ 253
がめ 253
きゅうでん 253
けんしん 253
げんてい 253
じゅうたい 253
そうぐう 253
のら 253
ほり 253
みおぼえ 253
みぎて 253
カエル 253
ジェームス 253
ジュリエット 253
ストップ 253
ライリー 253
レイド 253
レート 253
让@@ 253
la@@ 252
oxma 252
wy 252
いんよう 252
えら 252
おとずれる 252
かえり@@ 252
こうさ 252
ことなっ 252
しばら 252
しゃげき 252
そな@@ 252
たいわ 252
ためす 252
っし 252
ながさ 252
ひきずり 252
びんぼう 252
ぶんしょう 252
べつべつ 252
むりやり 252
わりあい 252
インフラ 252
クジラ 252
クロー@@ 252
シマ 252
シャーク 252
スタジオ 252
フィ 252
フォーム 252
プレゼ@@ 252
ペー@@ 252
メガ 252
eer@@ 251
faz 251
gdoo 251
ski 251
us@@ 251
zs@@ 251
いわば 251
じゃく@@ 251
とかい 251
ぼん@@ 251
むじゅん 251
やちん 251
ゅ 251
キャメロン 251
ゲー@@ 251
シア@@ 251
ショ 251
スティック 251
チョ 251
ティム 251
ラーメン 251
ーチ 251
いかん 250
いんぺい 250
くださる 250
くべつ 250
こつ@@ 250
しょくにん 250
じはく 250
にくしみ 250
ねが@@ 250
ぼっち 250
コーナー 250
パック 250
レーズ 250
ヴァー@@ 250
ds@@ 249
dx@@ 249
mkia 249
qb 249
zg 249
あきら 249
あずかっ 249
おおやけ 249
かぐら 249
くみたて 249
こんどう 249
ごくひ 249
さず@@ 249
しょじ 249
すいしょう 249
つぶす 249
てば@@ 249
にぎ@@ 249
ふち 249
ほうてき 249
めぐみ 249
サンゴ 249
シャトル 249
チュー 249
ハンサム 249
ライフル 249
ロッカー 249
majk 248
rkkz 248
rn 248
sa@@ 248
th@@ 248
wmmj 248
おうひ 248
おび@@ 248
おりろ 248
こめる 248
しけれ 248
しはらう 248
じゅうだん 248
ばくげき 248
ひび@@ 248
ほかげ 248
めんせき 248
ゆうふく 248
りこう 248
ろじょう 248
シック 248
タフ 248
ポジ@@ 248
你的 248
2、3 247
loaa 247
いえよ 247
こうはい 247
さつ@@ 247
たんきゅう 247
だいどころ 247
っぽ 247
ついほう 247
つきあう 247
なおせる 247
まがっ 247
ゆい 247
コンサルタント 247
スターリング 247
タール 247
ッキ 247
デイビッド 247
バルブ 247
パレ@@ 247
フィフス 247
フォース 247
ヤマ 247
リオン 247
?- 246
You 246
mr 246
vryk 246
yt@@ 246
あいまい 246
うたい 246
おとし@@ 246
おんな@@ 246
かいぐん 246
かなた 246
かなっ 246
きつい 246
しょうめつ 246
しんさ 246
たいけい 246
ての@@ 246
ながれ@@ 246
ひろがる 246
まいかい 246
やとわ 246
クラウス 246
クラーク 246
サリー 246
ジル 246
タバコ 246
チャンネル 246
ッション 246
ハッキリ 246
リンカーン 246
TV 245
dc 245
faos 245
idke 245
plj 245
えだ 245
かわし 245
しょぞく 245
しんりゃく 245
じょか 245
ずっ 245
ぞら 245
たんどく 245
ちかづけ 245
つえ 245
ないぞう 245
ひるま 245
ふくせい 245
まいそう 245
みこ 245
ものすごい 245
れいぎ 245
コミュニティー 245
ニョ@@ 245
ネイ 245
ハリウッド 245
プレイヤー 245
ベト@@ 245
ボク@@ 245
eb@@ 244
ehi 244
google 244
mc 244
※ 244
うすい 244
かわいく 244
くいき 244
けいしき 244
こぎ@@ 244
しょくどう 244
せんしょく 244
ふかけつ 244
ふせ@@ 244
もほう 244
よっしゃ 244
ダイナ@@ 244
ダスト 244
バラ@@ 244
プレート 244
dkuc 243
hxq 243
maaa 243
おぼれ 243
ぎょうむ 243
さくらこ 243
しゃこ 243
とうなん 243
とっぱ 243
へつ 243
ほうしゅつ 243
むこう@@ 243
るし 243
エドワード 243
オール 243
カプ@@ 243
クリック 243
グーグル 243
ジェル 243
スティ 243
フォン 243
ホロウ 243
ミリ 243
モンロー 243
ワープ 243
911 242
ewfk 242
iirf 242
ue 242
あちら 242
えがか 242
おうごん 242
およぶ 242
けいき 242
ざいだん 242
つれだし 242
てきよう 242
ばいしゅう 242
ほうち 242
ゆび@@ 242
よそ 242
りょうきん 242
れんごう 242
グレッグ 242
デブ 242
ハロー 242
ブレナン 242
wwnr 241
うらぎら 241
おおがた 241
おもしろ@@ 241
こわさ 241
さらし 241
ぜんめん 241
たいそう 241
ちゅうしゅつ 241
ほほ@@ 241
みはる 241
モス 241
リカ 241
レンジャー 241
Q 240
bbk 240
nki 240
wdkk 240
いたむ 240
いど 240
いれろ 240
おそわっ 240
かんがえれ 240
さがる 240
しょにち 240
しんでん 240
たたかえ 240
ながれる 240
なさけ@@ 240
ひとりひとり 240
アフ@@ 240
アルコール 240
ギャン@@ 240
クリスタル 240
スケール 240
ハンマー 240
バーガー 240
パネル 240
ホームレス 240
ラルド 240
レーター 240
ワーク 240
eo 239
ld@@ 239
あえて 239
おちこん 239
かいにゅう 239
かぞ@@ 239
きよ@@ 239
ごうりゅう 239
さむらい 239
しゅどう 239
じょじょ 239
っぱつ 239
ばいにん 239
らっかん 239
わすれ@@ 239
エサ 239
キア 239
キャシー 239
クィ@@ 239
グレイ 239
ゴースト 239
サンダー 239
ジュリアン 239
ミア 239
モー 239
レオン 239
现在 239
,@@ 238
eaou 238
ibi 238
ih 238
kvm@@ 238
py 238
うつり 238
きがい 238
しょうどう 238
そうきん 238
はたす 238
はっき 238
ひきかえ 238
ぶどう 238
ほいく 238
まあす 238
アストラル 238
エー@@ 238
オリジナル 238
オーバー 238
キャンペーン 238
ダイエット 238
テレサ 238
デラ 238
ナナ 238
ハハハハ 238
ベルリン 238
就 238
120 237
dsu 237
wy@@ 237
あしもと 237
いちりゅう 237
いっせい 237
おそう 237
さんかく 237
せんぞ 237
ちまえ 237
ちゅうさ 237
ちゅうしょう 237
ぢ@@ 237
であう 237
どうどう 237
にんじゃ 237
びみょう 237
ふき 237
まえむき 237
まにあわ 237
やぶれ 237
ウー@@ 237
オイル 237
カラス 237
クリー@@ 237
シリーズ 237
ジャケット 237
ファミ@@ 237
ブレイク 237
an 236
swmh 236
to 236
vdwi 236
かんせつ 236
ぎぞう 236
こば@@ 236
さがり 236
だんぺん 236
つくだ 236
つぶれ 236
はさん 236
ふうけい 236
みゆき 236
ウイ 236
バージョン 236
ホー 236
マネー@@ 236
ヤバイ 236
ヴァル 236
bmuo 235
ck@@ 235
dr 235
dv@@ 235
hd@@ 235
おろす 235
ぎょうかい 235
しゃだん 235
するどい 235
つなげ 235
でれ 235
とりつけ 235
はま 235
ぶつかっ 235
みじめ 235
もどさ 235
ゃあ 235
やれよ 235
ゆい@@ 235
カレ 235
ストラ 235
ッジ 235
フリ@@ 235
ポスター 235
ヤード 235
aj@@ 234
ehm 234
ghj 234
mp 234
no@@ 234
odoe 234
おどる 234
かもつ 234
ぎょうしゃ 234
こくぼう 234
じょがい 234
すいそ 234
ちゅうけい 234
とうち 234
とばさ 234
びん@@ 234
まと 234
みこみ 234
やりなおし 234
アイン@@ 234
アポ@@ 234
カロ@@ 234
シドニー 234
ジャングル 234
ステーション 234
ファースト 234
ブラッド 234
プラス 234
マップ 234
ヤジ 234
ロブ 234
ef 233
ぞん 233
ちょく 233
にち@@ 233
ぶぞく 233
エキ@@ 233
サル@@ 233
チェーン 233
ドローン 233
ミツバチ 233
ランク 233
リハビ@@ 233
レクト 233
ロサン@@ 233
gr 232
zw 232
fx@@ 230
oq 230
vn@@ 230
つば@@ 230
びび@@ 230
クラ 230
プト 230
她@@ 230
くえ 228
だつ@@ 228
キリ 228
ゲット 227
ーム@@ 227
候 227
ym@@ 226
ポート 226
clo 225
ug 225
そり 225
qu@@ 224
ハロ@@ 224
ly 223
zj 223
。@@ 223
请@@ 223
qi 222
とつ@@ 222
经 222
qx 221
ser 221
くむ 221
まきこ@@ 221
カメ@@ 221
发@@ 221
sy@@ 220
ザン 220
メエ 220
エミ@@ 219
..@@ 218
ad 218
ぐら 218
见@@ 218
jj 217
テク@@ 217
パク 217
ホル@@ 217
啦 217
コブ 216
プリ 216
dw@@ 215
my 215
rb 215
sn@@ 215
しんじ@@ 215
ワク@@ 215
已@@ 215
$ 214
wrd 214
ウェア 214
スキャ@@ 213
セキュリ@@ 213
ヘン@@ 213
ky 212
也 212
在 212
llr@@ 211
W 210
uj 210
·@@ 210
elb 209
kb@@ 209
あきら@@ 209
ソフ@@ 208
什 208
jb@@ 207
なつ@@ 207
くだん 206
ちがわ 206
jm@@ 205
pe@@ 205
vr 203
えら@@ 203
ごく@@ 203
すげ@@ 203
X@@ 202
eo@@ 202
ju@@ 202
vp@@ 202
めっ@@ 202
コロ 202
一 202
到 202
ml 201
ッカ 201
cw 200
おっしゃ@@ 200
どり@@ 200
wi@@ 199
おそろ@@ 199
しゃく@@ 199
とと@@ 199
!@@ 198
jc@@ 198
yz 198
じょうぶ 198
〝 197
とば@@ 197
去@@ 197
すな@@ 196
アイデ@@ 196
ォ@@ 196
ir@@ 195
ギリ@@ 195
ジオ 195
タイン 195
マラ@@ 195
上 195
qd@@ 194
ワト@@ 194
ry@@ 193
ケル 193
ij 192
rhy@@ 192
イラ@@ 192
シカ@@ 191
シスコ 191
实@@ 191
ch 190
ur@@ 190
uu@@ 190
じょく 190
チャン@@ 190
vl@@ 189
vs@@ 188
xz 188
おどろ@@ 187
ひきず@@ 187
クリス@@ 187
et@@ 186
クリーン 186
カーン 185
フォル@@ 185
Z@@ 184
qz 184
zo 184
しや 184
インタ@@ 184
mw 183
おおい@@ 183
eh 182
きち@@ 182
フェ 181
关@@ 181
别@@ 181
问@@ 181
间 181
TE@@ 180
qw@@ 180
xs@@ 180
のこ 180
gh@@ 179
きの@@ 179
キュー 179
ジニア 179
bw@@ 178
あて@@ 177
就@@ 177
来 177
样 177
ns 176
sw@@ 176
わざ@@ 176
うば@@ 175
すす@@ 175
アリー 175
sc 174
bu@@ 173
チー@@ 173
si@@ 172
xj 172
yw 172
xl 171
ちい@@ 171
现@@ 171
ぢか 169
ゅう 169
んと 169
えば 168
ヒー@@ 167
kw 166
lz 166
那 166
...@@ 165
dw 165
ぐう@@ 165
リーズ 165
人 165
?@@ 164
jy 164
sc@@ 164
yu 164
まか@@ 164
爱@@ 164
【 163
ずかしく 163
めず@@ 163
デザ@@ 163
クシー 162
开 162
gh 161
klx 161
tx@@ 161
vk@@ 161
っとも 161
以@@ 161
おおき@@ 160
ぜつ@@ 160
ねら@@ 160
ティア 160
ピア@@ 160
对 160
buq@@ 159
jdj@@ 159
nj@@ 159
あらわ@@ 159
おとこ@@ 159
ズル 158
xx 156
リッジ 156
br 155
qym 155
しむ 155
始 155
ue@@ 154
sl@@ 153
ud 153
】 153
てらっしゃ@@ 153
のけ 153
ヅ@@ 153
meb 152
ns@@ 152
ww@@ 152
ダウン@@ 152
着 152
nd@@ 151
ps@@ 151
应@@ 151
kr 150
’ 150
⇒ 150
ドニー 150
会 150
PS 149
ak 149
种@@ 149
oxj 146
​@@ 146
种 146
めで@@ 145
lr@@ 144
つぎ@@ 144
.@@ 143
いらっしゃ@@ 143
ろし 143
欢@@ 143
还 143
进@@ 143
ter 142
ちがえ 141
虽@@ 141
+ 140
pv@@ 140
个@@ 140
好 140
难@@ 140
ka@@ 139
いそが@@ 138
ふさわ@@ 138
デレ@@ 138
题 138
mo 137
vh@@ 137
ょ@@ 137
エット 137
テリー 137
变@@ 137
要 137
ug@@ 136
× 136
ニバル 136
去 136
さくら@@ 135
ゅ@@ 135
ャ@@ 135
实 135
cx 134
fvv 134
man 134
ファ 134
之 134
ho@@ 133
yo@@ 133
メロン 133
她 133
eh@@ 132
没 132
jq 131
ダイ 131
ミュー@@ 131
该 131
xb@@ 129
ずい@@ 129
キャロ@@ 129
都 129
ケーション 128
能 128
ありが@@ 127
ざつ 127
总@@ 127
结@@ 127
cl@@ 126
oy@@ 126
xgd 126
キッ@@ 126
ak@@ 125
ke@@ 125
kl 125
zi@@ 125
ぃ@@ 125
はは@@ 125
べい@@ 125
人@@ 125
子 125
然 125
ライド 124
现 124
po@@ 123
ギン 123
ビジ@@ 123
确@@ 123
いり@@ 122
かんぼう 122
じち 122
たと@@ 122
デジ@@ 122
ufd 121
そし@@ 121
伙@@ 121
真 121
于 120
カナ@@ 119
动 119
こんにち@@ 118
东@@ 118
长@@ 118
eq 117
➡@@ 117
刚@@ 117
动@@ 117
嗯 117
da@@ 116
rz@@ 116
こた@@ 116
イント 116
mj@@ 115
ぎら 115
テリア 115
见 115
谁@@ 115
连@@ 115
br@@ 114
kr@@ 114
ぢ 114
ループ 114
md@@ 113
sr 112
ぴょう 112
也@@ 112
伙 112
生 112
oe 111
edj@@ 110
ひだ@@ 110
ぷり 110
セリ@@ 110
终@@ 110
ここ@@ 109
ふた@@ 109
时 109
错@@ 109
ss@@ 108
td 108
zho 108
帮@@ 108
经@@ 108
西 108
记@@ 108
ゴル@@ 107
哪@@ 107
战@@ 107
dp@@ 106
eg@@ 106
wg 106
yn 106
ys 106
类@@ 106
给 106
才 105
bj@@ 104
ちゃくちゃ 104
ヴァン@@ 104
)@@ 103
fp 103
オープ@@ 103
kh 102
ol 102
vb@@ 102
喂 102
=@@ 101
jd@@ 101
jy@@ 101
tdj@@ 101
○ 101
する@@ 101
たしか@@ 101
您@@ 101
ah@@ 100
jw 100
kx 100
sk@@ 100
おおも@@ 100
ーイ 100
办@@ 100
无@@ 100
论 100
oy 99
ze@@ 99
° 99
电@@ 99
gq 98
lc@@ 98
nx@@ 98
szo 98
だすけ 98
ちいさ@@ 98
バチ 98
ku 97
rl@@ 97
vm@@ 97
ズン 97
强@@ 97
系 97
ga@@ 96
どろ@@ 96
请 96
ybo@@ 95
zd 95
それ@@ 95
 95
ew@@ 94
iy 94
pu@@ 94
¶ 94
おな@@ 94
他 94
带@@ 94
法 94
该@@ 94
pm@@ 93
ub@@ 93
va@@ 93
zu@@ 93
アタ@@ 93
チェル 93
风@@ 93
du@@ 92
ml@@ 92
つかる 92
イス@@ 92
ゥ@@ 92
パート@@ 92
让 92
il 91
vc@@ 91
zy@@ 91
ぉ@@ 91
オーバー@@ 91
ケー 91
レスト@@ 91
vr@@ 90
ダニ@@ 90
トイ@@ 90
觉 90
fi 89
ud@@ 89
うけい@@ 89
うつく@@ 89
イノ@@ 89
两@@ 89
dj@@ 88
ear@@ 88
om 88
☆ 88
やさ@@ 88
师@@ 88
边@@ 88
NA 87
ob 87
そだ@@ 87
們 87
tid@@ 86
なし@@ 86
可 86
运@@ 86
@ 85
ekg@@ 85
远@@ 85
zma 84
起 84
ep@@ 83
qk 83
​ 83
ぇ@@ 83
カイン 83
メガ@@ 83
长 83
* 82
Q@@ 82
リチャ@@ 82
gu@@ 81
スピー@@ 81
フス 81
认@@ 81
zu 80
イスラ@@ 80
头@@ 80
看 80
诉@@ 80
js 79
zh@@ 79
すが 79
ベジ@@ 79
仅@@ 79
行 79
CI@@ 78
dy@@ 78
kk@@ 78
rx 78
ws 78
ものが@@ 78
ニューヨ@@ 78
バク@@ 78
边 78
道 78
间@@ 78
ho 77
出 77
家 77
っくり 76
テロ@@ 76
大 76
师 76
心 76
飞@@ 76
all@@ 75
hbi 75
ua 75
がう 75
なつか@@ 75
ホーム@@ 75
ラックス 75
伤@@ 75
gw@@ 74
idj@@ 74
ih@@ 74
だら@@ 74
发 74
nf@@ 73
tgu@@ 73
とうりょう 73
なっ@@ 73
エレベ@@ 73
ジャーナ@@ 73
スイー@@ 73
定 73
km@@ 72
むらい 72
马@@ 72
vg@@ 71
• 71
ハビ@@ 71
回 71
成 71
错 71
おもし@@ 70
インフ@@ 70
エジ@@ 70
サンド@@ 70
亲@@ 70
员@@ 70
很@@ 70
mx@@ 69
かくれ@@ 69
グー@@ 69
ッフ 69
ベーション 69
fm@@ 68
别 68
怎 68
想 68
报@@ 68
问 68
bj 67
ru 67
おとな@@ 67
战 67
进 67
bm@@ 66
あえ@@ 66
あらた@@ 66
っきん 66
ジット 66
已 66
跟@@ 66
yw@@ 65
》@@ 65
うらやま@@ 65
团@@ 65
lx 64
um@@ 64
zo@@ 64
许@@ 64
je@@ 63
はよう 63
りゃあ 63
处@@ 63
备@@ 63
oaj 62
odm@@ 62
复@@ 62
谢@@ 62
つなが@@ 61
ゃく 61
场@@ 61
继@@ 61
续 61
au 60
あに@@ 60
ネズ@@ 60
护@@ 60
离@@ 60
轻@@ 60
jee@@ 59
ずう 59
っしゃ@@ 59
パイア 59
够@@ 59
头 59
拥@@ 59
调@@ 59
がし@@ 58
下 58
呀 58
和 58
哦 58
矿 58
神 58
nar@@ 57
xmb@@ 57
カシ 57
哪 57
査 57
组@@ 57
诸@@ 57
ぺき 56
放 56
视@@ 56
谁 56
bn@@ 55
sjk 55
ze 55
かれ@@ 55
せもの 55
とりし@@ 55
ふし@@ 55
クイ@@ 55
传@@ 55
坚@@ 55
强 55
杀@@ 55
诂 55
试@@ 55
db@@ 54
loh@@ 54
ほの@@ 54
制 54
圣@@ 54
很 54
バイス 53
ヲ 53
吃@@ 53
您 53
烦@@ 53
贵@@ 53
遗@@ 53
mm@@ 52
skr 52
おうご@@ 52
くに@@ 52
イナー 52
所 52
灭 52
ku@@ 51
ちち@@ 51
オフィ@@ 51
ジェント 51
ジラ 51
买@@ 51
些 51
件 51
地 51
找 51
闪@@ 51
ックリ 50
ワイト 50
从@@ 50
哎@@ 50
团 50
害 50
爱 50
纪 50
认 50
這 50
そつ@@ 49
ンビ 49
个 49
把 49
紧@@ 49
色 49
麽 49
cy 48
xa 48
● 48
てよ 48
ゆる 48
ームス 48
点 48
知 48
かんが@@ 47
ちら 47
とうと 47
サギ 47
リアー 47
リズ@@ 47
变 47
cl 46
equ@@ 46
」@@ 46
あこ@@ 46
うそ@@ 46
ゎ 46
イベ@@ 46
义 46
击@@ 46
刚 46
园 46
寻@@ 46
岛@@ 46
而@@ 46
lp@@ 45
pg 45
soo 45
ひょ@@ 45
めて 45
ノロ@@ 45
中 45
做@@ 45
明 45
次 45
老 45
nh@@ 44
ul 44
ったり 44
ティスト 44
书@@ 44
以 44
学 44
怎@@ 44
无 44
讨@@ 44
身 44
须@@ 44
qy@@ 43
xy 43
アンダー@@ 43
キャプ@@ 43
ドライ@@ 43
プロジェ@@ 43
事 43
喔 43
绝@@ 43
谢 43
跑@@ 43
风 43
wld 42
らっしゃ@@ 42
コンピュー@@ 42
中@@ 42
书 42
做 42
咪@@ 42
啊@@ 42
场 42
感 42
被 42
跑 42
连 42
bmy@@ 41
kl@@ 41
uy 41
zmu@@ 41
あち@@ 41
多 41
妳@@ 41
帐@@ 41
斗 41
灵@@ 41
用 41
转@@ 41
cq 40
ske 40
vq@@ 40
zw@@ 40
れど 40
デオ 40
ノム 40
ラニ@@ 40
傢@@ 40
击 40
术@@ 40
顺@@ 40
 40
gb 39
oz 39
xxx 39
α 39
にょう@@ 39
ピオン 39
习 39
军@@ 39
将 39
果 39
绝 39
门@@ 39
krr 38
{ 38
セキュ@@ 38
ネル@@ 38
伤 38
恶@@ 38
暮@@ 38
等 38
ik@@ 37
rj@@ 37
ufk@@ 37
wit@@ 37
「@@ 37
ソフト@@ 37
偷@@ 37
却@@ 37
护 37
死 37
级@@ 37
绽@@ 37
节@@ 37
负@@ 37
预@@ 37
马 37
々@@ 36
丰@@ 36
作 36
关 36
利 36
又 36
影 36
脑@@ 36
识 36
语 36
面 36
px@@ 35
~@@ 35
ガニ@@ 35
タク 35
ピュー@@ 35
办 35
告 35
哟 35
束 35
活 35
碰@@ 35
类 35
记 35
证@@ 35
诶 35
轻 35
ook 34
wmh 34
} 34
ゐ@@ 34
コンサル@@ 34
タント 34
パス@@ 34
ヒー 34
プレイ@@ 34
员 34
幫@@ 34
异@@ 34
手 34
方 34
线@@ 34
结 34
翔 34
赶@@ 34
载 34
选@@ 34
队 34
难 34
ae 33
ームズ 33
倾@@ 33
儿 33
兴@@ 33
听 33
备 33
妈@@ 33
带 33
红@@ 33
而 33
胜@@ 33
规@@ 33
门 33
饭@@ 33
vw@@ 32
えと 32
びゃく 32
メキシ@@ 32
业 32
什@@ 32
入 32
厉@@ 32
处 32
应 32
忙 32
报 32
换@@ 32
搞@@ 32
约@@ 32
负 32
走 32
车@@ 32
达 32
达@@ 32
际 32
HI@@ 31
nli 31
sn 31
zz@@ 31
ا@@ 31
′ 31
あたり@@ 31
バーズ 31
ミツ@@ 31
两 31
亚@@ 31
小 31
意 31
沉@@ 31
烁 31
热@@ 31
物 31
计 31
设@@ 31
译 31
转 31
'@@ 30
ci 30
hx 30
ls@@ 30
まだ@@ 30
もし@@ 30
ヂ 30
ヅ 30
マト 30
再 30
压@@ 30
尔@@ 30
岛 30
找@@ 30
掉 30
组 30
读@@ 30
高@@ 30
nm@@ 29
スビー 29
ベッカ 29
亲 29
单@@ 29
合 29
毁@@ 29
满@@ 29
理 29
紧 29
议@@ 29
试 29
败 29
车 29
较@@ 29
远 29
nl@@ 28
ph@@ 28
vo@@ 28
システ@@ 28
与 28
东 28
乡@@ 28
值@@ 28
厌 28
只 28
月 28
机 28
此 28
者 28
花 28
许 28
责 28
饭 28
^ 27
gaj 27
zrk 27
はいた@@ 27
びしい 27
むり@@ 27
キスタン 27
ニキ@@ 27
务 27
助 27
古 27
呐 27
外 27
妈 27
懂@@ 27
戏@@ 27
显@@ 27
电 27
組 27
计@@ 27
辦@@ 27
闭@@ 27
阳@@ 27
ae@@ 26
kf 26
yxa 26
ヂ@@ 26
フォルニア 26
从 26
任 26
仿 26
兴 26
划 26
则@@ 26
弹 26
志 26
海 26
视 26
迎 26
铛 26
镮 26
%@@ 25
\ 25
vyy@@ 25
xms@@ 25
エネル@@ 25
ベート 25
乐@@ 25
习@@ 25
便 25
信 25
倒 25
先 25
力 25
同 25
墙@@ 25
太 25
怀 25
止 25
识@@ 25
轴 25
隐@@ 25
@@ 25
lg 24
mz 24
sul@@ 24
まあ@@ 24
コミュニ@@ 24
マズ@@ 24
位 24
名 24
嘛 24
它@@ 24
彼 24
快 24
掉@@ 24
放@@ 24
毕@@ 24
玩 24
织@@ 24
部 24
镜@@ 24
omf 23
しろう@@ 23
゙ 23
テクノロ@@ 23
ネット@@ 23
专@@ 23
何 23
供 23
儿@@ 23
夺@@ 23
张@@ 23
忆 23
本 23
杀 23
条 23
烟 23
简@@ 23
约 23
翱@@ 23
脸@@ 23
节 23
谓@@ 23
败@@ 23
适@@ 23
這@@ 23
aw 22
fd 22
fr 22
lr 22
lw@@ 22
pl 22
zl@@ 22
ش@@ 22
ゅう@@ 22
キサ@@ 22
ヲ@@ 22
仿@@ 22
化 22
吃 22
吻 22
围@@ 22
女 22
帮 22
座 22
打 22
敌@@ 22
最 22
术 22
树@@ 22
突 22
线 22
迟@@ 22
迷 22
选 22
顾@@ 22
验 22
 22
fki 21
flk 21
tdr@@ 21
woj 21
wx 21
– 21
いは 21
ゔ@@ 21
コミュ@@ 21
临 21
义@@ 21
乎@@ 21
仓@@ 21
优@@ 21
叫 21
响@@ 21
展 21
常 21
弹@@ 21
热 21
片 21
眼 21
胜 21
辑 21
醒 21
队@@ 21
飞 21
و@@ 20
シントン 20
ジュリ@@ 20
今 20
住 20
吓@@ 20
命 20
喜 20
奔@@ 20
帐 20
干 20
态 20
恶 20
扔@@ 20
拒@@ 20
照 20
算 20
袭@@ 20
誒 20
论@@ 20
责@@ 20
费@@ 20
辉 20
铃@@ 20
险 20
雾@@ 20
鸟@@ 20
fs 19
sb@@ 19
sj 19
zr@@ 19
م@@ 19
ه 19
ی 19
ウェブ@@ 19
ルエン@@ 19
世 19
严@@ 19
二 19
余 19
傻@@ 19
其 19
分 19
另@@ 19
台 19
图@@ 19
姬 19
完 19
小@@ 19
张 19
态@@ 19
惊@@ 19
推@@ 19
烦 19
监@@ 19
相 19
竟 19
纯@@ 19
络 19
统 19
统@@ 19
编@@ 19
网@@ 19
获@@ 19
输@@ 19
重 19
镜 19
阿@@ 19
领@@ 19
馆@@ 19
 19
*@@ 18
/@@ 18
pf@@ 18
pyq@@ 18
rp 18
♂ 18
ぐに 18
を@@ 18
フランシスコ 18
プレー@@ 18
决@@ 18
受 18
吞@@ 18
吵@@ 18
园@@ 18
导@@ 18
情 18
气@@ 18
濑@@ 18
级 18
纪@@ 18
罗@@ 18
职@@ 18
説 18
讲 18
趣 18
跟 18
镇@@ 18
顾 18
题@@ 18
高 18
gp 17
ods 17
px 17
β 17
まして 17
交 17
仏 17
代 17
值 17
内 17
划@@ 17
前 17
后 17
响 17
士 17
夠@@ 17
如 17
度 17
归@@ 17
摄@@ 17
权@@ 17
柠@@ 17
檬 17
正 17
比 17
满 17
烧@@ 17
猎@@ 17
画 17
直 17
离 17
纵@@ 17
纸@@ 17
练 17
罢@@ 17
耀 17
胶@@ 17
虑@@ 17
虽 17
裡 17
训@@ 17
资@@ 17
辈@@ 17
阁 17
阿 17
鱼@@ 17
hx@@ 16
ojo 16
sg 16
アルゴ@@ 16
体 16
偷 16
光 16
剧@@ 16
口 16
向 16
唤@@ 16
妳 16
它 16
局 16
属 16
录 16
怀@@ 16
扯 16
拼@@ 16
极@@ 16
渐 16
第 16
维@@ 16
议 16
语@@ 16
运 16
违@@ 16
阵@@ 16
eg 15
iw@@ 15
snr 15
wx@@ 15
yg 15
ずれる 15
はじめ@@ 15
ゞ 15
アマン@@ 15
举@@ 15
买 15
亏@@ 15
仅 15
众@@ 15
兵 15
军 15
务@@ 15
卖@@ 15
卫@@ 15
友 15
启@@ 15
坠@@ 15
声 15
导 15
射 15
尔 15
山 15
念 15
总 15
恼 15
戏 15
扎 15
执@@ 15
扫@@ 15
择 15
摇@@ 15
敌 15
旋@@ 15
早 15
易 15
标@@ 15
毫 15
测@@ 15
爸@@ 15
班 15
盘@@ 15
目 15
程 15
笑 15
红 15
细@@ 15
绿@@ 15
联@@ 15
证 15
调 15
险@@ 15
预 15
BI 14
ax@@ 14
az 14
buo 14
cmo 14
hz 14
za 14
zb@@ 14
━@@ 14
〜@@ 14
やが@@ 14
オリジ@@ 14
ストラル 14
リグ@@ 14
ヰ 14
丢@@ 14
久 14
份 14
传 14
傢 14
养 14
养@@ 14
创@@ 14
剑 14
单 14
却 14
咦 14
啦@@ 14
喵@@ 14
四 14
坚 14
复 14
姐 14
尝@@ 14
层@@ 14
库 14
扰@@ 14
抢@@ 14
救@@ 14
晓 14
暂@@ 14
杂@@ 14
树 14
站 14
练@@ 14
续@@ 14
蓝@@ 14
衣 14
讹 14
误 14
读 14
象 14
适 14
還 14
闹@@ 14
陆@@ 14
飘@@ 14
arm@@ 13
fn 13
jjf 13
qq 13
wb@@ 13
ر@@ 13
〔 13
っしゃ 13
でに 13
业@@ 13
丝@@ 13
决 13
卡 13
历 13
厉 13
収 13
天 13
婚 13
尽 13
年 13
异 13
忘 13
憾 13
扩@@ 13
承 13
抱 13
拿@@ 13
掲@@ 13
散 13
料 13
末 13
杯 13
标 13
泽@@ 13
特 13
男 13
睡 13
脑 13
臣 13
药@@ 13
补@@ 13
诱@@ 13
课@@ 13
赛 13
造 13
邀@@ 13
除 13
驱@@ 13
鸟 13
齐@@ 13
ruc@@ 12
sd@@ 12
ی@@ 12
〕 12
そろ 12
スポート 12
主 12
乐 12
乱 12
争 12
仮 12
們@@ 12
况@@ 12
劲 12
劲@@ 12
势 12
原 12
品 12
嘴 12
因 12
型 12
并 12
当 12
怕 12
悲 12
或 12
拟@@ 12
摇 12
极 12
构 12
格 12
樱@@ 12
欢 12
欺@@ 12
演@@ 12
玩@@ 12
砍@@ 12
移@@ 12
策 12
联 12
肤@@ 12
脸 12
蔵 12
表 12
讲@@ 12
诛 12
赛@@ 12
路 12
躲@@ 12
轮@@ 12
送 12
酱 12
钱@@ 12
银@@ 12
阁@@ 12
阴 12
阴@@ 12
鲁 12
(@@ 11
erm@@ 11
gl@@ 11
kai@@ 11
kro 11
ly@@ 11
ui 11
xm 11
ymy@@ 11
ت@@ 11
ن@@ 11
← 11
★ 11
ルエンザ 11
丝 11
丽@@ 11
剑@@ 11
协@@ 11
取 11
呪 11
噬 11
够 11
失 11
寻 11
巻 11
描@@ 11
朵@@ 11
毬 11
水 11
求 11
游 11
滚 11
為 11
界 11
确 11
索 11
终 11
绘 11
绳@@ 11
至 11
苏@@ 11
诅@@ 11
词 11
诵 11
赢@@ 11
软 11
逐@@ 11
醒@@ 11
锁@@ 11
颔 11
颜@@ 11
饰@@ 11
:@@ 10
[@@ 10
cek 10
lb 10
osf@@ 10
qc 10
yd@@ 10
é@@ 10
ن 10
ボラン@@ 10
乌@@ 10
产@@ 10
公 10
准 10
双 10
哎 10
喂@@ 10
嘛@@ 10
噁@@ 10
堂 10
夜 10
夠 10
委 10
室 10
尾 10
层 10
平 10
形 10
待 10
忙@@ 10
惊 10
惧 10
扭 10
扯@@ 10
择@@ 10
持 10
挣@@ 10
换 10
接 10
攻 10
星 10
晕@@ 10
杂 10
樱 10
泽 10
爷@@ 10
睑 10
社 10
究 10
空 10
端 10
纠@@ 10
细 10
织 10
装 10
观@@ 10
角 10
诂@@ 10
误@@ 10
谈@@ 10
趕@@ 10
踩@@ 10
输 10
阳 10
陪@@ 10
bh@@ 9
bok 9
ckb@@ 9
gw 9
ik 9
nmb@@ 9
oogl@@ 9
skr@@ 9
sul 9
sum@@ 9
sw 9
yu@@ 9
س@@ 9
ه@@ 9
のなか 9
ギリス 9
ッセージ 9
バシー 9
ヾ 9
三 9
亚 9
俩 9
像 9
则 9
剧 9
勿 9
卖 9
吵 9
圆@@ 9
圣 9
奋@@ 9
奖 9
孩 9
宪@@ 9
巨 9
幫 9
废@@ 9
往@@ 9
性 9
怪 9
扰 9
技 9
抚@@ 9
担 9
挑@@ 9
捡@@ 9
探 9
搭@@ 9
摔@@ 9
文 9
断 9
构@@ 9
枪 9
桥 9
梦@@ 9
模 9
段 9
母 9
流 9
测 9
渐@@ 9
火 9
灵 9
爷 9
留 9
盯@@ 9
矩 9
秀 9
移 9
笔@@ 9
笼@@ 9
答 9
签@@ 9
纯 9
缠@@ 9
置 9
自 9
艺@@ 9
荣@@ 9
蓝 9
託@@ 9
词@@ 9
谎 9
豆 9
豪 9
赶 9
跃 9
跃@@ 9
辅@@ 9
速 9
逻@@ 9
邮@@ 9
酱@@ 9
钟@@ 9
陥@@ 9
静 9
顶@@ 9
龙@@ 9
aaa 8
mfe@@ 8
rf 8
sq@@ 8
xo@@ 8
zl 8
§ 8
è@@ 8
ب@@ 8
《@@ 8
゚ 8
カワイ@@ 8
スタル 8
乗@@ 8
使 8
依 8
保 8
兽@@ 8
净@@ 8
刀 8
剰 8
劳@@ 8
十 8
卡@@ 8
历@@ 8
呐@@ 8
咱@@ 8
啟@@ 8
喵 8
嘞 8
坏 8
块@@ 8
塁 8
尝 8
居 8
必 8
懂 8
扭@@ 8
掩@@ 8
提 8
搞 8
支 8
数@@ 8
斑 8
斩@@ 8
旋 8
期 8
村 8
汇@@ 8
泳 8
率 8
登 8
白 8
盪@@ 8
督 8
矿@@ 8
积@@ 8
稿 8
精 8
药 8
萨@@ 8
著 8
袭 8
裤@@ 8
训 8
谅@@ 8
谈 8
谓 8
谜 8
谷 8
质@@ 8
趟@@ 8
载@@ 8
辈 8
酒 8
释@@ 8
銮 8
钟 8
钱 8
铝@@ 8
镇 8
闻@@ 8
阱 8
随@@ 8
集 8
雨 8
领 8
饿@@ 8
馅@@ 8
骑@@ 8
鲁@@ 8
鲜@@ 8
 8
hb@@ 7
jw@@ 7
nz@@ 7
sv@@ 7
vj@@ 7
yt 7
zq@@ 7
 7
® 7
×@@ 7
̅ 7
م 7
△ 7
▼ 7
❤ 7
〆 7
゙@@ 7
严 7
丧@@ 7
乃 7
予 7
伐 7
众 7
伴 7
侧@@ 7
全 7
初 7
劳 7
動 7
即 7
叹@@ 7
咧 7
喊 7
嘟 7
嘟@@ 7
夺 7
妖 7
宾@@ 7
屋 7
工 7
币 7
布 7
幸 7
庆@@ 7
店 7
庞 7
彻@@ 7
忆@@ 7
悟 7
惯 7
指 7
损@@ 7
握 7
摆@@ 7
撅@@ 7
救 7
教 7
敢@@ 7
新 7
施 7
春 7
景 7
曽 7
枦@@ 7
架 7
棵@@ 7
殛 7
气 7
汤@@ 7
涩 7
清 7
溃 7
演 7
烂 7
牵 7
环 7
瞧 7
磁 7
祭 7
窥@@ 7
立 7
综@@ 7
缕@@ 7
缠 7
缴@@ 7
缶 7
致 7
落 7
蜕@@ 7
解 7
言 7
話 7
謊@@ 7
讶 7
诚@@ 7
诞@@ 7
贫@@ 7
贴@@ 7
越 7
趟 7
踌@@ 7
躇 7
辦 7
逃 7
锥@@ 7
閒@@ 7
闯@@ 7
雾 7
顶 7
顺 7
飘 7
馆 7
首 7
骚@@ 7
鳞 7
鸦 7
黙 7
 7
ky@@ 6
sq 6
sx@@ 6
vt@@ 6
yg@@ 6
ymo 6
yyn 6
± 6
í@@ 6
ü@@ 6
π 6
ک@@ 6
’@@ 6
ぞれ 6
とっと@@ 6
やる@@ 6
ヾ@@ 6
专 6
价 6
优 6
伪@@ 6
估@@ 6
冰 6
冻@@ 6
几 6
凯@@ 6
匙 6
卢@@ 6
厅 6
君 6
吾 6
哼 6
啤@@ 6
喝 6
围 6
图 6
块 6
域 6
境 6
夏 6
姬@@ 6
娜@@ 6
宫@@ 6
察 6
少 6
崎 6
幅 6
序 6
废 6
录@@ 6
微 6
恋 6
息 6
惩@@ 6
扮@@ 6
拖@@ 6
拥 6
拧@@ 6
拿 6
挥@@ 6
挺 6
斯 6
未 6
权 6
校 6
桥@@ 6
梦 6
歌 6
歩 6
池 6
烈 6
烊@@ 6
爸 6
牲 6
牵@@ 6
牺@@ 6
瓜 6
疑 6
痛 6
础@@ 6
稍 6
穿 6
穿@@ 6
米 6
绊 6
绵@@ 6
编 6
缘@@ 6
缝@@ 6
罚 6
草 6
获 6
虚 6
虧@@ 6
裤 6
該 6
譲 6
评@@ 6
询@@ 6
贵 6
贼 6
赖 6
遗 6
邻@@ 6
銇 6
钢@@ 6
钥@@ 6
铠@@ 6
铲 6
银 6
闲@@ 6
闹 6
阵 6
随 6
驾@@ 6
骗 6
骗@@ 6
髒 6
魔 6
鸣@@ 6
麼@@ 6
^@@ 5
cj 5
dm 5
dn@@ 5
dom@@ 5
hs@@ 5
kee@@ 5
oj 5
ou 5
rw 5
uol 5
xma@@ 5
́ 5
τ 5
—@@ 5
‘ 5
⁄ 5
□ 5
○@@ 5
♥ 5
いもう@@ 5
ぅ@@ 5
くりく 5
とに@@ 5
テキサ@@ 5
パソ@@ 5
パンジー 5
リダ 5
ヮ 5
ヵ@@ 5
丟@@ 5
丢 5
丰 5
临@@ 5
丽 5
乡 5
产 5
仇 5
俩@@ 5
修 5
克 5
农@@ 5
减@@ 5
删@@ 5
副 5
势@@ 5
包 5
厌@@ 5
另 5
吗@@ 5
咐@@ 5
咪 5
哈 5
唉 5
嗦 5
土 5
圾 5
垃@@ 5
城 5
基 5
塞 5
墙 5
夸@@ 5
奋 5
存 5
宫 5
封 5
岁@@ 5
差 5
帅 5
引 5
往 5
律 5
恐 5
恢 5
愿 5
慕 5
懊@@ 5
戚 5
户@@ 5
抓@@ 5
抵@@ 5
拒 5
招@@ 5
揍@@ 5
搬@@ 5
摩 5
撑@@ 5
数 5
整 5
日 5
木 5
朵 5
歉@@ 5
毕 5
波 5
注 5
消 5
漂@@ 5
漫 5
濑 5
灾@@ 5
烂@@ 5
烤@@ 5
烧 5
狼 5
王 5
疼@@ 5
睁@@ 5
石 5
示 5
称 5
竞@@ 5
竹 5
简 5
纵 5
绍@@ 5
绘@@ 5
绪@@ 5
罗 5
羡@@ 5
耍@@ 5
腾 5
艺 5
荣 5
营 5
蛋 5
袋 5
观 5
诊@@ 5
详@@ 5
谋@@ 5
货 5
贼@@ 5
赖@@ 5
赠@@ 5
赢 5
趁@@ 5
足 5
距 5
跳 5
较 5
退 5
逐 5
通 5
逛 5
遇@@ 5
鎩 5
钻@@ 5
铁@@ 5
销 5
销@@ 5
镮@@ 5
闭 5
阅@@ 5
阶@@ 5
陆 5
隙 5
雪 5
靠 5
页 5
项 5
须 5
颖@@ 5
食 5
餐@@ 5
饵 5
饿 5
駆 5
鱼 5
龄@@ 5
>@@ 4
bn 4
cv 4
gu 4
kq@@ 4
lz@@ 4
qed 4
zk 4
zrs 4
ñ@@ 4
γ 4
μ@@ 4
آ@@ 4
و 4
อ@@ 4
‐@@ 4
‰ 4
☆@@ 4
♡ 4
♪@@ 4
♭ 4
』@@ 4
ずかしい 4
サイル 4
プラス@@ 4
京 4
付 4
令 4
价@@ 4
休 4
似 4
侦@@ 4
個 4
傻 4
兹@@ 4
冷 4
刻 4
剝@@ 4
北 4
区 4
华 4
华@@ 4
危 4
压 4
厲@@ 4
县 4
县@@ 4
反 4
句 4
史 4
呃 4
呍 4
周 4
呸 4
唤 4
售 4
喲 4
喷@@ 4
噜@@ 4
坂 4
坛@@ 4
奔 4
奥 4
姊@@ 4
孙@@ 4
宁@@ 4
左 4
帅@@ 4
库@@ 4
归 4
急 4
惕@@ 4
懒@@ 4
扣 4
扬 4
拐 4
拓 4
招 4
拼 4
挖@@ 4
挡@@ 4
掙@@ 4
控 4
搭 4
摄 4
撒@@ 4
播 4
擅 4
擋 4
族 4
暂 4
更 4
松 4
染 4
桌@@ 4
梯 4
检@@ 4
民 4
汉 4
汉@@ 4
添 4
漩@@ 4
炸 4
状 4
猎 4
猫 4
环@@ 4
珐 4
琪@@ 4
璨 4
由 4
略 4
疗 4
疲@@ 4
盈 4
盘 4
睑@@ 4
瞒 4
瞒@@ 4
砚 4
砸@@ 4
礼 4
禅 4
竟@@ 4
竭 4
笔 4
签 4
総 4
纱@@ 4
纳@@ 4
纷@@ 4
纸 4
绕@@ 4
绩@@ 4
绪 4
罪 4
职 4
胁@@ 4
胆 4
胖 4
胡 4
脚 4
腥 4
膀@@ 4
舞 4
若 4
萝@@ 4
营@@ 4
萨 4
蚌 4
蚱@@ 4
蛮 4
蜢 4
蠃@@ 4
蠢@@ 4
血 4
补 4
警 4
设 4
访 4
访@@ 4
课 4
谜@@ 4
谦@@ 4
贝 4
货@@ 4
贪@@ 4
费 4
赐@@ 4
轨@@ 4
软@@ 4
迈@@ 4
迟 4
迫 4
追 4
透 4
逛@@ 4
過 4
量 4
鉴@@ 4
针@@ 4
钝 4
铁 4
铃 4
铛@@ 4
锁 4
锐@@ 4
键 4
開 4
闻 4
阶 4
阻@@ 4
陈@@ 4
限 4
陪 4
隐 4
需 4
頭 4
页@@ 4
顿 4
颜 4
额 4
饶@@ 4
饼@@ 4
骄 4
验@@ 4
骤@@ 4
骯@@ 4
鸡 4
黒 4
 4
]@@ 3
hma@@ 3
jb 3
jo 3
lod@@ 3
ncq 3
nw 3
qe 3
sg@@ 3
smo 3
tir@@ 3
uz 3
vd@@ 3
wf 3
zvv 3
¢ 3
£ 3
¿ 3
ê@@ 3
÷ 3
σ 3
؟ 3
خ@@ 3
د@@ 3
ز@@ 3
ق@@ 3
■ 3
◆ 3
◎ 3
♀ 3
❤@@ 3
〻 3
オーストラ@@ 3
ヮ@@ 3
且 3
丛@@ 3
丫@@ 3
丹 3
乌 3
争@@ 3
仝 3
伍 3
伦 3
伦@@ 3
估 3
低 3
佩 3
侣@@ 3
储@@ 3
傲 3
僵 3
兕@@ 3
六 3
兰@@ 3
共 3
写 3
凭@@ 3
列 3
劣 3
勤 3
卜 3
卫 3
厅@@ 3
厮@@ 3
厲 3
叶 3
吉 3
吞 3
启 3
吹 3
味 3
哔 3
唰@@ 3
商 3
啰@@ 3
嗾@@ 3
嘱 3
嚐@@ 3
嚣 3
嚷 3
嚷@@ 3
囉@@ 3
埋@@ 3
塔 3
奇 3
妇 3
妮 3
妮@@ 3
妹 3
威 3
孩@@ 3
宁 3
宪 3
密 3
寞@@ 3
対 3
岁 3
川 3
底 3
弃 3
弄 3
彻 3
怒 3
惰 3
慌@@ 3
房 3
抗 3
折 3
拉 3
拟 3
挠 3
挥 3
据 3
排 3
推 3
撼@@ 3
敏 3
斥 3
斩 3
旧 3
晶 3
曲 3
曳 3
望 3
板 3
枪@@ 3
桃 3
桐 3
樹 3
檔 3
欠 3
沙 3
沪 3
泉 3
泫@@ 3
洒 3
浇@@ 3
涌 3
涡 3
深 3
淸@@ 3
渗@@ 3
源 3
漏 3
潇@@ 3
潭 3
澡@@ 3
灭@@ 3
炖@@ 3
炮@@ 3
炸@@ 3
煌 3
父 3
牺 3
牽 3
狂 3
猜@@ 3
玖 3
玛@@ 3
珐@@ 3
琴 3
甩@@ 3
疗@@ 3
疯@@ 3
皮 3
盆 3
监 3
盼@@ 3
眨@@ 3
眾@@ 3
睁 3
瞄@@ 3
码@@ 3
碰 3
祝 3
祸 3
私 3
秒 3
秽 3
管 3
給 3
繳@@ 3
纹@@ 3
纺@@ 3
绅@@ 3
绑@@ 3
继 3
绩 3
绷 3
缓 3
罕@@ 3
罢 3
羁@@ 3
美 3
考 3
耍 3
聊 3
聊@@ 3
肩 3
育 3
肿 3
背 3
胳@@ 3
脉@@ 3
脋 3
脏 3
膊 3
舒 3
舔@@ 3
艳 3
莉 3
菜 3
虫 3
衬 3
覚 3
觊@@ 3
觎 3
認 3
讨 3
讪 3
讹@@ 3
诅 3
诞 3
诡 3
诺@@ 3
谅 3
谍 3
财 3
贯@@ 3
赏 3
赏@@ 3
赞@@ 3
赵 3
赵@@ 3
超 3
踢@@ 3
蹩@@ 3
蹭 3
蹭@@ 3
辆 3
辉@@ 3
辜@@ 3
逊@@ 3
選 3
避 3
配 3
金 3
鐳@@ 3
鑢 3
钢 3
铠 3
铩 3
铭 3
锅@@ 3
锈 3
锖@@ 3
闲 3
闷 3
附 3
际@@ 3
降 3
霉@@ 3
音 3
项@@ 3
颊@@ 3
饮 3
饼 3
馒@@ 3
驳@@ 3
骄@@ 3
骑 3
鬼 3
鳞@@ 3
鸳@@ 3
齐 3
齿 3
齿@@ 3
&@@ 2
+@@ 2
` 2
ars@@ 2
gx 2
lkr@@ 2
mae@@ 2
oogle 2
pxs 2
qr@@ 2
ssk@@ 2
suf@@ 2
tm 2
zn@@ 2
 2
¶@@ 2
ã@@ 2
ç@@ 2
é 2
ê 2
ó@@ 2
÷@@ 2
μ 2
ت 2
ف@@ 2
ย 2
ร@@ 2
่@@ 2
”@@ 2
₩ 2
↑ 2
∀ 2
−@@ 2
∨ 2
▲ 2
◇ 2
〈@@ 2
ちつ@@ 2
ても 2
もそ@@ 2
ょう 2
らず 2
わち 2
ゝ 2
アプロ@@ 2
チョコレ@@ 2
データ@@ 2
ロッパ 2
丧 2
乎 2
乔 2
乳 2
仔 2
仾@@ 2
伊 2
伞@@ 2
伟@@ 2
佣@@ 2
侄@@ 2
侧 2
倆 2
倘@@ 2
借 2
倦 2
偏 2
偶 2
傅 2
储 2
傷 2
元 2
充 2
兰 2
兹 2
冈 2
农 2
冬 2
净 2
凉 2
减 2
刊 2
刑 2
判 2
別 2
刺 2
剥@@ 2
加 2
努 2
劫 2
効 2
升 2
半 2
协 2
占 2
卧 2
厂@@ 2
叔 2
叛 2
各 2
吓 2
吧@@ 2
呀@@ 2
呆 2
呆@@ 2
呛 2
呜@@ 2
呦 2
咋 2
咕@@ 2
哥 2
哭@@ 2
問 2
喻 2
嘻 2
嘻@@ 2
嘿 2
器 2
嚇@@ 2
嚕 2
固 2
均 2
垮@@ 2
堡 2
墓 2
墟 2
壁 2
壳 2
夕 2
夫 2
夹@@ 2
奖@@ 2
套@@ 2
妇@@ 2
妒@@ 2
姆 2
姊 2
姓 2
娅 2
婪 2
孤 2
官 2
宠@@ 2
审@@ 2
客 2
宣 2
宽@@ 2
富 2
専 2
尘 2
尘@@ 2
届 2
峰 2
希 2
庇 2
床 2
式 2
弗 2
弟 2
弱 2
張 2
彦 2
従 2
怆@@ 2
思 2
恕 2
恵 2
悠 2
悬 2
愤@@ 2
慎 2
慢 2
慰@@ 2
扔 2
托 2
扬@@ 2
抓 2
抛 2
披@@ 2
抬@@ 2
抽@@ 2
拋@@ 2
拍 2
拚@@ 2
拝 2
拦@@ 2
挤 2
挤@@ 2
捂@@ 2
掘 2
掠@@ 2
掩 2
掳 2
掺@@ 2
描 2
搬 2
摆 2
摊 2
摔 2
操 2
擎@@ 2
擾@@ 2
故 2
敢 2
昴 2
晨 2
晩 2
替 2
服 2
朦@@ 2
杮@@ 2
栋 2
栋@@ 2
桌 2
桩 2
棄 2
棋 2
棵 2
楼 2
概 2
概@@ 2
歉 2
武 2
歹@@ 2
殛@@ 2
毁 2
毎 2
氛@@ 2
汚 2
沉 2
河 2
治 2
沼 2
泛@@ 2
泳@@ 2
洁 2
浮 2
浸 2
淩@@ 2
渗 2
滚@@ 2
滥 2
滨@@ 2
漫@@ 2
潜 2
灌 2
炫 2
烤 2
烫 2
煞@@ 2
犀 2
犹 2
狱@@ 2
猜 2
玷@@ 2
瑾 2
甄@@ 2
甲 2
畅@@ 2
番 2
疼 2
病 2
痕 2
皑 2
皑@@ 2
盐 2
盛 2
盟 2
盯 2
眯 2
眯@@ 2
眷 2
睹@@ 2
瞎 2
瞧@@ 2
瞬 2
破 2
础 2
硶 2
碟@@ 2
禁 2
秋 2
稀 2
稳@@ 2
穹 2
窍@@ 2
窺 2
笼 2
筒 2
筹@@ 2
箱 2
糊 2
累 2
綁@@ 2
繁 2
绊@@ 2
绍 2
绕 2
绹@@ 2
绿 2
缔@@ 2
缘 2
缚 2
罩 2
義 2
翘 2
翻 2
翼 2
耽@@ 2
聪@@ 2
聴 2
肥 2
肯 2
肯@@ 2
胧 2
脏@@ 2
脖@@ 2
脱 2
腊@@ 2
腾@@ 2
腿 2
膛 2
臭 2
舒@@ 2
苍 2
苍@@ 2
葺 2
蒂@@ 2
蕾 2
藤 2
虑 2
虾@@ 2
螃@@ 2
融 2
蟹 2
袜 2
覆 2
討 2
订@@ 2
讽@@ 2
诀@@ 2
诏@@ 2
译@@ 2
诛@@ 2
详 2
谎@@ 2
谨 2
谨@@ 2
貌 2
贏 2
贞@@ 2
贡@@ 2
账 2
质 2
购 2
贱@@ 2
贴 2
贺@@ 2
赌@@ 2
赚@@ 2
趁 2
踢 2
轮 2
辅 2
辖@@ 2
辙@@ 2
辛 2
近 2
述 2
迸@@ 2
迹 2
進 2
邸 2
酷 2
释 2
銇@@ 2
鍺 2
钧@@ 2
钩@@ 2
钮@@ 2
铐 2
链@@ 2
锅 2
锋 2
锖 2
锤 2
闘@@ 2
陥 2
隔 2
隶 2
露 2
顽@@ 2
颗@@ 2
额@@ 2
飡 2
饮@@ 2
饰 2
饱 2
馅 2
驶 2
驻 2
驾 2
骂 2
髒@@ 2
髙 2
魂 2
魚 2
鳗@@ 2
鸡@@ 2
鸣 2
鸭@@ 2
鸯 2
鸽 2
鹅@@ 2
鹤@@ 2
鹭@@ 2
麽@@ 2
龙 2
간@@ 2
공@@ 2
하@@ 2
 2
;@@ 1
<@@ 1
ali 1
bup 1
eda 1
gk 1
kd@@ 1
klm 1
ldj@@ 1
pym@@ 1
qmy@@ 1
uz@@ 1
vdw@@ 1
yh 1
zd@@ 1
zr 1
| 1
 1
 1
¡ 1
§@@ 1
É 1
à 1
á@@ 1
ó 1
ě@@ 1
ī@@ 1
θ 1
ω 1
ئ@@ 1
ا 1
ح@@ 1
س 1
ع@@ 1
ل@@ 1
گ@@ 1
‎ 1
※@@ 1
€ 1
∇ 1
∞ 1
┌ 1
┐ 1
▉ 1
▽@@ 1
★@@ 1
☺@@ 1
♫@@ 1
〒@@ 1
〓 1
いまさ@@ 1
さよ@@ 1
たたび 1
ようなら 1
イッチ 1
ガソ@@ 1
ザベス 1
ペーン 1
マスコ@@ 1
メージ 1
ヱ 1
ㄣ 1
丁 1
丑 1
丸 1
举 1
乔@@ 1
乗 1
九 1
亗@@ 1
亦 1
亾 1
仌@@ 1
仓 1
仧@@ 1
仪 1
仪@@ 1
企 1
伅 1
伞 1
伪 1
伶 1
伽 1
佐 1
佔@@ 1
依@@ 1
侥@@ 1
侦 1
侯 1
侵@@ 1
俘@@ 1
俱 1
倍 1
倕@@ 1
倛 1
倱@@ 1
倾 1
停 1
偿 1
催 1
兄 1
児 1
典 1
兽 1
冈@@ 1
冥 1
凉@@ 1
凑 1
凤@@ 1
凭 1
凰 1
凳 1
凳@@ 1
凸 1
刁@@ 1
切 1
创 1
删 1
刨@@ 1
剁@@ 1
剂@@ 1
剛 1
剝 1
剪@@ 1
割 1
劝 1
劝@@ 1
功 1
務 1
勩 1
勾 1
匪 1
医 1
匿 1
南 1
博 1
卽@@ 1
厕 1
厕@@ 1
厥 1
参 1
及 1
叠 1
叠@@ 1
号 1
叼@@ 1
叽 1
叽@@ 1
吐 1
否 1
含 1
呈@@ 1
呕@@ 1
呢@@ 1
呼 1
咕 1
咖 1
咙 1
咸 1
咽 1
哀 1
哇@@ 1
哑 1
哔@@ 1
哭 1
哼@@ 1
唆 1
唐 1
啟 1
啥@@ 1
啸 1
啼@@ 1
啾@@ 1
善 1
喔@@ 1
喧@@ 1
喰@@ 1
喱@@ 1
喷 1
喽 1
嗆 1
嗎@@ 1
嗗 1
嗚 1
嗨 1
嗾 1
嘀@@ 1
嘶@@ 1
噗 1
嚏 1
嚐 1
囚 1
困 1
国 1
圆 1
圏 1
圾@@ 1
坏@@ 1
坐 1
坑 1
坛 1
坞 1
坟@@ 1
坦 1
垂 1
垃 1
垣 1
埃 1
培@@ 1
堵 1
塌 1
塌@@ 1
填@@ 1
墅 1
増 1
墩@@ 1
墲 1
壩@@ 1
壳@@ 1
壶 1
壶@@ 1
奉 1
契 1
套 1
奢 1
妄 1
妆@@ 1
妒 1
妞 1
妨 1
娇 1
娛@@ 1
娜 1
娶@@ 1
婆 1
婴@@ 1
媳 1
嫉@@ 1
嬨@@ 1
嬭 1
孕 1
孙 1
季 1
宅 1
守 1
宝 1
审 1
宾 1
寄@@ 1
寡 1
尊 1
尖 1
尚 1
尛@@ 1
尬 1
尷@@ 1
尺 1
尼 1
屠 1
屻 1
岂 1
岂@@ 1
岗@@ 1
岩 1
峙 1
崩@@ 1
巧 1
己 1
巷 1
巾 1
帘@@ 1
帝 1
帯 1
帼@@ 1
幹 1
幻 1
幼 1
庆 1
庙 1
庙@@ 1
府 1
廓 1
延 1
建 1
弃@@ 1
弓 1
彗 1
徒 1
徘 1
御 1
循@@ 1
恩 1
恳@@ 1
患 1
悶@@ 1
悸@@ 1
惑 1
惫@@ 1
惬@@ 1
惭@@ 1
惯@@ 1
愣@@ 1
愤 1
愧 1
慰 1
懒 1
截 1
戮 1
戴 1
扉 1
扎@@ 1
扑@@ 1
执 1
扫 1
批@@ 1
抖 1
抛@@ 1
抜 1
抢 1
披 1
抬 1
抹@@ 1
押 1
拖 1
拨 1
按 1
挑 1
挚 1
挡 1
挪@@ 1
振 1
挿 1
捂 1
捆@@ 1
捏 1
捕 1
捜 1
损 1
捡 1
掀@@ 1
掠 1
掲 1
揍 1
揪 1
援@@ 1
搁 1
搁@@ 1
搓 1
携@@ 1
摊@@ 1
摒 1
摩@@ 1
摸@@ 1
撇@@ 1
撐@@ 1
撑 1
撞 1
撞@@ 1
撤@@ 1
撱 1
撿 1
撿@@ 1
擎 1
擦 1
擦@@ 1
攏@@ 1
攒 1
改 1
政 1
敞@@ 1
敬 1
既 1
旷@@ 1
映 1
昧 1
昨 1
显 1
時 1
晃 1
晓@@ 1
晕 1
暗 1
暧@@ 1
曼 1
朝 1
杉 1
杪@@ 1
枝 1
柄 1
柑 1
柜@@ 1
柱 1
柳 1
柿 1
栗 1
根 1
栾@@ 1
检 1
棄@@ 1
棒 1
森 1
椅 1
植 1
椿 1
楢 1
楽 1
榖@@ 1
槌 1
樁@@ 1
機 1
橱@@ 1
欧 1
欲 1
款 1
殆 1
殑 1
殺 1
毙 1
毙@@ 1
毛 1
氏 1
氰@@ 1
汁 1
汝 1
汤 1
汹@@ 1
汽 1
沌@@ 1
沟 1
沟@@ 1
油 1
沿 1
泄 1
泮@@ 1
洗 1
洛 1
津 1
洲 1
浃@@ 1
浆@@ 1
浊 1
济 1
济@@ 1
浑@@ 1
浓 1
浓@@ 1
涖@@ 1
涚@@ 1
涛 1
涟@@ 1
润@@ 1
涨@@ 1
淑 1
淘@@ 1
淡 1
淳 1
混 1
渎@@ 1
渔@@ 1
渦 1
温 1
港 1
渺 1
湖 1
湡@@ 1
滥@@ 1
滨 1
漂 1
潵 1
澱 1
激 1
灉 1
灯 1
灰 1
灶@@ 1
炎 1
炭 1
炮 1
烨@@ 1
烫@@ 1
焗 1
煞 1
煮 1
煽 1
熄@@ 1
熏@@ 1
燁@@ 1
燙 1
爆 1
牌 1
牙 1
牢 1
牽@@ 1
犟@@ 1
犯 1
犳@@ 1
狗 1
独 1
狱 1
献 1
獭@@ 1
現 1
球 1
琉@@ 1
瑞 1
璧@@ 1
瓶 1
田 1
畅 1
畏 1
畢 1
疤 1
疤@@ 1
疯 1
疾 1
痩 1
瘓 1
瘠 1
瘫@@ 1
瘾@@ 1
癱@@ 1
発 1
皂 1
皆 1
盏 1
盾 1
眾 1
睜 1
睜@@ 1
睬 1
瞅 1
瞅@@ 1
瞌@@ 1
矮 1
研 1
砸 1
碍 1
碍@@ 1
碳 1
碳@@ 1
確 1
祂@@ 1
祖 1
祥 1
票 1
禀@@ 1
福 1
秃 1
秘 1
积 1
種 1
窃 1
窗@@ 1
窜@@ 1
窝 1
窝@@ 1
竖 1
竖@@ 1
竞 1
笨@@ 1
筛@@ 1
筱@@ 1
籍 1
粋 1
粗 1
糰@@ 1
紫 1
終 1
緊 1
纳 1
纺 1
绑 1
绮 1
绮@@ 1
绯@@ 1
绳 1
维 1
缓@@ 1
缩@@ 1
网 1
罚@@ 1
罩@@ 1
罰 1
羡 1
群 1
羽 1
翘@@ 1
耐 1
耳 1
聪 1
肃 1
肉 1
肚 1
肤 1
胁 1
胎 1
胞 1
胳 1
脋@@ 1
脾 1
腌@@ 1
腐 1
腰 1
腻 1
腻@@ 1
膛@@ 1
舔 1
航 1
般 1
舰@@ 1
船 1
良 1
艰 1
艰@@ 1
艾 1
芙 1
芷 1
苅@@ 1
苣 1
英 1
范 1
茶 1
荆 1
荞@@ 1
荡 1
莎 1
莱@@ 1
莲 1
莴@@ 1
菇 1
菠@@ 1
菲@@ 1
萝 1
萤@@ 1
葬 1
蒂 1
蒙 1
蒸 1
蔚@@ 1
蕴 1
蕴@@ 1
薛 1
薪 1
虎 1
虏 1
蝙 1
螂 1
蟑@@ 1
衅 1
衬@@ 1
袒@@ 1
裙 1
褲 1
褲@@ 1
見 1
览 1
览@@ 1
訝@@ 1
誓 1
語 1
誰 1
订 1
诀 1
评 1
诈 1
诉 1
诚 1
诡@@ 1
诱 1
诸 1
谐 1
谐@@ 1
谕@@ 1
谣@@ 1
谦 1
谱 1
豔@@ 1
買 1
贩 1
贩@@ 1
贪 1
贬@@ 1
购@@ 1
贰@@ 1
贱 1
贷@@ 1
贺 1
资 1
赎 1
赚 1
赞 1
赠 1
趕 1
趴@@ 1
跨 1
践 1
踏 1
踩 1
踪 1
踹 1
蹋 1
蹦@@ 1
躁 1
轨 1
轰@@ 1
轿 1
辆@@ 1
辍@@ 1
辑@@ 1
辗 1
迁 1
违 1
逊 1
递 1
递@@ 1
逞 1
連 1
逻 1
逼@@ 1
遇 1
遊 1
遍 1
遭 1
遭@@ 1
遵 1
遷 1
邪 1
邻 1
郁 1
郞 1
鄊 1
酸 1
野 1
鉏 1
銈@@ 1
銮@@ 1
銳 1
鍔 1
鏂 1
鏈 1
鐨@@ 1
鐪@@ 1
针 1
钓 1
钥 1
钦@@ 1
钩 1
钮 1
铄@@ 1
铜 1
铜@@ 1
铨 1
铨@@ 1
铺@@ 1
锄@@ 1
锈@@ 1
锐 1
锚 1
键@@ 1
锵 1
锷@@ 1
镝@@ 1
镰@@ 1
閒 1
闪 1
闯 1
闷@@ 1
闺@@ 1
阂 1
阐@@ 1
阔@@ 1
阱@@ 1
防 1
陇 1
陈 1
陋@@ 1
隆 1
雏@@ 1
雕@@ 1
雫 1
零 1
霉 1
靠@@ 1
鞋 1
韌 1
韶 1
領 1
颇 1
颈@@ 1
颊 1
颐 1
频 1
颠@@ 1
饥@@ 1
饲@@ 1
饶 1
饺@@ 1
騙 1
騨 1
驰 1
驰@@ 1
驱 1
驻@@ 1
骂@@ 1
鬍@@ 1
魷@@ 1
鰂@@ 1
鰤 1
鱿 1
鲛 1
鲜 1
鲨 1
鲷@@ 1
鳅@@ 1
鹅 1
鹰 1
鹿 1
麦 1
麻 1
鼓 1
간 1
겠@@ 1
결@@ 1
공 1
과 1
는 1
다 1
시 1
시@@ 1
우 1
우@@ 1
이 1
정@@ 1
존@@ 1
주 1
주@@ 1
지 1
 1
 1
 1
 1
𠮷 1
madeupword0000 0
madeupword0001 0
