の 1072216
は 807136
に 788969
て 689543
た 656243
を 627436
が 576188
. 483578
だ 442558
? 418606
で 415039
。 384209
と 353732
し 348313
か 325522
ない 284106
も 281948
な 272608
ん 242176
です 224087
よ 203904
! 200053
こと 170446
わたくし 148501
から 147522
ます 144454
、 138155
なん 134428
い 122958
ね 111764
・ 111369
てる 108472
する 99870
それ 93393
いる 93056
お 85968
き 85252
まし 81611
さ 79293
そう 78485
この 76308
どう 74002
れ 73612
って 73214
これ 72301
さん 72229
いい 70060
ある 69626
かれ 69391
わ 67842
たち 65847
よう 64872
じゃ 64761
あなた 61841
おれ 59768
その 57979
いっ 57461
いう 54685
み 53045
ば 52050
ませ 51686
" 48373
もの 48029
きみ 47603
ひと 47194
ら 44720
「 44613
てき 44566
」 44102
ここ 43216
たい 43148
おまえ 42647
や 42417
あり 40956
くれ 39917
たら 39861
なら 39836
だっ 39156
もう 38938
あっ 38405
だれ 36592
だけ 36399
しゃ 35834
いま 35522
はなし 35382
ぼく 32831
ため 32620
でき 32051
なっ 31914
けど 31760
なかっ 31729
かのじょ 31479
ぞ 30959
なく 30910
あの 30896
とき 30605
まで 30273
なる 30206
せ 28605
ねん 28216
やっ 27936
まえ 27833
いく 25619
こ 25359
つ 25270
わかっ 24449
どこ 24263
へ 24203
~ 24171
せい 24035
でしょう 24004
1 23658
ご 23651
じぶん 23116
できる 22945
かい 22370
- 22313
そして 21826
つい 21635
いえ 21606
そんな 21513
ひつよう 21233
られ 21046
め 21003
2 20798
ください 20748
しっ 20191
おもっ 20100
こう 20000
いや 19783
だろ 19666
ああ 19488
だろう 19477
ねえ 19443
はい 19398
でし 19334
れる 19225
ほんと 19125
より 18977
え 18923
いち 18354
いき 18212
しん 18168
ちょっと 18142
じかん 18135
なり 18061
ほう 17833
やつ 17715
かんがえ 17674
きょう 17663
われわれ 17367
だい 17347
すべて 17341
かん 17206
➡ 16953
まだ 16937
おい 16889
そこ 16836
なか 16833
もっ 16792
3 16497
きい 16450
いつ 16309
にん 16196
また 16163
あと 16015
せかい 16009
なぜ 16004
ちゃん 15891
よく 15730
ところ 15687
おもう 15412
だいじょうぶ 15373
ど 15285
くる 15278
ひ 15168
なんて 14850
ず 14786
こんな 14751
おとこ 14713
しごと 14496
さい 14292
あれ 14234
もんだい 14071
ー 14055
みな 14018
ぜ 13995
いっしょ 13873
― 13857
こども 13850
おなじ 13792
《 13744
まっ 13639
さま 13632
ありがとう 13533
てん 13461
》 12989
じょう 12988
でしょ 12903
くん 12569
かた 12566
ちち 12556
ゆう 12527
みたい 12526
わけ 12496
ちゅう 12457
しら 12430
よい 12308
すぐ 12239
ほか 12119
じ 11968
みんな 11899
み@@ 11890
やる 11706
とっ 11674
ましょう 11661
もし 11641
あんた 11624
いけ 11602
ちょう 11600
しょう 11575
( 11387
おもい 11358
) 11331
でんわ 11291
うん 11269
なさい 11267
にんげん 11262
ふ 11197
しょ 11171
しかし 11123
ばしょ 10973
べき 10943
しよう 10916
ちがう 10852
たく 10807
じん 10771
き@@ 10641
あ 10638
ただ 10560
しれ 10519
じゃあ 10510
あい 10493
じゅう 10378
わかる 10308
すき 10291
し@@ 10274
わから 10233
せる 10176
けん 10113
ほど 9988
すこし 9911
い@@ 9853
とう 9820
たり 9762
いわ 9760
かね 9735
みつけ 9726
せんせい 9703
とおり 9697
ア@@ 9660
はは 9652
っ 9626
しろ 9544
ほしい 9507
はず 9506
ねがい 9401
ええ 9379
ま 9302
まん 9241
うち 9186
ち 9143
もっと 8997
おく 8952
せん 8920
こ@@ 8814
す 8809
でる 8765
られる 8762
ス@@ 8739
つけ 8736
えっ 8723
なまえ 8708
5 8672
4 8671
よる 8664
どんな 8663
くれる 8619
かみ 8611
かんけい 8477
いか 8455
いれ 8452
いじょう 8440
みる 8413
しんじ 8391
なけれ 8373
つぎ 8331
リ@@ 8315
わるい 8313
か@@ 8285
しか 8226
かのう 8220
とても 8213
ころし 8153
かけ 8146
ごめん 8123
おき 8098
ま@@ 8091
うえ 8059
はやく 8052
もん 8050
さき 8035
くるま 7993
たすけ 7933
とも 7897
10 7893
はじめ 7862
みせ 7815
: 7793
ひとり 7776
おんな 7769
はいっ 7768
つもり 7734
いみ 7713
べつ 7696
よかっ 7691
♪ 7680
わかり 7671
おしえ 7664
やめ 7631
[ 7630
さ@@ 7613
すう 7585
カ@@ 7572
マ@@ 7546
] 7523
ぶん 7500
しつ 7353
じょせい 7342
かぞく 7326
さいご 7312
じょうほう 7299
た@@ 7266
しんぱい 7229
かんじ 7198
のう 7176
ひ@@ 7174
ちから 7162
おおく 7110
オレ 7106
おう 7058
あいだ 7024
だし 6998
ふ@@ 6978
つき 6940
あたらしい 6914
ひとびと 6800
くらい 6794
やく 6778
りょう 6732
や@@ 6729
ダメ 6728
ほうほう 6717
こっち 6703
ばん 6677
かっ 6672
りゆう 6649
もどっ 6646
こい 6619
けいさつ 6610
ラ@@ 6604
じけん 6596
わが 6589
さいしょ 6587
つれ 6572
エ@@ 6566
ミ@@ 6556
いん 6531
よっ 6530
すぎ 6511
は@@ 6494
がく 6492
ッ 6480
よし 6448
おぼえ 6438
く@@ 6432
みえ 6409
れい 6403
こころ 6402
ぶ 6400
すれ 6391
さあ 6385
タ 6367
ちゃっ 6364
まち 6352
かお 6336
バ@@ 6335
オ@@ 6331
じんせい 6326
そうさ 6323
まあ 6314
じつ 6308
n 6299
つかっ 6292
もと 6287
しゃしん 6279
よん 6251
しゅう 6230
なきゃ 6204
ござい 6184
おわり 6183
けんきゅう 6168
コ@@ 6132
えん 6110
な@@ 6099
さがし 6095
ぜんぶ 6092
など 6072
じ@@ 6066
6 6052
サ@@ 6023
む 6020
ぷん 6009
あ@@ 6008
むすめ 5989
もちろん 5980
あげ 5971
つまり 5946
どの 5932
2人 5903
むすこ 5901
あたま 5900
イ@@ 5899
ロ@@ 5895
けっこん 5890
きき 5885
やろう 5868
ともだち 5851
ちゃ 5832
へや 5801
ル@@ 5786
ドル 5743
ママ 5734
ト@@ 5732
りょく 5729
まま 5719
あいつ 5715
こそ 5715
, 5711
ナ@@ 5670
はん 5653
り 5634
じゅうよう 5626
う@@ 5622
ク@@ 5616
りかい 5597
なんか 5590
ざい 5582
やり 5577
≪ 5536
デ@@ 5536
きゅう 5535
たべ 5532
なし 5530
わすれ 5523
じっさい 5509
こちら 5498
パパ 5494
シ@@ 5491
つくっ 5474
すばらしい 5456
こえ 5446
がっこう 5436
ことば 5420
へん 5414
みち 5411
ラ 5407
バカ 5404
いこう 5389
いったい 5377
かいしゃ 5356
こう@@ 5347
しん@@ 5337
レ@@ 5314
がい 5312
からだ 5304
かえる 5288
すい 5216
たしか 5210
ナ 5203
しり 5194
かがく 5169
む@@ 5152
まったく 5141
と@@ 5136
かく 5135
むり 5126
じしん 5125
アメリカ 5110
タ@@ 5107
とめ 5086
めい 5055
つ@@ 5052
ス 5052
れんらく 5047
うけ 5037
て@@ 5022
ド@@ 5020
しゅ 5018
じゅんび 5014
おおきな 4993
うまく 4985
こたえ 4975
わたし 4965
ほら 4960
けい 4949
なに 4946
ころさ 4936
かえっ 4931
きけん 4925
ほん 4914
うそ 4877
きのう 4874
ゆめ 4874
ウ@@ 4870
しまっ 4867
り@@ 4842
すごい 4836
ぜったい 4816
いちばん 4801
しぬ 4785
1人 4764
おり 4759
モ@@ 4759
たくさん 4743
ち@@ 4741
やくそく 4716
かえ 4706
はんにん 4706
きん 4664
る 4664
あいて 4659
たっ 4657
キ@@ 4647
だめ 4640
ころ 4632
くに 4629
とり 4615
・@@ 4610
そと 4607
さつじん 4605
せつめい 4593
あす 4591
グ@@ 4590
ねぇ 4585
こん 4583
まず 4572
パ@@ 4570
とう@@ 4568
あんぜん 4541
した 4535
8 4522
けっか 4519
よ@@ 4515
そんざい 4513
ッ@@ 4501
なかま 4484
ぜん 4483
リー 4481
ながら 4478
こうげき 4459
とり@@ 4446
たかっ 4418
20 4411
ル 4408
だす 4404
く 4397
ガ@@ 4395
う 4390
フ@@ 4384
どれ 4379
じょうきょう 4372
ふく 4366
7 4365
ころす 4356
はじめて 4353
じこ 4346
しき 4337
うっ 4336
いのち 4334
メ@@ 4333
しつもん 4324
セ@@ 4323
けいかく 4320
リ 4314
ビ@@ 4312
ハ@@ 4299
ぎじゅつ 4296
ゆうじん 4292
こいつ 4288
ちがい 4282
ふたり 4281
の@@ 4280
せん@@ 4277
すみ 4272
みず 4262
お@@ 4247
さいこう 4238
ホント 4228
きょく 4208
かくにん 4207
ン 4201
しらべ 4182
そ 4174
もっとも 4174
かげつ 4160
かんたん 4159
びょういん 4151
すん 4144
かい@@ 4125
がわ 4114
ベ@@ 4095
みえる 4093
やら 4088
おこっ 4076
ダ@@ 4074
にげ 4072
かしら 4035
くち 4035
マン 4028
つづけ 4025
あに 4010
きっと 3981
ニ@@ 3975
しゅうかん 3968
テ@@ 3964
きもち 3954
ぎ 3950
はなす 3950
おもわ 3945
みろ 3941
せき 3939
まい 3929
だん 3927
ネ@@ 3921
ずっと 3910
まて 3903
ちきゅう 3901
め@@ 3898
け 3897
しゃかい 3888
あいし 3881
げん 3877
あぁ 3868
やま 3863
ディ@@ 3861
たいへん 3858
ひじょう 3857
ばあい 3854
ジョン 3852
チ@@ 3847
そうぞう 3841
% 3839
せいかつ 3839
かし 3837
さく 3829
びょう 3820
おっ 3811
どうぞ 3809
とし 3807
ろう 3807
じゅうぶん 3801
こうどう 3800
あし 3799
ぜんいん 3784
ヒ@@ 3763
おお@@ 3755
そう@@ 3741
っと 3739
す@@ 3731
かんじゃ 3730
ノ@@ 3724
われ 3719
システム 3713
きょうみ 3704
きょうりょく 3694
せい@@ 3693
いいえ 3686
こく 3682
そ@@ 3680
たのむ 3663
さいきん 3661
カード 3657
しょうこ 3644
とる 3642
ね@@ 3642
ブ 3640
かわり 3632
かんし 3630
ボ@@ 3630
あたえ 3625
ごう 3615
ひき@@ 3613
もらっ 3612
かいけつ 3611
かん@@ 3603
ちゃんと 3600
はっけん 3596
9 3593
まちがい 3590
ン@@ 3589
こうか 3569
さらに 3565
むかし 3556
に@@ 3550
げ 3549
ろ 3542
だ@@ 3541
ロ 3537
カ 3532
いし 3531
チーム 3529
さえ 3526
ヤツ 3511
もつ 3504
30 3497
び 3491
イ 3488
なれ 3484
データ 3483
つま 3482
ふつう 3482
える 3479
ソ@@ 3458
ぐん 3450
じゆう 3449
ア 3447
ご@@ 3445
しょう@@ 3445
しまう 3444
ジ@@ 3438
ピ@@ 3437
こんど 3430
ゲーム 3427
らい 3410
うちゅう 3407
いたい 3404
しゅう@@ 3404
− 3403
ぼう 3402
いろいろ 3396
かり 3393
かち 3378
めん 3377
かわっ 3375
が@@ 3364
あう 3361
ちちおや 3359
たい@@ 3358
ム@@ 3356
ほ@@ 3355
じょうたい 3343
すま 3340
おわっ 3335
ブ@@ 3329
いろ 3323
きゃく 3319
ばかり 3318
つくる 3316
コ 3311
ら@@ 3307
きく 3302
ソン 3301
はな 3300
プ@@ 3297
ラー 3292
だいじ 3287
つたえ 3287
はい@@ 3276
いがい 3275
だいがく 3273
けいじ 3269
まもる 3254
けいたい 3252
も@@ 3252
らしい 3248
たいし 3237
あげる 3236
きかい 3236
ひどい 3236
しあわせ 3228
つかう 3228
ホ@@ 3227
しつれい 3223
び@@ 3212
かんしゃ 3211
かんがえる 3208
ちいさな 3205
さて 3204
あんな 3195
げんざい 3195
ふう 3192
じょう@@ 3190
ばい 3186
せきにん 3176
てん@@ 3171
ゆ@@ 3167
えいが 3161
せんたく 3158
ははおや 3150
みらい 3148
てい 3141
あさ 3140
ペ@@ 3139
ほとんど 3136
きか 3130
ちょうさ 3126
うた 3115
せいふ 3114
げんき 3110
しま 3110
ズ 3106
ねんかん 3101
え@@ 3100
うまれ 3098
あまり 3094
なぁ 3093
ぎ@@ 3088
しょく 3082
じだい 3076
しる 3070
やっぱり 3065
イン@@ 3063
おと 3061
ば@@ 3061
ぬ 3055
ちょう@@ 3052
ク 3037
のっ 3029
ぶ@@ 3026
ワ@@ 3023
ヘ@@ 3022
マ 3015
バー 3002
はかせ 2986
e 2985
りよう 2975
すぎる 2969
せいこう 2954
けいけん 2950
キ 2948
100 2946
ケ@@ 2945
ール 2945
こんや 2942
ひがい 2941
えいきょう 2935
たび 2931
フ 2929
がん 2923
よば 2923
つく 2920
ぶつ 2920
ちゃう 2918
とく 2912
ど@@ 2908
a 2905
もどる 2905
『 2898
ひみつ 2894
そしき 2888
』 2881
ドア 2880
ほうこく 2879
ざんねん 2868
かえり 2864
ちりょう 2863
かこ 2859
とい 2855
ズ@@ 2855
かんぜん 2853
たとえば 2849
しゃ@@ 2839
きろく 2837
ツ@@ 2829
すでに 2823
かなり 2822
きめ 2819
あけ 2811
やれ 2806
おっと 2791
たいほ 2788
ット 2787
” 2786
せんそう 2783
はかい 2781
きょう@@ 2779
のうりょく 2779
はんざい 2773
け@@ 2766
ふね 2762
もらう 2759
ック 2758
クソ 2751
ム 2750
とこ 2749
まわり 2749
わ@@ 2747
スター 2743
s@@ 2740
はなれ 2731
' 2730
1@@ 2729
カメラ 2728
おかげ 2725
ちかく 2725
おけ 2724
オー@@ 2719
しまい 2716
ぞう 2716
かつどう 2714
< 2713
バー@@ 2709
すがた 2696
べんご 2692
ほう@@ 2691
うみ 2690
ひん 2687
15 2686
もくてき 2683
かかっ 2681
せいぶつ 2681
しんじつ 2677
S@@ 2674
きん@@ 2674
ようい 2674
ー@@ 2670
かならず 2667
いしゃ 2662
きゅう@@ 2659
ニ 2654
ダ 2651
さんか 2650
きおく 2639
はつ 2638
こん@@ 2637
ぜん@@ 2636
50 2633
たて 2631
ひかり 2627
p@@ 2619
スト 2618
つみ 2615
オ 2615
ながい 2614
むし 2613
ティ@@ 2612
ぐらい 2608
げんじつ 2608
たいせつ 2607
むかっ 2603
とくべつ 2601
いらい 2598
> 2596
ゴ@@ 2596
ぎょう 2595
おんなのこ 2594
きこえ 2594
さっき 2594
はたらい 2591
ひと@@ 2590
たかい 2588
とにかく 2588
ード 2588
だいとうりょう 2585
ディ 2584
ぜんぜん 2581
シャ@@ 2581
へんか 2572
うれしい 2569
のみ 2569
いっぱい 2566
さい@@ 2560
むら 2560
ひこう 2558
ぶき 2558
c@@ 2557
いぬ 2554
おくっ 2554
たたかい 2554
おもしろい 2551
〈 2549
おそらく 2548
かぎり 2545
びょうき 2545
レベル 2545
コン@@ 2539
どうぶつ 2537
よう@@ 2537
まちがっ 2535
すい@@ 2534
たがい 2533
s 2530
きえ 2527
で@@ 2524
ジャック 2516
e@@ 2510
せいしん 2510
ごと 2508
m@@ 2505
やめろ 2503
あら 2502
すごく 2494
リン 2493
かつ 2488
げんば 2486
あそこ 2479
じじつ 2479
しぜん 2476
だんせい 2472
こんかい 2470
かわいい 2458
げ@@ 2458
わら 2455
いぜん 2452
きかん 2451
さん@@ 2450
つかい 2450
はいる 2450
りゅう 2450
えん@@ 2447
トン 2446
しょうかい 2442
ポ@@ 2442
ほん@@ 2439
〉 2438
ジャ@@ 2435
A@@ 2434
フィ@@ 2425
そうち 2423
12 2412
じゃん 2406
おはよう 2403
とくに 2403
きれい 2399
ファ@@ 2383
テレビ 2375
さけ 2374
けいかん 2370
すわっ 2366
あん 2363
かんきょう 2356
ただしい 2354
めいれい 2349
みつける 2348
エネルギー 2348
おや 2346
いどう 2344
マー@@ 2343
つかれ 2340
ート 2340
キミ 2336
ーン 2335
むずかしい 2332
ヤ@@ 2331
かた@@ 2328
けい@@ 2326
ほし 2325
させ 2323
けん@@ 2322
しっぱい 2321
げん@@ 2318
せいと 2318
カー 2317
あたり 2315
イン 2314
じっけん 2313
b@@ 2312
だい@@ 2312
とりひき 2312
はなせ 2310
かくし 2307
まいにち 2306
t 2304
つかわ 2304
アン@@ 2298
けいざい 2297
もち 2297
はら 2293
ロー@@ 2293
どう@@ 2290
くすり 2286
りょうしん 2283
かぎ 2276
むこう 2275
ゆう@@ 2271
うで 2267
おい@@ 2267
かいはつ 2267
i@@ 2266
よろしく 2266
のこっ 2264
メール 2264
きたい 2261
じゃま 2260
さいぼう 2259
ーク 2255
かべ 2254
ギ@@ 2253
かく@@ 2249
おち 2248
きづい 2246
ちゅうい 2246
きらい 2245
へいき 2240
ノ 2240
チ 2237
レ 2236
アル@@ 2234
グ 2233
あえ 2232
てい@@ 2232
フェ@@ 2230
うごき 2229
じょうだん 2227
もらい 2227
a@@ 2223
こじん 2223
まるで 2223
ゲ@@ 2223
ぬ@@ 2222
しょうめい 2217
こわい 2216
ぶぶん 2216
スト@@ 2215
きぶん 2212
ふかい 2212
のん 2211
しゃちょう 2210
める 2209
チャンス 2201
せ@@ 2191
なあ 2187
t@@ 2186
おん 2186
ゆいいつ 2183
つよい 2181
いしき 2177
ミ 2176
いもうと 2171
キャ@@ 2168
m 2167
いただき 2167
ライ@@ 2164
ばか 2163
うんてん 2161
きり 2159
ザ@@ 2158
ツ 2157
けつ 2156
ーム 2156
なくなっ 2152
りょう@@ 2152
もち@@ 2149
まつ 2148
シー 2148
こうかい 2146
にっぽん 2145
d@@ 2143
しゅじゅつ 2141
とら 2139
ほご 2138
きっ 2136
にち 2131
めい@@ 2131
しゅぎ 2123
らく 2123
こうこう 2122
おう@@ 2120
つき@@ 2120
シ 2120
わかい 2118
せいじ 2115
ビル 2114
すて 2111
つくり 2110
ばんごう 2109
りつ 2109
けいむ 2108
けっこう 2107
きず 2102
ガ 2102
ネット 2101
しょ@@ 2097
o@@ 2095
おとうと 2091
もり 2091
ント 2091
おんがく 2090
キー 2090
じんぶつ 2087
きぎょう 2086
きり@@ 2085
そいつ 2085
かかる 2084
っ@@ 2084
かんじょう 2081
モンスター 2080
リスト 2080
♫ 2077
いちぶ 2076
せいちょう 2076
きょうだい 2074
つける 2074
ぽん 2074
u@@ 2073
わるく 2073
ジェ@@ 2073
ジョ@@ 2069
たぶん 2067
チャ@@ 2066
すてき 2063
じき 2060
じんるい 2058
へい 2058
ちょうど 2057
ぐ@@ 2054
がんばっ 2053
マジ 2049
じたい 2048
はいり 2047
おお 2046
せんぱい 2046
バ 2045
ース 2045
さいばん 2044
ぞんじ 2042
いら 2040
きぼう 2040
うしろ 2038
しい 2038
つね 2038
ぶり 2037
ガン 2037
がた 2027
てろ 2027
げんいん 2026
そら 2021
だん@@ 2021
かえし 2019
おもえ 2018
しんらい 2015
あきらか 2014
さつ 2013
たつ 2012
ラン@@ 2012
とうぜん 2010
ほんもの 2006
ぼう@@ 2004
もらえ 2002
ぶじ 2001
かてい 1999
はんのう 1997
まる 1996
ぎせい 1995
れきし 1995
しっかり 1994
みみ 1993
ちいき 1992
もうしわけ 1992
ドラゴン 1991
-- 1990
しょうがい 1989
れ@@ 1988
ックス 1983
ちゅうごく 1981
せいめい 1979
ぼ@@ 1979
ごらん 1978
かたち 1976
づけ 1976
ップ 1973
そりゃ 1969
じゅう@@ 1964
たち@@ 1964
はん@@ 1963
さぁ 1962
わし 1961
しんよう 1959
しゅ@@ 1957
まさか 1957
ター 1956
ハー@@ 1954
n@@ 1952
きれ 1951
ニー 1948
ひょう 1943
かわ 1942
M@@ 1940
くび 1940
とめる 1936
うしなっ 1934
おかしい 1933
あたし 1932
あらわれ 1932
ビデオ 1931
啊 1929
アンタ 1928
こむ 1927
ぜんたい 1927
むけ 1927
かって 1924
ぎんこう 1920
你@@ 1920
C@@ 1919
しょうじき 1919
まぁ 1919
ちゅう@@ 1915
もとめ 1915
きょ 1913
りょうり 1912
わかれ 1912
どっち 1911
こみ 1910
ウィ@@ 1908
ジ 1908
ボス 1907
リア 1906
おもい@@ 1903
おじ 1901
いりょう 1899
いれる 1896
o 1894
A 1891
せいかく 1890
たって 1888
あわ 1887
したい 1886
コー@@ 1884
h@@ 1883
— 1883
たいする 1883
きょういく 1881
やすみ 1881
ブラ@@ 1881
いくら 1880
ほんき 1878
うつくしい 1877
どうよう 1877
うら 1874
そく 1871
ダー 1871
i 1868
だまっ 1868
どちら 1866
おこる 1865
おおきく 1863
デザイン 1863
しずか 1862
とれ 1862
しゅじん 1860
あわせ 1859
つかえ 1858
おおい 1856
のこり 1856
かず 1855
かんり 1852
だせ 1851
たん@@ 1849
どく 1849
まほう 1849
ず@@ 1846
よてい 1842
ふめい 1839
クラ@@ 1839
ネ 1839
ふく@@ 1837
ッド 1837
まけ 1836
むだ 1833
れんちゅう 1828
まかせ 1825
かける 1824
いち@@ 1823
まさ 1822
けさ 1821
しじ 1819
しょうねん 1817
みとめ 1816
I@@ 1814
たん 1813
っけ 1812
ウ 1812
カー@@ 1812
ぐ 1809
つづける 1809
きょ@@ 1806
っす 1806
いでん 1803
おし@@ 1803
かんぺき 1802
19@@ 1801
つよく 1800
サ 1800
ニュース 1800
じい 1798
ド 1798
かんじる 1797
うつ 1796
べ 1796
けんさ 1794
せつ 1794
アイデア 1793
ヨ@@ 1792
ト 1791
すくなく 1790
ヴィ@@ 1790
とけ 1786
ださ 1782
ベル 1782
l@@ 1781
─ 1781
たいよう 1780
ぶん@@ 1771
らん 1771
とつぜん 1767
ボク 1767
あらゆる 1765
だいすき 1765
アフリカ 1764
グループ 1764
ロボット 1764
f@@ 1763
ゴ 1762
ーズ 1757
はな@@ 1756
ちか 1754
ロー 1751
おちつい 1749
ロン 1749
ちかい 1746
しんぞう 1743
ホテル 1743
ぁ 1741
あかちゃん 1740
けっして 1740
はやい 1739
はる 1739
つか 1738
ナー 1737
メッセージ 1737
えいぞう 1736
もどり 1735
ふた 1734
000 1733
しょうたい 1733
オン 1733
11 1731
“ 1728
さまざま 1727
のぞん 1726
しょうじょ 1725
はんぶん 1725
ものがたり 1724
テスト 1724
おとな 1721
におい 1720
ちゃ@@ 1719
アー@@ 1719
ティ 1719
いっ@@ 1718
ぞく 1718
がら 1717
サム 1717
ちがっ 1716
ふくざつ 1716
マイク 1716
とん 1715
こうい 1714
ラン 1712
おこし 1711
かんせん 1710
チェ@@ 1709
あつめ 1708
ばくはつ 1708
ゆっくり 1708
けっきょく 1707
つかまえ 1707
そっち 1706
じょ 1702
ざ@@ 1697
リング 1697
しゅんかん 1696
おやじ 1695
せんもん 1694
きょうかい 1690
まん@@ 1689
こんにちは 1688
ふるい 1684
サン 1682
るい 1681
ていきょう 1680
さいあく 1679
おそれ 1677
シュ@@ 1677
いき@@ 1676
きけ 1676
じゅつ 1675
たのしみ 1674
ぶたい 1673
ようぎ 1673
けんこう 1672
ひっ@@ 1672
ニューヨーク 1672
たんじょう 1669
FBI 1668
はっ 1666
えき 1665
ける 1665
じんこう 1664
クリ@@ 1664
とうじ 1663
あん@@ 1660
けいび 1658
d 1655
つう 1654
プログラム 1653
じさつ 1652
はんたい 1650
40 1649
かげ 1648
はんだん 1648
やあ 1648
たのしい 1644
レイ@@ 1644
g@@ 1643
うごく 1643
よぶ 1643
T@@ 1642
―― 1641
さがす 1639
みつかっ 1639
フォ@@ 1637
さくひん 1635
ようす 1634
うち@@ 1630
しばらく 1630
すむ 1629
こうじょう 1626
わかん 1626
いっぽう 1625
しんじる 1621
ねこ 1619
r@@ 1618
ステ@@ 1617
ゆ 1612
あな 1609
なん@@ 1608
ウソ 1608
6@@ 1607
こま 1607
かんする 1606
あい@@ 1605
レッド 1604
かくしん 1603
しんけい 1602
のこし 1602
りょうかい 1602
やっと 1600
しょうかん 1599
えい 1593
じん@@ 1592
せわ 1590
なつ 1590
しぼう 1589
ろ@@ 1585
ばくだん 1584
しょくじ 1582
プロ@@ 1581
にんむ 1580
へ@@ 1580
にゅう@@ 1577
うる 1576
みよう 1575
まもっ 1574
プロジェクト 1572
D@@ 1571
えらん 1571
さいだい 1571
はし 1571
あたえる 1567
ショー 1567
おか 1565
しに 1563
たのん 1563
べんきょう 1559
ボール 1558
しく 1557
たべる 1556
おくれ 1555
てっ 1555
2@@ 1554
きる 1546
かぜ 1544
はっきり 1543
ジー 1543
tel 1542
さっ 1542
たてもの 1540
ゆうき 1536
こうえん 1534
ゆるし 1533
さる 1532
いける 1531
はじめる 1530
はなさ 1529
ちょ 1526
ぶんか 1526
パーティー 1526
むね 1525
fbi 1524
さくせん 1524
いたし 1523
たたかう 1523
コーヒー 1523
くっ 1522
たんとう 1519
きょか 1518
アル 1517
あらた 1514
りん 1514
のぞみ 1513
ロック 1513
かいほう 1512
きょうじゅ 1512
わり 1512
なみ 1511
ミス 1509
いそい 1508
しじょう 1508
しんにゅう 1507
きほん 1506
ベッド 1506
おん@@ 1504
わる 1504
ライン 1504
P@@ 1503
うんめい 1503
きまっ 1503
いだい 1502
ううん 1502
キス 1500
せいき 1499
うま 1498
かわら 1497
アイ@@ 1496
ほしょう 1494
k@@ 1492
きょうふ 1492
むかえ 1491
ごはん 1490
せよ 1489
ほうこう 1487
ぞ@@ 1486
C 1483
のり@@ 1483
いけん 1482
しみん 1482
こうせい 1481
サイ@@ 1481
ざ 1477
はこ 1477
コード 1477
すすめ 1475
たえ 1475
かいぎ 1473
てつだっ 1473
デート 1473
いえる 1472
きこえる 1472
w@@ 1471
ちょ@@ 1467
しえん 1466
たましい 1466
ヤ 1465
ろん 1464
さいしゅう 1463
くらし 1458
にげる 1456
テ 1455
ランド 1454
あや@@ 1452
おいしい 1452
あがっ 1450
R@@ 1449
マー 1446
まど 1443
ザ 1443
たずね 1442
そっ 1441
なにもの 1441
しはい 1440
ゆき 1439
やがっ 1438
サン@@ 1438
しめし 1437
ビー 1437
おどろく 1436
ぶっしつ 1436
いたる 1435
とおし 1435
モン 1435
はじまり 1434
ッシュ 1434
ブラック 1434
ヴァ@@ 1434
l 1433
O@@ 1432
つくら 1432
しょうらい 1431
スタ@@ 1431
あくま 1429
ぬすん 1429
B@@ 1427
がくせい 1426
きさま 1426
きち 1426
ひょう@@ 1426
おもいだし 1425
モデル 1424
サー 1423
N@@ 1422
ひさし 1422
もじ 1421
しせつ 1420
じどう 1420
もくひょう 1420
S 1419
あきらめ 1419
やすい 1418
けんり 1417
プ 1417
しかも 1416
まり 1415
ジュ@@ 1415
じてん 1414
どうじ 1413
りゅう@@ 1413
バス 1412
とうし 1410
y 1409
みん 1408
あるい 1407
8@@ 1405
E@@ 1405
くせ 1405
ちいさい 1405
にく 1405
吧 1404
I 1403
さく@@ 1403
ルール 1403
しきん 1399
ガス 1399
リー@@ 1398
けいやく 1397
かくれ 1396
ハイ@@ 1395
しな 1394
なか@@ 1394
インド 1394
くんれん 1393
レス 1392
かわ@@ 1391
あね 1390
たろ 1389
c 1388
かいし 1388
きぼ 1388
なれる 1386
ない@@ 1385
60 1383
てがみ 1383
はつどう 1381
ぼうりょく 1381
ング 1381
たいちょう 1380
いっしょう 1378
はじまっ 1378
りこん 1378
ろう@@ 1376
せろ 1374
ついせき 1374
ンス 1374
うんどう 1372
さくや 1371
でんき 1371
ちょうだい 1370
いたみ 1368
うまい 1368
ゼ@@ 1368
13 1366
ガー 1366
しんか 1364
しゅうちゅう 1363
しゅつ 1363
ゆうめい 1363
あるいは 1362
くつ 1359
すくう 1357
わっ 1357
けってい 1356
づ@@ 1356
サラ 1354
りょうほう 1353
くそ 1351
ジェーン 1351
。➡ 1350
あつ 1349
うら@@ 1348
じむ 1348
はっ@@ 1348
ただし 1347
コンピュータ 1347
さぎょう 1344
ハン@@ 1342
モ 1342
いきる 1340
たいしょう 1340
ちょうし 1340
かわる 1337
へいわ 1332
とくてい 1331
ゆうかい 1331
DNA 1329
まさに 1329
あそび 1328
18 1327
ん@@ 1327
ためし 1326
ちょくせつ 1326
れつ 1326
500 1323
あら@@ 1323
のう@@ 1323
しめ 1321
ほ 1321
ビジネス 1321
ぎゃく 1320
それぞれ 1320
そろそろ 1320
だいたい 1320
ぶか 1320
ポイント 1320
さし@@ 1319
まわっ 1319
ライト 1319
ざん 1318
めんどう 1314
よび 1312
25 1311
あんしん 1311
しんごう 1310
ンド 1310
まっ@@ 1307
いじ 1306
せよう 1306
みずから 1306
きじ 1305
れん 1305
がっ 1304
ながく 1304
ぬけ 1304
やま@@ 1304
ぬし 1303
たすける 1302
たたかっ 1301
パン 1301
ばあ 1300
ねる 1299
びん 1296
とおく 1294
ふり@@ 1294
ひだり 1293
よせ 1293
ユ@@ 1291
きずつけ 1290
かんせい 1289
ひらい 1289
ターン 1289
うわさ 1287
おこなわ 1287
へい@@ 1287
ルー@@ 1287
アイツ 1286
とまっ 1285
せいさく 1284
みぎ 1284
リーダー 1283
おこなう 1280
わくせい 1280
ザー 1278
じゅ@@ 1277
エル 1276
ビ 1276
ちゅうしゃ 1275
チェック 1275
D 1274
すごし 1274
そん 1273
おどろい 1272
じごく 1272
ぎもん 1271
ファイル 1271
h 1270
dna 1268
おおきい 1268
おうじ 1267
そうだん 1267
ちゃく 1267
しょり 1266
はく 1266
くし 1264
キング 1264
ピーター 1264
3@@ 1262
しかく 1262
レン@@ 1262
クラブ 1261
りょこう 1260
くら@@ 1259
さつがい 1259
ふり 1259
ひめ 1258
きづか 1257
たにん 1256
ニック 1256
マーク 1256
クス 1252
7@@ 1251
おくる 1250
きょだい 1250
x 1249
メ 1249
あめ 1248
きんきゅう 1248
どおり 1248
がん@@ 1247
にん@@ 1247
あて 1245
けし 1245
ぎいん 1244
いっぱん 1243
さすが 1243
ひなん 1243
めでとう 1242
とくしゅ 1241
ねつ 1241
おなか 1240
こつ 1240
アー 1240
へいし 1238
ふしぎ 1237
おわる 1236
サー@@ 1236
ゆび 1234
ボ 1234
きこう 1233
しゅだん 1233
まずい 1233
ようきゅう 1231
しんこう 1228
レイ 1228
しょくりょう 1227
すら 1227
れんしゅう 1227
クリス 1227
のむ 1226
たんじゅん 1224
ター@@ 1223
となり 1222
みれ 1222
とちゅう 1221
くろ 1220
がい@@ 1217
かいわ 1216
おも@@ 1215
とうちゃく 1215
そば 1213
る@@ 1213
うける 1212
1日 1211
きょうし 1211
ちまっ 1211
タイプ 1211
おとし 1210
かんしん 1209
どりょく 1209
くろう 1208
ちしき 1207
こわ 1206
とび@@ 1206
いい@@ 1205
シー@@ 1205
はっせい 1204
ろく 1204
いん@@ 1203
えっと 1203
かいちょう 1202
ガキ 1201
ッチ 1201
アン 1200
バイ@@ 1199
パワー 1199
すくっ 1198
エ 1196
さつえい 1195
もらえる 1195
のぞむ 1194
がく@@ 1193
えいえん 1192
くみ 1191
ぐうぜん 1191
200 1190
かんかく 1190
ぶっ@@ 1190
つうしん 1189
うごい 1186
きどう 1183
こっか 1183
ふかく 1183
とち 1181
なが@@ 1181
やみ 1180
ミスター 1180
けっ@@ 1179
にゅう 1178
どうし 1177
グラ@@ 1177
かまわ 1176
ばん@@ 1176
トラック 1176
80 1175
まもり 1174
マイ@@ 1174
だら 1171
なおし 1170
でん 1167
ゆくえ 1166
プラ@@ 1166
ぼ 1165
わるかっ 1165
リス 1164
じょうけん 1163
ながれ 1163
4@@ 1161
かつて 1161
けいぶ 1161
さかな 1161
しれい 1161
ジョー 1161
モー@@ 1161
さと 1160
せき@@ 1160
ひょうか 1160
げき 1159
しゅるい 1158
クラス 1158
きた 1156
もしもし 1156
いっち 1155
ずいぶん 1155
つかえる 1154
ときどき 1154
オフィス 1152
まなん 1151
よそう 1151
きょり 1150
らし 1150
ンズ 1150
かいふく 1149
みなみ 1149
ワン 1149
ていど 1148
どっ 1148
まやく 1148
ギャ@@ 1148
B 1147
おば 1147
こんらん 1147
もくげき 1146
いそがしい 1144
ざん@@ 1144
センター 1144
ドイツ 1143
ドン 1143
L@@ 1142
くるっ 1142
しけん 1140
ハイ 1140
ゆうしょく 1139
ダン 1139
かげん 1138
ふれ 1138
スピード 1138
しつ@@ 1137
y@@ 1136
かう 1136
けいこく 1136
げいじゅつ 1136
ぶんせき 1136
17 1135
おちつけ 1135
マン@@ 1135
リック 1133
こううん 1132
しゅっ@@ 1132
しょうにん 1132
かかり 1131
こうぞう 1131
T 1129
じゅぎょう 1129
ぼっ 1129
tv 1128
ふたたび 1128
インターネット 1128
つれ@@ 1127
ばつ 1127
いと 1126
せいぎ 1126
せんとう 1126
はあ 1126
ロシア 1125
しょうげん 1124
ふあん 1124
G@@ 1123
ウチ 1123
ジム 1123
さし 1122
ック@@ 1121
ふえ 1120
コンピューター 1118
ぬい 1117
ネットワーク 1117
F@@ 1116
のせ 1116
きげん 1115
ルス 1113
0@@ 1112
こうそく 1112
ちゅうもく 1112
はたらく 1112
ゆるさ 1112
くち@@ 1111
せいぎょ 1111
あじ 1110
かき 1110
エン@@ 1110
サービス 1110
ぇ 1109
ぐち 1109
はらっ 1108
シェ@@ 1108
サイン 1107
9@@ 1106
しりあい 1106
つきあっ 1106
なんだ 1106
16 1105
しだい 1105
≫ 1104
いろんな 1104
えいせい 1104
ぎろん 1104
はぁ 1104
ちゅうしん 1103
べいこく 1103
デ 1103
せいさん 1099
24 1096
なま 1096
ほけん 1096
テクノロジー 1096
しんぶん 1095
ほうりつ 1095
くうかん 1093
みつ@@ 1093
うけいれ 1092
あっち 1091
おそい 1091
そつぎょう 1090
パー 1090
おそく 1089
W@@ 1087
じゅん@@ 1085
ども 1085
b 1083
たのしん 1083
ついに 1082
てがかり 1082
べ@@ 1082
あぶない 1081
かんりょう 1081
キロ 1081
トイレ 1081
p 1080
こうかん 1079
つう@@ 1079
トップ 1078
じつげん 1077
ウォ@@ 1077
だんかい 1076
わらっ 1076
もた 1075
クリスマス 1075
しあい 1074
ひい 1074
かえれ 1073
けれど 1073
そうさく 1073
コン 1073
5@@ 1072
そうじ 1072
あんてい 1071
たいりょう 1071
吗 1071
げんしょう 1070
にんしき 1070
つか@@ 1069
じゅ 1068
ぞう@@ 1067
ファン 1065
おこない 1063
つらい 1062
りろん 1062
せっけい 1061
フランス 1061
にし 1060
トラ@@ 1060
マイル 1059
じじょう 1058
やり@@ 1058
がまん 1057
ジン 1057
メートル 1057
ごう@@ 1056
てんし 1056
なぞ 1056
R 1055
へん@@ 1055
シン@@ 1055
バイ 1055
トリ@@ 1054
ふう@@ 1053
ごく 1052
むい 1052
かんれん 1051
はっぴょう 1051
たた@@ 1050
タイム 1050
バン 1050
いない 1049
つながり 1049
ウイルス 1049
えぇ 1048
みせる 1048
うしなう 1047
はいら 1047
フィールド 1047
たちば 1046
ブル@@ 1044
レン 1043
ことし 1042
ほんの 1042
なおす 1041
リスク 1041
こと@@ 1040
おら 1039
ひょうげん 1039
もどれ 1039
テロ 1039
プロ 1038
ていあん 1037
ふじん 1037
ゼロ 1037
いり 1036
くうき 1035
たく@@ 1035
ようせい 1035
きみょう 1034
じっこう 1034
たいき 1034
たいけん 1034
カン@@ 1034
かか 1033
ないよう 1033
おし 1032
ほこり 1032
ほね 1032
ましょ 1032
ケーキ 1032
ハハハ 1032
あき 1031
おくり 1031
おわら 1031
よろこん 1031
ナイフ 1031
k 1028
スパイ 1028
ふん 1027
アップ 1027
から@@ 1026
ナルト 1026
你 1026
いただけ 1025
カン 1025
こまっ 1024
ねん@@ 1024
とく@@ 1023
マイケル 1023
ロス 1023
こく@@ 1022
こわれ 1022
ベン 1022
ルド 1022
这@@ 1022
こめ 1021
しょゆう 1020
ちゃい 1020
ぽ 1020
らしく 1020
あろう 1019
しっ@@ 1019
とうきょう 1018
がり 1017
ダイ@@ 1017
おる 1016
たいした 1016
いずれ 1014
しこう 1014
じゅん 1014
さいのう 1012
そうとう 1012
はつ@@ 1010
v@@ 1009
あかい 1009
かえす 1009
きょうい 1009
けいさん 1008
ふる@@ 1007
パターン 1007
ビール 1007
おそろしい 1006
さいてい 1006
てつ 1006
ゆうしゅう 1006
♬ 1005
すけ 1005
ット@@ 1005
えいご 1004
つけろ 1004
どうりょう 1004
きんし 1003
しもん 1003
レット 1003
ごくう 1002
であっ 1001
めいわく 1001
ーター 1001
あえる 999
いらっしゃい 999
ちょうせん 999
あく@@ 998
ちず 998
ar@@ 997
つながっ 997
まわし 997
やか 996
タイ@@ 996
しゅうだん 995
てき@@ 995
ゾンビ 995
あく 994
しかっ 994
もう@@ 994
ファイ@@ 994
しどう 992
ぶつり 992
よめ 991
ルズ 991
パ 990
クレ@@ 989
しょうぐん 988
しらべる 988
すうじ 988
ごうとう 987
おおき 986
おきる 986
すうがく 986
れい@@ 986
ディー 986
さっさと 985
たべもの 985
あつい 984
じもと 984
できれ 983
まじょ 981
マシン 981
いた@@ 980
ころせ 980
ぶんや 980
おと@@ 979
ウェ@@ 979
とけい 977
リン@@ 977
14 976
かせい 976
くりかえし 976
にんしん 976
がぞう 975
よそく 975
りえき 975
エイ@@ 975
スーツ 975
こきゅう 974
げんご 973
とらえ 973
M 972
きゅうきゅう 971
たか@@ 971
できごと 968
ポール 968
こし 966
しゅっぱつ 966
せだい 966
かな@@ 965
けれ 965
こうしょう 965
しんり 965
エンジン 965
ハ 965
ほしく 964
むせん 964
ガー@@ 964
スパ@@ 964
セット 964
もどし 963
イヤ 963
いで 962
とどけ 962
あか@@ 961
こんご 961
ちょっ 961
r 960
かんさつ 960
こいびと 960
アクセス 960
いかり 959
サイト 959
こくさい 958
かき@@ 957
けんとう 957
どうぐ 957
はや 957
パートナー 957
やさしい 956
わずか 956
じゅうしょ 955
とくい 955
ロンドン 955
おとこのこ 954
したがっ 954
にもつ 954
プレゼント 954
あそん 953
まんぞく 952
いそげ 951
はんこう 951
びょう@@ 951
みかた 951
マシ 951
うるさい 950
ミー 950
300 949
きた@@ 949
あいする 948
おこら 948
かくご 948
よこ 948
えがい 946
ごろし 946
たま 946
どり 946
トム 946
H@@ 945
きょうゆう 945
こおり 945
なかなか 945
みょう 945
しゅちょう 944
タン 944
あがり 943
· 942
つめ 941
わたす 941
70 940
かかえ 940
イメージ 940
ダンス 940
やめる 939
アパート 939
メント 939
あつかい 938
くわえ 938
はたらき 938
あか 937
ずつ 937
いただい 936
じっ 936
すすん 936
トロ@@ 936
O 935
ていし 935
ウォルター 935
たか 934
にく@@ 934
せんちょう 933
フランク 933
ぽう 932
みりょく 932
たろう 930
どうせ 930
どころ 929
ゾ@@ 929
テン@@ 929
おこり 928
のる 927
せんしゅ 925
なくし 924
あさ@@ 923
ひろ@@ 923
ハァ 923
90 922
こんなん 922
きょうつう 921
のり 920
もどら 920
おかし 918
ノー@@ 918
しょくぶつ 917
セックス 916
L 915
おしえる 914
ぐあい 913
てく 912
ルト 912
いいん 911
タル 911
in@@ 910
かだい 910
けが 910
わすれる 910
er@@ 909
あたっ 909
けつえき 909
つかまっ 909
まご 909
りっぱ 909
じょし 908
たいしょ 908
なんびゃく 908
はじまる 908
こころ@@ 907
まく 907
ほしかっ 906
ティー 906
さがっ 905
だっしゅつ 905
どうい 905
うごか 904
かくほ 904
した@@ 904
うけ@@ 903
くう 902
みごと 901
よび@@ 901
さぎ 900
しょうり 900
ボート 899
/ 898
ぴき 898
0 897
おく@@ 897
げんかい 897
ごかい 897
さら 897
あにき 896
へっ 896
れん@@ 895
クロ@@ 895
ほっ 894
チャ 894
かっこう 892
やはり 892
メンバー 892
あおい 891
きしゃ 891
シア 891
あいさつ 889
ろうどう 889
ジャー 889
きづき 888
はらう 888
ぼつ 888
コイツ 888
ージ 888
ページ 887
しゅよう 886
てつだい 886
だまれ 885
ワイン 885
デュエル 884
E 883
むき 883
かる 882
しめい 882
20@@ 879
こわく 879
きせき 878
せっとく 878
たかく 878
ちく 878
ほんぶ 878
みんしゅ 878
スキー 878
ニュー@@ 878
かかわら 877
けんじ 877
しんゆう 877
すっ 877
バン@@ 877
パー@@ 877
うつっ 875
かくじつ 875
きめる 875
はずし 875
イギリス 875
チュ@@ 875
呢 875
えよう 874
でん@@ 874
ようし 874
がかり 873
ころそう 873
なっとく 873
ソ 873
OK 872
しらせ 872
かみ@@ 871
しゅっしん 871
ちかづい 871
シュ 871
たいおう 870
ニング 870
ケース 869
ワイ@@ 869
あんない 868
ことなる 868
ラス 868
かかん 867
のこさ 867
ふん@@ 867
じる 866
だんな 866
どうき 866
むかう 866
レー@@ 866
おこなっ 864
よみ 863
レストラン 863
せっ@@ 860
リッ@@ 860
モノ 859
かれし 858
ふき@@ 858
クター 858
がる 857
メディア 857
ありがと 856
どく@@ 856
メン@@ 856
おどろき 855
ホール 855
コントロール 854
けんちく 853
ぜひ 853
にわ 853
しゅうきょう 852
ファー 852
くる@@ 851
たた 851
はら@@ 851
デン 851
あおう 850
きょうどう 850
とも@@ 849
ケ 849
げる 847
ふくしゅう 846
つたえる 845
わり@@ 845
いかが 844
おり@@ 844
げんし 844
すぐれ 844
たいせい 844
はく@@ 844
けんめい 843
どうろ 843
あり@@ 842
かけ@@ 842
ウム 842
しんちょう 841
ちか@@ 841
P 840
えらぶ 840
フラ@@ 840
かねもち 839
しば@@ 839
みどり 839
しょるい 838
とめろ 838
ヒーロー 838
おえ 837
にんき 837
ほあん 836
g 835
しょく@@ 835
つつ 835
ないぶ 835
フィンチ 835
くら 834
せんきょ 834
のこる 833
チョ@@ 833
ッキー 833
へいか 832
いかに 831
かいだん 831
ごご 831
どれい 831
ニア 831
かせ 829
バッグ 829
でかけ 828
こうふん 827
しず@@ 827
とりあえず 827
ッツ 827
じょおう 826
ひん@@ 826
よけい 826
しゅく 824
はや@@ 824
へんこう 824
きき@@ 823
いまだ 822
かしこい 822
やくわり 822
かえ@@ 820
ウィル 820
ぶた 819
リース 819
かわいそう 818
ぎん 818
みつ 818
よこ@@ 818
よろしい 818
うむ 817
こりゃ 817
いす 816
うわ 816
こうふく 816
せっかく 816
つうじょう 816
きそ 815
けいえい 815
たのみ 815
ヘンリー 815
かかわっ 814
さよう 814
そだて 814
とうじょう 814
マル@@ 814
かさ 813
はち 813
まいとし 813
ねらっ 812
わかもの 812
あいぼう 811
みつから 809
イス 809
テメエ 809
しちょう 808
ふっ 808
きず@@ 807
くさい 807
だいひょう 807
っこう 807
ねんりょう 806
ビン 806
はつめい 805
ひま 805
ひゃく 805
しょうぶ 804
パス 803
〜 802
つづき 802
チャーリー 802
あた@@ 801
くみ@@ 801
わか@@ 801
イト 801
しょうひ 800
てんさい 799
なさ 799
てっ@@ 798
みず@@ 798
ちゅうおう 797
はしっ 797
やっぱ 797
よわい 797
ばっ@@ 796
バック 796
ぎり 795
くだ@@ 795
チャー 795
ずみ 794
ほぼ 794
まなぶ 794
セル 794
TED 793
こわし 793
あたりまえ 791
ししゃ 791
せんし 791
めし 791
ウォーカー 791
ted 790
みつかる 790
いきなり 789
えんそう 789
へんしゅう 789
フン 789
おおぜい 788
せっしょく 788
ノー 788
きんちょう 785
わざわざ 785
ざき 783
すすむ 783
もらおう 783
しんけん 782
ぼうし 782
やす 782
ゆか 782
イル 782
キャンプ 782
ドクター 782
しゅうりょう 781
们@@ 781
がっ@@ 780
ひかく 780
まつり 780
さげ 779
せいか 779
つづい 779
はってん 778
at@@ 777
しんせい 776
さっ@@ 775
しめす 775
でんせつ 774
とっても 774
やすく 773
かくめい 772
つうじ 772
なり@@ 772
ばっかり 772
イド 772
うつ@@ 771
さいせい 771
たんに 771
どんどん 771
ふよう 771
まじめ 771
キン 771
あたい 770
えがお 770
ぎょう@@ 770
すくない 770
ばんぐみ 770
ほうそう 770
おさえ 769
させる 769
つよ 769
マスター 769
デス 768
ヴェ@@ 768
たがっ 767
ィ 767
ション 767
テープ 767
こうちょう 766
えらば 765
くろ@@ 765
このよ 765
はずれ 765
ハウス 765
ラボ 764
19 763
きょねん 763
せいひん 763
でんとう 762
けつ@@ 761
げんだい 761
どん 761
ヌ 761
やす@@ 760
らく@@ 760
カル@@ 760
シャ 760
ソー@@ 760
りょういき 759
ヨーロッパ 759
かえら 757
しろい 757
にんぎょう 757
ホ 757
かす 756
ゆうせん 756
たまご 755
ばく 755
パン@@ 755
?" 754
おど@@ 754
わたっ 754
ゴー@@ 754
ホワイト 754
おくら 753
へいきん 753
たね 752
なげ@@ 752
ようそ 752
あつまっ 750
いがく 749
めん@@ 749
シャツ 749
チップ 749
テーブル 748
バイト 748
モン@@ 748
ひがし 747
もの@@ 747
りん@@ 747
コール 747
ニス 747
ていこう 746
れれ 746
ドー@@ 746
あがる 745
かいぶつ 745
がんばれ 744
こくみん 743
しょうひん 743
たの@@ 743
だらけ 743
ひてい 743
ウス 743
おこす 742
たのま 742
とびら 742
イー@@ 742
ウィン 742
ダウン 742
バリー 742
マッ@@ 742
ひどく 741
やっかい 741
シン 741
トー@@ 741
U@@ 740
はんい 740
きょく@@ 739
ぶんし 739
あらし 738
きそく 737
にげ@@ 737
じゃ@@ 736
つごう 736
ケガ 736
or@@ 735
ぐんたい 735
よろこび 735
ギ 735
ヌ@@ 735
あける 734
わく 734
せいたい 733
たいくつ 733
はね 733
すじ 732
かかわる 731
くう@@ 731
じょうしょう 731
せなか 731
フォード 731
うん@@ 730
かんとく 730
スティ@@ 730
きょうせい 729
しゅっけつ 729
しら@@ 729
おき@@ 728
かなしい 728
がき 728
くわ@@ 728
やれる 728
ガン@@ 728
ころ@@ 727
しる么 727
じぎょう 727
アリ@@ 727
ショック 727
たんなる 726
ながし 726
オープン 726
せめ 725
たいど 725
なき 725
もと@@ 725
もどす 725
えいゆう 724
かいじょう 724
きびしい 724
さいしん 724
はるか 724
おち@@ 723
しりょう 723
ぜ@@ 723
りそう 723
くろい 722
けんか 722
こら 722
エル@@ 722
がつ 721
けつだん 721
こうつう 721
へんじ 721
べい 721
れんぽう 721
ボー@@ 721
おこ@@ 720
こうほ 720
こうりつ 720
じょうし 720
せいぞん 720
f 719
いはん 719
しゅうり 719
じげん 719
きら 718
しゅみ 718
ようやく 718
ケンカ 718
けもの 717
セント 717
V 716
しょうさい 716
うけとっ 715
せいふく 715
つとめ 715
とんでも 715
なな 715
ふみ@@ 715
ぼち 715
ダニー 715
あかんぼう 714
くらべ 714
しかけ 714
たんてい 714
もく@@ 714
スタ 714
きんじょ 713
ざい@@ 713
クビ 712
ペン 712
メキシコ 712
づくり 711
みっ 711
スカイ 711
かくさ 710
スーパー 710
フレ@@ 710
45 709
v 709
うし 709
しんぽ 709
つづく 709
でんし 709
ひく 709
ステージ 709
うばっ 708
げか 708
つかん 708
わな 708
ネズミ 708
ごろ 707
どい 707
のみ@@ 707
ゆびわ 706
ぐん@@ 705
デュ@@ 705
フッ 705
さか@@ 704
つかまえる 704
まちがえ 704
けんせつ 703
しんこく 703
だて 703
バレ 703
ブロック 703
21 702
とくちょう 702
あるく 701
しんだん 701
ダー@@ 701
かじ 700
きし 700
くり@@ 700
ひょうてき 700
べん 700
ダメージ 700
X 699
あらわれる 699
う~ん 699
えんじょ 699
じょ@@ 699
はり 699
まこと 699
くうこう 698
ぱ 698
かぎら 697
かんご 695
ぜんかい 695
つくし 695
ぬき 694
もとめる 694
スカ@@ 694
ブリ@@ 694
とまる 693
びじゅつ 693
ぶそく 693
ゲ 693
ジョージ 693
かど 692
もんく 692
キュ@@ 692
ペット 692
うわっ 691
かし@@ 691
くも 691
さんせい 691
しょうじょう 691
べる 691
トラブル 691
ライ 691
あま@@ 690
パリ 690
しめ@@ 689
まね 689
まる@@ 689
ものごと 689
ひとこと 688
ベン@@ 688
ルート 688
ひょうじ 687
よのなか 687
アリ 687
フロ@@ 687
おかしく 686
ぎむ 686
しかたない 686
せいど 686
とおい 686
デジタル 686
ピー 686
ボーイ 686
うて 685
こうざ 684
ふざけ 684
ゆたか 684
わだい 684
きちんと 683
こうえい 683
むしろ 683
er 682
あんごう 682
ぉ 682
おろし 682
ビー@@ 682
もえ 681
あし@@ 680
げき@@ 680
だせる 680
ちじょう 680
つり 680
よむ 680
きょうき 679
たおれ 679
てきせつ 679
めろ 679
ゆうかん 679
わらい 679
おもいで 678
こうちく 678
しけい 678
しげき 678
たまに 678
ひっし 678
ふこう 678
じま 677
ブル 677
ちゅうし 676
なみだ 676
ok 675
がし 675
どろぼう 675
マス 675
あやまっ 674
あんまり 674
かくりつ 674
くだら 674
っこ 674
なが 674
にげろ 674
もともと 674
パーティ 674
うめ 673
ほうかい 673
ペン@@ 673
はじ 672
ひとじち 672
やく@@ 672
1000 671
じゃく 671
ひらく 671
みかけ 671
アホ 671
かくだい 670
そだっ 670
てはい 670
ぺい 670
れよ 670
うそつき 669
ちゅうもん 668
はくしゅ 668
かいぜん 667
がくしゅう 667
きねん 667
ぜい 667
さんぎょう 666
つくえ 666
ねむっ 666
ねんれい 666
アンナ 666
ヤー 666
なんぜん 665
わん 665
カリフォルニア 665
ディング 665
ドレス 665
うまれる 664
そくど 664
こうてい 663
たいかい 663
たすかっ 663
ちょくめん 663
まき 663
为@@ 663
CIA 662
K 662
そうこ 662
まとめ 662
ケツ 662
スピ@@ 662
バンド 662
うしなわ 661
くわ 661
ふせい 661
れんぞく 661
いのり 660
まれ 660
ため@@ 659
とじこめ 659
200@@ 658
おそわ 658
ちくしょう 658
のぞい 658
はり@@ 657
ほんじつ 657
もたらす 657
じょうず 656
やすん 656
あらわし 655
ッド@@ 655
说@@ 655
いほう 654
ぅ 654
こえる 654
しゃいん 654
ぜんしん 654
ふだん 654
クション 654
ワ 654
ワシントン 654
al@@ 653
うしない 653
ほうてい 653
コピー 653
テロリスト 653
おろか 652
しね 652
たのしかっ 652
とうひょう 652
はこん 652
びっくり 652
ほんにん 651
ょ 651
パソコン 651
cia 650
さか 650
アウト 650
えい@@ 649
っぱ@@ 649
こどく 648
せいとう 648
ただいま 648
ちょうかん 648
はか 648
みゃく 648
んな 648
くい 647
パーセント 647
ベルト 647
マリア 647
おそっ 646
ゆうれい 646
グリーン 646
トラップ 646
ブロ@@ 646
きわめて 645
ぎんが 645
せんりゃく 645
イイ 645
しゅうまつ 644
たしかめ 643
とぶ 643
とりくん 643
のま 643
サイズ 643
かくす 642
きょうきゅう 642
そもそも 642
たんそ 642
やき 642
ヴァン 642
あき@@ 641
デイ@@ 641
ブルー 641
さわ@@ 640
だまさ 640
はっしゃ 640
ようじ 640
じっ@@ 639
てれ 639
はなれる 639
まなび 639
オーケー 639
ナンバー 639
とお@@ 638
アダム 638
グレ@@ 638
かたづけ 637
しかた 637
じっと 637
ちん@@ 637
カッコ 637
an@@ 636
しお 636
りゅうし 636
こまる 635
しゅく@@ 635
キャン@@ 635
トゥ@@ 635
いおう 634
そなえ 634
ちゃく@@ 633
まわる 633
ゴミ 633
ハッ 633
ミン 633
うらぎり 632
ふゆ 632
タクシー 632
こうくう 631
はなそう 631
めずらしい 631
もはや 631
および 630
かんげい 630
きょうそう 630
りゃ 630
ヘイ 630
リンク 630
おうとう 629
ひび 629
ふっ@@ 629
キム 629
グリ@@ 629
スペ@@ 629
ルーム 629
さばく 628
ぬすま 628
ひろい 628
アラ@@ 628
G 627
さむい 627
つい@@ 627
トリック 627
ローズ 627
かしょ 626
かんぱい 625
すげえ 625
ぷく 625
むじつ 625
ゆうこう 625
ごや 624
だつ 624
ひら@@ 624
ストン 624
あっ@@ 623
おうえん 623
なんに 623
ねらい 623
まさ@@ 623
れっしゃ 623
サンプル 623
スターク 623
フォー@@ 623
うわき 622
おくり@@ 622
かいもの 622
きんこ 622
けんりょく 622
ざる 622
ねむれ 622
のど 622
はなっ 622
ばかげ 622
ほうしゃ 622
ッカー 622
18@@ 621
re@@ 621
さわっ 621
ちかづく 621
でろ 621
まつ@@ 621
あけろ 620
たいさく 620
マスク 620
ざっし 619
へえ 619
やとっ 619
ナム 619
あわ@@ 618
きまり 618
くわしく 618
だんたい 618
けつろん 617
こうき 617
せきゆ 617
たま@@ 617
ひる 617
まち@@ 617
めいよ 617
j@@ 616
くっ@@ 616
こころみ 616
おさ@@ 615
ばら 615
グル 615
ナイ 615
くさ 614
まい@@ 614
フル 614
あかり 613
じたく 613
せいぞう 613
まな@@ 613
いちご 612
かそく 612
たてる 612
キャロル 612
タイ 612
かえせ 611
きょうしつ 611
もたらし 611
やきゅう 611
あまい 610
しくみ 610
よく@@ 610
ゲート 610
フフフ 610
すてる 609
だいなし 609
なくなる 609
ふろ 609
らす 609
こだい 608
こっ 608
トル 608
おもいだす 607
ささ@@ 607
しわざ 607
っぽい 607
てだすけ 607
にゅういん 607
せんしゅう 606
とばし 606
ラジオ 606
きせい 605
ぞうか 605
ハッ@@ 605
ぃ 604
うり@@ 604
きのどく 604
しげん 604
ふっかつ 604
ゆうせい 604
わざ 604
アス 604
ナス 604
ホーム 604
H 603
はずかしい 602
ストレス 602
うわ@@ 601
すみ@@ 601
せいり 601
ばい@@ 601
スポーツ 601
おわ 600
さめ 600
しゃくほう 600
ふうふ 600
めざめ 600
かおり 599
げんきん 599
しんせつ 599
つみ@@ 599
ショ@@ 599
スク@@ 599
ユー@@ 599
えんりょ 598
さわる 598
なお@@ 598
まもら 598
ウッド 598
カット 598
プール 598
たいさ 597
ふか 597
まっすぐ 597
ハロルド 597
しょうとつ 596
せいかい 596
こくはく 595
とき@@ 595
とじ 595
みとめる 595
よみ@@ 595
メス 595
なろう 594
はんばい 594
ープ 594
きちょう 593
けんさく 593
こたえる 593
しょうち 593
とまれ 593
ばり 593
もしくは 593
よなか 593
かっこ 592
こうりゅう 592
こんばん 592
すぎ@@ 592
たおし 592
であい 592
よれ 592
コミュニティ 592
いきもの 591
ただしかっ 591
ダーク 591
ポケット 591
u 590
こうしん 590
こんやく 590
れよう 590
カリ@@ 590
ガラス 590
F 589
せつぞく 589
ルー 589
いんちょう 588
ていこく 588
ふくめ 588
おいかけ 587
けいい 587
みぎ@@ 587
ゃ@@ 587
キン@@ 587
パラ@@ 587
プリ@@ 587
うごかし 586
さきほど 586
さびしい 586
みもと 586
よやく 586
れんあい 586
アラン 586
スタン@@ 586
テン 586
デル 586
ポンド 586
してん 585
そんけい 585
スク 585
ドゥ@@ 585
ュ 585
じぜん 584
せいし 584
みな@@ 584
モンド 584
しゃっきん 583
じゅうだい 583
ちほう 583
フィル 583
ベスト 583
しゃべり 582
たっせい 582
とおり@@ 582
とっ@@ 582
リアル 582
ルフ 582
かいしゅう 581
しょくん 581
すごす 581
せんじょう 581
っち 581
ひっこし 581
もく 581
199@@ 580
おどし 580
さくら 580
つくれ 580
みや 580
れき 580
こうけい 579
たよう 579
だそう 579
つうほう 579
どけ 579
なかみ 579
アク@@ 579
アート 579
ブレ@@ 579
かんちがい 578
だいり 578
アナ@@ 578
エク@@ 578
クール 578
ヴ 578
しいん 577
せいじょう 577
てんかい 577
どうじょう 577
ドリ@@ 577
なげ 576
よびだし 576
ダン@@ 576
& 575
いまさら 575
きえる 575
ごぜん 575
つながる 575
カーター 575
トニー 575
ドーム 575
フラン@@ 575
かり@@ 574
すいそく 574
はっしん 574
あお 573
くわしい 573
こきょう 573
さんそ 573
やい 573
アレックス 573
マックス 573
ヴォ@@ 573
ああっ 572
きょうはく 572
ぐう 572
たて@@ 572
たる 572
なぐら 572
ふのう 572
ホー@@ 572
きょうか 571
さいかい 571
イスラム 571
ブス 571
けいこう 570
じこく 570
ちゃくりく 570
やろ 570
スイッチ 570
ダニエル 570
ワクチン 570
おおかみ 569
きゅうりょう 569
つまら 569
きょひ 568
こうがく 568
すり@@ 568
クレア 568
きたない 567
つきあい 567
まら 567
イエス 567
ドライブ 567
マリ@@ 567
おちる 566
ふくろ 566
スタート 566
がみ 565
きづく 565
ねがっ 565
もて 565
もり@@ 565
ワー@@ 565
いっしゅん 564
さわ 564
ビッグ 564
がけ 563
とりもどす 563
ぶち@@ 563
セン@@ 563
テーマ 563
くれれ 562
けんし 562
こっ@@ 562
ささえ 562
しゃべっ 562
キャリー 562
ティング 562
ハート 562
おぉ 561
ちこく 561
はいち 561
アア 561
かちょう 560
なぐっ 560
らん@@ 560
ノン 560
がいねん 559
きんぞく 559
しるし 559
はつでん 559
まだまだ 559
むちゅう 559
マク@@ 559
还@@ 559
こよう 558
ばくは 558
よち 558
ブース 558
うたっ 557
かいてん 557
けいし 557
たのしく 557
とうろく 557
としょ 557
とど@@ 557
バッ@@ 557
ボブ 557
こうへい 556
にちよう 556
ぶひん 556
バーグ 556
くるしん 555
ちかっ 555
ティブ 555
プロセス 555
きゅうけい 554
さり 554
じゅうぎょう 554
だり 554
ていぎ 554
きゅうか 553
けっかん 553
しょき 553
もうし 553
もうし@@ 553
やけ 553
わたる 553
ボタン 553
ボン 553
しまつ 552
はなせる 552
ひき 552
コスト 552
ショーン 552
ポー@@ 552
is@@ 551
あたる 551
かず@@ 551
けす 551
ロイ 551
おくりもの 550
かんよ 550
わざと 550
ウェイ 550
クト 550
サスケ 550
ちいさく 549
なくなり 549
ほっさ 549
z 548
さんぽ 548
にっ@@ 548
インタビュー 548
さよなら 547
そく@@ 547
23 546
かえろう 546
かがみ 546
てんこう 546
めぐ@@ 546
やさしく 546
ピン 546
えいこく 545
らいしゅう 545
いわい 544
さがせ 544
ひんこん 544
id 543
こうぎ 543
のぞ@@ 543
ひよう 543
やくぶつ 543
ノート 543
あるき 542
おびえ 542
こくじん 542
せけん 542
アイス 542
コート 542
チーズ 542
ラム 542
リード 542
かわい 541
ちゅうどく 541
つめたい 541
きょじん 540
じんもん 540
ただしく 540
はくじん 540
こうし 539
しゅうじん 539
むら@@ 539
スタッフ 539
かつ@@ 538
かんどう 538
のべ 538
ひか 538
うっ@@ 537
しょうせつ 537
だか 537
みじかい 537
‐ 536
うたがい 536
したがう 536
せいせき 536
みんかん 536
ヒト 536
いぎ 535
このみ 535
ざいりょう 535
しはらい 535
ただ@@ 535
へんどう 535
ウィルス 535
22 534
z@@ 534
いっさい 534
さいぜん 534
そちら 534
なかよく 534
まんなか 534
よし@@ 534
わた@@ 534
スコ@@ 534
ータ 534
あげよう 533
かよっ 533
なす 533
わたり 533
ジー@@ 533
デー@@ 533
おかしな 532
おそ@@ 532
ぎょ@@ 532
ぜつぼう 532
とりもどし 532
ひくい 532
カル 532
クイーン 532
ディア 532
ポ 532
V@@ 531
きょうかん 531
しゅうかい 531
ちそう 531
つうか 531
まめ 531
ええと 530
がたい 530
しょくば 530
こうたい 529
こっきょう 529
つくれる 529
てえ 529
ほかん 529
400 528
あやしい 528
とれる 528
よゆう 528
00 527
にちじょう 527
はだ 527
エンド 527
x@@ 526
おとずれ 526
でぐち 526
とうこう 526
きみつ 525
ちょうせい 525
のろい 525
イベント 525
カール 525
うめ@@ 524
さっか 524
しきゅう 524
やね 524
カイ 524
シンプル 524
あそ@@ 523
こうじ 523
ごえ 523
じゅんちょう 523
じょうねつ 523
にくい 523
スポ@@ 523
35 522
けいせい 522
つくり@@ 522
あくむ 521
うたがっ 521
うったえ 521
かて 521
くま 521
じゅく 521
てんごく 521
かざ@@ 520
さわぎ 520
しほう 520
たった 520
むかい 520
アッ@@ 520
シティ 520
ラク@@ 520
ワトソン 520
きじゅん 519
きずつける 519
ごうもん 519
しゅさつ 519
そぼ 519
びる 519
ネス 519
かいがん 518
なに@@ 518
はあく 518
ほうしゅう 518
もうそう 518
ナイト 518
ラリー 518
ip@@ 517
しょうき 517
てんき 517
なんじゅう 517
ぱく 517
ひふ 517
ほんしつ 517
めいかく 517
ろうか 517
エレ@@ 517
ゴール 517
あやまる 516
しま@@ 516
すう@@ 516
ろんぶん 516
ターゲット 516
チケット 516
ツール 516
レーション 516
あやまり 515
うばわ 515
こうきょう 515
たおす 515
ちゅうせい 515
ほうどう 515
ジェシー 515
ソウル 515
ダル 515
ッター 515
ーカー 515
もちい 514
ギャング 514
ジュ 514
いりぐち 513
えれ 513
さら@@ 513
ひょうめん 513
よき 513
よぼう 513
ソース 513
ブラ 513
あげろ 512
じこう 512
ちなみ 512
ちゅうがく 512
にゅうしゅ 512
へいさ 512
めつ 512
あんさつ 511
こうど 511
ぼうえい 511
もん@@ 511
ゆそう 511
きんゆう 510
そんしょう 510
でかい 510
ふまん 510
まんが 510
km 509
いしょく 509
うまれ@@ 509
かんたい 509
すくい 509
てつだう 509
はつげん 509
まね@@ 509
ドラ@@ 509
..." 508
だまし 508
ちまう 508
やぶっ 508
タイミング 508
ハンク 508
しめる 507
だち 507
ゃ 507
れいせい 507
セ 507
マジック 507
いちじ 506
しんねん 506
すうひゃく 506
ふくま 506
へんたい 506
みっ@@ 506
シャワー 506
ビア 506
とまり 505
まてよ 505
もうしあげ 505
トミー 505
バル@@ 505
ベ 505
いかし 504
おりる 504
ぎみ 504
こぞう 504
はじめよう 504
いちおう 503
きじょ 503
しゅうい 503
しゅうしゅう 503
すっかり 503
つた@@ 503
いとこ 502
れいじょう 502
ic@@ 501
━ 501
かぶ 501
がいこく 501
きっ@@ 501
ぶそう 501
ゴン 501
...➡ 500
いただく 500
そうび 500
どうこう 500
ひげき 500
ほんらい 500
ナル 500
あじ@@ 499
うり 499
ひとり@@ 499
ほろ@@ 499
ぼし 499
まもれ 499
よべ 499
バトル 499
ロバート 499
かぞえ 498
かま 498
なにごと 498
ィ@@ 498
グラス 498
ゼ 498
デー 498
2000 497
かいがい 497
じめん 497
べん@@ 497
J 496
K@@ 496
くるしみ 496
ろうじん 496
ヴ@@ 496
かいめい 495
じゃっ 495
そこ@@ 495
たいせん 495
てめえ 495
イタリア 495
ミング 495
きふ 494
くらす 494
せいげん 494
せつ@@ 494
おいおい 493
かそう 493
こうけん 493
じかい 493
すな 493
アレ 493
ケン@@ 493
ジン@@ 493
ピザ 493
ワシ 493
= 492
おそ 492
しゃく 492
つめ@@ 492
のみもの 492
むりょう 492
嗎 492
うごけ 491
そふ 491
とみ 491
ほれ 491
ホームズ 491
リア@@ 491
おせん 490
さそっ 490
しり@@ 490
つく@@ 490
どめ 490
よさん 490
りく 490
イラク 490
ヒュー@@ 490
いれ@@ 489
ぎかい 489
じひ 489
まずしい 489
みち@@ 489
フフ 489
うらぎっ 488
せんじつ 488
よけれ 488
オリバー 488
トラ 488
N 487
なんきょく 487
まいり 487
ロケット 487
とどい 486
シャーロック 486
スキャン 486
ハン 486
le@@ 485
うた@@ 485
かいぼう 485
こわかっ 485
すか 485
でんげん 485
とうごう 485
ふしょう 485
ベル@@ 485
说 485
ありがたい 484
うけいれる 484
しょぶん 484
せってい 484
そうご 484
てけ 484
ばいしゅん 484
ぼうけん 484
クリーム 484
シーン 484
ミルク 484
いいわけ 483
うごかす 483
かっか 483
くり 483
こんしゅう 483
さようなら 483
しょうがく 483
みつかり 483
ウン@@ 483
スコット 483
スピーカ 483
トラン@@ 483
リチャード 483
たすう 482
ぶもん 482
ローマ 482
あず@@ 481
ささ 481
ざわ 481
そろっ 481
たいいん 481
つぶし 481
まとも 481
パイロット 481
さいきょう 480
ほっ@@ 480
やがる 480
ろい 480
わい 480
グス 480
ソフト 480
いよう 479
きゅうしゅう 479
しさん 479
ちい 479
っか 479
ふか@@ 479
アナ 479
オラ 479
けよう 478
はしる 478
アーサー 478
シート 478
リオ 478
しゅうせい 477
つち 477
ほうか 477
まきこま 477
やき@@ 477
キレイ 477
あお@@ 476
いんしょう 476
おもいだせ 476
かなしみ 476
けろ 476
さいふ 476
さくせい 476
はじ@@ 476
はんじ 476
やん 476
ようかい 476
U 475
いちいん 475
たけ@@ 475
ったく 475
びき 475
ふじ@@ 475
フト 475
あつかう 474
きんにく 474
そし 474
たすかる 474
ゆうざい 474
よわ@@ 474
ガード 474
ゲイ 474
サンタ 474
en@@ 473
あつまり 473
おとす 473
ぐたい 473
ころしや 473
しんじん 473
すご@@ 473
ずい 473
むじん 473
ゆうし 473
あっか 472
おもいやり 472
くつ@@ 472
ちゅ 472
ついか 472
ほうもん 472
ゆき@@ 472
テル 472
マル 472
メル 472
とおる 471
セン 471
ラー@@ 471
"@@ 470
こんせき 470
ざいさん 470
せっち 470
ぜんりょく 470
でんりょく 470
アフガニスタン 470
クソッ 470
ディーン 470
ボックス 470
かかく 469
しも 469
しゅうへん 469
ゆるせ 469
ra@@ 468
こきゃく 468
そざい 468
ふくすう 468
ぶかい 468
めざし 468
やるき 468
るす 468
タウン 468
on@@ 467
ちょうしょく 467
とうけい 467
むずかしく 467
カス 467
ヘリ 467
ンチ 467
かいじょ 466
かいろ 466
せんこう 466
ばなし 466
ふさわしい 466
ぼれ 466
グラフ 466
えろ 465
かたな 465
がんばり 465
けいかい 465
こうりょ 465
とりだし 465
ふせ 465
へき 465
よこせ 465
わあ 465
アリバイ 465
きゃく@@ 464
けっしょう 464
こうさく 464
りょうし 464
コース 464
スキ@@ 464
リサ 464
あつ@@ 463
たのし 463
だんし 463
のめ 463
まかせろ 463
まき@@ 463
クロ 463
ケット 463
きっかけ 462
ざし 462
しょうげき 462
たより 462
とうぼう 462
なえ 462
ギー 462
ゲン 462
スペイン 462
トレ@@ 462
バイク 462
ブロディ 462
こうこく 461
こうしき 461
しゅぎょう 461
しょくいん 461
そっくり 461
づき 461
とっきょ 461
にぎっ 461
はれ 461
まよっ 461
ベス 461
ラル 461
话 461
おもに 460
だっ@@ 460
はんとし 460
ゥ 460
ボード 460
がくえん 459
きかく 459
こうにゅう 459
なら@@ 459
にがて 459
スター@@ 459
いの@@ 458
じく 458
せっきん 458
ひだり@@ 458
わたせ 458
アナタ 458
ケイ@@ 458
ぼうがい 457
カリ 457
ダム 457
ナン 457
かまい 456
ぶんめい 456
チュー@@ 456
ハハ 456
么 456
あいじょう 455
あかし 455
あきらめる 455
かこく 455
かんきゃく 455
ひざ 455
ひらか 455
ぽ@@ 455
エージェント 455
シング 455
バランス 455
パイ 455
いじめ 454
かんがえ@@ 454
しご 454
しゅざい 454
そしょう 454
アス@@ 454
ライアン 454
ロード 454
いちぞく 453
かっ@@ 453
きんよう 453
ねむり 453
まえ@@ 453
ウィン@@ 453
スケ@@ 453
ピンク 453
リル 453
きがえ 452
くらやみ 452
さわら 452
ぬく 452
ぱつ 452
ひょうじょう 452
―@@ 451
あした 451
あわせる 451
いっか 451
せんにゅう 451
はこぶ 451
アジア 451
フラッシュ 451
ホッ@@ 451
エラ 450
バウアー 450
プレ@@ 450
⦅ 449
がめん 449
しゅっぱん 449
たに 449
たんけん 449
シル@@ 449
リンダ 449
レー 449
かんしょう 448
くい@@ 448
じゅうじ 448
はらい 448
びょうどう 448
ほうせき 448
みや@@ 448
イズ 448
ナイ@@ 448
プレイ 448
ョ@@ 448
ランチ 448
さき@@ 447
しょうちょう 447
じょしゅ 447
すわり 447
ちっ 447
のぼっ 447
ひつじ 447
ぺ@@ 447
ウン 447
ゴー 447
チン 447
かんそく 446
こころあたり 446
ごうかく 446
びじん 446
デッキ 446
メモ 446
ュ@@ 446
ルトン 446
おもしろく 445
くりかえす 445
っつう 445
はいしゅつ 445
まいっ 445
めざ@@ 445
ブログ 445
マーフィー 445
27 444
うか@@ 444
おうこく 444
つかい@@ 444
でんしゃ 444
ひとみ 444
わか 444
カラ@@ 444
スー@@ 444
ーリー 444
いわ@@ 443
うみだし 443
きゅうしゅつ 443
のうじょう 443
はる@@ 443
タン@@ 443
レオ 443
いったん 442
がち 442
きゅうそく 442
とし@@ 442
デザイナー 442
えさ 441
さくねん 441
せれ 441
とりくみ 441
ラッキー 441
⦆ 440
いまごろ 440
かんべん 440
げい 440
ながねん 440
もとづい 440
やくめ 440
ゆえ 440
よごれ 440
アイディア 440
チャールズ 440
プラン 440
プリン@@ 440
かあ 439
こい@@ 439
こっせつ 439
そうり 439
ビーチ 439
くそっ 438
たまたま 438
ほうそく 438
ドン@@ 438
ミサイル 438
かこま 437
ぐっ 437
ぐみ 437
すなお 437
たとえ 437
どうとく 437
まかせる 437
やばい 437
りこ 437
ァ@@ 437
カップ 437
800 436
あつかっ 436
かぶ@@ 436
じょういん 436
とりあげ 436
ひらき 436
!" 435
じつ@@ 435
つくろう 435
はなしあい 435
ジャンプ 435
ビジョン 435
600 434
te@@ 434
いか@@ 434
しょうしょう 434
のれ 434
ふさい 434
らっ 434
ピアノ 434
ルーク 434
1番 433
おそれる 433
くそったれ 433
じぞく 433
てこっ 433
にくたい 433
ひとごろし 433
ゆうしょう 433
あぶ@@ 432
すくわ 432
そっ@@ 432
つげ 432
つっ@@ 432
とおっ 432
はて 432
むける 432
シンクロ 432
パトリック 432
ヒ 432
かたる 431
ちり 431
ぱ@@ 431
ビリー 431
ローン 431
ro@@ 430
うれ 430
かいせき 430
けんげん 430
ぷんかん 430
やし 430
ろくおん 430
ジョーンズ 430
メイン 430
ライフ 430
ID 429
せいしき 429
たしょう 429
つない 429
てってい 429
なつめ 429
ふる 429
ほのお 429
198@@ 428
32 428
w 428
おこさ 428
しゅにん 428
たき 428
とい@@ 428
ばけもの 428
めいはく 428
ウェイン 428
いろ@@ 427
しせい 427
しっかん 427
しゅうふく 427
しんぷ 427
ついきゅう 427
てんじ 427
まける 427
トーク 427
10@@ 426
おのれ 426
きょうわ 426
じゅうみん 426
たいきん 426
ついたち 426
ていしゅつ 426
ひこく 426
エリック 426
チョウ 426
ピー@@ 426
かさ@@ 425
がえ 425
きゅうじょ 425
しか@@ 425
そうしん 425
ながめ 425
のこす 425
さとう 424
しゅほう 424
せめて 424
そい 424
そうじゅう 424
とうたつ 424
ウェブ 424
ジェームズ 424
バル 424
ワールド 424
☎ 423
おんど 423
かち@@ 423
しゅうにゅう 423
セー@@ 423
ミー@@ 423
ユダヤ 423
たけ 422
ュー@@ 422
あふれ 421
きんむ 421
じんしゅ 421
ガイ 421
ミッション 421
ワン@@ 421
こうきゅう 420
さいちゅう 420
しろ@@ 420
なわ 420
ほし@@ 420
めよう 420
ようする 420
セキュリティ 420
バラ 420
プス 420
いよいよ 419
がっき 419
くみあわせ 419
しっと 419
すいみん 419
たいじ 419
はしれ 419
ぴ@@ 419
らさ 419
りょうて 419
クロス 419
ジュリア 419
マリー 419
メアリー 419
ろん@@ 418
ェ 418
エン 418
クライ@@ 418
シカゴ 418
ッグ 418
ニー@@ 418
メイ@@ 418
あやまち 417
いってい 417
うんえい 417
ちょっかん 417
ほぞん 417
みつめ 417
スペース 417
チャン 417
ぐんそう 416
しにがみ 416
しょうしん 416
せいせい 416
へんしん 416
オフ 416
ガソリン 416
サル 416
センサー 416
メガネ 416
あそぶ 415
うつし 415
うみだす 415
うんざり 415
かじょう 415
かんちょう 415
さいわい 415
ししょう 415
じまん 415
でんごん 415
なお 415
ふういん 415
ほめ 415
グローバル 415
ジミー 415
デン@@ 415
フィン 415
at 414
えがく 414
しゅくだい 414
しゅとく 414
そくてい 414
だんがん 414
はしら 414
はめ 414
みすて 414
みせ@@ 414
バコ 414
プライ@@ 414
2,3 413
しゃざい 413
とわ 413
むれ 413
イラン 413
ドラッグ 413
ユニット 413
; 412
きょうぎ 412
さけび 412
しゅうかく 412
とっく 412
ほく@@ 412
やわら@@ 412
ァ 412
ソール 412
トンネル 412
フィー 412
ヨン 412
あらそい 411
しょうじ 411
ぜつめつ 411
みはっ 411
キャプテン 411
ジェダイ 411
ベー@@ 411
ムリ 411
うるせえ 410
しゅっさん 410
たいざい 410
どくりつ 410
ならん 410
ぬすむ 410
もれ 410
エイリアン 410
ニュー 410
ブリッジ 410
メン 410
レース 410
过@@ 410
ぎん@@ 409
こうひょう 409
たお@@ 409
ておくれ 409
てつだ@@ 409
とどく 409
ネル 409
ハッピー 409
かいとう 408
きずな 408
けいほう 408
たいりく 408
でかける 408
でんち 408
とうそう 408
ひる@@ 408
ひろっ 408
りゃく 408
ディー@@ 408
ぐんじ 407
たいじゅう 407
とうちょう 407
どうが 407
どよう 407
エレベーター 407
ヘル@@ 407
J@@ 406
いぞん 406
すく@@ 406
せつりつ 406
そげき 406
つきとめ 406
ばれ 406
フリー 406
さらさ 405
しゅうげき 405
だいじん 405
つな@@ 405
はたし 405
ぶんり 405
よういん 405
エリア 405
スタイル 405
くつう 404
しょちょう 404
ちてん 404
とび 404
ふい 404
よげん 404
コロ@@ 404
5千 403
いたっ 403
たんご 403
ひろげ 403
ショット 403
チャクラ 403
うばう 402
おいし 402
おくじょう 402
かせつ 402
きづ@@ 402
こんぽん 402
たいてい 402
だま 402
はいたつ 402
イラ 402
ケー@@ 402
おもいださ 401
かめん 401
ぐれ 401
けむり 401
ふしん 401
もよう 401
よわ 401
ジェイ 401
ジェイ@@ 401
ナンバーズ 401
ブラジル 401
おとなしく 400
かいどく 400
さけん 400
しっそう 400
ちょうほう 400
なぐ@@ 400
ちょく@@ 399
つづ@@ 399
づかい 399
ようご 399
这 399
げんかく 398
すうせん 398
せいやく 398
たび@@ 398
ちょくぜん 398
わらう 398
アドバイス 398
カップル 398
ジャン@@ 398
j 397
おどり 397
かいそう 397
ごうせい 397
しんたい 397
にせもの 397
ほうき 397
キッチン 397
ケン 397
ムダ 397
ムーン 397
ロウ 397
ing 396
おふくろ 396
かいぞく 396
けんしょう 396
しほん 396
つくりだし 396
マネ 396
ワード 396
あたらしく 395
かぶっ 395
くせい 395
しょうばい 395
ぷ 395
エレン 395
トロン 395
ぎしき 394
こうがい 394
さす 394
しょめい 394
せまっ 394
ma@@ 393
いきのこる 393
しゅうよう 393
じゅよう 393
せいねん 393
オリビア 393
キャリア 393
75 392
いま@@ 392
うる@@ 392
こんきょ 392
しょうてん 392
ぞうき 392
なやん 392
はけん 392
やさい 392
スピーチ 392
ドロ@@ 392
あせ 391
かんがえろ 391
しょうめん 391
ちてき 391
ぺん 391
わたさ 391
ドロー 391
フード 391
いや@@ 390
けんしゅつ 390
たあ 390
のりこえ 390
ばく@@ 390
ばっか 390
エイミー 390
チョコレート 390
ドー 390
いしょう 389
さっそく 389
しんしつ 389
すすみ 389
たいない 389
つぶ@@ 389
はなしかけ 389
ぼり 389
わらわ 389
オペ 389
ケイト 389
いら@@ 388
がっしゅう 388
ことわり 388
しゅうごう 388
ひろがっ 388
もちぬし 388
アイ 388
ジェイソン 388
リズボン 388
ロット 388
对@@ 388
いっしゅ 387
かせぎ 387
せっしゅ 387
てんか 387
はいご 387
ou@@ 386
こうはん 386
すば@@ 386
てんちょう 386
ゆるす 386
サウ@@ 386
ネーム 386
ベリー 386
el@@ 385
on 385
あたたかい 385
こわ@@ 385
のっ@@ 385
みのがし 385
めちゃくちゃ 385
セイ 385
パイ@@ 385
フフッ 385
ムズ 385
うわぁ 384
えんぎ 384
おっ@@ 384
こじ 384
さいげん 384
しゃりょう 384
しんし 384
てぇ 384
はしり 384
よろこぶ 384
ジョニー 384
フリ 384
プル 384
it 383
あらい 383
かよう 383
ぎゃくたい 383
のぼる 383
ばっ 383
ガイ@@ 383
ハンター 383
Y@@ 382
cm 382
あらっ 382
とばす 382
にょうぼう 382
ねらわ 382
ふたご 382
スライド 382
あちこち 381
おどろか 381
おもえる 381
がいこう 381
さいしゅ 381
はんめい 381
びと 381
ステキ 381
ダイヤ 381
ドウ 381
ブランド 381
ヨー@@ 381
28 380
it@@ 380
おす 380
つぐ@@ 380
つっ 380
ねだん 380
やっ@@ 380
ギリシャ 380
クイン 380
サイ 380
パンチ 380
de@@ 379
たいい 379
たけれ 379
にい 379
ねがう 379
ねむ@@ 379
ひろ 379
インター@@ 379
カワイイ 379
キシ@@ 379
トッド 379
ユニ@@ 379
ヨ 379
えんご 378
かぎ@@ 378
すなわち 378
ふうん 378
めんきょ 378
ゆる@@ 378
コナー 378
スタン 378
ソフトウェア 378
パンツ 378
えらび 377
かいしゃく 377
され 377
ただちに 377
はっこう 377
はめつ 377
センス 377
ホット 377
メイ 377
かさね 376
たいこう 376
てきとう 376
のび 376
ひょうばん 376
ゲノム 376
ゴメン 376
シスター 376
ジェット 376
ボストン 376
いのっ 375
くださっ 375
しつぼう 375
しんせん 375
のばし 375
ひにく 375
ぼうこう 375
コーン 375
ハリー 375
バード 375
千 375
いやあ 374
かかわり 374
きゅうけつ 374
げんじょう 374
すり 374
とくめい 374
はち@@ 374
はば 374
めいじ 374
チョコ 374
ビックリ 374
リアン 374
150 373
26 373
いやいや 373
こうほう 373
そうそう 373
たす@@ 373
どうさ 373
ぬけ@@ 373
はいじょ 373
ま~す 373
ゾーイ 373
トレー@@ 373
ピッコロ 373
ラブ 373
レイチェル 373
レブ 373
いんさつ 372
うかがい 372
およ@@ 372
さどう 372
さま@@ 372
しんてん 372
ぬける 372
のうぎょう 372
ぴん 372
ふれる 372
スティーブ 372
ランス 372
おくれる 371
さける 371
さべつ 371
しき@@ 371
すえ 371
ちっ@@ 371
ついやし 371
とつにゅう 371
キー@@ 371
ジョン@@ 371
ハード 371
ヒル 371
かたい 370
かつよう 370
なめ 370
はいき 370
ぱん 370
ケビン 370
セクシー 370
ハム 370
ピ 370
ブー@@ 370
as@@ 369
おもいつい 369
きずつい 369
くにぐに 369
げんち 369
せいてき 369
とうめい 369
はだか 369
はっぽう 369
イエ@@ 369
ドロイド 369
ベイビー 369
リュ@@ 369
あわれ 368
おろせ 368
がいしゅつ 368
きしょう 368
けんかい 368
つら 368
てったい 368
はこば 368
ぶったい 368
ハラ 368
ロープ 368
么@@ 368
いたく 367
じゅうりょく 367
ましい 367
アンド@@ 367
レッ@@ 367
くろさき 366
けんさつ 366
でき@@ 366
ゴードン 366
ハッキング 366
うず@@ 365
きらわ 365
げんかん 365
こくれん 365
しょうさん 365
ぜんこく 365
そだち 365
ちせい 365
エディ 365
ビット 365
かてる 364
ざま 364
だいち 364
はなれろ 364
ひしょ 364
オイ 364
ショウ 364
ジェイコブ 364
ジュース 364
タス 364
ビショップ 364
ヘン 364
マネ@@ 364
レポート 364
おも 363
かいぞう 363
ぜつ 363
てつづき 363
ぴつ 363
へた 363
ほり@@ 363
めれ 363
もらわ 363
カム 363
キリスト 363
セリフ 363
トーマス 363
ルイス 363
ルド@@ 363
おうよう 362
おか@@ 362
おくびょう 362
さいよう 362
してき 362
せいしょ 362
はき 362
ふだ 362
ふっき 362
よそ@@ 362
エア 362
ディス 362
メイド 362
うちがわ 361
てんかん 361
にせ 361
ぶちょう 361
アンディ 361
ライダー 361
リーナ 361
いただける 360
かんそう 360
こわす 360
そうかん 360
でんせん 360
とくせい 360
まいばん 360
やくだつ 360
カレン 360
クル 360
コーチ 360
チャンピオン 360
モア 360
いわゆる 359
おきろ 359
ぎゃくさつ 359
こくない 359
すっ@@ 359
そんちょう 359
ちょうこう 359
はげしい 359
むざい 359
スラー 359
ドラマ 359
ミラー 359
えいぎょう 358
げんそく 358
じゅしん 358
ちょうき 358
ともかく 358
べんとう 358
ウェル 358
ウォール 358
クロウ 358
サッカー 358
シェル 358
ホン 358
いずみ 357
じゅうげき 357
せいきゅう 357
とめよう 357
のば@@ 357
リラックス 357
さがれ 356
じょうしき 356
たいはん 356
ちのう 356
つくりだす 356
とらえる 356
どくじ 356
むげん 356
ようけん 356
れいぞう 356
キラー 356
ハッカー 356
ボン@@ 356
マウス 356
ローレル 356
om@@ 355
あすま 355
あび 355
いきのこっ 355
うたう 355
えいよう 355
えつ 355
ぶんしょ 355
アド@@ 355
クモ 355
29 354
あらわす 354
せんたん 354
はくぶつ 354
クマ 354
パスワード 354
ブライ@@ 354
プラスチック 354
いそが 353
けつあつ 353
こだ@@ 353
しゃべる 353
つん 353
はたけ 353
はんえい 353
へんい 353
サイモン 353
リズ 353
ルター 353
いさん 352
うらみ 352
ぎし 352
どうみゃく 352
ひげ 352
ひょっと 352
コラ 352
スパー 352
ハニー 352
ペンギン 352
es 351
うご@@ 351
おうしゅう 351
かおる 351
かね@@ 351
かんこく 351
こしょう 351
しゅうこれ 351
じんぞう 351
たべ@@ 351
はた 351
もどせ 351
カイル 351
チキン 351
ドラ 351
マイ 351
NY 350
うたがわ 350
かいこ 350
じゅもん 350
もうけ 350
ゆうごう 350
アリス 350
オル 350
カナダ 350
ゲイル 350
スティン 350
ドナー 350
ビング 350
ヘ 350
うわあ 349
えらい 349
かたっ 349
かるい 349
ここだ 349
しょち 349
すてろ 349
せんすい 349
そそ@@ 349
たすけよう 349
ちえ 349
ったら 349
とじ@@ 349
ながす 349
へぇ 349
もったい 349
ゆうべ 349
れいがい 349
アマンダ 349
グラム 349
フィート 349
ブック 349
st@@ 348
じゅんすい 348
せつだん 348
なう 348
カレー 348
ココ 348
ミッ@@ 348
リバー 348
あつめる 347
いっき 347
きつ@@ 347
しんせき 347
すすめる 347
とうきょく 347
ぴ 347
みそ 347
ゆうり 347
より@@ 347
りゅうこう 347
クロエ 347
ジャ 347
タリー 347
ピア 347
48 346
おきざり 346
おっしゃっ 346
おどっ 346
おの 346
がえし 346
がんばる 346
こうしゅう 346
しゅび 346
せいじん 346
でよう 346
とりくむ 346
ひきうけ 346
びこう 346
もてる 346
サイド 346
スキル 346
ストーリー 346
ロール 346
过 346
book 345
さがさ 345
せいしつ 345
ちかう 345
もりやま 345
りんり 345
アーロン 345
クズ 345
ストリ@@ 345
タンパク 345
ヘヘ 345
ベイ 345
レーザー 345
〟 344
かいてき 344
かんしき 344
がれ 344
きゅうめい 344
さがし@@ 344
ささげ 344
つくりあげ 344
てつがく 344
にし@@ 344
ぬま 344
ばいしん 344
ゆかい 344
ウル 344
カイ@@ 344
ゴルフ 344
シーズン 344
ゾーン 344
フェイス 344
フェンス 344
リズム 344
"? 343
、@@ 343
ぐんじん 343
しっこう 343
ひろう 343
みせろ 343
むく 343
アタシ 343
デルタ 343
ワー 343
さくらぎ 342
さけ@@ 342
でばん 342
でんぱ 342
めんせつ 342
シャー@@ 342
スカ 342
ニューロン 342
いそがしく 341
こくおう 341
しん么 341
たっし 341
つけ@@ 341
ていか 341
とまら 341
どなた 341
イスラエル 341
エド 341
ヴァ 341
GPS 340
いた 340
ことわる 340
しゅうしょく 340
みだし 340
サメ 340
トリー 340
ベース 340
レイプ 340
レム 340
いきさき 339
いんも 339
うれしかっ 339
かくとく 339
かくり 339
なづけ 339
ひきおこし 339
ひろし 339
ふうさ 339
ますい 339
やせ 339
りんしょう 339
オーストラリア 339
サーバー 339
チー 339
レスター 339
99 338
あいさ 338
いなか 338
いのる 338
おもしろ 338
おもちゃ 338
こもり 338
ごうほう 338
せえ 338
てらっしゃい 338
ばいばい 338
ふせぐ 338
まぬけ 338
むす@@ 338
アニ@@ 338
コミュニケーション 338
スプ@@ 338
ドリー 338
ラップ 338
くさり 337
くらえ 337
しょくぎょう 337
しんりん 337
じゃくてん 337
ぜい@@ 337
とろう 337
ないしょ 337
ぼうだい 337
ドライバー 337
gps 336
you 336
あつく 336
ありゃ 336
うれしく 336
くず@@ 336
こくはつ 336
としより 336
どうくつ 336
にげだし 336
ねっ@@ 336
コフ 336
サンフランシスコ 336
シャー 336
バッテリー 336
モリー 336
时@@ 336
がね 335
げんこう 335
ことわっ 335
しょうぼう 335
じょうきゃく 335
つばさ 335
てきおう 335
てじょう 335
にげよう 335
にゅうがく 335
にんずう 335
ぴったり 335
よさ 335
クッキー 335
ネルソン 335
バラバラ 335
th@@ 334
およそ 334
きたく 334
しのび 334
じょげん 334
せんげん 334
たから 334
てんけい 334
ハル 334
バター 334
プライバシー 334
あいず 333
かたがた 333
げんり 333
こうち 333
じみ 333
だんじょ 333
なま@@ 333
まじゅつ 333
みた@@ 333
クリア 333
ジェン@@ 333
ジョー@@ 333
タンク 333
おちつく 332
くるしい 332
しの@@ 332
しゅっせき 332
じんかく 332
せいそう 332
とつ 332
ぶっ 332
やがて 332
カギ 332
ヒット 332
ブルース 332
ホープ 332
えもの 331
おんせい 331
かなえ 331
かんきん 331
しょうこう 331
なおっ 331
のこ@@ 331
クー@@ 331
デル@@ 331
ヒント 331
うろ@@ 330
けんしゅう 330
しょうか 330
つる@@ 330
なき@@ 330
のぼり 330
はらえ 330
ひそ@@ 330
ようじん 330
ウェブサイト 330
カバー 330
モル@@ 330
ロッ@@ 330
ロン@@ 330
あと@@ 329
かいよう 329
きょうりゅう 329
この@@ 329
しょけい 329
じっせん 329
すうじゅう 329
ちゅうしょく 329
にゅうりょく 329
ふつ 329
クラウ@@ 329
ザック 329
ゼル 329
デモ 329
パーク 329
ヘイ@@ 329
リリー 329
ンク 329
あつりょく 328
あみ 328
けいぞく 328
しゅしょう 328
どうにゅう 328
ほんのう 328
グレース 328
レル 328
ir@@ 327
いし@@ 327
じゃぁ 327
そだてる 327
ちょくご 327
てんじょう 327
ねらう 327
カネ 327
ブン 327
ログ 327
 327
5000 326
かない 326
ずる 326
とべ 326
みうしなっ 326
やせい 326
ゆく 326
んじ 326
カウンター 326
ドク 326
ユ 326
おなじく 325
ごえい 325
せいけい 325
たべよう 325
ちゅうこく 325
オリバ 325
セル@@ 325
リーン 325
HIV 324
きば 324
しょうしゃ 324
ちつじょ 324
づい 324
とうだい 324
とじょう 324
オス 324
オレンジ 324
ボランティア 324
ロビー 324
ヴィン 324
あっとう 323
しさく 323
すわる 323
せいそく 323
っきり 323
どろ 323
もやし 323
ゆうじょう 323
らいねん 323
ツイ@@ 323
デレク 323
マグ@@ 323
百 323
ac@@ 322
いんたい 322
ごうり 322
さくげん 322
ずつう 322
はた@@ 322
ひきだし 322
ふと 322
やがれ 322
スープ 322
ファー@@ 322
マギー 322
けしき 321
しらべ@@ 321
じへい 321
すりゃ 321
とげ 321
はんぎゃく 321
へんかく 321
ほくぶ 321
ウエ@@ 321
トリ 321
パニック 321
モリ 321
かいひ 320
かこう 320
きらっ 320
こうれい 320
しょっ@@ 320
だいしょう 320
つま@@ 320
ぱい 320
ふえる 320
ぶい 320
まず@@ 320
みき 320
よら 320
らみ 320
アカ@@ 320
グランド 320
ネタ 320
ヒョ@@ 320
さいてき 319
しかい 319
ろんり 319
コア 319
タワー 319
ヘッ 319
メーカー 319
うう 318
きゅうきょく 318
こてい 318
ふし 318
カッ@@ 318
ビュー 318
ピート 318
ベイ@@ 318
am@@ 317
かんぞう 317
きれる 317
こうそう 317
じゅうたく 317
せいけん 317
ちら@@ 317
ひこ 317
ひつ@@ 317
ふんいき 317
まみれ 317
わかく 317
ショップ 317
ス・@@ 317
トン@@ 317
ハハ@@ 317
マンション 317
おさめ 316
かたまり 316
きいろ 316
ざんこく 316
しまえ 316
しゅうは 316
せつやく 316
はったつ 316
ぼうや 316
みぶん 316
アプリ 316
エリザベス 316
ォ 316
ソー 316
バス@@ 316
ポリ@@ 316
あば@@ 315
いな 315
そうぎ 315
たたかわ 315
だいぶ 315
ちん 315
どる 315
はこ@@ 315
ひだりがわ 315
ぶんかい 315
みょう@@ 315
アム 315
ギター 315
グラ 315
ジュニア 315
ダース 315
チリ 315
いそぎ 314
うみ@@ 314
おおげさ 314
くれ@@ 314
げつよう 314
しょほう 314
たき@@ 314
たずねる 314
はなし@@ 314
はなび 314
みぎがわ 314
エンジニア 314
シップ 314
シロ 314
チン@@ 314
パート 314
ヴァンパイア 314
えがき 313
きょうはん 313
くさっ 313
こたえろ 313
しにん 313
しょくひん 313
たな 313
ついらく 313
とうよ 313
とば 313
ぬすみ 313
はらわ 313
ばめん 313
ひけん 313
ひろがり 313
もどろう 313
アドレス 313
エミリー 313
テー@@ 313
マンス 313
es@@ 312
is 312
かんてい 312
こな 312
すくえる 312
てんねん 312
ふほう 312
ほうしん 312
ティー@@ 312
テッド 312
ライブ 312
hiv 311
がっかり 311
くらく 311
はいけい 311
ひはん 311
むき@@ 311
やりとり 311
セーラー 311
フリー@@ 311
ブルー@@ 311
ボロ 311
ミュ@@ 311
2千 310
いそぐ 310
くわえる 310
しんそう 310
じゃあく 310
そなた 310
たいしょく 310
っつっ 310
でいり 310
どうせい 310
ひょうじゅん 310
ふきん 310
みちびい 310
アタック 310
クレジット 310
クローン 310
タマ 310
データベース 310
パキスタン 310
ビン@@ 310
ラニスター 310
いかれ 309
いつ@@ 309
うつくしく 309
さかの@@ 309
しみ 309
しゅくふく 309
たのしむ 309
どき 309
アルゴリズム 309
ブリー 309
モニター 309
ルク 309
さくばん 308
ずがい 308
たくらん 308
ひっぱ@@ 308
ゃく@@ 308
クト@@ 308
ジーン 308
ストーン 308
go 307
がいぶ 307
くん@@ 307
さんこう 307
すべ@@ 307
たくみ 307
たたく 307
つづけろ 307
ていさつ 307
まもろう 307
めんえき 307
よろ@@ 307
らい@@ 307
エジプト 307
ケア 307
サイバー 307
シールド 307
デバイス 307
いきのび 306
しゅん 306
しょとく 306
すず@@ 306
とりしらべ 306
にが@@ 306
ねむる 306
みさき 306
むすび@@ 306
ウサギ 306
チッ 306
テキサス 306
マット 306
ロング 306
这样 306
かみがみ 305
くび@@ 305
こうぎょう 305
さかい 305
しばい 305
せんざい 305
そうてい 305
ちょうしゅう 305
どうさん 305
はげ@@ 305
ふせろ 305
ゆえん 305
りか 305
イル@@ 305
サマリア 305
ジョーク 305
47 304
le 304
かいかく 304
かたほう 304
けよ 304
じか 304
すいてい 304
でっ@@ 304
なく@@ 304
にんち 304
みちびく 304
アプローチ 304
コル@@ 304
シス 304
ジャマ 304
パズル 304
ミン@@ 304
いちれん 303
いらっしゃる 303
うえ@@ 303
たどり@@ 303
なやみ 303
ぶし 303
べんり 303
みなと 303
エリカ 303
シグ@@ 303
シュート 303
マスコミ 303
ミュージ@@ 303
いんぼう 302
うさぎ 302
おかす 302
ねっしん 302
ひとめ 302
ふるえ 302
へび 302
ゴルゴ 302
ブラウン 302
ベジータ 302
ボル@@ 302
あしあと 301
いきの@@ 301
せいりつ 301
せんげつ 301
たすけ@@ 301
へんかん 301
ゆうびん 301
サポート 301
ドッグ 301
ボー 301
ミニ@@ 301
ョ 301
あけ@@ 300
かえさ 300
かしこく 300
こてん 300
さまし 300
すわれ 300
そくめん 300
ぞく@@ 300
だぁ 300
まじ@@ 300
もうしで 300
わび 300
バット 300
ブロー@@ 300
モード 300
さがら 299
まぼろし 299
アレ@@ 299
キサマ 299
ミット 299
65 298
うたがう 298
かんてん 298
ぎょ 298
ぎわ 298
けっ 298
じゅんさ 298
じらい 298
すばやく 298
ぶじょく 298
やめよう 298
イノベーション 298
ストリート 298
ブタ 298
マーカス 298
ヤン 298
えいきゅう 297
きせつ 297
たっぷり 297
どうめい 297
にがし 297
サイクル 297
ノア 297
ライオン 297
oo@@ 296
あわて 296
かの@@ 296
ちが@@ 296
ひろく 296
ぶんるい 296
まいしゅう 296
みょうじ 296
めった 296
やむ 296
エリ@@ 296
オリ@@ 296
ジャン 296
ジュン 296
タグ 296
话@@ 296
あずけ 295
あせ@@ 295
かみなり 295
しかん 295
しんどう 295
どくしん 295
はば@@ 295
みのる 295
イツ 295
ウイ@@ 295
トル@@ 295
ハーバード 295
ルーシー 295
おさない 294
ぎる 294
こないだ 294
なつかしい 294
はんしゃ 294
ようち 294
よめる 294
アニメ 294
アンド 294
キット 294
スマン 294
Z 293
うつる 293
おそかっ 293
かいきゅう 293
かいにん 293
があ 293
ささい 293
じれい 293
せんよう 293
てじゅん 293
のぼ@@ 293
はいれつ 293
みい@@ 293
わき 293
カカシ 293
キッド 293
ステップ 293
ディスク 293
フレンド 293
觉@@ 293
かから 292
かご 292
さゆう 292
しょうさ 292
せっかい 292
っぱなし 292
つぐ 292
なた 292
はんらん 292
ほうい 292
まひ 292
もた@@ 292
よかん 292
イライラ 292
タダ 292
ニャ@@ 292
PC 291
ol@@ 291
あらい@@ 291
おやこ 291
かるく 291
きばん 291
ざひょう 291
せまい 291
とりしまり 291
なつやすみ 291
ひきがね 291
ぼうぎょ 291
むよう 291
わる@@ 291
イヤ@@ 291
ソーシャル 291
バッジ 291
ベラ 291
ヤマト 291
レア 291
レクター 291
ーション 291
あこがれ 290
おぼ@@ 290
かくれが 290
きゅうせい 290
ぐい 290
げきじょう 290
せめる 290
せんい 290
そっちょく 290
そんしつ 290
たしかめる 290
ていじ 290
ぼっ@@ 290
オーナー 290
カタ@@ 290
メニュー 290
レナ 290
36 289
かえよう 289
かっせい 289
こっそり 289
ごみ 289
さむ 289
のこら 289
やぶる 289
れんこう 289
エド@@ 289
オーバーレイ 289
ケーブル 289
コイン 289
ジア 289
CBI 288
かせき 288
げつ 288
ぬれ 288
めんかい 288
スン 288
プレー 288
レンジ 288
おいつめ 287
おんだん 287
きょうぼう 287
こくふく 287
こくりつ 287
たんさく 287
とうぶ 287
まあまあ 287
みんぞく 287
やしき 287
クリン 287
スイ@@ 287
フィー@@ 287
这こ 287
hi@@ 286
うつくし 286
きぐ 286
ぎゃく@@ 286
ぎれ 286
さが@@ 286
づく 286
どん@@ 286
なおる 286
べえ 286
よぉ 286
よご@@ 286
コレ 286
トランク 286
ベット 286
說@@ 286
えんじ 285
かんち 285
きんがく 285
くじ 285
しゅつ@@ 285
すっごく 285
ぜいきん 285
とらわれ 285
みつい 285
もて@@ 285
ジェリー 285
バリ@@ 285
モーガン 285
pc 284
あがれ 284
おっしゃる 284
かいせん 284
けいろ 284
けっしん 284
ごうい 284
さがそう 284
すいしん 284
たたい 284
たちあげ 284
たみ 284
だいたん 284
とら@@ 284
のがれ 284
のぶ@@ 284
ほりょ 284
アニー 284
ケリー 284
コツ 284
コメント 284
ストーカー 284
ブライアン 284
あぶら 283
かいけい 283
かいへい 283
かくど 283
かろう 283
すくえ 283
キュー@@ 283
ズム 283
ダグ 283
チェン 283
テレ@@ 283
 283
おおっ 282
おび@@ 282
けつごう 282
しんりょう 282
じゅみょう 282
せんでん 282
ちたい 282
つかめ 282
つけよう 282
づか 282
にっき 282
ひがし@@ 282
ぼうえん 282
ぼくし 282
シュー@@ 282
スイーツ 282
スミス 282
ニキータ 282
ノック 282
バリ 282
ミック 282
ラウ@@ 282
あまみや 281
げきてき 281
さいりょう 281
さから@@ 281
しょこく 281
じっか 281
だいきらい 281
だんだん 281
ちょっ@@ 281
めざす 281
アリア 281
イク 281
イーサン 281
リンゴ 281
DC 280
あざ@@ 280
けんじゅう 280
しゅぞく 280
すうち 280
すず 280
たがる 280
だつごく 280
とおざ@@ 280
ならび 280
ほんやく 280
めいし 280
りれき 280
ェ@@ 280
テア 280
プライド 280
们 280
いきおい 279
えきたい 279
かせ@@ 279
こま@@ 279
さいけん 279
せいじつ 279
たいら 279
はたらか 279
むち 279
ゆみ 279
わらい@@ 279
キング@@ 279
グリー@@ 279
ハンナ 279
ピク@@ 279
マイクロ 279
マーティン 279
ミネ@@ 279
42 278
あくまで 278
かんこう 278
くるしむ 278
さた 278
しっぽ 278
じりつ 278
せつび 278
せんじゅつ 278
とどか 278
のうか 278
はんけつ 278
ばし 278
ひで@@ 278
ひも 278
みやげ 278
みやこ 278
ゆうわく 278
われ@@ 278
オッ@@ 278
ハエ 278
ファック 278
フロリダ 278
ブラン@@ 278
hone 277
かわい@@ 277
くだし 277
ていき 277
なくっ 277
なず@@ 277
にあっ 277
はかる 277
ひさん 277
ぼうはん 277
まう 277
わけ@@ 277
クルー 277
サンキュー 277
スーザン 277
チビ 277
ハリ@@ 277
ユー 277
un@@ 276
たんい 276
つぎつぎ 276
てくび 276
てんそう 276
ぬす@@ 276
ほんみょう 276
ぼく@@ 276
アウ@@ 276
トゥー 276
トマト 276
ドール 276
バクテリア 276
ュー 276
あかるい 275
あたら 275
おとさ 275
きこみ 275
けつまつ 275
じゅうらい 275
じょうむ 275
たっ@@ 275
ととの@@ 275
ひけ 275
ガル 275
ディナー 275
マンガ 275
ロボ 275
la@@ 274
あああ 274
うらやましい 274
かがやく 274
しょうごう 274
しょうすう 274
じゅうにん 274
たし 274
たれ 274
はしり@@ 274
まさと 274
やまい 274
りんじん 274
グレン 274
サイヤ 274
ストラ@@ 274
ッパー 274
パイプ 274
プライベート 274
プレーヤー 274
ボトル 274
かえれる 273
かがやき 273
さいとう 273
しんじろ 273
ずか@@ 273
せんしゃ 273
とっとと 273
のぞま 273
はで 273
ふりょう 273
まわす 273
インフルエンザ 273
ッシャー 273
ナー@@ 273
ハンニバル 273
メリー 273
no@@ 272
うらない 272
えど 272
えらべ 272
したぎ 272
しんわ 272
じっし 272
じんたい 272
ちょうたつ 272
っかん 272
とうとう 272
はずす 272
みの@@ 272
みまい 272
よろこ@@ 272
ク・@@ 272
サンドイッチ 272
スタンド 272
タイトル 272
ダブル 272
チャイ@@ 272
ニン@@ 272
ニール 272
バイオ 272
cbi 271
いいき@@ 271
おおごえ 271
かいけん 271
かたり@@ 271
しょとう 271
じめ 271
のがし 271
ひきおこす 271
まする 271
まわ@@ 271
もどれる 271
ウィルソン 271
ヒッ@@ 271
ec@@ 270
ぁ@@ 270
あゆ@@ 270
あらそっ 270
いっそう 270
かくれる 270
こうとう 270
じんけん 270
そうしき 270
ちんもく 270
どうぜん 270
ひょうし 270
ふら 270
もくし 270
よみが@@ 270
わぁ 270
わず@@ 270
アキ 270
マラリア 270
di@@ 269
→ 269
かたく 269
かみのけ 269
からかっ 269
しんさつ 269
しんぴ 269
にて 269
めぐまれ 269
ようしゃ 269
キンス 269
シャン@@ 269
スクリーン 269
ネコ 269
ポン 269
あいじん 268
おおもの 268
おさえる 268
おや@@ 268
げい@@ 268
せいしょく 268
つる 268
ならべ 268
はじめまして 268
ふとっ 268
ぺ 268
アマ@@ 268
ウォリアー 268
ジャーナリスト 268
スティー@@ 268
スル 268
ズボン 268
タイヤ 268
フェア 268
3000 267
700 267
うりあげ 267
さっぱり 267
しょくもつ 267
じしゅ 267
じゃう 267
たず@@ 267
つまん 267
はえ 267
クーパー 267
センチ 267
ダラ 267
トレーニング 267
witter 266
あくにん 266
あては@@ 266
えが@@ 266
かおう 266
ったい 266
ついで 266
つくす 266
なおせ 266
なしとげ 266
ねつ@@ 266
ふはい 266
よま 266
イェ@@ 266
バーン 266
マイナス 266
为 266
あるけ 265
うけとる 265
かなう 265
けっちゃく 265
ちけん 265
ちめい 265
つかまる 265
とどける 265
はっそう 265
ばる 265
めがね 265
ものすごく 265
ょく 265
りっ@@ 265
アルファ 265
オタク 265
パスポート 265
31 264
いかなる 264
きょうちょう 264
しがい 264
しゅっちょう 264
ともなう 264
ぬっ 264
まどか 264
やさし 264
よくじつ 264
シャン 264
スチ@@ 264
ファッション 264
ペル@@ 264
ボラ 264
メル@@ 264
37 263
あれ@@ 263
かいりょう 263
がわり 263
しろうと 263
せいりょく 263
ふんそう 263
カラム 263
グル@@ 263
ジョーダン 263
ッツ@@ 263
os@@ 262
えみ 262
けねん 262
こうせん 262
しずる 262
じゅうでん 262
そうごう 262
そせん 262
たもつ 262
もら@@ 262
よっぱらっ 262
アーティスト 262
キャラ 262
スイス 262
ナッツ 262
ナン@@ 262
ビッチ 262
ラウンド 262
iP@@ 261
ri@@ 261
ぎそう 261
さやか 261
たしゃ 261
ちゅうとう 261
つかむ 261
つり@@ 261
なみ@@ 261
ほうり@@ 261
まど@@ 261
ゆり 261
チェス 261
ツアー 261
バート 261
ペース 261
ライバル 261
33 260
Google 260
Y 260
ar 260
かじ@@ 260
かたり 260
くどう 260
けいか 260
じゅしょう 260
じんざい 260
そうこう 260
たんさ 260
ちゅうじつ 260
ふくむ 260
みちび@@ 260
アンダーソン 260
ウェルズ 260
デイ 260
ファン@@ 260
ホイ@@ 260
ムス 260
あきら 259
おおいに 259
さいしょう 259
さむらい 259
してい 259
しゅつげん 259
つうわ 259
つら@@ 259
はし@@ 259
ようき 259
りょ 259
カフェ 259
ゲル 259
コカイン 259
セス 259
チャー@@ 259
ド・@@ 259
バウ@@ 259
マズイ 259
レイク 259
样@@ 259
55 258
いっぽ 258
かぐ 258
かつやく 258
こくそ 258
しかた@@ 258
じゅけん 258
せっきょう 258
そせい 258
はず@@ 258
ゆうがた 258
りき 258
イタ@@ 258
オッケー 258
ズラ 258
チク@@ 258
ッサ 258
197@@ 257
dc 257
li@@ 257
うぅ 257
うけとり 257
おしえろ 257
きょうくん 257
くさ@@ 257
けつい 257
しに@@ 257
じゅんばん 257
そうしつ 257
そりゃあ 257
たいか 257
なんぶ 257
にゃ 257
はなしあっ 257
ほじ 257
わき@@ 257
アイリス 257
イルカ 257
ガム 257
ザン@@ 257
スリー 257
ダウンロード 257
ティン 257
ビジター 257
マーシャル 257
ランプ 257
リグスビー 257
给@@ 257
Th@@ 256
あらためて 256
うかん 256
きこ@@ 256
きゃ@@ 256
こもっ 256
すいり 256
せいよう 256
ついほう 256
ふたん 256
ほこ@@ 256
みぢか 256
みにくい 256
めぐみ 256
チーフ 256
トロ 256
ピース 256
ヘッド 256
マール 256
レーン 256
ap@@ 255
うま@@ 255
きら@@ 255
けっせい 255
しょうふ 255
すいせん 255
たたき@@ 255
ばら@@ 255
まいあさ 255
ゆうどう 255
りく@@ 255
わかれる 255
オル@@ 255
ガールフレンド 255
クリン@@ 255
グッド 255
サクラ 255
チンパンジー 255
ナイス 255
プログラ@@ 255
ホルモン 255
レベッカ 255
38 254
いやぁ 254
うい 254
うす@@ 254
したがえ 254
せっし 254
そっと 254
たいりつ 254
つまっ 254
なさっ 254
ぬか 254
はげしく 254
みちこ 254
ゼット 254
ハウ@@ 254
パティ 254
让@@ 254
えんき 253
おうじょ 253
がめ 253
きゅうでん 253
けいれき 253
けんしん 253
げんてい 253
じゅうたい 253
そうぐう 253
のら 253
べっ@@ 253
ほり 253
みおぼえ 253
みぎて 253
わら@@ 253
カエル 253
ジェームス 253
ジュリエット 253
ストップ 253
バイオ@@ 253
ライリー 253
レート 253
いんよう 252
えら 252
おとずれる 252
かえり@@ 252
こうさ 252
ことなっ 252
しばら 252
しゃげき 252
そな@@ 252
たいわ 252
たえる 252
ためす 252
っし 252
ながさ 252
ひきずり 252
びんぼう 252
ぶんしょう 252
べつべつ 252
むりやり 252
わりあい 252
インフラ 252
クジラ 252
クロー@@ 252
シマ 252
シャーク 252
スタジオ 252
フィ 252
フォーム 252
メガ 252
いわば 251
じゃく@@ 251
ちょく 251
とかい 251
むじゅん 251
やちん 251
キャメロン 251
ゲー@@ 251
シア@@ 251
スティック 251
チョ 251
ティム 251
ラーメン 251
ーチ 251
いんぺい 250
くださる 250
くべつ 250
こつ@@ 250
しょくにん 250
じはく 250
つぶす 250
にくしみ 250
ねが@@ 250
コーナー 250
パック 250
ビス 250
ピッ@@ 250
レーズ 250
ヴァー@@ 250
ay 249
あずかっ 249
いかん 249
おおやけ 249
かぐら 249
くみたて 249
こんどう 249
ごくひ 249
さず@@ 249
しょじ 249
すいしょう 249
てば@@ 249
にぎ@@ 249
ふち 249
ほうてき 249
サンゴ 249
シャトル 249
チュー 249
ハンサム 249
ライフル 249
ロッカー 249
あげ@@ 248
いえ@@ 248
おうひ 248
おりろ 248
かが@@ 248
がえ@@ 248
こめる 248
さつ@@ 248
しけれ 248
しはらう 248
じゅうだん 248
ばくげき 248
ひび@@ 248
ほかげ 248
ぼん@@ 248
めんせき 248
ゆうふく 248
りこう 248
ろじょう 248
シック 248
セラ@@ 248
タフ 248
ポジ@@ 248
2、3 247
mr 247
いえよ 247
こうはい 247
たんきゅう 247
だいどころ 247
つきあう 247
なおせる 247
まがっ 247
ゆい 247
コンサルタント 247
スターリング 247
タール 247
ッキ 247
デイビッド 247
バルブ 247
パレ@@ 247
フィフス 247
フォース 247
ヤマ 247
リオン 247
?- 246
You 246
あいまい 246
うたい 246
えだ 246
おとし@@ 246
おんな@@ 246
かいぐん 246
かなた 246
かなっ 246
がんば@@ 246
きつい 246
しょうめつ 246
てつ@@ 246
ひろがる 246
まいかい 246
やとわ 246
クラウス 246
クラーク 246
サリー 246
ジル 246
タバコ 246
チャンネル 246
ッション 246
ハッキリ 246
リンカーン 246
TV 245
かわし 245
しょぞく 245
しんりゃく 245
じょか 245
ずっ 245
ぞら 245
たいけい 245
ちかづけ 245
つえ 245
ないぞう 245
ながれ@@ 245
ひるま 245
ふくせい 245
まいそう 245
ものすごい 245
ギュ@@ 245
コミュニティー 245
ニョ@@ 245
ネイ 245
ハリウッド 245
プレイヤー 245
ボク@@ 245
# 244
google 244
hr 244
※ 244
うすい 244
かわいく 244
くいき 244
けいしき 244
しょくどう 244
せんしょく 244
ふかけつ 244
ふせ@@ 244
ほうしゅつ 244
みこ 244
もほう 244
よっしゃ 244
れいぎ 244
ダイナ@@ 244
バラ@@ 244
プレート 244
你てき 244
おぼれ 243
ぎょうむ 243
さくらこ 243
とうなん 243
とっぱ 243
へつ 243
エドワード 243
オール 243
クリック 243
グーグル 243
スティ 243
フォン 243
ホロウ 243
ミリ 243
モンロー 243
ワープ 243
911 242
in 242
あちら 242
ある@@ 242
えがか 242
おうごん 242
およぶ 242
ざいだん 242
しんさ 242
たんどく 242
っぽ@@ 242
つれだし 242
てきよう 242
ばいしゅう 242
ほうち 242
ゆび@@ 242
よそ 242
りょうきん 242
れんごう 242
グレッグ 242
デブ 242
ハロー 242
ブレナン 242
dr 241
us@@ 241
うらぎら 241
おおがた 241
けいき 241
こわさ 241
さらし 241
しゃこ 241
ぜんめん 241
たいそう 241
ちゅうしゅつ 241
ぶくろ 241
ほほ@@ 241
みはる 241
モス 241
リカ 241
レンジャー 241
Q 240
いたむ 240
いれろ 240
おそわっ 240
かんがえれ 240
こまり 240
さがる 240
しょにち 240
しんでん 240
たたかえ 240
ながれる 240
ひとりひとり 240
アフ@@ 240
アルコール 240
クリスタル 240
スケール 240
ハンマー 240
バーガー 240
パネル 240
ホームレス 240
ラルド 240
レーター 240
ワーク 240
あえて 239
おちこん 239
かいにゅう 239
きよ@@ 239
ごうりゅう 239
しゅどう 239
じょじょ 239
なる@@ 239
ばいにん 239
ふき 239
べつ@@ 239
らっかん 239
エサ 239
キャシー 239
クィ@@ 239
グレイ 239
ゴースト 239
サラ@@ 239
サンダー 239
ジュリアン 239
ミア 239
モー 239
レオン 239
现ざい 239
,@@ 238
an 238
et@@ 238
うつり 238
きがい 238
しょうどう 238
そうきん 238
はたす 238
はっき 238
ひきかえ 238
ぶどう 238
ほいく 238
まあす 238
アストラル 238
エー@@ 238
オリジナル 238
オーバー 238
キャンペーン 238
ダイエット 238
テレサ 238
デラ 238
ハハハハ 238
ベルリン 238
120 237
あしもと 237
いちりゅう 237
いっせい 237
いど 237
おそう 237
さんかく 237
せんぞ 237
ちまえ 237
ちゅうさ 237
ちゅうしょう 237
であう 237
どうどう 237
にんじゃ 237
びみょう 237
ほど@@ 237
まえむき 237
まにあわ 237
やぶれ 237
ウー@@ 237
オイル 237
カラス 237
クリー@@ 237
シリーズ 237
ジャケット 237
フィア 237
ブレイク 237
ぎぞう 236
こば@@ 236
たから@@ 236
だんぺん 236
つくだ 236
つぶれ 236
はさん 236
はま 236
ふうけい 236
みゆき 236
ウイ 236
バージョン 236
ブリ 236
ホー 236
ヤバイ 236
ヴァル 236
おに 235
おろす 235
ぎょうかい 235
するどい 235
つなげ 235
でれ 235
とりつけ 235
ぶつかっ 235
ぼん 235
みじめ 235
もどさ 235
ゃあ 235
やれよ 235
ストラ 235
ッジ 235
フリ@@ 235
ポスター 235
ヤード 235
いと@@ 234
おどる 234
かもつ 234
かんせつ 234
ぎょうしゃ 234
こくぼう 234
じょがい 234
すいそ 234
ちゅうけい 234
とうち 234
とばさ 234
びん@@ 234
みこみ 234
やりなおし 234
アポ@@ 234
カロ@@ 234
シドニー 234
ジャングル 234
ステーション 234
ファースト 234
ブラッド 234
プラス 234
マップ 234
ロブ 234
ny 233
あるき@@ 233
きょうと 233
こんちゅう 233
さがり 233
じけい 233
そうぞく 233
ぞん 233
にあう 233
にち@@ 233
ぶぞく 233
エキ@@ 233
サル@@ 233
チェーン 233
ドローン 233
ミツバチ 233
ランク 233
かせぐ 232
こうぶつ 232
こす 232
すいちゅう 232
たいへい 232
ちょうり 232
どういつ 232
はんせい 232
ひづけ 232
イチ 232
イチ@@ 232
エリート 232
タイラー 232
トラヴィス 232
パーカー 232
レオ@@ 232
ワット 232
かくちょう 231
きょてん 231
ごし 231
して 231
しのび@@ 231
しんぼう 231
そつ 231
ちからづ@@ 231
アブ 231
イリ@@ 231
ウィリアム 231
ウエスト 231
コロンビア 231
スカー@@ 231
スクール 231
ティック 231
ニャ 231
マンハッタン 231
リッパー 231
ルーカス 231
ヴァー 231
いたるところ 230
おだやか 230
かどう 230
ぎっ 230
ごみばこ 230
しらべろ 230
ちかづか 230
てつどう 230
でんたつ 230
はくじょう 230
ひくく 230
らち 230
りじ 230
わがや 230
わるもの 230
クラ 230
フェル@@ 230
マダム 230
ム・@@ 230
NSA 229
et 229
きょうこ 229
そうたい 229
たすかり 229
ちじ 229
とおす 229
ながいき 229
にあい 229
はあい 229
ぶしょ 229
ほうし 229
ほっきょく 229
ゆずる 229
ドック 229
ハァ@@ 229
パワ@@ 229
マルセル 229
ユーザー 229
NASA 228
あくとう 228
いっかん 228
うちあげ 228
えんちょう 228
おんせん 228
がいとう 228
くえ 228
しょうきん 228
だつ@@ 228
つなぐ 228
てあて 228
はこび@@ 228
ふりん 228
ぷ@@ 228
まいご 228
よあけ 228
エンス 228
カウンセ@@ 228
キリ 228
グレー 228
コンビニ 228
スコ 228
スコフィールド 228
デュー@@ 228
ベンジャミン 228
ボルト 228
nsa 227
あまく 227
いじ@@ 227
いみん 227
おまけ 227
きょうよう 227
さそわ 227
しゃだん 227
しょうべん 227
としうえ 227
ひとりぼっち 227
まと 227
まの 227
イライアス 227
オブ 227
カバン 227
ゲット 227
コーラ 227
テント 227
ベティ 227
ーム@@ 227
她@@ 227
あかるく 226
いど@@ 226
かいが 226
かなわ 226
さくじょ 226
さけぶ 226
じつりょく 226
ぜっ@@ 226
ぜんせん 226
そん@@ 226
たば 226
ほそく 226
みせかけ 226
りしょう 226
ウル@@ 226
コレクション 226
ゴリラ 226
デイブ 226
ハチ 226
プロト@@ 226
ポート 226
マシュー 226
do@@ 225
かつら 225
しんがい 225
じゅつ@@ 225
そり 225
ふざける 225
ぼうどう 225
まさしく 225
ガレージ 225
ハメ 225
レコード 225
あかつき 224
いせい 224
おいだし 224
かんじん 224
ききん 224
けっとう 224
こがた 224
こな@@ 224
こまかい 224
さぐっ 224
たちばな 224
なんみん 224
ぶつ@@ 224
ぶんれつ 224
ぼうず 224
むだ@@ 224
むりょく 224
キック 224
キャッ@@ 224
スマート 224
テイ@@ 224
ネックレス 224
ハロ@@ 224
マラ 224
リハビリ 224
时そうろう 224
あつまる 223
かばん 223
きおん 223
きびしく 223
くうふく 223
こうた 223
だあ 223
とたん 223
とびだし 223
なるべく 223
のせる 223
ふきゅう 223
もえ@@ 223
りゃ@@ 223
アレク 223
アーチャー 223
エロ 223
オヤジ 223
ガール 223
ゲイリー 223
チャド 223
请@@ 223
いじゅう 222
おんけい 222
かぁ 222
くちびる 222
けいじょう 222
さいみん 222
さびしく 222
したしい 222
しょせん 222
すばらしかっ 222
だだ 222
つつま 222
とりつか 222
ならっ 222
はんげき 222
ひっぱっ 222
べつじん 222
ほうふ 222
みずぎ 222
よくぼう 222
よっぱらい 222
クリニック 222
ゴールド 222
プロポーズ 222
ヘビ 222
ve 221
いけ@@ 221
いそ@@ 221
いやがらせ 221
うらぎる 221
えいぞく 221
くむ 221
ころせる 221
ござり 221
じょうくう 221
ぞい 221
たよっ 221
つつ@@ 221
とつ@@ 221
のろわ 221
はいゆう 221
はこび 221
ひきあげ 221
ふやし 221
まおう 221
まきこ@@ 221
みなおし 221
みのが@@ 221
イカ 221
カメ@@ 221
ザー@@ 221
シフト 221
ジェイク 221
ジャー@@ 221
トラビス 221
ドキドキ 221
ドラム 221
ネクタイ 221
フォー 221
ci@@ 220
あくしゅ 220
いたん 220
けしょう 220
ごころ 220
ざいあく 220
しはらっ 220
しめさ 220
じばく 220
そうだい 220
ぬけだし 220
まねい 220
やすむ 220
エイズ 220
ザン 220
シェフ 220
ストライ@@ 220
スラ@@ 220
ダイレクト 220
トー 220
ル・@@ 220
レッスン 220
2010 219
ad 219
おれき 219
かな 219
きぞく 219
さんざん 219
しゅっせ 219
せっとう 219
てま 219
でんか 219
なくす 219
なべ 219
ぶつけ 219
ほうふく 219
まにあう 219
やくしゃ 219
ろくが 219
アクション 219
イケ 219
エミ@@ 219
オメエ 219
カメ 219
カルロス 219
シム 219
ダリル 219
ツイ 219
ドキ 219
ヒュー 219
フライト 219
ボット 219
ルタ 219
レンス 219
..@@ 218
34 218
ch@@ 218
im@@ 218
ううっ 218
およい 218
かしゅ 218
かぶしき 218
かんばん 218
ぐら 218
しゅと 218
じかく 218
じょゆう 218
じんそく 218
せっきょく 218
ぜんりょう 218
づめ 218
にじ 218
のうど 218
ふるく 218
よこし 218
れろ 218
アンドリュー 218
ウント 218
オランダ 218
オリンピック 218
シェ 218
ソード 218
バレー 218
モール 218
发@@ 218
见@@ 218
250 217
おもいつき 217
がんこ 217
きょうてい 217
きよし 217
さだめ 217
したく 217
しゅふ 217
じまく 217
そうちょう 217
たつ@@ 217
とどき 217
ねんど 217
はたらき@@ 217
はなよめ 217
ひょうぎ 217
びょうしつ 217
また@@ 217
ゆめ@@ 217
りえ 217
りっ 217
アインシュタイン 217
アラブ 217
インチ 217
ウォル@@ 217
エビ 217
オン@@ 217
グラン@@ 217
タラ 217
テイラー 217
テク@@ 217
デク@@ 217
パク 217
ヘリコプター 217
ホル@@ 217
ミル 217
啦 217
52 216
いちろう 216
ええっ 216
かみがた 216
こうちゃ 216
さそい 216
しご@@ 216
せいのう 216
そとがわ 216
そんがい 216
たかぎ 216
どいつ 216
なぐさめ 216
みれる 216
めがみ 216
やとう 216
ゆめみ 216
ようこ 216
らせ 216
コブ 216
ゼン@@ 216
ゾウ 216
ッセ@@ 216
ネッサ 216
プリ 216
ベビー 216
ホーン 216
43 215
ur@@ 215
うわぎ 215
えんげき 215
おかみ 215
きょうこう 215
きょくたん 215
しし 215
しゃべ@@ 215
しんじ@@ 215
しんろ 215
じそく 215
せんどう 215
たんち 215
づける 215
とびおり 215
どくとく 215
どくぼう 215
ゆうのう 215
よくせい 215
わすれろ 215
ウォー@@ 215
ナツ 215
ベトナム 215
マック 215
ライオネル 215
レディ 215
$ 214
ab@@ 214
いきゃく 214
えよ 214
おめえ 214
かいさん 214
かざり 214
きずい 214
きわ@@ 214
ぎちょう 214
げんじゅう 214
さいがい 214
じゅんかん 214
ぜんか 214
そうとく 214
つなが 214
てきし 214
とうしょ 214
ぬい@@ 214
へらす 214
みさか 214
みなもと 214
もくよう 214
もも 214
やど 214
らいげつ 214
ウェア 214
オーディション 214
ニコ@@ 214
ハント 214
フライ 214
ムー@@ 214
レックス 214
ロニー 214
きずつく 213
けいせき 213
しゅご 213
だきしめ 213
てぐち 213
ぬの 213
ひかえ 213
ふやす 213
ほんこん 213
むかえる 213
もぐ@@ 213
もめ 213
ろく@@ 213
シッ@@ 213
ジャクソン 213
スキャ@@ 213
トルコ 213
ヘン@@ 213
ホモ 213
ヤン@@ 213
いちいち 212
かさい 212
かんぶ 212
しゃこう 212
たぁ 212
ちかづき 212
ちょうじょう 212
なぐる 212
ひめい 212
ひろば 212
イブ 212
ウォーレン 212
コウ 212
ジェニ@@ 212
ストー@@ 212
セキュリティー 212
ツー 212
ナルド 212
ローラ 212
說 212
2008 211
al 211
い经 211
がいしょう 211
くずれ 211
ぐる@@ 211
こりつ 211
さらなる 211
しんや 211
じょうい 211
すばらしく 211
ぜいたく 211
てめぇ 211
てら 211
とま@@ 211
ともない 211
はまっ 211
ひんぱん 211
まぜ 211
やまだ 211
ゆうた 211
クライアント 211
スターダスト 211
セントラル 211
テク 211
デビッド 211
ピン@@ 211
フミ 211
フリン 211
マフィア 211
ルツ 211
ロウ@@ 211
ロマンチック 211
W 210
ed 210
·@@ 210
あんこく 210
げんそう 210
こうざん 210
こうすい 210
じまい 210
せいはい 210
たいしゅう 210
つかまえろ 210
ていでん 210
とげる 210
やばん 210
ゆうはん 210
ジェシカ 210
ビクター 210
フレッド 210
ポーター 210
マイアミ 210
マニュ@@ 210
レンズ 210
レーダー 210
nasa 209
あきら@@ 209
うけつけ 209
うばい 209
かげき 209
かんかつ 209
たどりつい 209
たまる 209
ケイ 209
ケート 209
シンボル 209
フェザー 209
ラシ 209
kg 208
うったえる 208
おおわ 208
おちつか 208
おの@@ 208
かいごう 208
きぜつ 208
くじ@@ 208
ぐるま 208
さらす 208
ざいむ 208
たどりつく 208
とりのぞく 208
にぎり 208
にくん 208
はへん 208
ばかばかしい 208
ぶら@@ 208
もうもく 208
アイルランド 208
アルバム 208
ギル 208
クリリン 208
シンク 208
ジャズ 208
ピラ@@ 208
ピング 208
ボビー 208
ポル@@ 208
-@@ 207
72 207
95 207
うかぶ 207
おいださ 207
およぼす 207
きょうれつ 207
きょぜつ 207
きよう 207
くだつ 207
けんび 207
じつざい 207
せんしん 207
つうろ 207
ともみち 207
なつ@@ 207
ひしつ 207
ほうだい 207
まきこん 207
ウォルト 207
グリム 207
ゴッ 207
マヤ 207
ラナ 207
ヴィ 207
うしろ@@ 206
おもしろかっ 206
かえで 206
ぎぼ 206
くだん 206
さがしだし 206
しゅん@@ 206
ちがわ 206
でんじ 206
はやと 206
みお 206
みん@@ 206
れんけい 206
アニキ 206
カート 206
ゲスト 206
フラ 206
マネージャー 206
ワクワク 206
dvd 205
あやまら 205
いそう 205
いぞく 205
いらし 205
うめる 205
おえる 205
おご@@ 205
からっぽ 205
さげる 205
したがい 205
しつこい 205
せいぶん 205
そうき 205
にがす 205
ぶれい 205
まくっ 205
みうち 205
みとおし 205
みはり 205
むかつく 205
りょ@@ 205
キャラクター 205
サタン 205
ジェネ@@ 205
ハワード 205
ブー 205
メタ@@ 205
ルーツ 205
ンサー 205
あてる 204
かんき 204
きっぷ 204
こせい 204
こんすい 204
しゅうどう 204
だとう 204
ちょい 204
ちょうしゅ 204
てした 204
とっけん 204
とん@@ 204
のが@@ 204
ばくろ 204
ふるまい 204
ぼうそう 204
やしん 204
アッシュ 204
キャンセル 204
コンサート 204
シミュレーション 204
スナ@@ 204
テキスト 204
ボケ 204
リッチ 204
ンジ 204
la 203
えら@@ 203
えんぜつ 203
こたい 203
ごく@@ 203
でんきゅう 203
とびこん 203
はか@@ 203
ふじ 203
ゆらい 203
インク 203
クルマ 203
ゾ 203
ドナルド 203
ナイジェリア 203
ナノ 203
バーバラ 203
メリッサ 203
リアム 203
レディー 203
AT 202
CA 202
CO@@ 202
X@@ 202
えの@@ 202
おかざき 202
おぼえる 202
おもな 202
かりる 202
ぎふ 202
しそう 202
しば 202
しょくたね 202
しりあっ 202
せきたん 202
つっこん 202
ばけ 202
ばこ 202
ひだりて 202
ほんばん 202
ぼけ 202
みずうみ 202
めっ@@ 202
やっつけ 202
アビー 202
コロ 202
ソク 202
バマ 202
ビタミン 202
ブツ 202
マルコム 202
マーティ 202
いちじょう 201
いやし 201
かいてい 201
ぎゅうにゅう 201
とてつ 201
ぼうえき 201
みなみあふりか 201
むこうがわ 201
わん@@ 201
アトラン@@ 201
コレ@@ 201
セイ@@ 201
ッカ 201
メー@@ 201
ヨシ@@ 201
ラスト 201
ルマ 201
ンディ 201
vi@@ 200
いれよう 200
おっしゃ@@ 200
かんじ@@ 200
きまる 200
せいぜい 200
せり@@ 200
つぼ 200
てつや 200
はかっ 200
はね@@ 200
ふざい 200
みちのり 200
わける 200
ケージ 200
スケジュール 200
テス 200
フェリシティ 200
ポン@@ 200
マリ 200
DVD 199
q 199
かぞえる 199
けはい 199
こいぬ 199
こんばん@@ 199
しあげ 199
しばしば 199
しゃく@@ 199
しれん 199
すんぜん 199
っぽく 199
てんもん 199
へらし 199
ほうび 199
むぎ 199
やくいん 199
クルーズ 199
シュー 199
デッド 199
マッチ 199
!@@ 198
CEO 198
co@@ 198
おおさわぎ 198
おちつき 198
かかれ 198
がいけん 198
がか 198
がんばろう 198
きょうじん 198
こうむ 198
したがわ 198
しんかい 198
じょうぶ 198
つうよう 198
ぶかつ 198
ゆだん 198
ソニー 198
ックス@@ 198
フィリップ 198
ボーンズ 198
01 197
amp 197
en 197
〝 197
おしい 197
かしい 197
かため 197
こんげつ 197
しょくむ 197
とば@@ 197
ひっかかっ 197
へんじん 197
みかえり 197
アハハ 197
ウェスト 197
ジェレミー 197
バナナ 197
フィッシュ 197
フィルム 197
フリーザ 197
プリント 197
モンズ 197
ヤク 197
いっつ 196
おうだん 196
かいさい 196
きさい 196
けっかい 196
こっかい 196
しゃない 196
じしょう 196
すな@@ 196
せつじょ 196
ぜんてい 196
たまら 196
ちぢ@@ 196
とうてい 196
どくしょ 196
ふな@@ 196
ほじょ 196
むすう 196
めつけ 196
やすま 196
ゆうこ 196
わいろ 196
アカデミー 196
アトラ@@ 196
ォ@@ 196
オブ@@ 196
ガラ 196
デール 196
ハル@@ 196
ヒト@@ 196
リップ 196
。" 195
えっ@@ 195
かけい 195
きが 195
こもん 195
さいく 195
しかける 195
すげぇ 195
ずれ 195
どうり 195
にんぷ 195
ばらい 195
ひびき 195
へんけん 195
まくら 195
みどりいろ 195
ジオ 195
ゾン 195
ッソ 195
パール 195
ペ 195
ポンプ 195
マラ@@ 195
HR 194
おうい 194
おしつけ 194
きえ@@ 194
くやしい 194
けっさく 194
こっかく 194
しそん 194
じゅんいち 194
じょうとう 194
ぜんぽう 194
たよる 194
との 194
ねむら 194
はくしゃく 194
ふくげん 194
ぶんしん 194
みたさ 194
めえ 194
よっきゅう 194
ショナル 194
ジャンク 194
ドキュ@@ 194
ピッタリ 194
フー@@ 194
ボッ@@ 194
ポー 194
ワト@@ 194
2009 193
いけよ 193
いたずら 193
うちあわせ 193
かがやい 193
からん 193
くた@@ 193
このむ 193
さぐ@@ 193
しゅつえん 193
しる@@ 193
しんき 193
だまら 193
ひまん 193
ふむ 193
ほきゅう 193
みた 193
むほう 193
めいぼ 193
りせい 193
アシスタント 193
オオカミ 193
クッ 193
ケル 193
スーパー@@ 193
ブラシ 193
ブラボー 193
メダル 193
ヴィッド 193
这さと 193
あばれ 192
おおさか 192
おたく 192
かんがえよう 192
じゅうし 192
じょうじ 192
すき@@ 192
すごかっ 192
ずのう 192
ぜんにん 192
たいおん 192
たちあがっ 192
たまっ 192
ちょうこく 192
どうきゅう 192
なんじ 192
ねったい 192
はいろう 192
ばくだい 192
へいぼん 192
まぐれ 192
ゆうえん 192
イケメン 192
イラ@@ 192
エコ@@ 192
クレイ 192
スカウト 192
チェスター 192
ネオ 192
ラット 192
リリース 192
レナ@@ 192
ロビン 192
实@@ 192
lo@@ 191
おぎ@@ 191
おのでら 191
おんしつ 191
かけら 191
かめ 191
きらく 191
きんじ 191
くうちゅう 191
けせ 191
こねこ 191
さがしだす 191
さびしかっ 191
だんけつ 191
つきとめる 191
つらく 191
ていねい 191
どくしゃ 191
ばらし 191
やくだた 191
らんぼう 191
アボット 191
イルズ 191
コンテスト 191
シカ@@ 191
シスコ 191
ティス 191
トニ@@ 191
ニティ 191
ハルト 191
バレ@@ 191
パーツ 191
プレッシャー 191
リトル 191
ロサンゼルス 191
196@@ 190
いっこく 190
えいこう 190
おろ@@ 190
かっぱつ 190
きけよ 190
けた 190
けんぜん 190
しち 190
しつぎょう 190
しつりょう 190
しゃべら 190
せんさい 190
たいいく 190
たちいり 190
たちど@@ 190
たばこ 190
だま@@ 190
ちかづ@@ 190
なじみ 190
ねんきん 190
ふれ@@ 190
へいこう 190
アレク@@ 190
ガル@@ 190
ダイヤ@@ 190
チャン@@ 190
バディ 190
パーシー 190
ホスト 190
リコ 190
あご 189
えんかく 189
かふん 189
くうぐん 189
こうあん 189
こうすけ 189
さと@@ 189
しゃれ 189
じしょ 189
ちゅうたい 189
つたえろ 189
ふうせん 189
ほにゅう 189
みすい 189
れんさ 189
イアン 189
インディアン 189
オペラ 189
ジヌ 189
フレーム 189
モーテル 189
ceo 188
mr@@ 188
あらわれ@@ 188
かくしごと 188
かま@@ 188
かんけつ 188
がいし 188
くす@@ 188
くみあい 188
しゅうけつ 188
しんあい 188
たいしゃ 188
だっそう 188
でんどう 188
にんたい 188
ねんしょう 188
のめ@@ 188
ひきょう 188
ひっぱり 188
びょうげん 188
へいたい 188
まちなか 188
やすめ 188
りゅうがく 188
アラビア 188
オリー 188
ダナ 188
ナジール 188
ハード@@ 188
フラン 188
ヘレン 188
マスタ@@ 188
ムチャ 188
ロザ@@ 188
ヴァイ@@ 188
Mr. 187
いのうえ 187
うばい@@ 187
おどろ@@ 187
おびや@@ 187
きいろい 187
きょじゅう 187
くるしめ 187
さしあげ 187
さまた@@ 187
しじん 187
しょうしゅう 187
たいがい 187
ちゅうだん 187
ちんせい 187
まじ 187
みしら 187
やくしょ 187
エール 187
カプセル 187
クリス@@ 187
サイコ 187
シナリオ 187
スウェーデン 187
スペル 187
スレイド 187
セク@@ 187
タコ 187
チャクチャ 187
チューブ 187
パフォー@@ 187
マリファナ 187
ラッ@@ 187
the 186
あやつる 186
いえで 186
いっせん 186
えんがん 186
おさななじみ 186
けいそく 186
ごうけい 186
さんじ 186
しもう 186
しんぱく 186
たいめん 186
たに@@ 186
ちあん 186
ちづ@@ 186
とうじつ 186
ととのっ 186
ひょうが 186
ほうっ 186
みじかく 186
みまもっ 186
りくぐん 186
りくつ 186
りりく 186
ろっか 186
わえ 186
アレルギー 186
クリーン 186
ジャージー 186
ドーン 186
ナンシー 186
パクト 186
ブズ 186
ブーツ 186
プレゼン 186
マーケット 186
メロ@@ 186
ルース 186
レイン 186
ct@@ 185
face 185
ig@@ 185
あいにく 185
あきやま 185
いため 185
うく 185
おぬし 185
かや 185
くわわっ 185
ぐるみ 185
げんみつ 185
せいしゅん 185
そち 185
そめ 185
だき@@ 185
てら@@ 185
ならし 185
はずせ 185
はやめ 185
はんすう 185
むちゃ 185
りゅうしゅつ 185
れいとう 185
カーン 185
コウモリ 185
スノー 185
ダンサー 185
ナチ 185
ハグ 185
パトロール 185
フォル@@ 185
ブラン 185
ポテト 185
マシーン 185
ャ 185
ラス@@ 185
ランダム 185
レンチ 185
MS 184
Z@@ 184
na 184
あかく 184
かくち 184
けってん 184
けんきょ 184
しや 184
しょうしつ 184
そろえ 184
とりのぞ@@ 184
ひろめ 184
へいほう 184
べく 184
ほっと 184
ほどう 184
みつけろ 184
わしい 184
アディ 184
インタ@@ 184
ウォード 184
サンド 184
バックアップ 184
パッ@@ 184
ボーン 184
リバン 184
od 183
to 183
うごかさ 183
おおい@@ 183
くかく 183
くだす 183
ざつ@@ 183
ちょうてん 183
つぁ@@ 183
づらい 183
てか 183
なおさ 183
はま@@ 183
はやかっ 183
むぼう 183
よわく 183
エリオット 183
エンタープライズ 183
カオス 183
クン 183
ゴム 183
サンドラ 183
ハリス 183
メック 183
リアス 183
レジ@@ 183
ロイド 183
1千 182
あやかし 182
おしょく 182
かんがえなおし 182
きこく 182
ぎょらい 182
ごうか 182
しが@@ 182
しすう 182
しゅつじょう 182
じゅうしょう 182
すじ@@ 182
たかめ 182
つらかっ 182
のうない 182
ふりかえっ 182
ほうめん 182
ほしゃく 182
みつけよう 182
やさ 182
アップル 182
アンジェラ 182
カニ 182
カラー 182
ギャンブル 182
セフ 182
ダーウィン 182
ハド@@ 182
ユーモア 182
3千 181
eb 181
いせ 181
うかがっ 181
おおや 181
およぎ 181
きかさ 181
きち@@ 181
こぎって 181
こぶし 181
こまら 181
ごうまん 181
さぐる 181
しせん 181
じっくり 181
すすま 181
だく 181
にわとり 181
はぐ@@ 181
はんざわ 181
はんしょく 181
ぷう 181
べっそう 181
ほこう 181
まもの 181
めき 181
もろ 181
やふ 181
やぶり 181
よいしょ 181
アメ@@ 181
イカレ 181
ウォーター 181
エア@@ 181
エマ 181
シルバー 181
ステーキ 181
ストリア 181
バービー 181
フェ 181
ミッド 181
モーター 181
リコン 181
リット 181
リーブ 181
レジ 181
关@@ 181
别@@ 181
问@@ 181
间 181
TE@@ 180
いつわり 180
おろかもの 180
かたむけ 180
かんない 180
きごう 180
けいとう 180
しゅやく 180
じったい 180
じゅうせい 180
じゅうなん 180
ちゃいろ 180
つぶさ 180
とうさい 180
ほかく 180
りょかん 180
オス@@ 180
カウ@@ 180
クルー@@ 180
グレート 180
シャル 180
ジュード 180
ジョフリー 180
スリ 180
ディラン 180
ニーズ 180
ヘルメット 180
ベガス 180
マザー 180
ムーア 180
ロモン 180
2005 179
あだな 179
かお@@ 179
かおいろ 179
かくせい 179
かせる 179
きざ@@ 179
きの@@ 179
けんぽう 179
しきべつ 179
しゅっこう 179
せいび 179
そうた 179
なまり 179
のこ 179
まかさ 179
まちぶせ 179
まつもと 179
みあい 179
みいだし 179
もちだし 179
オナ 179
オリン@@ 179
カルテル 179
キュー 179
クトル 179
ケニア 179
ジニア 179
ストロ@@ 179
ポスト 179
49 178
bo@@ 178
あふれる 178
いっけん 178
うけとめ 178
おいしかっ 178
こうもく 178
こおっ 178
さます 178
しょうじる 178
せんにん 178
そうい 178
そくしん 178
ちゅうにゅう 178
はせがわ 178
はなしあう 178
ばんち 178
ふとん 178
ほお 178
ぼうちょう 178
まいつき 178
まもれる 178
むし@@ 178
りょうこう 178
エース 178
カブ@@ 178
グローブ 178
シューティング 178
ジャスティン 178
スキ 178
ドリル 178
ハック 178
ハリソン 178
バイオリン 178
ピーター@@ 178
フィック 178
フィン@@ 178
フランシス 178
ブレット 178
ホリー 178
マジシャン 178
Face 177
PD 177
co 177
pd 177
あて@@ 177
いく@@ 177
いざ 177
おっぱい 177
きてい 177
ぎじ 177
ごい 177
しゅつどう 177
しゅりょう 177
じょうきゅう 177
じょきょ 177
すます 177
てがら 177
ふくそう 177
まじん 177
みなごろし 177
やくひん 177
ようふく 177
りきがく 177
ろじ 177
アイアン 177
アイリーン 177
エリス 177
オペ@@ 177
シリア 177
スカート 177
タッチ 177
ダーリン 177
ハワイ 177
マジ@@ 177
レニー 177
样 177
57 176
いそがし 176
かかり@@ 176
かぎっ 176
きざはし 176
くじょう 176
しゅつりょく 176
しょくよく 176
しらゆき 176
しろう 176
すん@@ 176
たちむかう 176
だた 176
はき@@ 176
ひかえ@@ 176
ふくえき 176
ふくん 176
もどそう 176
やくだ@@ 176
ゆうじ 176
ゆだ@@ 176
ようへい 176
サプライズ 176
スチュ@@ 176
ステ 176
ッタ 176
ファニー 176
ポルノ 176
モニ@@ 176
リボン 176
ルシ@@ 176
44 175
su@@ 175
うつす 175
うば@@ 175
かっき 175
きじゅつ 175
こうさん 175
こくがい 175
さいど 175
しながわ 175
しぶ@@ 175
じつよう 175
すす@@ 175
たかめる 175
たけみ 175
ちゅうか 175
てご@@ 175
とりかえし 175
はたらけ 175
びびっ 175
みつど 175
もえる 175
わがまま 175
アビ@@ 175
アリー 175
イタチ 175
オプ@@ 175
セラピー 175
ディン@@ 175
ポッ@@ 175
マルコ 175
レシピ 175
39 174
os 174
いきのこり 174
うで@@ 174
きゅうしょく 174
きりかえ 174
けんい 174
けんち 174
ざっ 174
じょうき 174
ちくせき 174
つうやく 174
てぶくろ 174
ひじ@@ 174
みしま 174
みね 174
めあて 174
もろ@@ 174
よみがえ@@ 174
よろい 174
らっか 174
りてん 174
オリヴィ@@ 174
ギュマン 174
ブレード 174
ホンマ 174
マグロ 174
ミステ@@ 174
CD 173
ah 173
de 173
おとせ 173
きょうさん 173
きりしま 173
きりつ 173
ぎわく 173
こくど 173
ころん 173
じっかん 173
じゃろう 173
すっごい 173
たのしま 173
とりいれ 173
なかなおり 173
ほさ 173
ほたる 173
わへい 173
カウント 173
キャンディ 173
シュア 173
チャック 173
チー@@ 173
ヤギ 173
ルソン 173
ロフト 173
56 172
うごき@@ 172
おやゆび 172
かいちゅう 172
かえん 172
かくしょう 172
かたら 172
けり 172
げんどう 172
ささえる 172
しっかく 172
じんじゃ 172
そろい 172
たわごと 172
ちゅうかん 172
てづくり 172
ふっこう 172
ほうがく 172
まちあわせ 172
みんしゅう 172
もも@@ 172
やかん 172
やこれ 172
やし@@ 172
やぶ@@ 172
りっしょう 172
アルツハイマー 172
キノコ 172
クリフ 172
シェーン 172
スティーブン 172
テディ 172
バスケ 172
ヤダ 172
ワイヤー 172
58 171
mo@@ 171
いかす 171
おさ 171
おとめ 171
かいいん 171
きせ 171
ぎめい 171
さっし 171
ざせき 171
しずん 171
しょうけん 171
しんとう 171
せおっ 171
それん 171
たおせ 171
たのしめ 171
たんにん 171
だし@@ 171
ちい@@ 171
ねじ@@ 171
ねっ 171
ばれる 171
むすびつけ 171
もらし 171
りさ 171
れいこ 171
ろっ@@ 171
エリー 171
カラ 171
ケイティ 171
ゲン@@ 171
スタンス 171
デューク 171
フィラ@@ 171
ルームメイト 171
现@@ 171
51 170
DE@@ 170
ik@@ 170
wh@@ 170
うかべ 170
およぐ 170
かずかず 170
かちく 170
ぐう@@ 170
ごとく 170
しんじょう 170
じゅんい 170
すいせい 170
ていとく 170
てつだえ 170
とどめ 170
はたら@@ 170
よっぽど 170
らくがき 170
アジ@@ 170
カーテン 170
コック 170
スケッチ 170
ソーニャ 170
デニス 170
ネイ@@ 170
フュー@@ 170
プリズム 170
マト@@ 170
ランディ 170
ラ・@@ 170
ローレンス 170
ter 169
あいり 169
うせろ 169
おこう 169
かんねん 169
がわしい 169
きそん 169
くやみ 169
くりかえさ 169
けんぞう 169
こうしゃ 169
こうだい 169
ことなり 169
こり 169
ころも 169
さそう 169
しかえし 169
しがん 169
ちょうめ 169
ぢか 169
つばき 169
どくせん 169
ふくし 169
まげ 169
みのしろ 169
めつ@@ 169
ゆうよ 169
よわっ 169
んと 169
アーズ 169
オート 169
ケネ@@ 169
ケータイ 169
シャンパン 169
ダス 169
ダチ 169
チューナー 169
ドッ@@ 169
ドヒョン 169
ニコラス 169
ハンドル 169
パット 169
ファスコ 169
フットボール 169
ラント 169
2007 168
46 168
q@@ 168
ta 168
いちめん 168
えば 168
かまえ 168
しょうに 168
てきごう 168
でえ 168
とういつ 168
はずかし 168
はんぱ 168
ひろげる 168
へり 168
むきあう 168
むすびつける 168
やくにん 168
ゅう 168
ゆうがい 168
ゆれ 168
アナキン 168
イオン 168
ケイトリン 168
スラム 168
スリ@@ 168
ソフィア 168
マニ@@ 168
モスクワ 168
开@@ 168
あいし@@ 167
あんけん 167
いただけれ 167
かざん 167
きんこう 167
これる 167
ごっこ 167
さむく 167
さわわたり 167
しょざい 167
そんげん 167
ておき 167
とめ@@ 167
ふへん 167
むかわ 167
むすび 167
ゆいごん 167
クレイ@@ 167
ザス 167
ジュリー 167
チル 167
チンコ 167
トビー 167
ドル@@ 167
バグ 167
ヒー@@ 167
モテ 167
ラド 167
リーダーシップ 167
ルデン 167
ーツ 167
"" 166
おくりこん 166
かいせつ 166
かたづける 166
きゃくほん 166
きょうじゅつ 166
けんがく 166
こうろん 166
つかま@@ 166
なや@@ 166
はずさ 166
はんし 166
ひきつづき 166
ふうとう 166
ほうあん 166
むか 166
めし@@ 166
ウィー 166
グレアム 166
スロー 166
ドロ 166
ハッチ 166
ムショ 166
...@@ 165
MIT 165
ds 165
ion 165
いちげき 165
うらん 165
かいたい 165
かいどう 165
かいめつ 165
かがい 165
かんしゅ 165
かんしゅう 165
かんだい 165
きゅうさい 165
けいしょう 165
こうせき 165
ごん 165
さらっ 165
しんがく 165
すいこう 165
すきま 165
すくおう 165
すご 165
せいぶ 165
つかおう 165
ひきず@@ 165
へんせい 165
まけいぬ 165
ゆうりょく 165
ろうし 165
わるぎ 165
ウェイ@@ 165
キャサリン 165
キャス 165
ゴキブリ 165
ジェ 165
スカン@@ 165
スキュラ 165
スピーカー 165
ビュ@@ 165
ファル@@ 165
ブッシュ 165
ヘロイン 165
リーズ 165
ワイ 165
85 164
?@@ 164
うれし 164
おきて 164
おだ 164
おびやかす 164
きゅうげき 164
ぎゅう@@ 164
ござる 164
じょうか 164
じるし 164
ちょうしょ 164
とうにゅう 164
まか 164
まか@@ 164
やけど 164
ようてん 164
わざわい 164
アマゾン 164
カジノ 164
ガリ@@ 164
キャッチ 164
キロ@@ 164
クソッタレ 164
コンタクト 164
ゴイ 164
シロ@@ 164
ステュー 164
ソン@@ 164
チューニング 164
テナ 164
ドネ@@ 164
ニックス 164
バレンタイン 164
ピーク 164
ベニー 164
ペア 164
ボロ@@ 164
マーチン 164
ミーティング 164
ロジャー 164
爱@@ 164
he@@ 163
【 163
おに@@ 163
がくしゃ 163
しょうきょ 163
ちたんだ 163
づ 163
とか 163
とほう 163
のがれる 163
はずかしく 163
ひろまっ 163
まゆ 163
めず@@ 163
ガブリエル 163
シオン 163
ジュール 163
ズマ 163
ソサエティ 163
デュバク 163
ブレーキ 163
ホン@@ 163
ライス 163
ラテン 163
还これ 163
ak@@ 162
あらそう 162
いとしい 162
おかさ 162
かしこまり 162
かんよう 162
ぎゃくてん 162
くつした 162
くらべる 162
ささげる 162
したしく 162
しゅうねん 162
しりつ 162
じゅく@@ 162
せんれん 162
ちっそく 162
っちゅう 162
つが 162
とうぶん 162
どくさい 162
ふざけん 162
まにあっ 162
みじか 162
めまい 162
よしの 162
よびかけ 162
れいな 162
わらえ 162
アイデンティティ 162
ウト 162
クシー 162
コンクリート 162
スポット 162
ノリ 162
バースト 162
パト@@ 162
フォトン 162
フロント 162
マッサージ 162
メイク 162
开 162
いぬ@@ 161
いまいましい 161
うつわ 161
えき@@ 161
かくとう 161
きょうあく 161
けいご 161
こどう 161
こもう 161
しゃさつ 161
じせい 161
すずき 161
そうしょく 161
たいえき 161
ちっとも 161
ちゃお@@ 161
てのひら 161
とかし 161
はんする 161
ばた 161
ひとで 161
ほしゅ 161
みがき 161
みきわ@@ 161
アイドル 161
オモチャ 161
クリ 161
ジイ 161
フェース 161
ブルックリン 161
プリンセス 161
リト 161
ome 160
tube 160
あくりょう 160
おうかん 160
おおき@@ 160
おろち 160
かけろ 160
ぐり 160
さかもと 160
しめろ 160
しゅうちゃく 160
しりょく 160
ぜつ@@ 160
たからもの 160
ねがいごと 160
ねら@@ 160
ひつぎ 160
びょうとう 160
へんさい 160
まわさ 160
みぞ 160
みちびき 160
むくい 160
むのう 160
もど@@ 160
よごし 160
よびださ 160
るいじ 160
アダ@@ 160
アリング 160
エンジェル 160
サーシャ 160
ターク 160
ティア 160
ディエゴ 160
ドラー 160
ナース 160
ピア@@ 160
ファミリー 160
フェリ@@ 160
フー 160
ブリン 160
ペニス 160
ホッジ@@ 160
マディソン 160
ヤッ 160
ラム@@ 160
リモ@@ 160
ロミオ 160
ag@@ 159
あな@@ 159
あらわ@@ 159
いけにえ 159
うれる 159
えいり 159
おくろう 159
おそろしく 159
おちつけよ 159
おとこ@@ 159
かも 159
かわり@@ 159
きゃっか 159
こうみょう 159
こなし 159
しさ 159
しんいり 159
じょうやく 159
じんいん 159
じんじ 159
すべっ 159
とくゆう 159
どじょう 159
びよう 159
ほうたろう 159
まかす 159
まぎれ 159
まり@@ 159
イダー 159
キュ 159
ドミニク 159
プリン 159
ポーカー 159
ミール 159
メディ@@ 159
ランダ 159
リティ 159
对 159
2011 158
おがわ 158
かわれ 158
きえろ 158
ざっ@@ 158
しはらわ 158
せっけん 158
ちょちく 158
ちんぎん 158
とうせん 158
とりわけ 158
なぎ 158
なけりゃ 158
のんびり 158
はたして 158
ひきつけ 158
もどせる 158
ゆうえき 158
わだ 158
イー 158
コネ@@ 158
コメ@@ 158
シティー 158
スペシャル 158
ズル 158
タトゥー 158
ッティ 158
トウ 158
ドリアン 158
ハン・@@ 158
バーンズ 158
ヘリ@@ 158
マルチ@@ 158
マンド 158
モニタ 158
CM 157
IT 157
あたたかく 157
かたぎ 157
くうそう 157
ごまかし 157
さいばい 157
たどっ 157
とんだ 157
なげる 157
ぶら 157
へんそう 157
みこん 157
みつゆ 157
むすん 157
らか 157
りょうしゃ 157
れんたい 157
ろっ 157
カーティス 157
トレス 157
ビアン 157
フレイ@@ 157
ボウ@@ 157
メカ@@ 157
メラ@@ 157
ランナー 157
ルキア 157
17@@ 156
IS 156
LA 156
いっぺん 156
おちいっ 156
かいしょう 156
かまう 156
げんりょう 156
しゅうえき 156
しゅうし 156
じしゃく 156
じんしん 156
せんこく 156
たなか 156
ちゃえ 156
なきごえ 156
ばいよう 156
ひやく 156
ほんしん 156
まんがいち 156
みずの 156
むらた 156
らぎ 156
れいきゃく 156
アルバート 156
オーケイ 156
クイズ 156
グラハム 156
コル 156
サラダ 156
シェア 156
シナ@@ 156
セバスチャン 156
テック 156
ハンド 156
ヘス 156
ベック 156
ペルト 156
リッジ 156
ロフ 156
开し 156
Dr. 155
and 155
mit 155
いしょ 155
かなしく 155
かばっ 155
くつじょく 155
けし@@ 155
げえ 155
こぼし 155
しむ 155
しょうぎょう 155
すいよう 155
そうおん 155
ちゃおう 155
つうち 155
つくりばなし 155
どうほう 155
なさけない 155
はが@@ 155
はなつ 155
ひざまず@@ 155
びんかん 155
へる 155
まなみ 155
みっこく 155
みてえ 155
やすらか 155
やなぎ 155
やや 155
ゆうしゃ 155
わすれもの 155
カンパニー 155
クールソン 155
ケニー 155
シェリー 155
シモンズ 155
ショッピング 155
ハッハッ@@ 155
ブリー@@ 155
マヌケ 155
レッジ 155
ワケ 155
ワニ 155
900 154
あたため 154
あるける 154
いきづ@@ 154
いだく 154
くろまく 154
こくぜい 154
さび@@ 154
さびし 154
じゅうりょう 154
ぜんご 154
ぜんそく 154
たいけつ 154
てもと 154
てんのう 154
とべる 154
にしがわ 154
のりこん 154
はたん 154
はっしょう 154
はやっ 154
ほしょく 154
めいめい 154
もうふ 154
もちあげ 154
もりあがっ 154
わく@@ 154
アライグマ 154
アンテナ 154
コップ 154
コリンズ 154
サブ 154
ジョンソン 154
スコア 154
ソイツ 154
ソル@@ 154
タイムズ 154
ターフェル 154
チック 154
テム 154
デザート 154
デタラメ 154
ニュ@@ 154
パル@@ 154
ペーパー 154
ラッセル 154
レモン 154
为しる 154
or 153
】 153
いんしゅ 153
うちあけ 153
おごる 153
かけよう 153
かたわら 153
かっこく 153
きける 153
きたえ 153
きゅうじつ 153
こら@@ 153
ざいせい 153
すめ 153
ずるい 153
せんりょう 153
そだつ 153
だらく 153
つかまれ 153
つたわる 153
つめる 153
てらっしゃ@@ 153
でたらめ 153
とうにょう 153
のけ 153
のち@@ 153
ばなれ 153
ひけつ 153
ふぜん 153
ぶっし 153
ぼね 153
みわ 153
もぎ 153
もけい 153
わかち@@ 153
ガタ 153
ゲー 153
シェイ@@ 153
シングル 153
タリ 153
チキ 153
ヅ@@ 153
ディン 153
ナマ 153
ノルウェー 153
フェイズ 153
ペニー 153
ミサ 153
ミシ@@ 153
リントン 153
se@@ 152
うらぐち 152
おもいこん 152
かいすい 152
かかえる 152
かくてい 152
かとう 152
がお 152
きんだい 152
しゅうしん 152
しゅくしょう 152
じな 152
じゃっかん 152
じょうでき 152
せいべつ 152
ぜっこう 152
そくざ 152
そんぞく 152
だな 152
だんだ 152
はいせん 152
はいり@@ 152
はんしん 152
ばんじ 152
ふとう 152
ぶんさん 152
ほい 152
ぼる 152
ましく 152
まとう 152
まよい 152
めんだん 152
アブ@@ 152
エピ@@ 152
オーウェン 152
クル@@ 152
ケーン 152
コンセプト 152
サマンサ 152
ソファ 152
ダウン@@ 152
ダラス 152
トランド 152
ドゥー 152
バンス 152
ビル@@ 152
ヤクザ 152
cr@@ 151
ms 151
あが@@ 151
あつかわ 151
いたり 151
おさまる 151
かごう 151
こうぶ 151
さいくつ 151
しょじょ 151
しんじゃ 151
じょうりゅう 151
じろう 151
せんむ 151
ちょうわ 151
どうかん 151
ぬけだす 151
ひきうける 151
ひきだす 151
もちこん 151
やくびょう 151
りょうしゅ 151
イライジャ 151
クレイジー 151
スー 151
ップス 151
トウ@@ 151
トラウマ 151
トランクス 151
トリス 151
トール 151
ニコ 151
ミラクル 151
メーション 151
リハーサル 151
リンズ 151
レスト 151
应@@ 151
ai@@ 150
ati 150
’ 150
⇒ 150
あいこ 150
あげれ 150
あだ 150
あんか 150
いごこち 150
こうずい 150
じゅうこう 150
ずき 150
せんせん 150
たいりょく 150
たえ@@ 150
たたか 150
たむら 150
だきょう 150
ちょきん 150
ちょくせん 150
つなぎ 150
てきたい 150
てりゃ 150
どうとう 150
なかば 150
ふじみ 150
ぶんぷ 150
へんとう 150
やぶら 150
ゆうよう 150
よこしま 150
ろくでなし 150
エス 150
ギア 150
スタンフォード 150
ドニー 150
フェン@@ 150
ブロンド 150
マニア 150
ミル@@ 150
ラーズ 150
ローレ@@ 150
41 149
53 149
GDP 149
MRI 149
PS 149
gdp 149
おごり 149
おさむ 149
おもく 149
かけつけ 149
きずあと 149
ぎょうせい 149
くださ 149
けんお 149
さえ@@ 149
しょうじゅん 149
しんぱん 149
すぎやま 149
せいれい 149
ぜんめつ 149
たつまき 149
ちば 149
つぶ 149
とける 149
なだ 149
ねずみ 149
はれつ 149
まのあたり 149
めいぎ 149
アザ@@ 149
アメリカン 149
イザ@@ 149
エヴァ 149
オケ 149
ガイド 149
コス 149
スプリ@@ 149
ツリー 149
トカゲ 149
ベラ@@ 149
种@@ 149
cd 148
あゆみ 148
がんぼう 148
きつ 148
くいもの 148
こくせき 148
こげ 148
こそだて 148
ごうかん 148
さわい 148
しっちょう 148
しない 148
しぼり@@ 148
ぞうし@@ 148
ぞえ 148
たいがく 148
ただい 148
たのしめる 148
ちく@@ 148
ちし 148
ちゃくよう 148
てらし 148
なぎさ 148
なにしろ 148
はんろん 148
ほどこし 148
よせる 148
れいこく 148
れっ@@ 148
イースト 148
オロ@@ 148
ガンダ 148
ギリギリ 148
サマ 148
ショート 148
スティーナ 148
チャット 148
ヘイリー 148
ひざ@@ 147
オーディ@@ 147
グロー@@ 147
トレント 147
ノース 147
ピエロ 147
フェル 147
プロード 147
ポット 147
マウン@@ 147
マサ@@ 147
リバ@@ 147
リーク 147
ワイルド 147
进@@ 147
​@@ 146
まかし 146
种 146
さそ@@ 145
めで@@ 145
つぎ@@ 144
.@@ 143
いらっしゃ@@ 143
ろし 143
欢@@ 143
还 143
ちがえ 141
ながわ 141
にょう 141
ぼす 141
バク 141
虽@@ 141
+ 140
オカ@@ 140
ガガ@@ 140
ロイン 140
难@@ 140
いただ@@ 139
ウェー@@ 139
いそが@@ 138
ずい@@ 138
ふさわ@@ 138
よい@@ 138
スマ@@ 138
デレ@@ 138
题 138
ube 137
エット 137
コウ@@ 137
テリー 137
变@@ 137
× 136
アント 136
ディアン 136
ニバル 136
她 136
々 135
さくら@@ 135
ゅ@@ 135
グマ 135
ャ@@ 135
NA@@ 134
のん@@ 134
ファ 134
メット 134
实 134
SA 133
コム 133
メロン 133
ゅ 132
ょ@@ 131
ダイ 131
ミュー@@ 131
ヴィス 131
该 131
ヒョン 130
のぞく 129
キャロ@@ 129
ポーズ 129
ケーション 128
ありが@@ 127
クソン 127
メイト 127
结@@ 127
one 126
ざつ 126
キッ@@ 126
总@@ 126
ぃ@@ 125
はは@@ 125
べい@@ 125
人@@ 125
なぎ@@ 124
ライド 124
现 124
ps 123
しぼ@@ 123
たら@@ 123
みなみ@@ 123
ギン 123
ビジ@@ 123
确@@ 123
いり@@ 122
かんぼう 122
じち 122
たと@@ 122
アルバ@@ 122
デジ@@ 122
@@ 122
そし@@ 121
伙@@ 121
バック@@ 120
ビッド 120
カナ@@ 119
トロール 119
动 119
こんにち@@ 118
东@@ 118
长@@ 118
➡@@ 117
うし@@ 117
のろ@@ 117
刚@@ 117
动@@ 117
嗯 117
こた@@ 116
イント 116
ぎら 115
テリア 115
见 115
谁@@ 115
连@@ 115
ちから@@ 114
なおり 114
ループ 114
ぢ 113
カウン@@ 113
ぴょう 112
ウェン 112
ミラ@@ 112
伙 112
ひだ@@ 110
ぷり 110
んかん 110
セリ@@ 110
终@@ 110
ここ@@ 109
じる@@ 109
ふた@@ 109
ノル@@ 109
ピック 109
时 109
错@@ 109
めぇ 108
帮@@ 108
经@@ 108
记@@ 108
ゴル@@ 107
シカ 107
スケ 107
ールド 107
哪@@ 107
战@@ 107
晚@@ 107
つよう 106
类@@ 106
给 106
アンジェ@@ 105
--@@ 104
ちゃくちゃ 104
ヴァン@@ 104
)@@ 103
りき@@ 103
オープ@@ 103
タレ 103
リラ 103
アシ@@ 102
喂 102
=@@ 101
ub@@ 101
○ 101
する@@ 101
たしか@@ 101
エゴ 101
おおも@@ 100
ーイ 100
办@@ 100
您@@ 100
论 100
° 99
电@@ 99
だすけ 98
ちいさ@@ 98
まに@@ 98
エンター@@ 98
クソ@@ 98
バチ 98
ペー@@ 98
hh@@ 97
わす@@ 97
ズン 97
どろ@@ 96
请 96
それ@@ 95
强@@ 95
 95
¶ 94
おな@@ 94
きび@@ 94
ばな 94
带@@ 94
该@@ 94
アタ@@ 93
スタント 93
チェル 93
风@@ 93
っぱり 92
つかる 92
イス@@ 92
ゥ@@ 92
パート@@ 92
ロマン@@ 92
ぉ@@ 91
オーバー@@ 91
ケー 91
レスト@@ 91
让 91
ダニ@@ 90
トイ@@ 90
觉 90
うけい@@ 89
うつく@@ 89
うれ@@ 89
イノ@@ 89
两@@ 89
☆ 88
やさ@@ 88
ゴゴ@@ 88
师@@ 88
边@@ 88
NA 87
そだ@@ 87
オット 87
查 87
なし@@ 86
キャラ@@ 86
运@@ 86
@ 85
ての@@ 85
なさけ@@ 85
ショ 85
ノコ 85
远@@ 85
ぇ@@ 84
わすれ@@ 84
​ 83
カイン 83
ジェル 83
メガ@@ 83
长 83
* 82
Q@@ 82
くや@@ 82
キア 82
ギリ 82
リチャ@@ 82
スピー@@ 81
フス 81
ちいり 80
イスラ@@ 80
プター 80
认@@ 80
诉@@ 80
すが 79
まも@@ 79
ベジ@@ 79
仅@@ 79
头@@ 79
CI@@ 78
ものが@@ 78
ニューヨ@@ 78
バク@@ 78
边 78
间@@ 78
シミュ@@ 77
シュタイン 77
ファミ@@ 77
发 77
っくり 76
ジェリア 76
テロ@@ 76
师 76
飞@@ 76
sa 75
がう 75
なつか@@ 75
ステー@@ 75
ホーム@@ 75
ラックス 75
伤@@ 75
だら@@ 74
ゲイ@@ 74
なっ@@ 73
エレベ@@ 73
ジャーナ@@ 73
スイー@@ 73
ルム 73
马@@ 73
けりゃ 72
ずら 72
• 71
そろ@@ 71
ハビ@@ 71
错 71
おもし@@ 70
とうりょう 70
インフ@@ 70
エジ@@ 70
コロン@@ 70
サンド@@ 70
ドリュー 70
亲@@ 70
员@@ 70
かくれ@@ 69
むらい 69
グー@@ 69
ッフ 69
ベーション 69
こち 68
ごこち 68
ごみ@@ 68
ゆい@@ 68
别 68
报@@ 68
问 68
おとな@@ 67
战 67
あらた@@ 66
っきん 66
ジット 66
プレゼ@@ 66
レイド 66
》@@ 65
あえ@@ 65
うらやま@@ 65
团@@ 65
许@@ 64
こぎ@@ 63
はよう 63
りゃあ 63
ブレー@@ 63
处@@ 63
备@@ 63
进 63
RI 62
つば@@ 62
复@@ 62
谢@@ 62
ゃく 61
タミン 61
ットボール 61
场@@ 61
继@@ 61
续 61
あに@@ 60
つなが@@ 60
ネズ@@ 60
头 60
护@@ 60
离@@ 60
调@@ 60
轻@@ 60
ずう 59
そと@@ 59
っしゃ@@ 59
パイア 59
够@@ 59
拥@@ 59
がし@@ 58
ギャン@@ 58
矿 58
ひく@@ 57
カシ 57
哪 57
强 57
组@@ 57
诸@@ 57
ぺき 56
カプ@@ 56
ソフ@@ 56
谁 56
かれ@@ 55
せもの 55
とりし@@ 55
びび@@ 55
ふし@@ 55
クイ@@ 55
ボル 55
传@@ 55
坚@@ 55
杀@@ 55
视@@ 55
诂 55
试@@ 55
ace 54
ほの@@ 54
カレ 54
ドミニ@@ 54
リッサ 54
圣@@ 54
您 54
バイス 53
ロミ@@ 53
ヲ 53
烦@@ 53
贵@@ 53
遗@@ 53
おうご@@ 52
くに@@ 52
イナー 52
ッピング 52
灭 52
たわ@@ 51
ちち@@ 51
オフィ@@ 51
ジェント 51
ジラ 51
买@@ 51
认 51
跑@@ 51
闪@@ 51
アミ 50
ックリ 50
ワイト 50
哎@@ 50
团 50
爱 50
纪 50
そつ@@ 49
っぱつ 49
ンビ 49
紧@@ 49
● 48
おちつ@@ 48
てよ 48
ゆる 48
ウマ 48
サージ 48
プト 48
ームス 48
麽 48
かんが@@ 47
ちら 47
とうと 47
ギリ@@ 47
サギ 47
リアー 47
リズ@@ 47
变 47
」@@ 46
あこ@@ 46
うそ@@ 46
そうろう 46
イベ@@ 46
义 46
击@@ 46
刚 46
园 46
岛@@ 46
ひょ@@ 45
めて 45
ノロ@@ 45
寻@@ 45
ったり 44
ティスト 44
讨@@ 44
须@@ 44
アンダー@@ 43
キャプ@@ 43
タラ@@ 43
ドライ@@ 43
プロジェ@@ 43
书 43
书@@ 43
喔 43
绝@@ 43
谢 43
风 43
っぽ 42
ひら 42
むこう@@ 42
らっしゃ@@ 42
コンピュー@@ 42
タクト 42
ロサン@@ 42
中@@ 42
啊@@ 42
场 42
连 42
あち@@ 41
ぢ@@ 41
ナナ 41
妳@@ 41
帐@@ 41
灵@@ 41
转@@ 41
おそろ@@ 40
かぞ@@ 40
らしかっ 40
れど 40
カゲ 40
デオ 40
ノム 40
ラニ@@ 40
傢@@ 40
军@@ 40
击 40
术@@ 40
顺@@ 40
 40
α 39
にょう@@ 39
ドキ@@ 39
ピオン 39
レージ 39
习 39
步@@ 39
绝 39
门@@ 39
{ 38
セキュ@@ 38
ネク@@ 38
ネル@@ 38
バレン@@ 38
伤 38
恶@@ 38
暮@@ 38
wit@@ 37
「@@ 37
ウェー 37
ソフト@@ 37
ベンジャ@@ 37
偷@@ 37
护 37
级@@ 37
绽@@ 37
节@@ 37
语 37
负@@ 37
预@@ 37
々@@ 36
よっぱ@@ 36
コンビ@@ 36
丰@@ 36
关 36
脑@@ 36
识 36
马 36
~@@ 35
おもしろ@@ 35
じょく 35
でなし 35
にわ@@ 35
ガニ@@ 35
タク 35
ピュー@@ 35
办 35
哟 35
步 35
碰@@ 35
类 35
记 35
证@@ 35
诶 35
轻 35
ook 34
} 34
ゐ@@ 34
コンサル@@ 34
タント 34
パス@@ 34
ヒー 34
プレイ@@ 34
员 34
幫@@ 34
异@@ 34
晚 34
线@@ 34
结 34
赶@@ 34
跑 34
载 34
选@@ 34
队 34
难 34
ce@@ 33
るく 33
キュラ 33
ダスト 33
ームズ 33
倾@@ 33
兴@@ 33
备 33
妈@@ 33
带 33
红@@ 33
约@@ 33
胜@@ 33
规@@ 33
车@@ 33
门 33
饭 33
えと 32
びゃく 32
わが@@ 32
アイデンティ@@ 32
ッセル 32
メキシ@@ 32
业 32
厉@@ 32
处 32
应 32
报 32
换@@ 32
搞@@ 32
负 32
达 32
达@@ 32
际 32
HI@@ 31
ا@@ 31
′ 31
あたり@@ 31
おだ@@ 31
タイン 31
ディソン 31
バーズ 31
ミツ@@ 31
ルーム@@ 31
两 31
亚@@ 31
咪@@ 31
烁 31
热@@ 31
计 31
译 31
转 31
'@@ 30
ぶせ 30
まだ@@ 30
もし@@ 30
セプト 30
ヂ 30
ベト@@ 30
マト 30
マネー@@ 30
压@@ 30
尔@@ 30
岛 30
沉@@ 30
组 30
读@@ 30
高@@ 30
@@ 30
ねがい@@ 29
スビー 29
ベッカ 29
亲 29
单@@ 29
查@@ 29
毁@@ 29
满@@ 29
紧 29
议@@ 29
试 29
貓@@ 29
败 29
较@@ 29
远 29
。@@ 28
ねい 28
オモ@@ 28
システ@@ 28
レミー 28
东 28
乡@@ 28
值@@ 28
厌 28
许 28
责 28
车 28
饭@@ 28
^ 27
bi 27
はいた@@ 27
びしい 27
むり@@ 27
キスタン 27
ニキ@@ 27
务 27
呐 27
妈 27
懂@@ 27
戏@@ 27
显@@ 27
电 27
組 27
视 27
计@@ 27
闭@@ 27
阳@@ 27
EO 26
きい@@ 26
ヂ@@ 26
フォルニア 26
仿 26
內@@ 26
兴 26
划 26
则@@ 26
增@@ 26
弹 26
脸@@ 26
设@@ 26
铛 26
镮 26
%@@ 25
\ 25
エネル@@ 25
ヅ 25
ベート 25
乐@@ 25
习@@ 25
墙@@ 25
怀 25
识@@ 25
轴 25
隐@@ 25
@@ 25
っきゅう 24
はせ@@ 24
まあ@@ 24
コミュニ@@ 24
マズ@@ 24
リカン 24
內 24
擊@@ 24
毕@@ 24
织@@ 24
しろう@@ 23
びり 23
ぼっち 23
゙ 23
アライ@@ 23
カジ@@ 23
テクノロ@@ 23
ネット@@ 23
マヌ@@ 23
专@@ 23
夺@@ 23
张@@ 23
忆 23
杀 23
简@@ 23
翱@@ 23
节 23
谓@@ 23
败@@ 23
适@@ 23
镜@@ 23
ش@@ 22
ゅう@@ 22
イライ@@ 22
キサ@@ 22
ポテ@@ 22
ヲ@@ 22
仿@@ 22
围@@ 22
帮 22
敌@@ 22
术 22
树@@ 22
约 22
线 22
迟@@ 22
选 22
顾@@ 22
验 22
 22
– 21
いは 21
ゔ@@ 21
コミュ@@ 21
临 21
义@@ 21
仓@@ 21
优@@ 21
响@@ 21
弹@@ 21
热 21
胜 21
辑 21
辦@@ 21
队@@ 21
飞 21
و@@ 20
ざり 20
でら 20
アカデ@@ 20
エティ 20
シントン 20
ジュリ@@ 20
トラル 20
吓@@ 20
帐 20
态@@ 20
恶 20
扔@@ 20
袭@@ 20
誒 20
论@@ 20
责@@ 20
费@@ 20
辉 20
铃@@ 20
镜 20
险 20
雾@@ 20
鸟@@ 20
م@@ 19
ه 19
ی 19
ウェブ@@ 19
サリン 19
ハイマー 19
ルエン@@ 19
严@@ 19
另@@ 19
图@@ 19
姬 19
小@@ 19
张 19
态 19
惊@@ 19
歲 19
烦 19
监@@ 19
纯@@ 19
络 19
统 19
统@@ 19
编@@ 19
获@@ 19
虛@@ 19
输@@ 19
领@@ 19
馆@@ 19
 19
*@@ 18
/@@ 18
oog@@ 18
♂ 18
ぐに 18
を@@ 18
フランシスコ 18
プレー@@ 18
众@@ 18
吵@@ 18
园@@ 18
导@@ 18
摄@@ 18
濑@@ 18
级 18
纪@@ 18
罗@@ 18
职@@ 18
讲 18
镇@@ 18
顾 18
题@@ 18
β 17
おさな@@ 17
まして 17
アイン@@ 17
ナジ@@ 17
ブルック@@ 17
プライズ 17
值 17
划@@ 17
吞@@ 17
响 17
夠@@ 17
归@@ 17
擊 17
权@@ 17
柠@@ 17
满 17
烧@@ 17
猎@@ 17
离 17
纵@@ 17
纸@@ 17
练 17
罢@@ 17
胶@@ 17
虑@@ 17
虽 17
训@@ 17
资@@ 17
辈@@ 17
阁 17
鱼@@ 17
たんだ 16
アルゴ@@ 16
トリン 16
ヤク@@ 16
偷 16
傻@@ 16
剧@@ 16
咪 16
唤@@ 16
妳 16
录 16
德@@ 16
怀@@ 16
总 16
拼@@ 16
极@@ 16
渐 16
维@@ 16
议 16
运 16
违@@ 16
阵@@ 16
ずれる 15
はじめ@@ 15
ばかばか@@ 15
ゞ 15
アマン@@ 15
レシ@@ 15
举@@ 15
买 15
亏@@ 15
仅 15
务@@ 15
卖@@ 15
卫@@ 15
启@@ 15
坠@@ 15
导 15
尔 15
恼 15
戏 15
执@@ 15
扫@@ 15
择 15
摇@@ 15
敌 15
标@@ 15
测@@ 15
爸@@ 15
盘@@ 15
红 15
细@@ 15
绿@@ 15
联@@ 15
证 15
语@@ 15
险@@ 15
预 15
BI 14
━@@ 14
〜@@ 14
やが@@ 14
オリジ@@ 14
ストラル 14
リグ@@ 14
ヰ 14
丢@@ 14
传 14
傢 14
养 14
养@@ 14
军 14
创@@ 14
剑 14
单 14
咦 14
啦@@ 14
喵@@ 14
坚 14
复 14
尝@@ 14
层@@ 14
库 14
扯 14
扰@@ 14
抢@@ 14
晓 14
暂@@ 14
杂@@ 14
树 14
溫@@ 14
絕 14
练@@ 14
续@@ 14
蓝@@ 14
讹 14
误 14
读 14
调 14
适 14
闹@@ 14
陆@@ 14
飘@@ 14
dv@@ 13
ر@@ 13
〔 13
いまい@@ 13
っしゃ 13
でに 13
とと@@ 13
にえ 13
わざ@@ 13
ゼルス 13
ライオ@@ 13
レクト 13
业@@ 13
丝@@ 13
卡 13
历 13
厉 13
异 13
揭@@ 13
标 13
泽@@ 13
脑 13
药@@ 13
补@@ 13
诱@@ 13
课@@ 13
赛@@ 13
辦 13
驱@@ 13
鸟 13
齐@@ 13
ی@@ 12
〕 12
そろ 12
スポート 12
テキ@@ 12
乐 12
劲 12
劲@@ 12
势 12
寻 12
扯@@ 12
拟@@ 12
摇 12
极 12
构 12
樱@@ 12
欢 12
渴@@ 12
砍@@ 12
絕@@ 12
联 12
肤@@ 12
讲@@ 12
诛 12
赛 12
躲@@ 12
轮@@ 12
酱 12
钱@@ 12
银@@ 12
阁@@ 12
阴 12
阴@@ 12
鲁 12
(@@ 11
nas@@ 11
ت@@ 11
ن@@ 11
← 11
★ 11
ガブリ@@ 11
サート 11
ヤジ 11
ルエンザ 11
丝 11
丽@@ 11
剑@@ 11
协@@ 11
够 11
戶 11
扩@@ 11
朵@@ 11
滚 11
确 11
终 11
经 11
绘 11
绳@@ 11
腳@@ 11
苏@@ 11
诅@@ 11
词 11
诵 11
赢@@ 11
软 11
锁@@ 11
颔 11
颜@@ 11
饰@@ 11
:@@ 10
[@@ 10
é@@ 10
ن 10
まけい@@ 10
ファナ 10
ボラン@@ 10
ワク 10
ヵ 10
乌@@ 10
产@@ 10
哎 10
喂@@ 10
噁@@ 10
增 10
夠 10
层 10
惊 10
戶@@ 10
扭 10
择@@ 10
挣@@ 10
换 10
晕@@ 10
杂 10
樱 10
泽 10
爷@@ 10
睑 10
纠@@ 10
细 10
织 10
观@@ 10
诂@@ 10
误@@ 10
谈@@ 10
趕@@ 10
踩@@ 10
输 10
阳 10
DP 9
ou 9
س@@ 9
ه@@ 9
のなか 9
ギリス 9
コプター 9
ッセージ 9
デザ@@ 9
バシー 9
リハビ@@ 9
ワク@@ 9
ヾ 9
亚 9
俩 9
则 9
剧 9
卖 9
吵 9
圆@@ 9
圣 9
奋@@ 9
奖 9
宪@@ 9
幫 9
废@@ 9
扰 9
抚@@ 9
捡@@ 9
摔@@ 9
构@@ 9
枪 9
桥 9
测 9
渐@@ 9
灵 9
爷 9
盯@@ 9
积@@ 9
笔@@ 9
笼@@ 9
签@@ 9
纯 9
缠@@ 9
脸 9
艺@@ 9
荣@@ 9
蓝 9
设 9
词@@ 9
谎 9
赶 9
跃 9
跃@@ 9
辅@@ 9
逻@@ 9
邮@@ 9
酱@@ 9
钟@@ 9
顶@@ 9
龙@@ 9
§ 8
è@@ 8
ب@@ 8
《@@ 8
すげ@@ 8
゚ 8
カワイ@@ 8
スタル 8
乗@@ 8
兽@@ 8
净@@ 8
劳@@ 8
卡@@ 8
历@@ 8
呐@@ 8
咱@@ 8
啟@@ 8
喵 8
嘞 8
块@@ 8
塁 8
尝 8
懂 8
扭@@ 8
搞 8
数@@ 8
斩@@ 8
汇@@ 8
瀨@@ 8
矿@@ 8
药 8
萨@@ 8
袭 8
裤@@ 8
训 8
谅@@ 8
谈 8
谓 8
谜 8
质@@ 8
趟@@ 8
载@@ 8
辈 8
释@@ 8
銮 8
钟 8
钱 8
铝@@ 8
镇 8
闻@@ 8
阱 8
领 8
饿@@ 8
馅@@ 8
骑@@ 8
鲁@@ 8
鲜@@ 8
 8
dp 7
 7
® 7
×@@ 7
̅ 7
م 7
△ 7
▼ 7
❤ 7
゙@@ 7
严 7
丧@@ 7
侧@@ 7
傻 7
劳 7
叹@@ 7
吳 7
咧 7
嘟 7
嘟@@ 7
夺 7
宫@@ 7
宾@@ 7
币 7
庆@@ 7
庞 7
彻@@ 7
德 7
忆@@ 7
惯 7
损@@ 7
摆@@ 7
撅@@ 7
棵@@ 7
殛 7
汤@@ 7
涉@@ 7
涩 7
溃 7
烂 7
牵 7
环 7
瞧 7
窥@@ 7
综@@ 7
缕@@ 7
缠 7
缴@@ 7
蜕@@ 7
讶 7
诚@@ 7
诞@@ 7
贫@@ 7
贴@@ 7
趟 7
踌@@ 7
锥@@ 7
閒@@ 7
闯@@ 7
雾 7
顶 7
顺 7
飘 7
馆 7
骚@@ 7
髒 7
鳞 7
鸦 7
 7
± 6
í@@ 6
ü@@ 6
π 6
ک@@ 6
’@@ 6
かもの 6
ぞれ 6
とっと@@ 6
ばか@@ 6
ふざ@@ 6
やる@@ 6
ンティ@@ 6
ヾ@@ 6
专 6
优 6
伪@@ 6
冻@@ 6
凯@@ 6
卢@@ 6
厅 6
哼 6
啤@@ 6
围 6
图 6
块 6
姬@@ 6
废 6
录@@ 6
惩@@ 6
拥 6
拧@@ 6
挥@@ 6
权 6
桥@@ 6
汉 6
瀨 6
烊@@ 6
爸 6
牵@@ 6
牺@@ 6
础@@ 6
绊 6
绵@@ 6
编 6
缘@@ 6
缝@@ 6
罚 6
获 6
裤 6
评@@ 6
贵 6
贼 6
赖 6
遗 6
邻@@ 6
銇 6
钢@@ 6
钥@@ 6
铠@@ 6
铲 6
银 6
闲@@ 6
闹 6
阵 6
驾@@ 6
骗 6
骗@@ 6
鸣@@ 6
^@@ 5
́ 5
τ 5
—@@ 5
‘ 5
⁄ 5
□ 5
○@@ 5
♥ 5
いもう@@ 5
ぅ@@ 5
くりく 5
とに@@ 5
むかつ@@ 5
アレル@@ 5
クチャ 5
テキサ@@ 5
パソ@@ 5
パンジー 5
リダ 5
ヮ 5
ヵ@@ 5
丟@@ 5
丢 5
丰 5
临@@ 5
丽 5
乡 5
产 5
俩@@ 5
农@@ 5
减@@ 5
删@@ 5
势@@ 5
厌@@ 5
另 5
吗@@ 5
唉 5
嗦 5
圾 5
垃@@ 5
墙 5
夜 5
奋 5
岁@@ 5
帅 5
户@@ 5
拖@@ 5
揍@@ 5
撑@@ 5
朵 5
歲@@ 5
歷@@ 5
每 5
毕 5
濑 5
灾@@ 5
烂@@ 5
烤@@ 5
烧 5
產@@ 5
睁@@ 5
竞@@ 5
简 5
纵 5
绍@@ 5
绘@@ 5
绪@@ 5
罗 5
羡@@ 5
耍@@ 5
脫@@ 5
腾 5
艺 5
荣 5
营 5
虛 5
观 5
謊@@ 5
诊@@ 5
询@@ 5
详@@ 5
貓 5
货 5
贼@@ 5
赖@@ 5
赠@@ 5
赢 5
较 5
逛 5
鄉 5
鎩 5
钻@@ 5
铁@@ 5
销 5
销@@ 5
镮@@ 5
闭 5
阅@@ 5
阶@@ 5
陆 5
页 5
项 5
须 5
颖@@ 5
饵 5
饿 5
駆 5
鱼 5
龄@@ 5
>@@ 4
ñ@@ 4
γ 4
μ@@ 4
آ@@ 4
و 4
อ@@ 4
‐@@ 4
‰ 4
☆@@ 4
♡ 4
♪@@ 4
♭ 4
』@@ 4
がいち 4
ずかしい 4
イケ@@ 4
カンパ@@ 4
サイル 4
プラス@@ 4
众 4
侦@@ 4
兹@@ 4
剝@@ 4
华 4
华@@ 4
压 4
厲@@ 4
县 4
县@@ 4
吞 4
呃 4
呍 4
呸 4
唤 4
喲 4
喷@@ 4
噜@@ 4
坛@@ 4
姊@@ 4
孙@@ 4
宁@@ 4
宫 4
帅@@ 4
库@@ 4
归 4
惕@@ 4
懒@@ 4
扬 4
拼 4
挖@@ 4
挡@@ 4
掙@@ 4
擋 4
暂 4
桌@@ 4
检@@ 4
歷 4
溫 4
漩@@ 4
猎 4
环@@ 4
珐 4
琪@@ 4
璨 4
疗 4
盘 4
睑@@ 4
瞒 4
瞒@@ 4
砚 4
砸@@ 4
笔 4
签 4
纱@@ 4
纳@@ 4
纷@@ 4
纸 4
绕@@ 4
绩@@ 4
绪 4
职 4
胁@@ 4
萝@@ 4
营@@ 4
萨 4
蚱@@ 4
蜢 4
蠃@@ 4
补 4
访 4
访@@ 4
课 4
谋@@ 4
谜@@ 4
谦@@ 4
贝 4
货@@ 4
贪@@ 4
费 4
赐@@ 4
轨@@ 4
软@@ 4
迈@@ 4
迟 4
逛@@ 4
鉴@@ 4
针@@ 4
钝 4
铁 4
铃 4
铛@@ 4
锁 4
锐@@ 4
键 4
闻 4
阶 4
陈@@ 4
隐 4
页@@ 4
顿 4
颊 4
颜 4
额 4
饶@@ 4
饼@@ 4
骄 4
验@@ 4
骯@@ 4
鸡 4
黃@@ 4
 4
DV@@ 3
]@@ 3
¢ 3
£ 3
¿ 3
ê@@ 3
÷ 3
σ 3
؟ 3
خ@@ 3
د@@ 3
ز@@ 3
ق@@ 3
■ 3
◆ 3
◎ 3
♀ 3
❤@@ 3
〻 3
みどり@@ 3
オーストラ@@ 3
クリート 3
ソサ@@ 3
マンサ 3
ヮ@@ 3
丛@@ 3
丫@@ 3
乌 3
仝 3
伦 3
伦@@ 3
侣@@ 3
储@@ 3
兕@@ 3
兰@@ 3
卫 3
厅@@ 3
厲 3
启 3
哔 3
唰@@ 3
啰@@ 3
嚐@@ 3
嚣 3
嚷 3
嚷@@ 3
囉@@ 3
妇 3
妮 3
妮@@ 3
子 3
宁 3
宪 3
寬@@ 3
岁 3
彻 3
拟 3
挠 3
挥 3
摄 3
斩 3
枪@@ 3
檔 3
污@@ 3
沉 3
泫@@ 3
浇@@ 3
涡 3
淸@@ 3
渗@@ 3
潇@@ 3
灭@@ 3
牺 3
玛@@ 3
珐@@ 3
甩@@ 3
疗@@ 3
疯@@ 3
监 3
盼@@ 3
眨@@ 3
眾@@ 3
睁 3
瞄@@ 3
码@@ 3
碰 3
祸 3
秽 3
繫@@ 3
繳@@ 3
纹@@ 3
纺@@ 3
绅@@ 3
绑@@ 3
继 3
绩 3
绷 3
缓 3
罢 3
羁@@ 3
耍 3
肿 3
胳@@ 3
脋 3
脏 3
脫 3
舔@@ 3
艳 3
衬 3
觊@@ 3
觎 3
角 3
讨 3
讪 3
讹@@ 3
诅 3
诞 3
诡 3
诺@@ 3
谅 3
谍 3
賴@@ 3
财 3
贯@@ 3
赏 3
赏@@ 3
赞@@ 3
赵 3
赵@@ 3
踢@@ 3
蹩@@ 3
蹭 3
蹭@@ 3
辆 3
辉@@ 3
逊@@ 3
鄉@@ 3
鐳@@ 3
钢 3
铠 3
铩 3
铭 3
锅@@ 3
锈 3
锖@@ 3
闲 3
闷 3
际@@ 3
项@@ 3
饮 3
饼 3
馒@@ 3
驳@@ 3
骄@@ 3
骑 3
骤@@ 3
鳞@@ 3
鸳@@ 3
麽@@ 3
齐 3
齿 3
齿@@ 3
&@@ 2
+@@ 2
` 2
oogle 2
 2
¶@@ 2
ã@@ 2
ç@@ 2
é 2
ê 2
ó@@ 2
÷@@ 2
μ 2
ت 2
ف@@ 2
ย 2
ร@@ 2
่@@ 2
”@@ 2
₩ 2
↑ 2
∀ 2
−@@ 2
∨ 2
▲ 2
◇ 2
〈@@ 2
ちつ@@ 2
ても 2
まの@@ 2
もそ@@ 2
ょう 2
らず 2
わち 2
アイデ@@ 2
アプロ@@ 2
オオカ@@ 2
ゴキ@@ 2
セバス@@ 2
チョコレ@@ 2
データ@@ 2
ネック@@ 2
ロッパ 2
ヶ 2
丧 2
乔 2
仾@@ 2
伞@@ 2
伟@@ 2
佣@@ 2
侄@@ 2
侧 2
倘@@ 2
储 2
兰 2
兹 2
冈 2
农 2
净 2
减 2
协 2
卧 2
吓 2
吧@@ 2
吳@@ 2
呛 2
呜@@ 2
呦 2
咕@@ 2
喻 2
嘻 2
嘻@@ 2
嘿 2
嚕 2
均 2
垮@@ 2
壳 2
夹@@ 2
奖@@ 2
妇@@ 2
妒@@ 2
姊 2
娅 2
宠@@ 2
审@@ 2
宽@@ 2
尘 2
尘@@ 2
怆@@ 2
悬 2
愤@@ 2
扔 2
扩 2
扬@@ 2
拋@@ 2
拖 2
拚@@ 2
拦@@ 2
挤 2
挤@@ 2
捂@@ 2
掳 2
掺@@ 2
摆 2
摊 2
摔 2
擎@@ 2
杮@@ 2
栋 2
栋@@ 2
桌 2
桩 2
棱@@ 2
棵 2
殛@@ 2
毁 2
汉@@ 2
污 2
洁 2
涉 2
淩@@ 2
渗 2
滚@@ 2
滥 2
滨@@ 2
炖@@ 2
炫 2
烤 2
烫 2
煞@@ 2
狱@@ 2
玷@@ 2
畅@@ 2
皑 2
皑@@ 2
盐 2
盯 2
眯 2
眯@@ 2
瞧@@ 2
础 2
硶 2
碟@@ 2
稳@@ 2
窍@@ 2
笼 2
筹@@ 2
綁@@ 2
绊@@ 2
绍 2
绕 2
绹@@ 2
绿 2
缔@@ 2
缘 2
翘 2
聪@@ 2
胧 2
脏@@ 2
脖@@ 2
腊@@ 2
腳 2
腾@@ 2
膛 2
苍 2
苍@@ 2
虑 2
虾@@ 2
螃@@ 2
袜 2
謊 2
订@@ 2
讽@@ 2
诀@@ 2
诏@@ 2
译@@ 2
诛@@ 2
详 2
谎@@ 2
谨 2
谨@@ 2
贞@@ 2
贡@@ 2
账 2
质 2
购 2
贱@@ 2
贴 2
贺@@ 2
赌@@ 2
赚@@ 2
踢 2
轮 2
辅 2
辖@@ 2
辙@@ 2
释 2
銇@@ 2
鍺 2
钧@@ 2
钩@@ 2
钮@@ 2
铐 2
链@@ 2
锅 2
锋 2
锖 2
锤 2
閱@@ 2
霉 2
霉@@ 2
顽@@ 2
颗@@ 2
额@@ 2
飡 2
饮@@ 2
饰 2
饱 2
馅 2
驶 2
驻 2
驾 2
骂 2
髙 2
鳗@@ 2
鸡@@ 2
鸣 2
鸭@@ 2
鸯 2
鸽 2
鹅@@ 2
鹤@@ 2
鹭@@ 2
龙 2
간@@ 2
공@@ 2
하@@ 2
 2
;@@ 1
<@@ 1
| 1
 1
 1
¡ 1
§@@ 1
É 1
à 1
á@@ 1
ó 1
ě@@ 1
ī@@ 1
θ 1
ω 1
ئ@@ 1
ا 1
ح@@ 1
س 1
ع@@ 1
ل@@ 1
گ@@ 1
‎ 1
※@@ 1
€ 1
∇ 1
∞ 1
┌ 1
┐ 1
▉ 1
▽@@ 1
★@@ 1
☺@@ 1
♫@@ 1
〒@@ 1
〓 1
いまさ@@ 1
さよ@@ 1
たたび 1
どり@@ 1
ようなら 1
ゝ 1
アルツ@@ 1
イッチ 1
ガソ@@ 1
ザベス 1
スウェー@@ 1
セキュリ@@ 1
ハーサル 1
ペーン 1
マスコ@@ 1
メエ 1
メージ 1
ヱ 1
ㄣ 1
举 1
乔@@ 1
亗@@ 1
亾 1
仌@@ 1
仓 1
仧@@ 1
仪 1
仪@@ 1
伅 1
伞 1
伪 1
佔@@ 1
侥@@ 1
侦 1
倕@@ 1
倛 1
倱@@ 1
倾 1
偿 1
兽 1
冈@@ 1
凑 1
凤@@ 1
凳 1
凳@@ 1
刁@@ 1
创 1
删 1
刨@@ 1
剁@@ 1
剂@@ 1
剝 1
劝 1
劝@@ 1
勩 1
卽@@ 1
厕 1
厕@@ 1
叠 1
叠@@ 1
叼@@ 1
叽 1
叽@@ 1
呕@@ 1
呢@@ 1
咕 1
咖 1
咙 1
哑 1
哔@@ 1
哼@@ 1
啟 1
啥@@ 1
啸 1
喔@@ 1
喱@@ 1
喷 1
喽 1
嗆 1
嗎@@ 1
嗗 1
嗨 1
嘀@@ 1
噗 1
嚐 1
圆 1
圾@@ 1
坛 1
坞 1
坟@@ 1
垃 1
塌 1
塌@@ 1
墩@@ 1
墲 1
壩@@ 1
壳@@ 1
壶 1
壶@@ 1
妆@@ 1
妒 1
妞 1
娇 1
娛@@ 1
婴@@ 1
媳 1
嬨@@ 1
嬭 1
孙 1
审 1
宾 1
寬 1
尛@@ 1
尬 1
尷@@ 1
屻 1
岂 1
岂@@ 1
岗@@ 1
帘@@ 1
帼@@ 1
庆 1
庙 1
庙@@ 1
彥@@ 1
徵 1
恳@@ 1
悅 1
惫@@ 1
惬@@ 1
惭@@ 1
惯@@ 1
愣@@ 1
愤 1
懒 1
扑@@ 1
执 1
扫 1
抢 1
拨 1
挚 1
挡 1
挪@@ 1
捂 1
捆@@ 1
损 1
捡 1
揍 1
揪 1
揭 1
搁 1
搁@@ 1
摊@@ 1
摒 1
撇@@ 1
撐@@ 1
撑 1
撱 1
撿 1
撿@@ 1
擎 1
攏@@ 1
攒 1
旷@@ 1
显 1
時 1
晓@@ 1
晕 1
暧@@ 1
曆 1
曆@@ 1
柜@@ 1
栾@@ 1
检 1
榖@@ 1
樁@@ 1
橱@@ 1
殑 1
毙 1
毙@@ 1
氰@@ 1
汤 1
汹@@ 1
沟 1
沟@@ 1
泮@@ 1
浃@@ 1
浆@@ 1
浊 1
济 1
济@@ 1
浑@@ 1
浓 1
浓@@ 1
涖@@ 1
涚@@ 1
涟@@ 1
润@@ 1
涨@@ 1
渎@@ 1
渔@@ 1
湡@@ 1
滥@@ 1
滨 1
潵 1
灉 1
灶@@ 1
炖 1
烨@@ 1
烫@@ 1
焗 1
煞 1
燁@@ 1
燙 1
犟@@ 1
犳@@ 1
狱 1
獭@@ 1
畅 1
疤 1
疤@@ 1
疯 1
瘓 1
瘫@@ 1
瘾@@ 1
癱@@ 1
皂 1
盏 1
眾 1
睜 1
睜@@ 1
睬 1
瞅 1
瞅@@ 1
瞌@@ 1
砸 1
碳 1
碳@@ 1
祂@@ 1
秃 1
秒 1
窜@@ 1
窝 1
窝@@ 1
竖 1
竖@@ 1
竞 1
筛@@ 1
糰@@ 1
緖 1
纳 1
纺 1
绑 1
绮 1
绮@@ 1
绯@@ 1
绳 1
维 1
缓@@ 1
缚 1
缚@@ 1
缩@@ 1
罚@@ 1
羡 1
翘@@ 1
耐 1
聪 1
肃 1
肤 1
胁 1
胳 1
脋@@ 1
腌@@ 1
腻 1
腻@@ 1
膛@@ 1
舔 1
舰@@ 1
艰 1
艰@@ 1
芷 1
荆 1
荞@@ 1
荡 1
莲 1
莴@@ 1
菇 1
萝 1
萤@@ 1
蕴 1
蕴@@ 1
虏 1
蟑@@ 1
衅 1
衬@@ 1
褲 1
褲@@ 1
览 1
览@@ 1
订 1
诀 1
评 1
诈 1
诉 1
诚 1
诡@@ 1
询 1
诱 1
诸 1
谋 1
谐 1
谐@@ 1
谕@@ 1
谣@@ 1
谦 1
谱 1
豔@@ 1
賴 1
贩 1
贩@@ 1
贪 1
贬@@ 1
购@@ 1
贰@@ 1
贱 1
贷@@ 1
贺 1
资 1
赎 1
赚 1
赞 1
赠 1
趕 1
趴@@ 1
踩 1
踹 1
蹋 1
蹦@@ 1
轨 1
轰@@ 1
轿 1
辆@@ 1
辍@@ 1
辑@@ 1
辗 1
迁 1
违 1
逊 1
递 1
递@@ 1
逻 1
邻 1
郞 1
鄊 1
鉏 1
銈@@ 1
銮@@ 1
銳 1
鏂 1
鐨@@ 1
鐪@@ 1
针 1
钓 1
钥 1
钦@@ 1
钩 1
钮 1
铄@@ 1
铜 1
铜@@ 1
铨 1
铨@@ 1
铺@@ 1
锄@@ 1
锈@@ 1
锐 1
锚 1
键@@ 1
锵 1
锷@@ 1
镝@@ 1
镰@@ 1
閒 1
闪 1
闯 1
闷@@ 1
闺@@ 1
阂 1
阐@@ 1
阔@@ 1
阱@@ 1
陇 1
陈 1
雏@@ 1
韌 1
颇 1
颈@@ 1
颐 1
频 1
颠@@ 1
饥@@ 1
饲@@ 1
饶 1
饺@@ 1
驰 1
驰@@ 1
驱 1
驻@@ 1
骂@@ 1
骤 1
髒@@ 1
鬍@@ 1
魷@@ 1
鰂@@ 1
鱿 1
鲛 1
鲜 1
鲨 1
鲷@@ 1
鳅@@ 1
鹅 1
鹰 1
간 1
겠@@ 1
결@@ 1
공 1
과 1
는 1
다 1
시 1
시@@ 1
우 1
우@@ 1
이 1
정@@ 1
존@@ 1
주 1
주@@ 1
지 1
 1
 1
 1
 1
𠮷 1
madeupword0000 0
madeupword0001 0
madeupword0002 0
madeupword0003 0
madeupword0004 0
madeupword0005 0
madeupword0006 0
